#version: 0.2
@ @</w>
i s
t h
t e
i n
t a
e n
i t
e n</w>
a n
th e</w>
o n</w>
i n</w>
l l
t i
e s
o n
a r
e r
s i
a n</w>
a l
a @@</w>
r o
t ä
t u
t a</w>
r e
o u
t o</w>
o r
a t</w>
o f</w>
o m
t ä</w>
i @@</w>
o s
o l
e t
e l
i s</w>
j a</w>
k s
a s
an d</w>
u s
ä @@</w>
i k
e @@</w>
in g</w>
t o
m a
m en
i d
e s</w>
r a
l a
j o
o p
ta @@</w>
is @@</w>
i m
s a</w>
u u
i c
e d</w>
e m
i l
h a
th at</w>
e r</w>
k a
ti on</w>
m e</w>
v o
ä n</w>
k u
e c
v e</w>
v a
w h
v i
o @@</w>
p ro
u ro
a l</w>
t y
m is
e t</w>
s u
o r</w>
et tä</w>
r es
E uro
s a
p u
n e
n o
tä @@</w>
te l
e en</w>
m i
u n
w e</w>
t i</w>
ä ä
h d
a t
th is</w>
p os
f or</w>
ll a</w>
r i
te n</w>
l i
a c
v ä
l e
j ä
c on
a s</w>
d e
k o
i t</w>
p ar
v al
t s</w>
m me</w>
u @@</w>
k e
ks i</w>
l e</w>
y s
p e
men t</w>
k a</w>
ll e</w>
p a
l y</w>
b e</w>
m u
o t
y h
s ä</w>
o v
si @@</w>
p or
t ö
k ä
ar e</w>
id en</w>
it i
si on</w>
l d</w>
ta r
in en</w>
n n
k an
m e
en @@</w>
ti on
s e
c om
no t</w>
m y
p er
v a@@</w>
te r
d i
k i
ou ld</w>
is ta</w>
c e</w>
tä m
ha ve</w>
is i
t @@</w>
en t</w>
i h
e d
te d</w>
u t</w>
u r
c i
k in</w>
q u
ll ä</w>
ic h</w>
a d
wh ich</w>
ou n
C om
s sa</w>
w it
p ol
s e</w>
wit h</w>
f or
t r
k si
l u
u l
a si
y @@</w>
it y</w>
h y
it ä</w>
k om
Euro op
a g
v u
a ll
a tion</w>
e x
v ä@@</w>
jä s
s h
& a
k e@@</w>
&a pos
pu h
tu @@</w>
er e</w>
o ll
my ö
b y</w>
a b
e i</w>
@ -
@- @</w>
yh te
h u
th e
il l</w>
Euro pe
t ta
Europe an</w>
v a</w>
s o</w>
w ill</w>
t e</w>
v er
kom is
g h
u ks
k os
to im
s ta
- @@</w>
i r
Com mis
h o
ti @@</w>
Euroop an</w>
tion s</w>
al l</w>
ha s</w>
m is@@</w>
ou r</w>
v as
es ti</w>
f f
al u
n a
ik e
@ @@</w>
v at</w>
us @@</w>
it @@</w>
m in
is sa</w>
l is
M r</w>
es ta</w>
p o
it a</w>
n i@@</w>
j en</w>
n @@</w>
w or
ty @@</w>
al a
d en</w>
n i
t ta</w>
e v
us t</w>
th er</w>
l o
n y
j a@@</w>
vo is
te @@</w>
tu r
i es</w>
v ar
p ä
res id
por t</w>
s o
ty ö
la men
par lamen
s ta</w>
o ike
u s</w>
g i
ka ik
myö s</w>
p ää
0 0
er s</w>
kä y
k es
a p
to @@</w>
ta an</w>
Commis sion</w>
is uu
k a@@</w>
s @@</w>
is i</w>
i lle</w>
r is
ou t</w>
an @@</w>
t ra
es sa</w>
t tä
c h
s el
i o
d is
val ti
w ould</w>
em b
m ä
re c
P resid
ol e</w>
it y
parlamen t
b e
m er
m a@@</w>
m an
&apos ;</w>
ti ve</w>
is tä</w>
ov at</w>
jäs en
in s
n ä
i a</w>
te s</w>
vois a</w>
ta l
al so</w>
h e
c oun
in n
mi el
at e</w>
e hd
te r</w>
k ys
ne u
a r</w>
te n
s ti</w>
un i
s sä</w>
k uu
u c
2 00
kos ke@@</w>
s it
de ll
s en</w>
b ut</w>
r j
ta a</w>
jo @@</w>
vu o
v el
vä l
on e</w>
sh ould</w>
u d
f ro
is en</w>
Presid ent</w>
ny t</w>
a m
fro m</w>
un d
m ust</w>
ar voisa</w>
en t
b le</w>
s tä</w>
tu ks
v ä</w>
komis sion</w>
c h</w>
t ri
it te
U ni
k e</w>
id än</w>
p ec
e ll
s uu
li a
s an
men ts</w>
t ing</w>
ksi a</w>
m uu
k i@@</w>
a y</w>
y y
p it
as sa</w>
m an</w>
P ar
g u
ta n
v os
uni on
th ere</w>
m on
b een</w>
it tä
is esti</w>
m ar
yhte is
es sä</w>
all y</w>
n ä@@</w>
on s</w>
ö n</w>
p i
ll a@@</w>
g e</w>
y o
t ta@@</w>
m or
tal ou
S ta
jo ka</w>
es s</w>
es s
a ik
i v
pu ol
l an
täm ä</w>
yo u</w>
tar k
puh em
a j
d s</w>
k ä</w>
d e</w>
ma an</w>
jo h
us e</w>
p res
es e</w>
ou r
Par lia
l ik
en n
neu vos
p an
i r</w>
it s</w>
jä rj
puhem ies</w>
Parlia ment</w>
M emb
jo t
s a@@</w>
jot ka</w>
h i
mor e</w>
järj es
e ksi</w>
ala is@@</w>
g o
es it
ää r
c an</w>
ehd o
f i
k o@@</w>
f in
a an</w>
Uni on</w>
gh t</w>
kes k
th ese</w>
con c
t t
ti c
s op
C oun
&apos ;
u p</w>
in @@</w>
is i@@</w>
d o
on n
ci l</w>
ku @@</w>
ver y</w>
k ing</w>
pro pos
ih in</w>
Coun cil</w>
si itä</w>
t or
tö @@</w>
d o</w>
ne et</w>
w as</w>
y m
tä y
&apos; s</w>
f u
in c
ka u
m inen</w>
in g
ku nn
n ut</w>
the y</w>
n i</w>
h alu
komis si
valti o@@</w>
d em
m m
er n
ka an</w>
me idän</w>
wh at</w>
r an
g ra
mar k
is tu
com m
r ke
or d
lik e</w>
jäs en</w>
mi et
i lla</w>
re port</w>
hu om
mu t@@</w>
ol e@@</w>
l ä
no w</w>
ke h
y r
per us
qu ot
i f</w>
a u
o ther</w>
ma hd
s ec
te h
n e</w>
ää n
is ten</w>
k o</w>
quot ;</w>
& quot;</w>
h al
en ce</w>
it s
Sta tes</w>
p al
vä t</w>
isi a</w>
the ir</w>
e en
tion al</w>
ac c
te en</w>
m o
th er
it ta@@</w>
sop im
hy vä
parlament in</w>
tä än</w>
e ment</w>
for e</w>
ku it@@</w>
jäsen valtio@@</w>
i te
tta va</w>
ha ll
ou s</w>
p re
Memb er</w>
k i</w>
s is
mahd oll
en c
tä rke
to d
b ec
ab le</w>
täm än</w>
c o
iti ik
ic al</w>
ta va</w>
on g
e p
p e</w>
a m</w>
ma a
su p
ta pa
ku in</w>
s om
f ac
pol itiik
a tions</w>
pol ic
tri es</w>
in o
a ti
m äär
ko h
is ta@@</w>
va ll
it t
s y
e i
va ik
im por
wor k</w>
Com m
u n</w>
m y</w>
v es</w>
coun tries</w>
oike u
i d</w>
ci al</w>
j ec
k er
ol isi</w>
j el
hyvä ks
an s
o w
em me</w>
es tä@@</w>
m p
kesk us
g h</w>
t on</w>
pro v
impor tan
d uc
pää tö
kan s
iti on</w>
ity is@@</w>
d ing</w>
tur e</w>
se kä</w>
d ec
sta n
w i
as ta</w>
y e
ks en</w>
s er
Euro pe</w>
t y</w>
o b
pit ä
ku n</w>
o h
t h</w>
f ir
p l
v e
ys @@</w>
os e</w>
o c
kys y
h än</w>
puh een
is su
union in</w>
p la
b et
v an</w>
li it
j ä</w>
isi in</w>
ab out</w>
ar d</w>
kysy my
te u
r yh
po in
joh ta
ag re
ff ic
men d
wh o</w>
p en
tu s@@</w>
it u
a use</w>
o d
s t</w>
komissi o</w>
jo s</w>
n o</w>
on ly</w>
re s</w>
le g
em p
h an
p le
as t</w>
ta l</w>
vi r
y hd
su r
ot @@</w>
re g
on @@</w>
op le</w>
e uro
suu r
keskus tel
m s</w>
is et</w>
es tä</w>
la tion</w>
l op
hy v
al o
ev er</w>
iti es</w>
re as
ta vo
lis ä@@</w>
er ityis@@</w>
in ter
h en
el i
wi th
ne ed</w>
qu es
is sä</w>
ti ed
kan n
al is
ti me</w>
uks en</w>
pro c
i en</w>
h e</w>
de vel
ther e
s tr
ti in</w>
n a</w>
e h
kan ssa</w>
ma t
vo i</w>
kan sa
työ @@</w>
h ä
pe ople</w>
ag a
en er
na tional</w>
j on
in te
E U</w>
bec ause</w>
w el
il ity</w>
v en
ik ä</w>
: n</w>
vo id
polic y</w>
pol i
ar y</w>
h ar
ö @@</w>
tr y</w>
t om
an t</w>
ol en</w>
p r
kos ka</w>
y d
si on
p id
vi en</w>
there fore</w>
i c</w>
ti et
k il
lä h
e w</w>
tar v
ll e
in a</w>
mer k
w ay</w>
g ro
i in</w>
k ti
alu e
san o@@</w>
a al
e ve</w>
n ä</w>
importan t</w>
y ks
its e@@</w>
em m
ta mis@@</w>
g re
hyväks y@@</w>
ta ke</w>
u m
ne w</w>
o d</w>
t ro
su b
is tu@@</w>
t in
vo i@@</w>
di rec
1 9
devel op
järjes tel
va pa
es i@@</w>
neuvos ton</w>
p a</w>
itte e</w>
os t</w>
j o</w>
miet inn
tu n
gh ts</w>
a ih
ta va@@</w>
p on
er @@</w>
ma in
pro s
l ar
al ta</w>
ti l
ko k
on om
c le
s ol
puheen johta
E U
si ble</w>
en s
su ch</w>
wh en</w>
ll is@@</w>
in v
ho w
vo @@</w>
how ever</w>
m ä</w>
ma ke</w>
ar e
ku n
ll @@</w>
tu le
k s</w>
t ly</w>
pro b
ong el
hal u@@</w>
in to</w>
hyv in</w>
k y
op er
pol it
p ri
ks een</w>
e lla</w>
al s</w>
i ta
r u
pec i
miel estä@@</w>
el y</w>
a vu
t itu
m a</w>
jon ka</w>
is h</w>
kans alais@@</w>
vas ta@@</w>
ol i</w>
ar vi
th ose</w>
la aj
ku l
ra t
de b
mis eksi</w>
enc y</w>
l em
th ing</w>
an y</w>
u tion</w>
som e</w>
asi o
Commis sion
c an
om a@@</w>
ka is
vi el
ti lan
f er
poli itt
u e</w>
ec onom
val io
tel u@@</w>
k ol
bet w
betw een</w>
ra k
i on</w>
an n
be ing</w>
kaik ki@@</w>
y s</w>
on g</w>
sup port</w>
o g
a d</w>
halu a
d es
j ou
j ä@@</w>
par tic
te k
s tra
f a
k as
t tö
e dell
tar ko
b eli
la us
s ov
ta in
o k
Commission er</w>
e lle</w>
toim i@@</w>
tuks en</w>
an s</w>
g e
res pon
to i
ar ly</w>
vi a</w>
vas tu
ov ern
os o
kaik ki</w>
i llä</w>
keh it
täm ä@@</w>
l in
yhte is@@</w>
man y</w>
fir st</w>
g an
op p
as e</w>
b ility</w>
o lla</w>
i p
mark k
si d
i g
kti iv
ttä vä</w>
ma de</w>
halua isi@@</w>
j at
ff ec
viel ä</w>
a a</w>
tr ans
vo im
u ra
p le</w>
tä ä</w>
tä vä@@</w>
the m</w>
r ik
ar s</w>
re ad
pu b
en ti
a ted</w>
ell @@</w>
ko hd
vas ta
su o
propos al</w>
h el
is e</w>
ää d
li ik
to is
th an</w>
tel y</w>
w ere</w>
ei vät</w>
per i
m ä@@</w>
polit ical</w>
hu ol
im e</w>
el ä
tel e@@</w>
tel i
b ud
us e
kä sit
m itä</w>
di re
com e</w>
vaik u
ed is
us ta</w>
et @@</w>
sis ä
w a
c es</w>
per us@@</w>
huom io
tärke ä@@</w>
va h
ti e
te hd
mis ta</w>
li c</w>
it ä@@</w>
kunn an</w>
ra ho
t tä@@</w>
beli eve</w>
te taan</w>
ord er</w>
k ö
m ost</w>
ittä in</w>
dis c
sur e</w>
si ih
t w
conc ern
ro u
oh jel
a mend
sa y</w>
siih en</w>
x t</w>
ov er</w>
ra l</w>
pro duc
ä än</w>
an ce</w>
poin t</w>
ap pro
j ul
re d</w>
f ic
ta k
t tu@@</w>
su h
ra c
b er</w>
tt u</w>
y le
g et</w>
k ka
m il
se lla@@</w>
ys te
to teu
v ic
k al
u h
ra ti
ur e</w>
un ity</w>
it e</w>
fac t</w>
issu e</w>
u res</w>
ri ghts</w>
ki r
so si
isi on</w>
j ust</w>
k or
toim in
tu s</w>
C on
esit teli
va an</w>
suur @@</w>
men tal</w>
tar y</w>
ar ds</w>
deb ate</w>
ta ma@@</w>
euro opp
ym pä
tur vall
Comm ittee</w>
void aan</w>
ko lle
teh tä
d ed</w>
t tä</w>
c er
väl i@@</w>
j a
kuu @@</w>
tod e@@</w>
th in
pub lic</w>
k y@@</w>
ttä ä</w>
v @@</w>
und er
ta b
te ttava</w>
ac h</w>
tu t
ing s</w>
con sid
ins t</w>
as ti</w>
e f
ks et</w>
es ty
hy vä@@</w>
hall it
aga inst</w>
jä l
jo ita</w>
s yste
v ing</w>
ih mis@@</w>
t tiin</w>
p yy
ev en</w>
Y hd
i ä</w>
in for
k on
19 9
y ing</w>
kä än</w>
isuu den</w>
ty vä@@</w>
as e
u ation</w>
ra p
c re
me as
aal i@@</w>
tavo itte
ad op
ys tä</w>
mis een</w>
ll y</w>
vä h
f und
h ere</w>
in ä</w>
f e
k @@</w>
ta in</w>
ympä ris
mi en</w>
ff er
maa il
hä n@@</w>
valti o
tta va@@</w>
do es</w>
ri ght</w>
i a@@</w>
vuo ksi</w>
pa in
wh ere</w>
ques tion</w>
pos sible</w>
vi ew</w>
tw o</w>
se ura
min is
p p
d ra
pro te
c l
wel l</w>
h er
op e</w>
ter ro
s peci
el in
I n
par t</w>
la ins
ma a</w>
rat kais
t re
c our
nn ö
dire ktiiv
täm is@@</w>
mu ka
in a@@</w>
th an
k ä@@</w>
p yr
miet in
la r</w>
men et
u us@@</w>
vir on
e u
econom ic</w>
ha d</w>
en s</w>
read y</w>
g overn
m än</w>
myö n
ä n
n ec
y l
mu kaan</w>
et y</w>
r s</w>
k im
stra te
lains ääd
t ö</w>
in d
ksi in</w>
ksi ä</w>
b u
ov er
en d</w>
f o
gan is
pal j
di es</w>
k een</w>
mietinn ö
w ant</w>
th en</w>
dem ok
ye ars</w>
parlament ti</w>
es t</w>
e ffec
re la
re gi
ll is
us ta
pa ik
o w</w>
ent ly</w>
iti z
ho w</w>
tapa h
inc lu
sa a@@</w>
develop ment</w>
d a
com p
c ould</w>
so cial</w>
th ou
M rs</w>
thin k</w>
e pä
can not</w>
to o</w>
us ta@@</w>
et te
ad d
c ur
sit uation</w>
kuu l
200 1</w>
te n@@</w>
prov id
vuo den</w>
sa me</w>
hy ö
v an
si ksi</w>
n sa</w>
uks et</w>
sa id</w>
yhteis ön</w>
en g
with in</w>
inc reas
tu l
fu ture</w>
val mis
toim i
tä hän</w>
terro ris
res ol
halu a@@</w>
d u
miel tä</w>
enn en</w>
ksi en</w>
coun try</w>
ye ar</w>
hu man</w>
p s</w>
s ää
tark is
al ready</w>
a f
uu den</w>
ow n</w>
kaik @@</w>
pro gra
u ksia</w>
en si
jo iden</w>
c itiz
pec t</w>
om a
tod ay</w>
pä ä@@</w>
jo ta</w>
s pe
t u</w>
con tin
tak en</w>
prote c
f re
leg is
euroopp alais@@</w>
Comm unity</w>
acc ep
a i
ch an
la a
cle ar</w>
ympäris tö@@</w>
ro s
ter s</w>
meas ures</w>
mu ch</w>
EU :n</w>
ot h</w>
palj on</w>
oper ation</w>
ot ta@@</w>
at ing</w>
pitä isi</w>
re gu
val ta@@</w>
ny ky@@</w>
ol e
til l</w>
pu @@</w>
puheenjohta ja@@</w>
ul t</w>
tark as
i ous</w>
ex c
s till</w>
c r
tu ral</w>
ma lla</w>
peri a
talou dell
määr ä
or ity</w>
res s</w>
fin an
direc tive</w>
mark et</w>
isuu s</w>
nä mä</w>
ins titu
w n</w>
disc us
tä lla@@</w>
liit ty@@</w>
isi ä</w>
b asi
v i@@</w>
cur r
rap por
pos ition</w>
inte res
huomio on</w>
wh y</w>
vaik ka</w>
jec t</w>
for m</w>
puh u@@</w>
f ur
cour se</w>
pres en
kok ou
j uu
en viron
mm ä@@</w>
va ih
ensi mmä@@</w>
nn e</w>
suu nn
i la
im ple
ac hi
th rou
fu l</w>
v en</w>
a in
r ic
b oth</w>
und er</w>
markk ino
j ien</w>
talou s@@</w>
kä si
p ys
vo te</w>
tu s
il u@@</w>
emp lo
p uu
sec on
200 0</w>
s i</w>
k now</w>
n ou
as s
A r
k l
to r</w>
ma tion</w>
tark istu
pla ce</w>
comm on</w>
isuu d
b er
al ity</w>
di ffer
h is</w>
oll ut</w>
h ope</w>
hen kil
w e
e llä</w>
on al</w>
en d
it se</w>
uu tta</w>
v is
r i</w>
puol esta</w>
s et</w>
sta an</w>
u lar</w>
pr in
tu om
mahdoll is@@</w>
go od</w>
h et
l ta</w>
su m
c ase</w>
ti ves</w>
politiik an</w>
som e
i ta@@</w>
mis esta</w>
tehd ä</w>
pitä ä</w>
dem oc
päätö s
p el
a ino
ta tion</w>
n um
vuo ro
mu ka@@</w>
kansa llis@@</w>
e l</w>
ve l</w>
l ast</w>
prin ci
tu nn
ven tion</w>
ette i</w>
vi ä</w>
ex am
ih mis
y our</w>
mi a</w>
si inä</w>
neuvos to</w>
ti es</w>
se e</w>
citiz ens</w>
tu sta</w>
qu i
us ten</w>
mä än</w>
esit tä@@</w>
c a
menet tel
jäl keen</w>
g ener
uks essa</w>
te ki
ma y</w>
ma tta</w>
s ä
g a
wor ld</w>
ra h
käsit tel
so ci
ou se</w>
os all
partic ular</w>
ki el
s in
kansa in
kansain väl
kansainväl is@@</w>
a ir
agre ement</w>
mer ki
ehdo tuks
ta s
g y</w>
sa avu
t tu
neu vo
teu r</w>
amend ments</w>
syste m</w>
ser vic
e ar
täy si@@</w>
proc ess</w>
yle is@@</w>
than k</w>
sopim uksen</w>
ka a</w>
vä lis
talou s
or ganis
ob jec
r as
200 2</w>
isuu tta</w>
f ra
ehd ot@@</w>
at ta@@</w>
nec ess
ac tion</w>
th re
rappor teur</w>
ti la
num ber</w>
mä r
be fore</w>
si g
pal vel
co operation</w>
uu d
tt om
m ikä</w>
i ll
si ons</w>
tt y</w>
n al</w>
us ed</w>
pu t</w>
yhte yd
infor mation</w>
inv ol
a is@@</w>
sit te@@</w>
sa ad
v il
asi a</w>
te iden</w>
is een</w>
inter national</w>
me ans</w>
au th
ma iden</w>
mis tä</w>
tu u</w>
in iti
to iv
an a</w>
a k
va ati
with out</w>
ym mär
n tö
tu ot
gi ven</w>
ma ks
exam ple</w>
ur ity</w>
ko ko</w>
to jen</w>
raho it
mis en</w>
o ja</w>
prob le
at @@</w>
iti ons</w>
T ur
ne ed
vapa u
n im
A f
tut kim
t te</w>
pro mis
va ka
are a</w>
d ly</w>
es een</w>
a va@@</w>
et ta</w>
issu es</w>
is uus@@</w>
Yhd ys@@</w>
käy tä
lop u@@</w>
ffic i
c u
tu lo
s ään
si ir
f ar</w>
oll e@@</w>
asi an
vu onn
ittä ä</w>
Uni ted</w>
le vel</w>
vuonn a</w>
laus el
mi ll
ty mis@@</w>
y ment</w>
v ed</w>
gre at</w>
uu dis
hal f</w>
pres ent</w>
en sure</w>
s c
o in</w>
te ll
0 0</w>
te ttu</w>
s ed</w>
as ed</w>
neuvo t
kaik ke@@</w>
lar g
proble m</w>
päätös lausel
kys e</w>
tu ksia</w>
ol og
ti c</w>
talous arvi
H ouse</w>
tarko it
dec ision</w>
juu ri</w>
yhteyd essä</w>
mi ten</w>
os sa</w>
ra jo
str uc
sosi aali@@</w>
g ent
pää s
sel f</w>
reg ard</w>
f oll
P ro
m i@@</w>
c c
te ell@@</w>
imple men
inv es
gi ve</w>
im in
all is@@</w>
u m</w>
y ksi
käy ttö
ittä vä@@</w>
arvi o
et s</w>
thou gh</w>
te tään</w>
er i</w>
I s
ty y</w>
kil pa
ter ve
consid er
ään esty
s te
tab lis
es tablis
c k</w>
et ta@@</w>
jäsen et</w>
finan cial</w>
min u
kuul u@@</w>
ul es</w>
vi ime</w>
el @@</w>
om en</w>
me illä</w>
Euroop pa</w>
sin ce</w>
ku lu
gent lem
necess ary</w>
h ed</w>
oike us@@</w>
is in</w>
ttä vä@@</w>
fi c</w>
gentlem en</w>
sa f
i ma
al th</w>
sa a</w>
os ta@@</w>
la dies</w>
valio kunnan</w>
or ities</w>
merki ksi</w>
prob lem
problem s</w>
en ts</w>
propos als</w>
mat ter</w>
nä kö
s en
ic e</w>
w er</w>
toim ia</w>
i l</w>
par an
sa a
throu gh</w>
pä i
asi assa</w>
em ä@@</w>
yhteis työ@@</w>
l ong</w>
wh e
pu r
myön te@@</w>
ul arly</w>
ta ble</w>
in e</w>
ac t</w>
te xt</w>
is ed</w>
l ed</w>
va ike
om e</w>
en i</w>
ta a@@</w>
sh i
ou ra
aino a@@</w>
con f
in de
j ö
f t</w>
sää nnö
s yy
proc ed
talousarvi o@@</w>
euro @@</w>
leg al</w>
in f
kolle g
comp et
aga in</w>
con tro
te itä</w>
at te
a v
b r
in ten
työ tä</w>
iti ve</w>
val v
p a@@</w>
k ke
whe ther</w>
ka t
e ments</w>
ta sa
ex pres
in no
tta mis@@</w>
g es</w>
op in
a id</w>
f is
osall istu@@</w>
per s
l as
isi ons</w>
pros ent
os alta</w>
use i@@</w>
emm än</w>
ll inen</w>
tel u
si a</w>
k en
la w</w>
re qui
Memb ers</w>
partic ularly</w>
p lan
op e
ti ce</w>
tor j
c ar
tr u
puheenjohta ja</w>
h ing</w>
l ess</w>
af ter</w>
are as</w>
uks en@@</w>
cer tain</w>
por ts</w>
ol em
d ay</w>
e qu
sisä l
mi t</w>
jul k
e tu
it or
200 3</w>
por tun
k em
k ed</w>
dell is@@</w>
In ter
lo o
si bility</w>
go ti
op u
l tä</w>
basi s</w>
tärke i@@</w>
c ed</w>
he idän</w>
conc lu
is yy
wa ys</w>
el ec
ou s
o f
adop ted</w>
th ir
c oll
m emb
edell y
ne goti
d y
pl ic
ind us
en tu
fur ther</w>
y ksi</w>
m ely</w>
R e
t ty@@</w>
te ri
esitteli jä</w>
a mme</w>
uu si@@</w>
k ou
tä ä
tä vä</w>
di ffic
s titu
ten t</w>
kal as
o jen</w>
te ch
yr ity
ag e</w>
vi ran
lainsääd än
w omen</w>
union i@@</w>
p rac
asio iden</w>
suu n
ap p
viran oma
u tu
ac coun
res pect</w>
oso itta@@</w>
a va
tilan te
mon i@@</w>
me work</w>
t tämä@@</w>
mietinn ön</w>
bud get</w>
op portun
ip pu
M ar
i tel
tied ä@@</w>
su or
sis ä@@</w>
tö ä</w>
ke a</w>
u al</w>
fi ed</w>
t is
legis lation</w>
c all
fu lly</w>
s ä@@</w>
päätöslausel ma@@</w>
ll oin</w>
ac e</w>
ne xt</w>
oun d</w>
h ol
d one</w>
il e</w>
resol ution</w>
d el
G ro
go ing</w>
progra mme</w>
edell een</w>
n e@@</w>
aih eu
n ing</w>
tu o
shi p</w>
k no
ou t
kysymy s</w>
asi a
toi men
si mp
avu lla</w>
vastu u@@</w>
on a@@</w>
re f
po h
jo illa</w>
el i</w>
ter ms</w>
o m</w>
ala lla</w>
keh ity
b ac
sec urity</w>
tö n</w>
fer ence</w>
te lla</w>
differ ent</w>
con tri
fa v
m e@@</w>
suo jel
kann alta</w>
be half</w>
an te
tech n
is esta</w>
e ver
pro g
il ma
m itä@@</w>
emplo yment</w>
en larg
tä ntö
concern ed</w>
täy täntö
nä än</w>
ty y
to is@@</w>
ar ti
demok ra
tar pe
T re
aik ana</w>
k in
in ti@@</w>
stan d
protec tion</w>
con d
tä nään</w>
se ur
b o
u p
menettel y
aj a
te oll
r ules</w>
n u
k ka@@</w>
sel ves</w>
union i</w>
ric ul
comm it
ma king</w>
julk is@@</w>
C h
su cc
w ish</w>
il man</w>
sub ject</w>
gu ar
min un</w>
opin ion</w>
ol i@@</w>
ex is
as k</w>
gro up</w>
w ard</w>
ef for
ot ta
sel vä@@</w>
g o</w>
ever y
as @@</w>
to te
hy vä</w>
com pan
yr it
agre e</w>
servic es</w>
ro le</w>
oike ud
k ri
s tar
fra mework</w>
si ve</w>
l et</w>
va ar
gre a
p resid
aik a
enn e@@</w>
id e
ka hd
ki inn
suunn itel
j us
toiv on</w>
mu od
air s</w>
me di
ff airs</w>
saf ety</w>
tor s</w>
w ards</w>
os a</w>
ol tava</w>
some thing</w>
re presen
Sta te</w>
os ta</w>
jo issa</w>
tule e</w>
gi a@@</w>
asi a@@</w>
ö y
määr ä@@</w>
os @@</w>
h is
m o@@</w>
qu ite</w>
w s</w>
s us
Gro up</w>
B r
asi asta</w>
o i@@</w>
vas ta</w>
jo lla</w>
ti e@@</w>
pa a</w>
b i
ot ta</w>
foll ow
hi gh
ma a@@</w>
vi im
tule va@@</w>
propos ed</w>
tapa uksessa</w>
en ä@@</w>
vi in</w>
rak en
f ew</w>
is tä@@</w>
M ad
tie ten@@</w>
arti kl
perus teell@@</w>
ed usta
a a@@</w>
ra u
cl os
gra tion</w>
thre e</w>
sh all</w>
uu s</w>
di v
sec tor</w>
secon d</w>
laaj entu
en a</w>
wh ole</w>
princi ple</w>
väl in
voim a@@</w>
prosent ti@@</w>
u es</w>
ma ttom
mil jo
ous ly</w>
at y</w>
wor king</w>
ti en</w>
a w
he alth</w>
mm in</w>
prog ress</w>
ko ros
kir ja@@</w>
tapah tu
cle arly</w>
Is ra
mietinnö ssä</w>
k si@@</w>
työ n
a tive</w>
täm ä
enlarg ement</w>
pain o@@</w>
sel ke
l ic
enc es</w>
e g
un d</w>
oikeu ksien</w>
tärke ä</w>
speci fic</w>
his tor
kun ta</w>
an other</w>
o s</w>
I ta
l im
nn ön</w>
me ille</w>
kys e@@</w>
esitteli jä@@</w>
n ed</w>
al i@@</w>
to ge
vuoro @@</w>
A mer
ki rj
su l
comm un
saad a</w>
ke y</w>
nou d
ma in</w>
se e
li i@@</w>
is ty@@</w>
do wn</w>
pit kä@@</w>
ot taa</w>
our ces</w>
kou lu
ur ing</w>
strate gi
valti o</w>
puol u
aik a@@</w>
la te</w>
m @@</w>
o t</w>
c or
to dellis@@</w>
parlamen t@@</w>
institu tions</w>
bet ter</w>
f ul
contin ue</w>
la ati
1 0</w>
komissi o@@</w>
tarv i@@</w>
tu ke@@</w>
mietin tö</w>
for ward</w>
m ää
ik e@@</w>
s or
g en
li ber
de fin
pre par
d ic
il ta</w>
sit ou
toimen pi
lin e</w>
id e</w>
fund a
ki ittää</w>
tehtä vä</w>
toi vo@@</w>
res ult</w>
ta so
vel y</w>
huol i@@</w>
ear ch</w>
si ja@@</w>
i te@@</w>
as em
Con vention</w>
chan ge</w>
n ope
r an</w>
em mis
demokra at
kysymy ks
man ag
liit tyvä@@</w>
Presid ency</w>
N o</w>
aik aan</w>
minis ter
uu dell
tule va
e very</w>
on ce</w>
ord in
emm in</w>
ig n</w>
mi ä</w>
te ho
appro ach</w>
mis ta@@</w>
vah v
ra ther</w>
l and</w>
kau p
guar ante
valv on
cer tain
a voim
to ja</w>
h @@</w>
b en
va kuu
m it
lo b
toge ther</w>
ar m
tää llä</w>
a lla</w>
ää n@@</w>
achi ev
hyö dy
ys ten</w>
suh te
ll een</w>
ta u
ag ricul
sa an</w>
ks eni</w>
pen d
regu lation</w>
im me</w>
fav our</w>
gener al</w>
tiet o@@</w>
vel vo
con sum
di d</w>
wel come</w>
r i@@</w>
at ten
sisä ll
acc ord
ac ti
ryh män</w>
environ mental</w>
kol man
ll isesti</w>
jo hd
appro pri
sta te</w>
vaati mu
stan d</w>
curr ent</w>
uks een</w>
trans port</w>
koros ta@@</w>
in is
h in
d uring</w>
h as
mon e
os a@@</w>
ta king</w>
s to
ffic e</w>
va a</w>
es sion</w>
vu os
ex tre
n or
m at</w>
199 9</w>
ka ksi</w>
im man</w>
enti al</w>
asi aa</w>
al an</w>
to wards</w>
te ttävä</w>
com ple
tu kea</w>
teki jö
m assa</w>
Tre aty</w>
onn istu@@</w>
ään estä@@</w>
miljo ona@@</w>
g ed</w>
mill ion</w>
ki it
lu onn
artikl a@@</w>
P al
d er
rati c</w>
mää ri
het ke
ta va
kas @@</w>
sa atta@@</w>
työ s
G re
need s</w>
ite ttava@@</w>
comm ittee</w>
pyy d
fi el
A mend
il y</w>
es peci
ap pe
n et
Mad am</w>
c ri
b ased</w>
c ul
ar vo@@</w>
especi ally</w>
as es</w>
kir jo
yh ä</w>
re @@</w>
im prov
me et
t te
in tro
il mo
accoun t</w>
it self</w>
tr uc
grea ter</w>
hetke llä</w>
importan ce</w>
fin ally</w>
ku in
rac y</w>
poin ts</w>
cond itions</w>
p rec
kuin ka</w>
k usta
hel p</w>
1 5</w>
kat s
henkil ö@@</w>
kulu tta
ik ke
A ffairs</w>
ac tu
ell is@@</w>
var mista@@</w>
tra de</w>
m ov
se qu
e ach</w>
le ast</w>
tta a</w>
l en
neuvos to@@</w>
la ad
al a@@</w>
y et</w>
lis ä
ko jen</w>
el im
u a</w>
li f
respon sibility</w>
j e
thir d</w>
muu tta@@</w>
j et
re ally</w>
sel vä
tek emä@@</w>
muka isesti</w>
o th
de al</w>
lo c
du ce</w>
ha ving</w>
sä il
yh tä</w>
va a
c ap
el u@@</w>
kolleg at</w>
to inen</w>
al though</w>
direktiiv in</w>
käy ttää</w>
us k
turvall isuus@@</w>
rec og
oike us
recog n
j at</w>
provid e</w>
väl ttämä@@</w>
lainsääd ä
k ers</w>
mu iden</w>
00 0</w>
valtio iden</w>
parlament issa</w>
paran ta@@</w>
m ot
var ma@@</w>
as e@@</w>
tilan ne</w>
politiik kaa</w>
ö n
si de</w>
te ttu@@</w>
res ources</w>
ur g
auth orities</w>
ch ar
te ks
ehdo tuksen</w>
te ille</w>
m in</w>
s ta@@</w>
yhd en
toim inn
i an</w>
tek n
kunn io
la i
pe ace</w>
aj an</w>
it ta
fin d</w>
M a
sol id
indus try</w>
ser ious</w>
demok rati
men e
ar d
ti a</w>
g g
v ista</w>
nope a@@</w>
pros ess
bec ome</w>
inde ed</w>
sh or
gu e</w>
tuom io
vois i@@</w>
opportun ity</w>
wh ile</w>
L is
b al
increas e</w>
vahv ista@@</w>
sään tö
p er</w>
et tava</w>
produc ts</w>
an g
ul ko@@</w>
ur o</w>
u t
div id
sy n
m en</w>
fre ed
ll i@@</w>
kul ttu
S ch
inclu ding</w>
yks in
en ä</w>
var ten</w>
tr ic
at or
val itettava@@</w>
kokou ks
al ways</w>
peria atte
void a</w>
var ious</w>
e en@@</w>
govern ment</w>
b us
puheen vuoro@@</w>
EU R</w>
vall an</w>
Euroop assa</w>
amend ment</w>
parlament ti@@</w>
i o@@</w>
tic le</w>
te ttiin</w>
par t
ku va@@</w>
vo ita
h a@@</w>
contro l</w>
ur i@@</w>
laajentu mis@@</w>
g lob
ell e@@</w>
r en
hel p
asi an</w>
achi eve</w>
l es</w>
regi ons</w>
im p
alo itte
perus tamis@@</w>
jou tu@@</w>
hyväks y
vaiku tta@@</w>
täy tyy</w>
var si@@</w>
v er</w>
kka asti</w>
all ow</w>
uks ista</w>
res earch</w>
kunn assa</w>
ta c
re form</w>
polic ies</w>
rahoit us@@</w>
tuomio istu
palvel u
proced ure</w>
de f
n sä</w>
nä y
käsi tel
c all</w>
g ran
wor ds</w>
Yhd isty@@</w>
pan o@@</w>
tava lla</w>
en tra
sol u
par lia
käyttö ön</w>
val tu
l yh
m es</w>
il i
os a
s ten</w>
vi ol
lar ge</w>
kes ke
ker ta
spe a
2 0</w>
kusta nn
hi gh</w>
tarv itse@@</w>
ha p
Ita li
seur a@@</w>
par ha
soci ety</w>
h er</w>
B ar
us i</w>
diffic ult</w>
ol ev
ra uh
hu man
compet ition</w>
ter m</w>
P or
s tään</w>
kats o@@</w>
ex ten
ans ka@@</w>
con stitu
S a
conc er
R i
interes ts</w>
re duc
voita isi@@</w>
olem assa</w>
r e</w>
yhd essä</w>
3 0</w>
kehit ys@@</w>
h and</w>
pec ts</w>
ch il
saavu tta@@</w>
negoti ations</w>
reas on</w>
ma jo
alis ation</w>
invol ved</w>
acti v
concern s</w>
ker ran</w>
acc ess</w>
asian muka@@</w>
tö n
s tu
talou den</w>
com b
s m
par ti
o ta</w>
funda mental</w>
s een</w>
olev an</w>
bac k</w>
jo ista</w>
M inis
te ke
consid er</w>
tar jo
tu va@@</w>
järjestel mä
te m
ne en</w>
mone y</w>
majo r</w>
pp a@@</w>
vi ik
th ings</w>
oike a@@</w>
ess ential</w>
O @@</w>
o tetaan</w>
m asta</w>
re ac
koh ta@@</w>
k ar
aiheu tta@@</w>
ks e@@</w>
ab ility</w>
muu to
is ta
jo in
follow ing</w>
certain ly</w>
sm all</w>
fiel d</w>
dec isions</w>
aih e
is m</w>
environ ment</w>
at tava@@</w>
su os
myö nn
pi en@@</w>
ki in
b ro
re al</w>
is eksi</w>
fic ation</w>
va ad
5 0</w>
keskustel u</w>
extre mely</w>
gra tu
accep t</w>
kö yh
joh ta@@</w>
p ala
se ik
con gratu
henkil ö
Amer ic
compan ies</w>
o re
ir e</w>
pid et
re a
joh @@</w>
kun ta@@</w>
tyy tyvä@@</w>
tel y@@</w>
neuvot telu
re ques
var a@@</w>
commun ic
ar vo
kau tta</w>
mi in</w>
e ag
concer n</w>
valmis telu@@</w>
pid ä@@</w>
initi ative</w>
huom au
v u@@</w>
B el
can d
E n
im mi
pos itive</w>
aw are</w>
ki a</w>
si o@@</w>
effec tive</w>
min d</w>
tarkis tuks
ehdo tus</w>
regu la
ks emme</w>
democ ratic</w>
maa talous@@</w>
vil jel
jat ka@@</w>
t ou
res ul
d er</w>
rak enn
s ing</w>
har jo
ol @@</w>
asio ita</w>
loo k</w>
t in</w>
atten tion</w>
ap plic
i ksi</w>
vo ted</w>
markkino iden</w>
a tes</w>
implemen tation</w>
mi ksi</w>
democ racy</w>
v äär
A l
selke ä@@</w>
200 4</w>
mahdoll ista</w>
th s</w>
Por tu
vu otta</w>
d r
b an
es tin
its i</w>
demokrati a@@</w>
objec tives</w>
sov el
mu o
we e
h on
ma j
k et
progra mm
isuud essa</w>
h an</w>
an al
pl es</w>
hall in
Ar ticle</w>
le ad
ku mp
y n</w>
is essa</w>
mon et</w>
es ti
ben ef
be g
tion ed</w>
gro w
isi vat</w>
ful l</w>
ryh mä@@</w>
G overn
qu ality</w>
er ila
d en
vois i</w>
uudell een</w>
te ta@@</w>
n on</w>
al i
emp i</w>
con sequ
nim it@@</w>
ep ä@@</w>
O ffice</w>
pro f
sus tain
d ou
selvä sti</w>
täytäntö ön
p ris
t ti</w>
for ce</w>
pro ve</w>
es @@</w>
inn ä@@</w>
m as
do cu
pro mot
tarkoit uksen@@</w>
fo od</w>
san ot
s ing
maj ority</w>
kilpa ilu@@</w>
cr it
bu il
järjes ty
ll e@@</w>
objec tive</w>
tur va@@</w>
L i
jäs en@@</w>
järjestel män</w>
re fer
si lloin</w>
part n
oikeu ksia</w>
ins tru
simp ly</w>
im mä
bus in
coll eag
A @@</w>
torj u@@</w>
ol d</w>
sta te
inter nal</w>
effor ts</w>
I ra
V en
vaa ti@@</w>
mi ght</w>
in divid
en ing</w>
ste p</w>
ens innä@@</w>
sub stan
miel @@</w>
mahdoll isuu
vo in</w>
end a</w>
ni fic
min usta</w>
c os
ener gy</w>
1 2</w>
pos e</w>
b our
R u
u t@@</w>
ll ing</w>
th em
f le
freed om</w>
kok on
em a@@</w>
fre e</w>
kilpa il
muu t
a ffec
k el
ava ila
oike us</w>
mu istu
lop pu@@</w>
op en</w>
vä hen
ma issa</w>
nä kem
ros s</w>
ko ja</w>
is essä</w>
toteu tta@@</w>
l ää
g ing</w>
aik o
trans par
pre v
of ten</w>
he ik
ik a@@</w>
I r
legis la
f y</w>
vo it
tavo in</w>
fo re
interes t</w>
us sa</w>
alu een</w>
ne e@@</w>
kehit tämis@@</w>
strate gy</w>
ta ud
ta a
fe el</w>
contri bu
uks esta</w>
h e@@</w>
2 0
agre ements</w>
sa mo@@</w>
s p
respon sible</w>
na isten</w>
käy nn
men tioned</w>
ker tom
str eng
y ys@@</w>
up on</w>
sol ution</w>
es ite
per io
ed uc
sig nific
for ms</w>
kunnio it@@</w>
appropri ate</w>
elin tarv
parti ci
k ö</w>
prac tic
kä r
oikeu dell
lyh y
li ght</w>
com es</w>
el ess</w>
call ed</w>
. @@</w>
b ution</w>
ha ps</w>
iti onal</w>
alo gue</w>
m ed</w>
per haps</w>
bud jet
an y
mä ttä</w>
fis her
ti mes</w>
yhteis työtä</w>
minis tra
econom y</w>
oth ers</w>
j ud
conf lic
terroris m</w>
te et</w>
to de
r y</w>
ques tions</w>
Govern ment</w>
te tty</w>
s t
ran ce</w>
u ps</w>
Ar voisa</w>
is ation</w>
laa ti@@</w>
jä lleen</w>
W T
com promis
c ris
fund s</w>
alue ella</w>
k ym
f am
develop ing</w>
b il
ar ity</w>
intro duc
per ä@@</w>
ongel mia</w>
kau ppa@@</w>
rec ent</w>
ka a@@</w>
yy den</w>
meet ing</w>
kno w
toim iin</w>
is ista</w>
es ti@@</w>
tur n</w>
erila is@@</w>
te llä</w>
ro w</w>
muistu t@@</w>
suur i</w>
1 @@</w>
ag o</w>
ris ti
men tary</w>
ris k</w>
e k
han kke
w ar</w>
ong er</w>
mil i
od a</w>
pyyd ä@@</w>
1 1</w>
emmis tö@@</w>
b est</w>
la is@@</w>
programm es</w>
määr ä</w>
ks en@@</w>
pys ty@@</w>
et te</w>
mis estä</w>
kor ke
o ff
ex peri
gro ups</w>
co ordin
j an</w>
w an
työn tekijö
ul k
tan ce</w>
viim e@@</w>
ta minen</w>
usk on</w>
kä y@@</w>
maail man</w>
liik en
fer ens
toimin ta@@</w>
k ko@@</w>
is sa@@</w>
ffici ent</w>
vah vis
kon ferens
app li
star t</w>
sisäll y@@</w>
actu ally</w>
pel kä@@</w>
merk ittä
reg ar
all ow
s et
po wer</w>
hu ippu
demokraat ti@@</w>
di alogue</w>
ulk opu
ulkopu ol@@</w>
sup por
a ati
jec ts</w>
on ta</w>
e vä@@</w>
br ing</w>
f arm
availa ble</w>
kau den</w>
m mä
si l
ehdo kas@@</w>
K @@</w>
pos ed</w>
tön tä</w>
accep table</w>
an sa
re com
taso lla</w>
Ven ä
avoim @@</w>
m ik
lif e</w>
secon dly</w>
elin ten</w>
j ia</w>
immä is@@</w>
tavoitte en@@</w>
ne iden</w>
manag ement</w>
wor kers</w>
m om
u ll@@</w>
Amend ment</w>
D i
lu on
val tion</w>
ip pu@@</w>
tiet o
maa han
vuoro puh
p et
an im
t it
vä es
cand id
them selves</w>
M on
tarkis t@@</w>
Ri ghts</w>
osa puol
tehtä vä
techn olog
tor y</w>
ryh ty@@</w>
kalas tus@@</w>
represen ta
under stand</w>
kokon ais@@</w>
tois in</w>
it tele@@</w>
ad ministra
A n
puu ttu@@</w>
yl i</w>
agricul tural</w>
is e@@</w>
us ing</w>
mat ters</w>
human ita
yle is
vaih e
yrit ysten</w>
ma an
concern ing</w>
täytäntöön pano@@</w>
k re
yksin kerta
n en</w>
th eless</w>
l a@@</w>
mis sä</w>
com ing</w>
sy ystä</w>
memb ers</w>
R us
ymmär r
miel i
fi ght</w>
ver s
aik aa</w>
suun ta
le d
enc oura
c ases</w>
mi eh
es iin</w>
komissi ota</w>
curr ently</w>
et tu</w>
ongel ma</w>
y ed</w>
päi vä
C our
huomio ta</w>
hu on
läh esty
regi on</w>
re alis
re ports</w>
p h
rela tions</w>
do ing</w>
uu @@</w>
me itä</w>
cre ate</w>
tois aa@@</w>
n el
know led
kym men
P ol
par ties</w>
epä il
kump pan
sopim us</w>
b ur
suor a@@</w>
ain e
E s
ta is
sing le</w>
S o
jo ka@@</w>
d ate</w>
un for
esit ys
it telu@@</w>
alue iden</w>
valio kunta</w>
to si
k ki@@</w>
vastu sta@@</w>
con text</w>
d on
fir s
rak @@</w>
ma k
vi ous</w>
fa il
op is
o tettava</w>
laaj u@@</w>
firs tly</w>
de al
ener gia@@</w>
koh taan</w>
ko ro
tra c
regi onal</w>
S w
s ci
men n
pit ä@@</w>
B 5</w>
ann e@@</w>
I rak@@</w>
väl inen</w>
lis ta@@</w>
g al</w>
h im
val tojen</w>
vaih to
Cour t</w>
ä l
hap pen
C O
vaad i@@</w>
mon ths</w>
la ck</w>
yhte nä
t ment</w>
säil y@@</w>
ou th</w>
it o
pu n
ktiiv @@</w>
pit e</w>
tarkistu ksia</w>
it tä@@</w>
re ly</w>
id ence</w>
M E
o ike@@</w>
määr i@@</w>
ku t
dra ft</w>
h es</w>
edelly t@@</w>
tuleva isuudessa</w>
merk ittävä@@</w>
ll aan</w>
es ta@@</w>
kesk it
toi vo
maks a@@</w>
pid ä</w>
w r
po ikke
mu ita</w>
me th
vi i
seura ava@@</w>
im prove</w>
ri ittävä@@</w>
2 5</w>
f oc
kokouks essa</w>
jat kuva@@</w>
ob li
dr en</w>
myö s@@</w>
ar vos
re le
stand ards</w>
p opu
esitys lista@@</w>
ehdo tuksia</w>
rah a@@</w>
parha i@@</w>
ole va@@</w>
es im
ri ed</w>
reas ons</w>
no thing</w>
käy tö
ity s</w>
menn essä</w>
dem on
ihmis ten</w>
u g
uud esta</w>
työs ken
dou b
an sio@@</w>
laus un
tu na
mu l
tuna tely</w>
la p
työ llis
eh kä</w>
sta tes</w>
l öy
requi re
us tus@@</w>
po w
syste ms</w>
he i@@</w>
tasa paino@@</w>
mietin töä</w>
järjes tö
yksi miel@@</w>
e taan</w>
produc tion</w>
väh ä@@</w>
kan na
as te</w>
kys ym
kom ite
d ue</w>
B er
s e@@</w>
ehdo tusta</w>
teh o@@</w>
kin d</w>
e p</w>
tul e@@</w>
sosi aal
fin al</w>
at ta
chil dren</w>
tus ten</w>
ri ippu
jo ita@@</w>
M e
demon stra
välin e
an ta
san o
it tava@@</w>
Es pan
it tava</w>
yhd y@@</w>
torj un
am oun
perio d</w>
er ship</w>
ti u
l onger</w>
kom promis
v issa</w>
ent istä</w>
ke ino
i al</w>
mo ve</w>
vasta a@@</w>
vaka va@@</w>
su gg
m i</w>
il tä</w>
c ru
esim er
kys y@@</w>
emb er</w>
educ ation</w>
isi ja@@</w>
ens isija@@</w>
me an</w>
m an@@</w>
terve yd
pä iv
ess es</w>
er a
tapah tu@@</w>
sy rj
19 @@</w>
et t@@</w>
sovel tamis@@</w>
to ista@@</w>
legisla tive</w>
d a</w>
e iv
emm @@</w>
yks ityis@@</w>
loc al</w>
sa lli@@</w>
achiev ed</w>
as sis
jo t@@</w>
tu n</w>
compromis e</w>
princi ples</w>
keh ot@@</w>
govern ments</w>
G er
or ig
kulttu uri@@</w>
maail man
ci es</w>
regar ding</w>
mom ent</w>
itt le</w>
Venä jä@@</w>
vo ima
h an@@</w>
resul ts</w>
e va@@</w>
pri va
ti al</w>
r imin
em paa</w>
vi l</w>
il o@@</w>
prev ent</w>
mahdoll isuus</w>
l ittle</w>
ge tary</w>
keskustel un</w>
se ver
par emm@@</w>
tta isiin</w>
con struc
organis ations</w>
kon kre
b an</w>
pros es
exc ell
syy tä</w>
tö ön</w>
el ta</w>
congratu late</w>
kul u@@</w>
Pro d
isuu teen</w>
d ang
os tu@@</w>
keskustel u@@</w>
is ing</w>
ab o
or row</w>
o ds</w>
lyhy e@@</w>
ag enda</w>
kes tävä@@</w>
join t</w>
tra in
min @@</w>
jo ihin</w>
it tu@@</w>
ti vely</w>
ha pp
sustain able</w>
m u@@</w>
m el
mili tary</w>
er in
communic ation</w>
te idän</w>
tom orrow</w>
l y
ou gh</w>
it te@@</w>
to a</w>
budjet ti@@</w>
od y</w>
ma ll
le ad</w>
kun ing
as pects</w>
N i
var o
noud at@@</w>
R anska@@</w>
tta ma@@</w>
si s</w>
en ough</w>
re lation</w>
as etta@@</w>
huom attava@@</w>
ab ly</w>
valvon ta@@</w>
p ast</w>
abo ve</w>
effec t</w>
politiik ka</w>
it ing</w>
tab led</w>
kann atta@@</w>
n ess</w>
inf ras
candid ate</w>
C 5</w>
tarko itta@@</w>
te ttä
cris is</w>
de ta
ol isi@@</w>
isi lle</w>
tr ue</w>
gu id
grow th</w>
yh ti
g @@</w>
c ho
aih e@@</w>
ten ce</w>
tell ä@@</w>
oikeud en
ide a</w>
al ka@@</w>
t tö@@</w>
muu n</w>
syn ty@@</w>
pa itsi</w>
lainsäädä nnön</w>
sub si
tuks et</w>
ki itä@@</w>
pyr ki@@</w>
konkre ett@@</w>
toiminn an</w>
itt u</w>
x i
merk itse@@</w>
et tu@@</w>
erin oma@@</w>
ter nal</w>
t täm
vuoropuh elu@@</w>
si en</w>
reg ards</w>
mak es</w>
app ly</w>
v et
tan ut</w>
need ed</w>
jäsen ten</w>
perus ta@@</w>
Y K@@</w>
prov ed</w>
agre ed</w>
fur ther
uu teen</w>
c el
järjestel mä</w>
pä in</w>
pri ority</w>
eh kä
ind ic
vi e
isuud esta</w>
kä si@@</w>
2 @@</w>
nä hd
asi aan</w>
muu t</w>
va al
aik a</w>
p ly</w>
e uro</w>
min ä</w>
b our</w>
ad van
laa ja@@</w>
edis ty@@</w>
ass ess
ttö mä
l ec
os in</w>
id ä
individ ual</w>
commit ment</w>
kal ta
g ets</w>
istu n
l ing</w>
vir as
om an</w>
ll ista</w>
tuomioistu im
of f</w>
com pe
kuning as@@</w>
tie te
es ter
neuvos t
ki i
ihmis oikeus@@</w>
aati o@@</w>
un ti
j ille</w>
a pu
t ti@@</w>
cos ts</w>
pi ir
b ody</w>
keh it@@</w>
con sul
further more</w>
id en@@</w>
Tur key</w>
Ira q</w>
mene tel
excell ent</w>
s sä@@</w>
v es
kokou ksen</w>
Euroop pa@@</w>
ter min
A g
alu e@@</w>
our selves</w>
käy d
k ö@@</w>
ä s
teh nyt</w>
activ ities</w>
sel vi@@</w>
se em
ma te</w>
ess a@@</w>
c ing</w>
tied on
yhteis ö
discus sion</w>
pää tty@@</w>
u usi</w>
min kä</w>
wa ter</w>
paik allis@@</w>
pla y</w>
unti l</w>
toimi elinten</w>
sh e</w>
ne i
every one</w>
er ä@@</w>
dec id
guarante e</w>
ob ser
halu a</w>
c hall
ci r
speci al</w>
ar @@</w>
p öy
res tric
liik enne@@</w>
mu r
kysymy ksiä</w>
kolman ne@@</w>
ttö my
peria at
te st</w>
S ec
ryh mä
si lle</w>
kehity ksen</w>
kann at@@</w>
Pal estin
tuo tan
oikeu den</w>
it se
välis en</w>
kut su
tu res</w>
sa tis
ab solu
lainsäädän tö@@</w>
Con ference</w>
presid ent
yy ttä</w>
pyr itä@@</w>
vuo si@@</w>
vi lle</w>
r a@@</w>
fis hing</w>
L a
ta pa</w>
provid ed</w>
Par ty</w>
toimin ta
ll ut</w>
des pite</w>
us ko@@</w>
s sa
ker to@@</w>
kas vu@@</w>
entra l</w>
edis tää</w>
kolle go
ik ka@@</w>
toteu ttamis@@</w>
päi vä@@</w>
fund ing</w>
direktiiv i@@</w>
unfor tunately</w>
u b
sel s</w>
rah as
r in
oura ble</w>
lu o
1 3</w>
acc ession</w>
tus la
tarjo a@@</w>
pää ttä@@</w>
perus tusla
uks issa</w>
hi m</w>
enn a</w>
un c
ryh mä</w>
päätö ks
keskustel ua</w>
Tur k@@</w>
D ec
hy l
a im
pro jects</w>
con nec
to o
p ass
ni men
b s</w>
z z
markk ina@@</w>
mo tion</w>
tu nut</w>
toim ien</w>
rec eiv
N or
B al
sever al</w>
jo lloin</w>
servic e</w>
po ista@@</w>
prac tice</w>
inves to
lop ull@@</w>
l ou
em an</w>
bal ance</w>
l i</w>
em oc
luonn o@@</w>
koh ta</w>
hyö ty@@</w>
ohjel man</w>
contri bution</w>
contin u
techn ical</w>
polit ic
pl an</w>
p onn
nu or
inclu de</w>
presen ted</w>
le a
adop t</w>
es i
jä rke
ol o
kans an@@</w>
ta as</w>
ra te</w>
to dis
ta lly</w>
is enä</w>
mon im
Espan ja@@</w>
hel d</w>
recom mend
cru cial</w>
sen se</w>
sel v
dra w</w>
Inter n
shor t</w>
määri tel
nnö ssä</w>
c en
sh are</w>
m et
läh e@@</w>
wor ks</w>
vä ki
har mon
F R</w>
ta nn
ci vil</w>
uu n</w>
oso it
hallit uksen</w>
cri teri
pyr i@@</w>
imp act</w>
ll isen</w>
chan ges</w>
am b
a ktiiv@@</w>
re li
mietinnö stä</w>
ai m</w>
add ition</w>
c ha
prov isions</w>
e tu@@</w>
e an</w>
con tain
conflic t</w>
tu en</w>
pi an</w>
hi eman</w>
ymmär tä@@</w>
H e
ö l
ys sä</w>
expres s</w>
Af ric
w ar
car ried</w>
turvall isuuden</w>
av an@@</w>
it o@@</w>
a vo
state ment</w>
knowled ge</w>
is t</w>
en na
immi gration</w>
a lle</w>
sta ge</w>
ul kom
tiet ty@@</w>
exc lu
N a
käy ttä@@</w>
käsitel tävä@@</w>
kti i
ks ista</w>
dire ktii
tut ki@@</w>
gen u
consum ers</w>
emp has
promot e</w>
D emoc
signific ant</w>
n or</w>
te ita</w>
i lle
pä ä</w>
kul je
kon f
kä ä@@</w>
alue ellis@@</w>
popu lation</w>
lu o@@</w>
lin es</w>
im um</w>
so on</w>
stan ding</w>
re main
proced ures</w>
at h</w>
jus ti
Me di
toim et</w>
ei ther</w>
U N</w>
use a@@</w>
valio kunnassa</w>
muu ta</w>
atte mp
ne ver</w>
lan gu
crit ic
transpar ency</w>
taud u@@</w>
neuvost ossa</w>
n a@@</w>
liik ku
va tion</w>
ta kia</w>
hall inn
rat ka
s ch
ing ly</w>
accord ing</w>
poliitt inen</w>
alo itta@@</w>
u ksiin</w>
ratkais e@@</w>
si jo
r on
ro ad</w>
is to@@</w>
s ääd
inte gration</w>
re pe
jo ta@@</w>
kysymy ksen</w>
yhtenä is@@</w>
nä ky
Sw ed
lis t</w>
euroopp ala
hallit us</w>
si ja
pu itte
ite m</w>
us ko
e il
sh ip
ar i@@</w>
1 .</w>
val vo@@</w>
kor va
fisher ies</w>
ta maan</w>
jä ttä@@</w>
every thing</w>
to in</w>
fore ign</w>
S um
kos ka@@</w>
y ksiä</w>
ta h
var oja</w>
al e</w>
Sum mit</w>
mm än</w>
kaik en</w>
tek ni
use ita</w>
na ture</w>
kl o</w>
konf lik
poh j
ed er
edelly ty
jo ten</w>
seem s</w>
as ked</w>
liit tymis@@</w>
ati ves</w>
B ud
tu t</w>
mark ets</w>
re main</w>
b on</w>
nimen oma@@</w>
kan a</w>
yksinkerta is@@</w>
te mme</w>
respon se</w>
mp i</w>
edis tä@@</w>
b order</w>
sa ying</w>
vaihe essa</w>
dem an
colleag ues</w>
read ing</w>
c lar
benef it</w>
Minis ter</w>
memb er</w>
ik an</w>
a tely</w>
Di rec
k ki</w>
K re
ä kuu@@</w>
consum er</w>
vaihto eh
kol me</w>
as ta@@</w>
kohd istu@@</w>
h or
all e
te er
s es</w>
reg re
minister i</w>
nn in</w>
bud getary</w>
saad a@@</w>
p lo
pöy tä
m es
ans wer</w>
tied o
inte gra
y oun
var mis@@</w>
oikeuden muka@@</w>
id enti
minu lla</w>
is ena</w>
i ted</w>
tarkistu sta</w>
hyvä ksi</w>
b el
is estä</w>
s s
velvo ll
sta bility</w>
jat ko@@</w>
cr imin
tode ta</w>
hall inno
rik oll
od ot@@</w>
tilan n
sh ar
expres sed</w>
ain e@@</w>
ac tions</w>
A 5</w>
requi red</w>
istu nn
huomau t@@</w>
sopim ukseen</w>
4 0</w>
d es</w>
p ä</w>
basi c</w>
tote a@@</w>
tom asti</w>
tarkoit us</w>
os ten</w>
und s</w>
vaike a@@</w>
tu ki@@</w>
vo i
inde pend
fle xi
sano i</w>
ra ised</w>
jou k
glob al</w>
vo ting</w>
viljel i
tutkim us@@</w>
te tta@@</w>
ess ä@@</w>
exis ting</w>
vas toin</w>
tek em
diffic ul
ran ga
toimin taa</w>
th us</w>
reques t</w>
kun tien</w>
throu gh
spea k</w>
k ly</w>
con sis
käsit tele@@</w>
alue illa</w>
a te
käsi tellä</w>
tau tu@@</w>
tilan teen</w>
he ar
1 4</w>
ol ette</w>
kuu lu
S ep
de termin
Af rik
through out</w>
tilann etta</w>
qu ic
ma at</w>
an sa@@</w>
tehd ään</w>
vet o
tic ally</w>
il i@@</w>
& #
&# 9
sä h
suh taudu@@</w>
S E</w>
et tom
pa y</w>
e f</w>
ittä is@@</w>
tun e@@</w>
tapah tuu</w>
on ni
ny ky
lisä ä</w>
farm ers</w>
ks essä</w>
for m
a de
s tä@@</w>
fa ir</w>
sitou tu@@</w>
ky llä</w>
f f</w>
train ing</w>
tas k</w>
over ty</w>
ic y</w>
äänesty s@@</w>
ty mä@@</w>
teh ty</w>
vuo d
dis as
res pec
ri ippu@@</w>
establis h</w>
itor ing</w>
Prod i</w>
te ty
am mat
vah in
succ ess</w>
johd on
E C
ins te
ar v
d eli
ta sa</w>
ord ino
ko ordino
al ku
suh tautu@@</w>
p overty</w>
inste ad</w>
Isra el@@</w>
u ja</w>
elä in
ref lec
ed es</w>
Pol icy</w>
j @@</w>
ver o@@</w>
re ach</w>
ar vois
läh et
itu ksia</w>
increas ing</w>
ll ed</w>
määrä raho
l uu
establis hed</w>
en si@@</w>
as y
vic ti
u no
ple ased</w>
asio ista</w>
oikeu tta</w>
te en
ro h
onn ettom
lu m</w>
g n
da ta</w>
so tila
clos ed</w>
institu tional</w>
ks a@@</w>
yhte @@</w>
teke e</w>
si ellä</w>
poin ted</w>
p ik
mm at</w>
it us@@</w>
ka s</w>
vi ously</w>
ki en</w>
ase tuksen</w>
täytäntö ön</w>
disc rimin
öl j
prepar ed</w>
poliitt isen</w>
de lle</w>
cul tural</w>
ty ö</w>
k ään@@</w>
i o</w>
liiken teen</w>
la bour</w>
busin ess</w>
lu otta
te s
kan taa</w>
ity is
aika väli@@</w>
työllis yys@@</w>
tak es</w>
pre vious</w>
o p</w>
käsi tellä@@</w>
pa tion</w>
ksi lle</w>
v ol
minu lle</w>
j u
tarko it@@</w>
ta x
youn g</w>
effor t</w>
tarkis tuksen</w>
mu a@@</w>
fi ve</w>
a ir</w>
puol usta@@</w>
reac hed</w>
ma an@@</w>
kä s
ri an</w>
m ma
huom enna</w>
ta x</w>
sov ell
muu ta@@</w>
criteri a</w>
y ttä</w>
no in</w>
F is
y ll
laaj @@</w>
dis e
applic ation</w>
var ojen</w>
us es</w>
tur vapa
m pi
kan san
0 3
Lis bon</w>
ka h
jäsen en</w>
it si@@</w>
P P
Lis sa
da ma
ohjel ma@@</w>
pur su
na mely</w>
kehit ystä</w>
initi atives</w>
a min
hol d</w>
bil ities</w>
equ al</w>
b on@@</w>
he itä</w>
p il
p ac
asy lum</w>
advan ta
po ten
require ments</w>
dec lar
WT O</w>
stu d
muu tama@@</w>
Lissa bon@@</w>
val ta</w>
kahd en</w>
viim e
am ong</w>
sugg es
vi h
w aste</w>
sopim usten</w>
ex amin
as u@@</w>
ap proved</w>
laa tu@@</w>
gh tly</w>
decid ed</w>
täm än
seura avan@@</w>
nou da
asi at</w>
ade qu
maailman laaju@@</w>
jus tice</w>
doub t</w>
elin es</w>
uc le
pro ject</w>
it te</w>
sa man
obli g
koh ta
kohd alla</w>
consequ ences</w>
sy ys
cor rec
regula tions</w>
s tö@@</w>
cap ac
P at
tr as
cir c
val ues</w>
va i</w>
tar p
ic es</w>
representa tives</w>
presid ency</w>
ma teri
cl ose</w>
200 6</w>
t lan
EU @@</w>
tas tro
pyr kim
kompromis si@@</w>
teh @@</w>
miel essä</w>
ar ound</w>
ur s
implemen ted</w>
F ren
palvelu jen</w>
im medi
Bar cel
ucle ar</w>
ter r
sääntö jä</w>
inclu ded</w>
tra d
kysym ystä</w>
e ed
as soci
tu o@@</w>
wh ose</w>
mo re
ed usta@@</w>
more over</w>
govern mental</w>
ac tive</w>
yks ityis
a ja@@</w>
idä t</w>
b ly</w>
puolu e
mik ä@@</w>
f our</w>
Ru ot
val mi
rela ting</w>
o ffici
ru le</w>
m ole@@</w>
Rus sia</w>
wee k</w>
viranoma isten</w>
spe ec
add res
Fren ch</w>
199 8</w>
su fficient</w>
mon itoring</w>
A us
rec ently</w>
poliitt ista</w>
v ed
no te</w>
ker taa</w>
et tel
or m
tarp een</w>
pa ho
speci fic
ke in
ille gal</w>
men tion</w>
terroris min</w>
ter ran
mer en</w>
ord ers</w>
fac e</w>
coordin ation</w>
com pl
aj an
N ations</w>
la inen</w>
ha as
is ely</w>
b ri
palvel u@@</w>
emp i@@</w>
direktiiv i</w>
hon ourable</w>
d le</w>
A m
tem ber</w>
lo w</w>
Sep tember</w>
yhd en</w>
terran ean</w>
k alais@@</w>
direc t</w>
h es
is te@@</w>
f ri
ex ternal</w>
del eg
Medi terranean</w>
noud at
ke ep</w>
c ost</w>
b or
ala is
Itali a@@</w>
E ast</w>
kan sa@@</w>
alo illa</w>
W or
ta pa@@</w>
comm unity</w>
aih e</w>
en emmistö@@</w>
p oll
ex tent</w>
täy ty@@</w>
sov el@@</w>
kaup an</w>
mahdollisuu ksia</w>
lainsäädän töä</w>
d ri
F rance</w>
hallin to@@</w>
con fir
kolman s@@</w>
exc ep
priva te</w>
l ö
ole vien</w>
työntekijö iden</w>
comple tely</w>
amoun t</w>
ver theless</w>
tiet oja</w>
ne vertheless</w>
kysymy kseen</w>
kok em
def ence</w>
V äl
ään esti@@</w>
syys kuu@@</w>
el in@@</w>
tuot teiden</w>
than ks</w>
prosess in</w>
ens i</w>
es ity
Isra el</w>
i vat</w>
Ir lan
viol ence</w>
taloudell is@@</w>
kulutta ja@@</w>
devel op</w>
lu ov
vä t@@</w>
kutsu @@</w>
r un
is ella</w>
add ress</w>
en te
assis tance</w>
S pan
tion @@</w>
vas sa</w>
tie tää</w>
ti iv
c ause</w>
e tään</w>
pri orities</w>
practic al</w>
elec tions</w>
ul ot
cr ime</w>
PP E</w>
guid elines</w>
f unc
vi ra
i ans</w>
yks ittäis@@</w>
Väl i@@</w>
täy ttä@@</w>
tu ho
solid arity</w>
pow ers</w>
huol es
S e
v istä</w>
u o
or y</w>
s ter
rele v
ell ow</w>
conclu sion</w>
rou ght</w>
ima l</w>
alle kirjo
yhteis ö@@</w>
t ol
sopim usta</w>
v esi@@</w>
str ong</w>
prec isely</w>
absolu tely</w>
vapa a@@</w>
yl i@@</w>
mieli pi
me et</w>
tar jo@@</w>
terr itor
te lla@@</w>
suunta vii
pres sure</w>
jou sta
ex er
käytä nnössä</w>
K i
puolu een</w>
too k</w>
protec t</w>
it u@@</w>
ou ght</w>
us ten@@</w>
tehd y@@</w>
lähesty mis
mat ka
li ve</w>
tal king</w>
g en</w>
b io
asio issa</w>
san i</w>
n uclear</w>
al most</w>
om in
pa kol
järjestelmä ä</w>
gi ving</w>
s saan</w>
union iin</w>
mit ted</w>
ista n</w>
f ellow</w>
sh ow
puol ustus@@</w>
per in
ha va
uud essa</w>
connec tion</w>
Span ish</w>
pa ten
inves tment</w>
he ad</w>
äänesty s</w>
ro @@</w>
president ti</w>
jo bs</w>
ja ka@@</w>
vel s</w>
ti g
succ ess
is emmin</w>
oikeud et</w>
tuks een</w>
ar gu
koh tia</w>
foll ow</w>
len to@@</w>
le ar
Afrik a@@</w>
cre ation</w>
c are
kas va@@</w>
c y</w>
H u
G en
a ar
s in</w>
ac ross</w>
am @@</w>
1 8</w>
toimi valta@@</w>
te t@@</w>
pro per
kehit ys
G u
ven ess</w>
receiv ed</w>
mattom @@</w>
ja a@@</w>
S tras
val ue</w>
p as
muut to@@</w>
consider ed</w>
Stras bour
ai emmin</w>
il s</w>
res t</w>
pää stä</w>
le vels</w>
kes ki@@</w>
pa ko
m un
läh es</w>
capac ity</w>
sh ow</w>
puol i@@</w>
pac ka
käy tettä
th y</w>
te ur
re duce</w>
na tion
har k
v ision</w>
tel l</w>
so d
re fu
bec om
w is
la ista</w>
väh e@@</w>
histor ia@@</w>
et e</w>
aj at
pa y
dem and</w>
b ar
työ n</w>
stan ces</w>
myön tä@@</w>
experi ence</w>
ed us
con v
sc ope</w>
ko ko
asia kirj
täy dell
täydell @@</w>
con dem
y t</w>
pi en
quic kly</w>
na an</w>
le ft</w>
foc us</w>
circ um
valtio t</w>
discus sed</w>
L at
en ter
ma l</w>
in tä@@</w>
specific ally</w>
hyödy ll@@</w>
ex pec
tre at
h uu
ec e</w>
increas ed</w>
arvois a@@</w>
tunn us@@</w>
in e
si bilities</w>
P e
ne taan</w>
käy ttä
alis ed</w>
h il
järjes tä@@</w>
direc tion</w>
seura a@@</w>
re ality</w>
asian tun
ilmo itta@@</w>
an i</w>
f ound</w>
hallit usten</w>
sy istä</w>
Sa ksa@@</w>
var a
te isiin</w>
tic s</w>
ra ja@@</w>
com par
tal k</w>
un @@</w>
kohd an</w>
1 6</w>
hin d</w>
be hind</w>
appli ed</w>
va l</w>
rik os@@</w>
gro und</w>
N os</w>
puol @@</w>
minister i@@</w>
em er
docu ment</w>
re ference</w>
suur i@@</w>
liber alisation</w>
S ol
tel i@@</w>
ratkais u</w>
ä h
g s</w>
spe ak
lis ää
conc ep
n er</w>
lu ettel
ki er
imple ment</w>
u tta@@</w>
B us
accord ance</w>
ec han
b orders</w>
a way</w>
myö tä</w>
ver k
jou lu
e val
kiit o@@</w>
ag rap
sta ted</w>
is em
menettely n</w>
vuos ina</w>
un acceptable</w>
läh i@@</w>
enn a@@</w>
victi ms</w>
aino a</w>
de l</w>
mov ement</w>
L u
ä mme</w>
muod osta@@</w>
käy tetään</w>
ku t</w>
uud et</w>
tilante essa</w>
s po
jo b</w>
instru ments</w>
ra lly</w>
da ys</w>
neuvot telu@@</w>
clar i
ag es</w>
yhte en</w>
löy tä@@</w>
yhte en
conclu sions</w>
Bel gi
op en
id ent</w>
b rought</w>
lop ul
Con stitu
A T
strate g
pöytä kirja@@</w>
he ad
ad d</w>
päätö kseen</w>
pä in@@</w>
m echan
luu l
ko ti
de lla</w>
y den</w>
parlia mentary</w>
tieto a</w>
Bal kan
ys ti</w>
pys y@@</w>
ten sa</w>
sääntö jen</w>
on a</w>
tä ys
technolog y</w>
pro per</w>
lu oda</w>
kii re
discus sions</w>
yhden muka
työ h
tarkas tel
develop ed</w>
om a</w>
maail massa</w>
kesk us@@</w>
keskustel e@@</w>
its em
seura a
Ni zz
näy ttää</w>
w ing</w>
mat k
b ill
assess ment</w>
mis essa</w>
mer i@@</w>
has to@@</w>
tu al</w>
sel @@</w>
o il</w>
kal a@@</w>
Portu g
työ stä</w>
aiko o</w>
p i</w>
k u</w>
C har
valv onn
us sels</w>
täy den
teoll isuuden</w>
s ens
opportun ities</w>
v uus</w>
v e@@</w>
effec ts</w>
tuomioistuim en</w>
relev ant</w>
re jec
turvall isuutta</w>
kol me@@</w>
ihmis iä</w>
Br ussels</w>
vas ti</w>
bal an
N ice</w>
ot tama@@</w>
an imal</w>
B an
si in</w>
s ym
a tional</w>
e de
sec tors</w>
en able</w>
crimin al</w>
Dec ember</w>
Br ys
w ise</w>
e teen
e b
tilante esta</w>
päätö s</w>
hallit usten@@</w>
c k
u d</w>
mis sa</w>
inn ing</w>
tiet ysti</w>
su per
lai ll@@</w>
Americ an</w>
tavo ite</w>
kno wn</w>
Nizz a@@</w>
tuks esta</w>
ev ents</w>
P @@</w>
ili ation</w>
ator y</w>
ka tastro
joulu kuu@@</w>
ard i@@</w>
4 @@</w>
w id
mu kana</w>
korke a@@</w>
ilmo it@@</w>
id dle</w>
keskustel ussa</w>
ponn is
leg iti
koh ti</w>
ud e</w>
discus s</w>
anal y
merkittä vä</w>
m ys
eteen päin</w>
el f</w>
vahvis tet@@</w>
j ää
sitou mu
propos e</w>
käsittel y@@</w>
instru ment</w>
her ä
com ments</w>
alu ksi</w>
or s</w>
myö he@@</w>
c am
orig in
mil j
B ri
r o</w>
al @@</w>
ta vat</w>
s ha
consider able</w>
al ter
ther n</w>
d u@@</w>
tu a</w>
johdon muka@@</w>
pos sibility</w>
onni tella</w>
di pl
toimin ta</w>
k ra
al ong</w>
v än</w>
ty pe</w>
laaj en@@</w>
V er
on d</w>
enti fic</w>
he ard</w>
lu ok
e th
over all</w>
perus te@@</w>
Wor ld</w>
re forms</w>
pen sa
kär si
ks estä</w>
res er
Re gu
vuo teen</w>
tarpe ell@@</w>
out side</w>
elintarv ike@@</w>
00 @@</w>
G ener
tri al</w>
re view</w>
lu ku@@</w>
agricul ture</w>
C o
tu lis
saa ta
ator s</w>
poliitt isten</w>
ryh mien</w>
pik @@</w>
I I</w>
treat ment</w>
nn ut</w>
toimenpi teitä</w>
esi in
ol enna@@</w>
näkö kul
käsittel evä@@</w>
miel estä</w>
jat ku@@</w>
pr ice</w>
laati ma@@</w>
ent ing</w>
c la
add itional</w>
va i
ill e@@</w>
h ard</w>
O r
väl @@</w>
teki jä
suppor ted</w>
kolleg a</w>
ex pla
com mer
ssa kin</w>
r yhdy@@</w>
it ystä</w>
circum stances</w>
b ab
yhteis kunnan</w>
od otta@@</w>
con tr
te ral</w>
kau pun
Direc tive</w>
ä ä@@</w>
n ti@@</w>
mes sa
auth ority</w>
at ti@@</w>
to isen</w>
es saan</w>
to si@@</w>
is es</w>
en cies</w>
partici pation</w>
pa ti
minu a</w>
cre ating</w>
yrity kset</w>
car ry</w>
ra por
ov a@@</w>
markk in
jä r
in i@@</w>
direc tly</w>
Aus tri
suojel u@@</w>
y t
isuud et</w>
fam ily</w>
U S</w>
tosi asia@@</w>
f lo
Gener al</w>
refer red</w>
ohjel ma</w>
ky ky@@</w>
consider ation</w>
se ud
w ide</w>
G al
ex plo
sisäl tä@@</w>
re qu
t to
len to
käytettä v@@</w>
i ons</w>
Brys sel@@</w>
Af gh
raho itta@@</w>
ester day</w>
alis t</w>
mis sä@@</w>
8 0</w>
ser i
tulis i</w>
li es</w>
gan i</w>
J us
em min@@</w>
y esterday</w>
mys elf</w>
ette i@@</w>
tr ying</w>
is elle</w>
: ssa</w>
vall at</w>
mo del</w>
affec ted</w>
ll isia</w>
esit tämä@@</w>
Z im
kir ja</w>
v in</w>
avo id</w>
spea king</w>
rau ta
ap er</w>
tavoitte et</w>
läh ti@@</w>
i llis@@</w>
ai o@@</w>
välis tä</w>
prov ision</w>
Jus tice</w>
päätö ksen</w>
fac il
teke vä@@</w>
kau an</w>
accep ted</w>
vaike a</w>
teho kka@@</w>
kä y</w>
si z
vers ity</w>
ei ve</w>
alter na
con tent</w>
6 0</w>
nn e@@</w>
kas va
sään tely@@</w>
käyttö ö
katastro f
ho id
anim als</w>
our s</w>
en tä@@</w>
nn ö@@</w>
20 @@</w>
pääs e@@</w>
suo j
mar k</w>
Am ster
tu llut</w>
tiet ojen</w>
tarkas tus@@</w>
in ed</w>
eh ti@@</w>
ongel mat</w>
muu @@</w>
ke l</w>
edis ty
työh ön</w>
es tään</w>
difficul ties</w>
y ttä@@</w>
ran n
inc or
in ti</w>
han k
ann ual</w>
s on</w>
Amster d
wan ted</w>
köyh @@</w>
ttu a</w>
ho ito@@</w>
refu ge
n s</w>
rauh an@@</w>
pää tel
hu ge</w>
teho k
compl ete</w>
tote si</w>
to tal</w>
istu mis@@</w>
demokraat t
as kel</w>
Palestin ian</w>
jäsen iä</w>
er i@@</w>
U S
hes ion</w>
C ha
encoura ge</w>
1 2
ol in</w>
ku olem
esti in
estiin alais@@</w>
co hesion</w>
tul o@@</w>
pur pose</w>
ob viously</w>
maahan muutto@@</w>
hyödy n@@</w>
d @@</w>
Ruot si@@</w>
D E</w>
o ta
kan ta</w>
Intern et</w>
Char ter</w>
ch ed</w>
vie ws</w>
kiin ni@@</w>
ulot tu
ra ts</w>
go es</w>
ei vät@@</w>
dis tri
a id
vuos i</w>
järke vä@@</w>
pers on
käy tön</w>
at u</w>
P s</w>
pal estiinalais@@</w>
mahdoll isuuden</w>
ite ttava</w>
vaar allis@@</w>
valtu us
humanita rian</w>
elä mä
te emme</w>
par ty</w>
p i@@</w>
conf idence</w>
al a</w>
sa as
pyy tää</w>
genu ine</w>
docu ments</w>
riippu mattom@@</w>
ran s
muu ttu@@</w>
k en@@</w>
e ed</w>
päätö ksiä</w>
päiv än</w>
l er</w>
te g
is tö@@</w>
c tions</w>
beg in</w>
En viron
par agrap
p ic
e va</w>
allow ed</w>
1 7</w>
yhteis kunn
em is
Zim bab
il mi</w>
ehdotuks esta</w>
d ru
administra tive</w>
plan s</w>
koro s@@</w>
adequ ate</w>
mi lla@@</w>
su ffer
ite ttu</w>
e et
as su
gh ted</w>
po or</w>
ma ita</w>
suu @@</w>
ole va</w>
au ttaa</w>
v issä</w>
Sec urity</w>
sta tus</w>
kolle gani</w>
Afric a</w>
vaiku tuksia</w>
urg ent</w>
poten tial</w>
mahd ot@@</w>
c are</w>
C ar
ty nyt</w>
struc tural</w>
muu ten</w>
lle et</w>
c over
pä te
laati ma</w>
we ap
pid ä
discrimin ation</w>
con trac
si x</w>
lä s
5 @@</w>
sa fe
pre hen
kiire ell@@</w>
sotila allis@@</w>
ar ran
S u
humanita ar@@</w>
any thing</w>
uno h@@</w>
resol u
tu h
par i@@</w>
ru p
oc cu
uu des
säännö t</w>
se par
kiel tä@@</w>
A gre
ri ghtly</w>
mä llä</w>
dra wn</w>
de ath</w>
emm e@@</w>
bill ion</w>
ar ily</w>
vapau den</w>
char ge</w>
P er
un anim
uks e@@</w>
ta neet</w>
puitte issa</w>
Itali an</w>
partn ers</w>
k en</w>
K ansa@@</w>
I re
tapa uksissa</w>
ev ent</w>
buil ding</w>
Pro c
tä s
off er</w>
loo king</w>
h ment</w>
Ire land</w>
periaat teen</w>
is issa</w>
La ek
til a@@</w>
pain opis
ehdotuks et</w>
E C</w>
tunn usta@@</w>
pu l
inten ded</w>
beg inning</w>
apu a</w>
sor t</w>
ol isivat</w>
toteu tu@@</w>
saa tava</w>
ent is@@</w>
myönn et@@</w>
ku n@@</w>
u ma@@</w>
kann an</w>
f io
meth od</w>
dama ge</w>
ttä nyt</w>
streng th
puh u
la in@@</w>
vakuu t@@</w>
tain ed</w>
ll isten</w>
kes ke@@</w>
il ed</w>
for ces</w>
la ito
set ting</w>
ens in</w>
s ession</w>
deman ds</w>
s sani</w>
puu tte
i ra
deal ing</w>
a ma@@</w>
yy s</w>
organis ation</w>
me istä</w>
lim ited</w>
ki laus
jul kilaus
ic ally</w>
ho ita@@</w>
9 0</w>
onn istu
es tää</w>
Regu lation</w>
Br it
Americ a</w>
to ista</w>
saata v@@</w>
perus tuva@@</w>
i tal</w>
ear li
vi tal</w>
ver o
F in
terve ys@@</w>
ship s</w>
satis fac
milj ardi@@</w>
maa talouden</w>
kans sa@@</w>
implemen ting</w>
huon o@@</w>
edell is@@</w>
til in
merkittä vi@@</w>
j al
sci entific</w>
pa id</w>
lo t</w>
re mind</w>
ec h
yy n</w>
ty s@@</w>
suo si
str ic
reg ime</w>
c o</w>
ref er</w>
om s</w>
Irlan n
Q u
eurooppala inen</w>
op pos
säh kö@@</w>
remain s</w>
d y@@</w>
conv inc
bro ad</w>
ati es</w>
an ti
A ra
on e
elim e@@</w>
vapa a
comp li
om @@</w>
et tävä</w>
L am
sur ing</w>
järjes tö@@</w>
el s</w>
e as
R om
yksityis kohta@@</w>
st ress</w>
pa in</w>
os an</w>
L A
G M
Re public</w>
tu lla</w>
ta jien</w>
rec eive</w>
comb at</w>
mis sion</w>
exer c
et ta
Ban k</w>
toimi elime@@</w>
sa ma</w>
ex pect</w>
is istä</w>
ganis ta
coll ec
eläin ten</w>
Pat ten</w>
tel u</w>
ris h</w>
pohj alta</w>
min imum</w>
as u
J un
re turn</w>
Ger many</w>
y es</w>
polic e</w>
miel en
com ment</w>
terveyd e@@</w>
i va@@</w>
ta van</w>
defin ition</w>
teoll isuus@@</w>
reas on
pid etään</w>
tavoitte ita</w>
par empi</w>
it tama@@</w>
inf lu
commit ted</w>
commit ments</w>
tutkim uksen</w>
T h
L äh
vira llis@@</w>
s pec
käytä nnön</w>
to i@@</w>
con duc
ra di
s pi
ris ks</w>
puhem i
le hd
ket tä@@</w>
O s</w>
sum mit</w>
f eder
ra ise</w>
markkino illa</w>
kka am
joh to@@</w>
c ross</w>
meas ure</w>
lis ään
ev el
arvio id
ma tic</w>
K ore
sanot tu@@</w>
pid e@@</w>
medi um</w>
kok ous</w>
conc entra
speec h</w>
seri ously</w>
i vi
g ar
äs kettä@@</w>
sov elle@@</w>
sopim uksia</w>
rann ik
ate tta</w>
valio kunta@@</w>
pre vention</w>
main ita</w>
effec tively</w>
direc tives</w>
ol o@@</w>
establis hing</w>
at t
P aper</w>
Läh i</w>
vaka vi@@</w>
to i</w>
il me@@</w>
henkilö stö@@</w>
hallinn on</w>
sovell etta@@</w>
jud ic
J oh
Amend ments</w>
sit ting</w>
het i</w>
M iddle</w>
all oc
tuks e@@</w>
tas on</w>
reduc tion</w>
gran ts</w>
su ku
evel op
D evelop
3 7</w>
poliitt isia</w>
käsittel yssä</w>
E uro</w>
toteu tetta@@</w>
pr im
et ty</w>
ell ä@@</w>
rauta tie@@</w>
merk itys</w>
ed el
So ci
Ki ina@@</w>
Environ ment</w>
yhteis kunta@@</w>
peria atetta</w>
as sa
t ting</w>
en sä</w>
N G
y ksen</w>
val ta
some times</w>
m is</w>
kysymy ksiin</w>
k is
il ta@@</w>
Inter national</w>
b rea
P oh
vapau tta@@</w>
equ ality</w>
streng then</w>
packa ge</w>
me an
rela tion
y ö
li ving</w>
dec ide</w>
y ond</w>
tarkistu s</w>
l os
jäsen tä</w>
esit tämä
be yond</w>
taloudell isen</w>
sta ff</w>
com pensa
an i@@</w>
ta ul
pers onal</w>
per i@@</w>
Agre ement</w>
olog ical</w>
ex ac
epäil e@@</w>
com prehen
do m</w>
men esty
asem a</w>
ku s</w>
kri teer
cre ated</w>
Portug ali@@</w>
vi era
tit ude</w>
ex per
avu n</w>
kymmen en</w>
messa ge</w>
mahdoll ista@@</w>
infras truc
huom io@@</w>
7 0</w>
high ly</w>
eet t
vas taa</w>
uo to@@</w>
sto p</w>
I rish</w>
tu mis@@</w>
po is</w>
improv ing</w>
ener gi
tu rally</w>
väh en@@</w>
uks ella</w>
ug os
ugos la
tod en
su mm
merk itystä</w>
ar ms</w>
an sa</w>
an d
s ti@@</w>
näkö is@@</w>
Brit ish</w>
tic al</w>
organis ed</w>
contribu te</w>
stan ce</w>
päivä nä</w>
ite tta</w>
Irlann in</w>
viranoma iset</w>
jo iden@@</w>
w ha
sopim uksessa</w>
s al
requi res</w>
provid ing</w>
on es</w>
happ en</w>
tiete ellis@@</w>
keskus tella</w>
itse va@@</w>
alis ts</w>
tel ev
incor por
arvio i@@</w>
appli es</w>
N e
val mis</w>
sosiaal isen</w>
respon d</w>
inves tig
wh er
ur he
it ure</w>
Hu man</w>
Develop ment</w>
rela ted</w>
rajo itta@@</w>
neuvottelu jen</w>
ma assa</w>
käyttö ä</w>
e tel
solid aar
ins pec
el tä</w>
vapau ttamis@@</w>
tais telu@@</w>
h op
ff ic</w>
neuvot tel
muka ista</w>
ty ne@@</w>
la it@@</w>
ky v
g er
al one</w>
0 1
ri t</w>
merk ity
f oun
ann ettava</w>
te tty@@</w>
tavoitte iden</w>
t ti
recogn ise</w>
mi e
c li
S add
lim it</w>
ke hy
an ta@@</w>
ra jat</w>
pää asia@@</w>
oper ate</w>
main tain</w>
epä onnistu@@</w>
activ ity</w>
ME Ps</w>
vaka us@@</w>
end or
ttömä sti</w>
tra ffic</w>
provid es</w>
balan ced</w>
b y
Af ganista
g et
poli isi@@</w>
dra f
develop ments</w>
tuo tann
harjo it@@</w>
. .</w>
u tu@@</w>
t tämä
ongel man</w>
ole via</w>
tuotan to@@</w>
ttäm ään</w>
ex pend
as pect</w>
si mi
wor d</w>
discus sing</w>
P T</w>
f ish</w>
päätö s@@</w>
en suring</w>
deleg ation</w>
te en@@</w>
järjesty ksen</w>
ty ä</w>
s ty@@</w>
auth or
O LA
jä ä@@</w>
a vi
I tä@@</w>
yt tämis@@</w>
ud et</w>
su s</w>
sh own</w>
s esti</w>
in es</w>
va t
expend iture</w>
tarkas tele@@</w>
turvapa ikka@@</w>
out come</w>
busin esses</w>
Jun e</w>
vaatimu ksia</w>
qu ali
parlia ments</w>
osall istumis@@</w>
luotta mu
arvio inti@@</w>
R es
e ffici
des cri
Minis ters</w>
weap ons</w>
produc ed</w>
ex plan
emphas ise</w>
earli er</w>
risti ri
S pain</w>
D an
suun taan</w>
langu age</w>
et te@@</w>
contr ary</w>
regre t</w>
pro duce</w>
i an
bo dies</w>
K y
perus oikeus
ik ka</w>
bro ad
lou kka
la ter</w>
is ti@@</w>
Sch eng
0 1@@</w>
ta kais
ta kaa@@</w>
pala ut@@</w>
kär si@@</w>
concep t</w>
Ch ina</w>
viel ä@@</w>
las tly</w>
vi itta
success ful</w>
ma s</w>
laad i@@</w>
b lo
L an
si vi
m et</w>
la ted</w>
rati fio
kiel te@@</w>
independ ent</w>
ehdotuks essa</w>
call s</w>
analy sis</w>
ur ge</w>
ca used</w>
ty yd
en sa</w>
to co
toco l</w>
2 1</w>
torjun ta@@</w>
pa ket
kysymy kset</w>
clos ely</w>
pl en
T ra
Democ rats</w>
yhte en@@</w>
uu tta@@</w>
requ ire</w>
puol esta@@</w>
lea ve</w>
exis t</w>
conc iliation</w>
R ules</w>
kulutta jien</w>
asia kirjo
tu han
e arly</w>
as sa@@</w>
tu otta@@</w>
te et
te e@@</w>
kilpail u
enn e</w>
en orm
ratka ista</w>
cam pa
ys tä
työsken tele@@</w>
l s</w>
suo ja@@</w>
simi lar</w>
politiik kaan</w>
pla ced</w>
help o@@</w>
construc tion</w>
vi it
prof es
na tural</w>
inter pre
enti re</w>
edis te@@</w>
cul ture</w>
t on
puu n</w>
viik olla</w>
mon op
me dic
ti o@@</w>
vi is
la id</w>
is imme</w>
ko ko@@</w>
ko on</w>
isi lla</w>
increas ingly</w>
i lla@@</w>
er ous</w>
en i@@</w>
stud y</w>
direktii viä</w>
yd in
wh om</w>
rakenn era
jo in</w>
hyö k
pos itions</w>
markkino ille</w>
al ta@@</w>
pre ci
ala a</w>
väh emmistö@@</w>
na turally</w>
it tamis@@</w>
Afganista n@@</w>
vastu u</w>
re ply</w>
net works</w>
consul tation</w>
n osta@@</w>
li ves</w>
pääs tö
pres s</w>
mel ko</w>
A C
a an@@</w>
1 9</w>
dy na
M ac
use ful</w>
ta mista</w>
ru ral</w>
b ia</w>
adop tion</w>
F ore
nei gh
its ema@@</w>
happen ed</w>
enter pris
Fore ign</w>
no on</w>
en ge</w>
chall enge</w>
vu n</w>
tilante eseen</w>
taloudell ista</w>
sens itive</w>
tu uri@@</w>
menettely ä</w>
lopul ta</w>
jat ke@@</w>
toden näköis@@</w>
sopim us@@</w>
ac qu
Swed ish</w>
yh tä@@</w>
f all</w>
y ers</w>
prob ably</w>
os itta@@</w>
maks u@@</w>
di versity</w>
C entral</w>
se k
kanna ta@@</w>
des ig
vi ita
pa ko@@</w>
appe ar</w>
solu tions</w>
produc t</w>
mietin tö@@</w>
kiinn ostu@@</w>
aihe esta</w>
s pen
histor y</w>
con sen
sc ale</w>
esite tty</w>
te istä</w>
respon sibilities</w>
pää ttävä@@</w>
pres sion</w>
min kään@@</w>
rakennera hasto@@</w>
po hd
ad s</w>
N AT
Fis ch
reli gi
pers on</w>
yhd is
tois een</w>
ta tions</w>
par ts</w>
kes äkuu@@</w>
colleag ue</w>
Sadd am</w>
S er
liikku v@@</w>
äär immäis@@</w>
yhti ö@@</w>
ta ri
mon i
anal ys
tt ö</w>
pu ite
men @@</w>
man ner</w>
Gre ece</w>
taa kseen</w>
proper ly</w>
suuntavii vo
an ti</w>
vaal e
ita tion</w>
mahdoll isuutta</w>
cap ital</w>
T anska@@</w>
tu o</w>
san ctions</w>
pidet tävä</w>
oikeu dellis@@</w>
is tamis@@</w>
tta essa</w>
thou ght</w>
rauh an</w>
pers pec
pen al
kan so
in s</w>
il e@@</w>
etu jen</w>
tuks ista</w>
kau si@@</w>
ste ps</w>
mor ning</w>
ma ihin</w>
thin king</w>
rik o
paragrap h</w>
gi ves</w>
flexi bility</w>
dang erous</w>
at s</w>
toivo ttava@@</w>
ik o
2 2</w>
y li
vuos itta@@</w>
deal t</w>
bur g</w>
as to@@</w>
tra ffic
qu e</w>
lan ds</w>
var ma</w>
mu kau
lisä ä@@</w>
2 3</w>
him o@@</w>
bo ard</w>
an u
2 4</w>
sch em
WT O@@</w>
valvon taa</w>
resolu tions</w>
politiik assa</w>
monim ut
itor s</w>
c us
attemp t</w>
wr ong</w>
matka ilu@@</w>
lop etta@@</w>
ymmärr ä@@</w>
huoles tu
compan y</w>
tr e</w>
prosess i</w>
pr ices</w>
lop puun</w>
achiev ing</w>
perustusla ki@@</w>
partn ership</w>
pal k
la itt
laitt om@@</w>
tru k
go ods</w>
call ing</w>
au tta@@</w>
k ää
infras truk
h ome</w>
e ks
wan ts</w>
vasta a
maail man@@</w>
F und</w>
y t@@</w>
thir dly</w>
tehok kuu
ilma ista</w>
e asi
om is@@</w>
yhteiskunn allis@@</w>
ab or
0 2@@</w>
k in@@</w>
main i@@</w>
jo is@@</w>
L e
veto om
s ent</w>
r id
muuto ksia</w>
lö yd
di men
B u
dise ase</w>
net work</w>
Ma a
vasta an
ehkä is
sop i@@</w>
ksi a@@</w>
ke jä</w>
asiantun ti
urg @@</w>
convinc ed</w>
tu ki</w>
pen sion</w>
iv @@</w>
M ay</w>
san a@@</w>
s ti
ll i
con ven
Afgh an
tarv ittava@@</w>
ratkais eva@@</w>
K os
te ttaisiin</w>
pys y
nn an</w>
mahdoll isuudet</w>
aika taul
tu ke
ol os
la un
käy ttö@@</w>
huol en
consen sus</w>
S outh</w>
teur s</w>
subsi di
r @@</w>
huol ehti@@</w>
el ements</w>
crit ical</w>
kehitys yhteistyö@@</w>
Afghan istan</w>
ris m</w>
er o
T he</w>
actu al</w>
tarv itse</w>
k k@@</w>
en ds</w>
benef its</w>
mo d
puhemi eh
high er</w>
des er
t te@@</w>
na me</w>
mietin töön</w>
inter ven
tu ista</w>
partici p
vastu u
ap pla
O M</w>
yhd istä@@</w>
mm e@@</w>
is ms</w>
So cial</w>
spi rit</w>
si an</w>
koh tu
becom ing</w>
1 00</w>
wee ks</w>
promot ing</w>
ks u@@</w>
il ma@@</w>
con om
administra tion</w>
Proc ed
es ten</w>
el se</w>
tou ko
raken tamis@@</w>
co her
He alth</w>
E conom
tulo ksia</w>
rappor teurs</w>
nei ther</w>
improv ed</w>
conclu de</w>
c al
ren e
koulu tus@@</w>
du ty</w>
Proced ure</w>
tur va
o do
my @@</w>
lää kke
keskustel uun</w>
chall eng
alue ita</w>
ta ma</w>
sisäl tyy</w>
seud un</w>
käy ttö</w>
ca teg
addres sed</w>
la tions</w>
Rom an
B SE</w>
ohjel mien</w>
introduc ed</w>
in ta@@</w>
touko kuu@@</w>
päätöks ente
ll iset</w>
c ut</w>
w on
tta v@@</w>
f all
bi g</w>
H a
yhteisö jen</w>
väh immäis@@</w>
mu ista@@</w>
i ght</w>
p .
min ä@@</w>
la ws</w>
sup ple
jo issa@@</w>
fail ure</w>
C an
elintarv ikke
de gre
comb ating</w>
re present</w>
terroris t</w>
sub mitted</w>
relation ship</w>
olos uh
it ys@@</w>
introduc tion</w>
elä im
b re
wh il
whil st</w>
tiu k@@</w>
kol men</w>
n ro</w>
käynn istä@@</w>
at tac
vaar an@@</w>
jon kin</w>
intro duce</w>
et tiin</w>
vo c
men d</w>
he ar</w>
H us
rak en@@</w>
pos es</w>
asio ihin</w>
puh e
kunn ian
järjestel mien</w>
P o
uu t@@</w>
C or
tark ista@@</w>
help ot@@</w>
esit ä@@</w>
ymmär re
od a@@</w>
jä ä</w>
op ti
kys een
ti ivi
tiivi i@@</w>
pro por
des ire</w>
see k</w>
es te@@</w>
ty p
neigh bour
istunn ossa</w>
invol ving</w>
Joh ann
politiik asta</w>
ite ttu@@</w>
recogn ition</w>
mis elle</w>
m me
judic ial</w>
c entral</w>
anu ary</w>
J anuary</w>
kansa in@@</w>
s ound</w>
ra il</w>
o ther
infor med</w>
luon no
kilpailu kyky@@</w>
keskit ty@@</w>
de pen
K ar
vaatimu kset</w>
tiedon ann
suo si@@</w>
r un</w>
meth ods</w>
eil en</w>
vi a@@</w>
per ä
medi a</w>
alu e</w>
neuvottel ut</w>
er o@@</w>
C a
j en@@</w>
itu ksi@@</w>
sa ys</w>
poliitt iset</w>
kiit os</w>
Johann es
mu ihin</w>
kohd assa</w>
k ke@@</w>
ev idence</w>
char ac
kor kea</w>
aih etta</w>
sup ply</w>
cre di
tom a
B ur
tuks essa</w>
saavu t@@</w>
op ening</w>
U K</w>
199 7</w>
yh tä
under standing</w>
m pan
as tu@@</w>
a mis@@</w>
ver s</w>
vaati m
uudis tamis@@</w>
ta po
sod an</w>
de pend
compet itive</w>
E rik
ta mm
refuge es</w>
kohd at</w>
e k</w>
e fficient</w>
Ber l
e ing</w>
Hus se
ver kos
mi llä</w>
im pi
vähen tämis@@</w>
r ing</w>
nu mer
my y
happ y</w>
ac e
Ita ly</w>
mi esten</w>
k r
aine iden</w>
other wise</w>
nyky isen</w>
la be
Ch risti
0 @@</w>
ti me
poh ti@@</w>
C y
toimin taan</w>
alterna tive</w>
substan tial</w>
oikeudell isten</w>
sek tor
merki lle</w>
inter vention</w>
C A
2 7</w>
one theless</w>
n onetheless</w>
mo der
ap preci
Li ber
un able</w>
las ke@@</w>
kuu lem
i ri
Kre ikan</w>
tamm ik
liik ke
l et
kehity s</w>
be ar</w>
vall oi@@</w>
sec u
monim uoto@@</w>
j os
indus trial</w>
Amer ika@@</w>
sy y</w>
k y</w>
enti rely</w>
as king</w>
vuo sien</w>
vi estin
l ä@@</w>
differ ences</w>
b ed</w>
allekirjo itta@@</w>
P act</w>
thre at</w>
tain ing</w>
se a</w>
käy ttämä@@</w>
huippu kokouksessa</w>
exac tly</w>
u tuu</w>
strategi an</w>
show s</w>
käy tävä@@</w>
is hed</w>
ch ec
alku perä@@</w>
tom an</w>
suppor ting</w>
o tettu</w>
disas ter</w>
tuom io@@</w>
tammik uu@@</w>
koh taa</w>
isyy ttä</w>
inten tion</w>
finan cing</w>
e ik
F re
vakuu tta@@</w>
u ations</w>
ra il
pa k
ne ita</w>
enorm ous</w>
Kos ov
Econom ic</w>
kunnian himo@@</w>
mä ll@@</w>
kiinn ittää</w>
d ik
R o
Constitu tion</w>
ta lis
main ly</w>
es ty@@</w>
c ks</w>
P ub
täm inen</w>
tr ansa
kan sa</w>
iti ous</w>
sov ittelu@@</w>
oll @@</w>
i j
hyv in
re ä@@</w>
L eg
substan ces</w>
recogn ised</w>
etu ja</w>
degre e</w>
re member</w>
emplo ye
e e</w>
täy si
toiminta suunnitel
cl as
Pub lic</w>
N ov
ol s</w>
traffic king</w>
str ong
na iset</w>
laajentu minen</w>
im es</w>
tr ust</w>
to tally</w>
jos kus</w>
f ec
CO M</w>
to isi
esittämä ä@@</w>
esimer kki@@</w>
x emb
va mma
kans alais
establis hment</w>
vir ka
toim ista</w>
kuu kausi@@</w>
commer cial</w>
sig ned</w>
repe at</w>
matk usta@@</w>
kuu d
it ur
3 5</w>
lead ers</w>
alis m</w>
yrity ksiä</w>
m al
deb ates</w>
Bel gia@@</w>
vaihtoeh to@@</w>
ma ista</w>
kä ä</w>
fi f
perin te@@</w>
kuulem is@@</w>
isyy teen</w>
Mar ch</w>
ris e</w>
p t</w>
dang er</w>
clos er</w>
0 2
tode ta@@</w>
state ments</w>
perus tus@@</w>
kymmen @@</w>
m ber</w>
any one</w>
speak ers</w>
l ess
get ting</w>
P a
y ä</w>
pala u
määrä ä</w>
l u@@</w>
e ir
cho ice</w>
taloudell inen</w>
koordino i@@</w>
ik ä
Inter governmental</w>
yhteis työ</w>
re ject</w>
plen ary</w>
kem a@@</w>
con tra
M o
strateg i@@</w>
ka pa
mu kais
its enä@@</w>
con ference</w>
ci vil
wor ked</w>
viljeli jö
opp i@@</w>
men e@@</w>
m us@@</w>
f er</w>
con stan
Pe ople</w>
tied ot@@</w>
päätöksente ko@@</w>
päätö kset</w>
lä mp
kiinn i</w>
aloitte en</w>
F unds</w>
tämä n@@</w>
per fec
m paa</w>
ks esta</w>
it tämä@@</w>
id ents</w>
f la
väh i@@</w>
vuod esta</w>
kansalais järjestö@@</w>
in su
ve h
set t
res urs
keske inen</w>
joh tuu</w>
influ ence</w>
con ver
a head</w>
V i
tavoitte en</w>
see m</w>
po is@@</w>
or d</w>
op position</w>
f ying</w>
er ää@@</w>
ul ti
struc ture</w>
yd in@@</w>
y er</w>
siir ty@@</w>
otta maan</w>
for ced</w>
S truc
var ain
sa an
reduc ing</w>
pro @@</w>
monimut ka@@</w>
koti maa@@</w>
Ch ech
sc ho
saf e</w>
Lu xemb
rak enne@@</w>
ka p
ing dom</w>
gh ting</w>
un employment</w>
rene w
pi ll
ot tava@@</w>
ma alis
er ed</w>
adop ting</w>
v uuden</w>
meet ings</w>
inno va
con tac
c ro
yle ensä</w>
tois en@@</w>
tark ka
mu is
Struc tural</w>
tem por
sanot tava</w>
poll ution</w>
perusoikeus kirja@@</w>
form er</w>
ad ded</w>
te ke@@</w>
taloudell isia</w>
pää ministeri</w>
prosent in</w>
p es
järjestö jen</w>
immedi ately</w>
contain s</w>
osapuol ten</w>
lähesty mis@@</w>
gi c</w>
ful fi
ase maa</w>
yrit tä@@</w>
ot to@@</w>
exten d</w>
eik ö</w>
200 5</w>
sur pris
re ad</w>
mo di
Nov ember</w>
peria ate</w>
maalis kuu@@</w>
e ten
väki valta@@</w>
ty h
simp le</w>
o ista</w>
mi lle</w>
dis charge</w>
ma ille</w>
ing ing</w>
ann oun
Kosov o</w>
ttäm inen</w>
t old</w>
subsi dies</w>
proses sia</w>
emis sions</w>
our ce</w>
lähestymis tapa@@</w>
ge ments</w>
vamma is@@</w>
tuleva isuuden</w>
tied ot</w>
te lleet</w>
sp ace</w>
K oso
pe ace
ik kalais@@</w>
fi gu
p ika@@</w>
kysymyks istä</w>
cli mate</w>
c over</w>
appe ars</w>
al en
K ingdom</w>
mielipi te@@</w>
mar ras
f und</w>
correc t</w>
bac k
v in
pre ven
perus ta</w>
henkilö iden</w>
väl ine</w>
pu tting</w>
j e@@</w>
ca pa
O c
wis hes</w>
vat ko</w>
tu e@@</w>
s end</w>
ra tes</w>
markkin at</w>
man u
kan ta@@</w>
exis tence</w>
3 ;</w>
&#9 3;</w>
noudat tamis@@</w>
las ten</w>
isyy s</w>
elä ke@@</w>
vi es
menet tely</w>
tr on
strategi c</w>
reason able</w>
profes sion
kansan terveyde@@</w>
in him
alis ti@@</w>
1 ;</w>
&#9 1;</w>
y ri
u tta</w>
see king</w>
sa atu</w>
mov ing</w>
E T
mer ely</w>
h a</w>
advanta ge</w>
ölj y@@</w>
to on</w>
subsidi arity</w>
high li
d estä</w>
critic ism</w>
Gre ek</w>
yhden tymis@@</w>
urhe ilu@@</w>
tulo s</w>
suur en</w>
saa ta@@</w>
ris ti@@</w>
orig in</w>
no ja@@</w>
liber aali@@</w>
kann us
ex change</w>
2 8</w>
vapaa eh
tilin tarkastus@@</w>
manag ed</w>
jou du@@</w>
T am
ksi lla</w>
tunn us
tu oda</w>
marras kuu@@</w>
j our
elec ted</w>
Austri a</w>
recommend ation</w>
hyväksy mis@@</w>
b in
ad ap
väline itä</w>
tiedo tus@@</w>
ta ja@@</w>
istun to@@</w>
et tava@@</w>
Tur k
vi e@@</w>
rejec ted</w>
an tama@@</w>
ab ol
H el
u ly</w>
laa ja</w>
ir man</w>
j an@@</w>
exerc ise</w>
P r
A c
ide as</w>
beli ev
amb itious</w>
tto aine@@</w>
oc c
merkity kse@@</w>
käyd ä</w>
gen e
ex pen
Ky pro@@</w>
resol ve</w>
kau pa
it ime</w>
ta misesta</w>
op les</w>
lead ing</w>
jo ille</w>
improv ement</w>
consequ ently</w>
Tra de</w>
occ asi
main itse@@</w>
ch ance</w>
thou san
ll ä@@</w>
f ron
emmis tö</w>
at titude</w>
si t</w>
seur anta@@</w>
neuvottelu issa</w>
huolen aihe@@</w>
ar ing</w>
tark asti</w>
sivi ili@@</w>
par anne@@</w>
oso ituksia</w>
lä pi</w>
enterpris es</w>
manu fac
demokraatt isen</w>
Koso vo@@</w>
ta usta@@</w>
Ger man</w>
r ying</w>
va ali@@</w>
suu re
constitu tional</w>
tol er
tarkas tella</w>
eval uation</w>
ac ts</w>
valtio issa</w>
recommend ations</w>
ratkais u@@</w>
ky ken
kor va@@</w>
im possible</w>
olog @@</w>
ehdo teta@@</w>
spe ed</w>
r s
kulu tta@@</w>
veh ic
tied ä</w>
thousan ds</w>
proc eed
ong st</w>
la u
am ongst</w>
Leg al</w>
E tel
poh jois@@</w>
näkökul masta</w>
no t
c ell
al ussa</w>
funda men
yhteis ö</w>
tarko i@@</w>
oike a</w>
integra ted</w>
S @@</w>
suhte essa</w>
lä hen
fe ar</w>
facil ita
esimer kki</w>
elä kke
propos ing</w>
neu vo@@</w>
harmon isation</w>
ep ing</w>
teh tävä@@</w>
rau han
la isia</w>
f el
is o@@</w>
dipl om
Tre aties</w>
wher e
vu or
val ko@@</w>
ongel maa</w>
huippu kokouksen</w>
buil d</w>
tte ko</w>
sy nn
k et</w>
tarpe e@@</w>
sit uations</w>
rik ko@@</w>
op posed</w>
järjes tön</w>
im ä@@</w>
h ä@@</w>
valvonn an</w>
sa ta
ra ja</w>
komite a@@</w>
inten d</w>
E x
03 @@</w>
reduc ed</w>
poikke ukse@@</w>
m .</w>
kin ta@@</w>
for get</w>
de ksi</w>
construc tive</w>
Tam per
takais in</w>
ri id
pe oples</w>
hyl ä@@</w>
comp ly</w>
an a@@</w>
yhdenmuka is@@</w>
to ihin</w>
suojel e@@</w>
m pää</w>
keskit y@@</w>
fra ud</w>
figu res</w>
comple x</w>
aim ed</w>
S E
paho i@@</w>
kuu n
cover ed</w>
safe gu
rahoit usta</w>
määr än</w>
mp ia</w>
dimen sion</w>
en han
transpar ent</w>
ter ing</w>
konferens sin</w>
institu tion</w>
edusta ja</w>
ri es</w>
on eu
com pla
Barcel ona</w>
aj oneu
suos it
os uus</w>
mp tion</w>
hel pp
grea test</w>
a ffairs</w>
rajo jen</w>
o gra
n op
gran ted</w>
val tion@@</w>
u k
ehdotuks een</w>
ol i
ka amme</w>
Pal esti
to p
em pää</w>
contro ls</w>
asem assa</w>
tila isuus</w>
t onn
suosi on@@</w>
pi d</w>
j it@@</w>
hu n</w>
en jo
1 1.</w>
re ite
oblig ations</w>
guarante es</w>
vol un
tois essa</w>
ta ar
pe ä@@</w>
he in
constitu tion</w>
represen ts</w>
end er</w>
asem an</w>
Europe ans</w>
valio kunn
sa ar
myön tämis@@</w>
eas y</w>
compensa tion</w>
etel ä@@</w>
enn alta</w>
as h
ar k
al usten</w>
ö ö
tu te</w>
pys ty</w>
ne l</w>
n ation</w>
Pr ime</w>
D oh
nähd ä</w>
lu ke@@</w>
d ers</w>
Christi an</w>
vä lia
v uutta</w>
to ber</w>
man date</w>
kustann ukset</w>
gro unds</w>
des tro
d oll
ca me</w>
arran gements</w>
Oc tober</w>
Bri tann
4 5</w>
usk onn
terroris mi@@</w>
star ting</w>
or gan
kuu n</w>
for es
ans w
r ä
pass eng
Etel ä</w>
tod en@@</w>
sy y@@</w>
e ita</w>
ten a</w>
te ful</w>
ser ies</w>
appla use</w>
challeng es</w>
n er
ell a@@</w>
compe tence</w>
v isi
ta miseen</w>
practic es</w>
katastrof i@@</w>
ei ght</w>
aw ar
voi maan</w>
ratkais un</w>
hyv än</w>
defin ed</w>
aim s</w>
tu kema@@</w>
lis ään@@</w>
ja ks
isi vät</w>
continu ing</w>
br inging</w>
var muu
emp ha
c ement</w>
b a
appe al</w>
B ro
turvall isuuteen</w>
tapahtu va@@</w>
sup ports</w>
la it
julkilaus uma@@</w>
hu ippu@@</w>
declar ation</w>
välin e@@</w>
me idät</w>
kom men
is ts</w>
comprehen sive</w>
viestin tä@@</w>
mu tual</w>
ma x
ha gen</w>
de fic
E S</w>
2 6</w>
h u@@</w>
ga tive</w>
effici ency</w>
Portu gal</w>
siz ed</w>
luul e@@</w>
V an</w>
t ments</w>
ri ittä@@</w>
ll o@@</w>
lausun to@@</w>
chan ged</w>
alue elle</w>
Barcel ona@@</w>
st res
rah at</w>
infrastruk tuuri@@</w>
an to@@</w>
3 1</w>
tor i@@</w>
toim i</w>
ten ed</w>
tempor ary</w>
strong ly</w>
siir tä@@</w>
köyh yyden</w>
ch es</w>
väes tön</w>
dru gs</w>
äs ke@@</w>
käytä ntö
iti veness</w>
immi grants</w>
an kin</w>
Nor th</w>
0 1</w>
uni vers
tiete ell
pan kin</w>
lan ko@@</w>
W h
vo tes</w>
tuot teita</w>
struc tures</w>
parha a@@</w>
muu tama</w>
säännö s
pub lis
o ffice</w>
mi c</w>
mark s</w>
istu s@@</w>
invol ve</w>
offici al</w>
lo ka
ku m
kans an</w>
initi al</w>
infrastruc ture</w>
ed u
a at
J uly</w>
An g
koulu tuksen</w>
d ical</w>
teh ty@@</w>
m ing</w>
kiin ti
keino ja</w>
attac ks</w>
NAT O</w>
Al ger
pay ments</w>
kilpail un</w>
deta iled</w>
mu issa</w>
loka kuu@@</w>
ks istä</w>
employe es</w>
emb ly</w>
Palesti ina@@</w>
A lanko@@</w>
ä n@@</w>
v an@@</w>
tunn e@@</w>
ratifio i@@</w>
as te
alue et</w>
un a</w>
pysy vä@@</w>
sopim ukset</w>
origin al</w>
isi ksi</w>
ik ä@@</w>
N ew</w>
Dan ish</w>
selke ä</w>
määräraho ja</w>
aiko ina</w>
parlamen taar
k ala
ed ing</w>
B as
lu ku
chil d</w>
si vely</w>
om ien</w>
j ur
rik kom
jo is</w>
h om
tel tiin</w>
periaatte ita</w>
inte ll
tekijä t</w>
periaatte essa</w>
g y
vapaaeh tois@@</w>
pidet y@@</w>
palvelu ja</w>
desig ned</w>
c al</w>
appropri ations</w>
appro val</w>
a mer
täs mäll@@</w>
te ver</w>
te tu@@</w>
ta n</w>
läh tö@@</w>
6 @@</w>
langu ages</w>
Portu gu
Gre en</w>
wha tever</w>
te dly</w>
stand ar
lähet tä@@</w>
i ed</w>
h ti
ex port</w>
we ak
suun ta@@</w>
si vat</w>
pri or
glob alisation</w>
Sta bility</w>
territor y</w>
tar gets</w>
läs nä</w>
liit ty
aikataul u@@</w>
Poh jois</w>
yhteen kuulu
teh osta@@</w>
des truc
ag ed</w>
Portugu ese</w>
M c
vasta ava@@</w>
valtio ita</w>
maa han@@</w>
keske isi@@</w>
compet itiveness</w>
a am
si vu@@</w>
representa tive</w>
me kan
fail ed</w>
ver rat
verrat tu@@</w>
tuomioistu in</w>
mieh et</w>
valmis te@@</w>
va tions</w>
v ement</w>
te ki</w>
reg is
pakol ais@@</w>
mon en
high light</w>
de ad
En g
mov ed</w>
mon th</w>
lik ely</w>
lainsäädän tö</w>
käs ity
ks issa</w>
kalta is@@</w>
by ro
Erik a</w>
mon ta</w>
mekan is
kulttu ur
Turk ish</w>
Fisch ler</w>
l ost</w>
care fully</w>
199 6</w>
pan na</w>
ma ton</w>
lu oma@@</w>
llis yyden</w>
en ab
ed on
ag encies</w>
Strasbour g</w>
v ity</w>
pen sions</w>
mme ko</w>
gra teful</w>
dis pu
turvall isuus</w>
jä t
hein äkuu@@</w>
expla in</w>
dic ta
ammat ti@@</w>
af ter
A z
5 00</w>
un less</w>
tion ing</w>
suh teen</w>
pres ence</w>
om aa</w>
ks @@</w>
esite tty@@</w>
en emmistö</w>
ede llä</w>
de ep
aal @@</w>
propos es</w>
ne gative</w>
järjestel mä@@</w>
äär ä@@</w>
re te</w>
miel ellä@@</w>
arvio inn
vapau tta</w>
thre a
tar ke@@</w>
sel vä</w>
ll een
jä lleen
fac ing</w>
Swed en</w>
pr us</w>
per he
kaik en@@</w>
Pal ac
Cy prus</w>
2 9</w>
rah a</w>
isyy den</w>
c ol
E L
vaiku ttava@@</w>
ty t</w>
päätös ten</w>
produc ers</w>
pres er
ff er</w>
elä män</w>
ar ri
Cha mber</w>
tiiv i@@</w>
te illä</w>
ser va
ef ly</w>
del a
Balkan @@</w>
valmis telu
kah ta</w>
justi fied</w>
deta il</w>
a part</w>
Isra eli</w>
sääd ö
pääs y@@</w>
lim its</w>
im äärä@@</w>
esit ti</w>
K OM</w>
ö i@@</w>
suor itta@@</w>
sta tis
m pä
it or</w>
f il
del ay</w>
Rus sian</w>
yleis sopimuksen</w>
yhti ö
vähen tää</w>
poh ja@@</w>
os aa</w>
lai vas
invol vement</w>
g er</w>
al us
tas ks</w>
poliitt isesti</w>
muod ossa</w>
kahd en@@</w>
as sosi
o ffer
la ting</w>
hallit ukset</w>
avoim uutta</w>
Pro gra
vahin go
tu ksiin</w>
person ally</w>
mar g
kann usta@@</w>
inn än</w>
het k@@</w>
en ter</w>
an toi</w>
su hd
siir tymä@@</w>
hallinno llis@@</w>
ent it
direktiiv issä</w>
A K
markkino ita</w>
käytö stä</w>
inhim illis@@</w>
ima g
consis tent</w>
bu rea
an to</w>
yll ä
paik koja</w>
hi en
gener ally</w>
c e
wi lling</w>
tote si@@</w>
ro und</w>
riippu va@@</w>
perus telu@@</w>
individ u
Sol ana</w>
te ja</w>
suffer ing</w>
contribu tions</w>
äänesty ksen</w>
ttä isiin</w>
s man</w>
resol ved</w>
pers ons</w>
ongel ma@@</w>
ol es
fac ed</w>
edis tämis@@</w>
c ra
B ol
yks et</w>
valmi ita</w>
suunn a@@</w>
ro oli</w>
mpi en</w>
keske y@@</w>
itte es</w>
mechan isms</w>
ma tely</w>
happen ing</w>
be ings</w>
tarkistuks ista</w>
strength ening</w>
pakol a
US A</w>
v ää
tä r
ple ase</w>
pl ying</w>
nn issa</w>
käsittel emä@@</w>
interes ting</w>
pitä vä@@</w>
N L</w>
yrity ksille</w>
sp ent</w>
onn ittele@@</w>
emer g
c oura
vic e</w>
tulo kset</w>
kor jaa@@</w>
flo or</w>
us tra
ran ge</w>
pääs tä@@</w>
o od</w>
ka mpan
b ad</w>
union ia</w>
follow ed</w>
el ement</w>
d essä</w>
aloitte ita</w>
säil yttämis@@</w>
ki ell
in come</w>
i z
vi id
toimintasuunnitel ma@@</w>
toimi elin@@</w>
kiit oll@@</w>
so ta@@</w>
mmä lle</w>
is en@@</w>
infor m</w>
conc rete</w>
arvioid a</w>
D A</w>
te ta</w>
te e</w>
politiik kojen</w>
ongel mien</w>
luonn on@@</w>
jul is
D u
1 .
tas o@@</w>
insu rance</w>
fa il</w>
ta tive</w>
rau ta@@</w>
kes ki
jäl j@@</w>
N S</w>
Belgi an</w>
te ttävä@@</w>
re kis
pre ad</w>
oikeu tetu@@</w>
immedi ate</w>
grow ing</w>
c ot
tied e@@</w>
sid es</w>
ob sta
ka ttava@@</w>
velvo itte
ti a@@</w>
ob vious</w>
näkem yks
h und
po l</w>
pa per</w>
n neet</w>
liiken te
ko ihin</w>
ke eping</w>
inclu des</w>
ar ed</w>
vasta us</w>
tun te@@</w>
ter n</w>
sto cks</w>
ser ve</w>
na mme</w>
ka ks
eu vos
te red</w>
te in</w>
päi vä</w>
ik ään</w>
id emme</w>
edusta jat</w>
alo jen</w>
V itor
vi ä@@</w>
liik a@@</w>
jon kin@@</w>
f as
bin ding</w>
velvoll isuu
u ksien</w>
perspec tive</w>
nähd ä@@</w>
ke a@@</w>
herä ttä@@</w>
e tary</w>
acc o</w>
Chech ny
taloudell isten</w>
t ter</w>
sosiaal itur
oper ations</w>
kes ku
johta va@@</w>
hy viä</w>
ga ve</w>
distri bution</w>
di gn
teki jä</w>
kanso jen</w>
johd o@@</w>
for th
E gy
Britann ia@@</w>
talou s</w>
pyy tä@@</w>
occasi ons</w>
ajat tele@@</w>
Strasbour g@@</w>
Chechny a</w>
Ag ricul
under min
om asta</w>
menettel y@@</w>
ke don
ehd i@@</w>
tark ka@@</w>
ta sa@@</w>
si h
op u@@</w>
olog y</w>
laaj u
piir i@@</w>
fo or
curr ency</w>
b ia@@</w>
Progra mme</w>
väh intä@@</w>
vaiku tukset</w>
torjun n
tarv etta</w>
parlamentaar is@@</w>
g en@@</w>
ta malla</w>
sil ti</w>
oikeus perusta@@</w>
mu ista</w>
mene e</w>
s yr
per man
paik alla</w>
ing @@</w>
ca uses</w>
AC P</w>
terroris ti@@</w>
tasa vallan</w>
s ala@@</w>
is ellä</w>
fin e</w>
burea uc
Vitor in
seuraa van</w>
contra dic
charac ter
ad ver
T i
Ru le</w>
G e
utu a</w>
oikeus valtio@@</w>
elä k
au t
atta ck</w>
P ak
y e</w>
vi hd
tuot te
pyy ntö
lu jit@@</w>
let ter</w>
il mas
compli ance</w>
Con sum
3 @@</w>
wor k
tekn olo
pres enting</w>
Re gi
var at</w>
täyden tä@@</w>
ta miseksi</w>
se x
nel jä
lin ked</w>
hyö dy@@</w>
cl es</w>
c y
sa tama@@</w>
commun ities</w>
U kra
wa it</w>
ku ka</w>
to b
stand ard</w>
muka inen</w>
A ud
1 0
talou tta</w>
rin na
mar itime</w>
ed e@@</w>
dis t
y teen</w>
vih reä@@</w>
tob acco</w>
nim issä</w>
lu opu@@</w>
ch e
Consum er</w>
yhtä lä@@</w>
väär in</w>
tämän hetk@@</w>
ta hd
onnistu nee@@</w>
om ia</w>
käytö ssä</w>
is mi@@</w>
ex ec
ehd ottama@@</w>
tä ä@@</w>
te ttava@@</w>
opti mis
laaj en
toteu t@@</w>
tehtävä nä</w>
suh teell@@</w>
particip ate</w>
max imum</w>
expres sion</w>
ten ces</w>
sov i@@</w>
menet tä@@</w>
komite an</w>
kesk en</w>
j aa</w>
han d
uudell een@@</w>
typ es</w>
te x
syr jä
no ise</w>
kri itt
ha a</w>
fisher men</w>
arv o</w>
alo ite</w>
Mon etary</w>
G ö
A s
öö pen
ööpen ha
ööpenha min
tur ning</w>
käyttöö not
equ ally</w>
comm ittees</w>
K ööpenhamin
tu va</w>
suh teiden</w>
satisfac tory</w>
s ina@@</w>
poli it
ann ettu</w>
aja tus</w>
Res earch</w>
A tlan
väl ttää</w>
riid assa</w>
oll aan</w>
noudat tama@@</w>
na isia</w>
im plic
ilma is
d us
affec t</w>
var sina@@</w>
tu oll
open hagen</w>
kais e@@</w>
hear t</w>
ex emp
ans ka</w>
alku perä
T rans
H er
C openhagen</w>
järjes @@</w>
huol ell@@</w>
us ko</w>
tie tävä@@</w>
s en@@</w>
und a
s tre
k elu@@</w>
differ ence</w>
Ag ency</w>
1 5
talou d
kohd ista</w>
flexi ble</w>
fac tor</w>
f ran
et si@@</w>
3 3</w>
tär ke@@</w>
teks tin</w>
ob tain</w>
destruc tion</w>
tu lle@@</w>
star ted</w>
j u@@</w>
in ä@@</w>
il ies</w>
gran t</w>
ap par
Kööpenhamin a@@</w>
sec ure</w>
p. m.</w>
im pose</w>
emplo yed</w>
b a@@</w>
ar ies</w>
ajan kohta@@</w>
vapau ksien</w>
va kau
sy d
sopim uksesta</w>
neuvottelu ja</w>
go al</w>
el ä@@</w>
realis e</w>
re ag
kys e
forth coming</w>
F ra
F @@</w>
ten ing</w>
ra pid</w>
päätö stä</w>
in ation</w>
elintarvikke iden</w>
alue ille</w>
ven tä@@</w>
työ järjesty
tuotann on</w>
el imin
dis ap
Intern et@@</w>
sa ira
mukais tamis@@</w>
ester n</w>
z one</w>
valmis ta@@</w>
plan ning</w>
kulje tus@@</w>
kul j
fam ilies</w>
amer ikkalais@@</w>
U N
P res
viras ton</w>
uudis tus@@</w>
työsken tely@@</w>
sy ö
sop iva@@</w>
sig n</w>
equ ip
dra wing</w>
c ou
sääd e@@</w>
ma t@@</w>
elä in@@</w>
certain ty</w>
yhden mukaistamis@@</w>
työs tä@@</w>
tied on</w>
suhte ita</w>
raken tava@@</w>
pro motion</w>
pri l</w>
hyväksy tty</w>
C @@</w>
A pril</w>
str ik
par as</w>
ot ti</w>
exc es
el o
J ap
vaiku tus</w>
unda mental</w>
toimenpi teet</w>
tarkistuks essa</w>
s issa</w>
respec ted</w>
lu omis@@</w>
lo g
heik entä@@</w>
F undamental</w>
2 00</w>
men ne@@</w>
is sä@@</w>
elec tron
asian oma@@</w>
ala an</w>
D R</w>
vis it</w>
h inn
com pati
ak ka</w>
te tun</w>
oblig ation</w>
le v
kuul u</w>
Wh ite</w>
7 5</w>
toteu ttama@@</w>
tarkistu sten</w>
kau della</w>
EC H
is empi</w>
Ge or
ru o
re ci
p o@@</w>
ot sa
ongel mista</w>
kuu kauden</w>
järjestel mään</w>
Ma kedon
tra vel</w>
no ll@@</w>
ko he
fac tors</w>
väl ttämä
välttämä ttö@@</w>
tois sija
taloudell iset</w>
so til
sijo itta@@</w>
it ten</w>
expec ted</w>
täys istunnossa</w>
tul k
si bly</w>
ol a@@</w>
cla im
va t@@</w>
protec ting</w>
numer ous</w>
me at</w>
all @@</w>
val u
tämän päivä@@</w>
pla yed</w>
oikeu teen</w>
il u</w>
endor se</w>
edell een@@</w>
D en
yksin oma@@</w>
wor se</w>
tä hd
pyr ki
näkö kohtia</w>
mietinnö ssä@@</w>
interes ted</w>
er gy</w>
ent y</w>
campa ign</w>
varain hoito@@</w>
r y@@</w>
lin k</w>
ess ing</w>
en de
ati c</w>
Euro pol</w>
viit taa@@</w>
tu on
strategi a</w>
shar ed</w>
sa i</w>
realis t@@</w>
poliit ik
laivas to@@</w>
kein o</w>
en t@@</w>
ter ve@@</w>
kolle ga
kol mas</w>
it ti@@</w>
f are</w>
def end</w>
vää ris
vastuu ta</w>
ti mme</w>
te ll@@</w>
ryhmä t</w>
ohjel maa</w>
markk ina</w>
lämp imä@@</w>
kysymyks essä</w>
er o</w>
1 4
t os
na tions</w>
kuu lla</w>
Agricul ture</w>
yksi k
valvon ta</w>
farm ing</w>
d re
Comm un
vi lla</w>
tur ing</w>
pur poses</w>
edusta jien</w>
M or
Aud itors</w>
y ksi@@</w>
tu vat</w>
politic s</w>
paik kojen</w>
S har
yleis ö@@</w>
wor th</w>
tax ation</w>
lo wer</w>
in ts</w>
con solid
tutkim usta</w>
require ment</w>
l ti</w>
bri efly</w>
yhteis päätös@@</w>
toiminta ohjelma@@</w>
there by</w>
nel jä</w>
kno ws</w>
jou kko@@</w>
exper ts</w>
es ittä
turva a@@</w>
maahan muutta@@</w>
kysymyks issä</w>
jo ki@@</w>
fin ance</w>
Bud gets</w>
yksi kö
mul ti
j an
ed y</w>
ura l</w>
ulti mately</w>
uks elle</w>
tru ly</w>
tety t</w>
ta ge</w>
sto od</w>
kul ku@@</w>
kat so
jousta v@@</w>
fi ghting</w>
dec isi
al ku@@</w>
wa iting</w>
väes tö@@</w>
v i</w>
tell ut</w>
pa h
nouda tettava</w>
kun noll@@</w>
ad v
a ver
A u
äänesty ksessä</w>
vii vä
sosiaalitur va@@</w>
sosi alisti@@</w>
läh tö
kesk en@@</w>
brea k</w>
K es
yll ä@@</w>
tekem istä</w>
profession al</w>
pitä mä
kysymyks estä</w>
vi en
offici als</w>
conduc t</w>
suojel ua</w>
seik ka@@</w>
osoit us</w>
lu pa@@</w>
kor ja@@</w>
id em
hu hti
demonstra ted</w>
val taa</w>
reac hing</w>
oma ksu@@</w>
mit kä</w>
minis teri
ll ani</w>
järjes täyty@@</w>
huhti kuu@@</w>
att le</w>
aiheu ttama@@</w>
OLA F</w>
Commission ers</w>
väär in@@</w>
työ n@@</w>
th o
teks t
kyse isen</w>
epäil y@@</w>
edisty s
valmis tele@@</w>
ratkais ua</w>
improv ements</w>
acc idents</w>
Mar ket</w>
Bol kes
ll s</w>
käy ttävä@@</w>
hall ituksi@@</w>
com plic
bur den</w>
an kar
vi ed
tyy pp
hen g
haas te@@</w>
ehdo tusten</w>
contain ed</w>
as kel
Scheng en</w>
vaati va@@</w>
tri ed</w>
tr a</w>
su rely</w>
pyyd e@@</w>
kiel täyty@@</w>
er otta@@</w>
er ing</w>
edusta ja@@</w>
dis ab
M an
ih in@@</w>
con su
tu n@@</w>
ssa mme</w>
s ource</w>
myö hä@@</w>
in stance</w>
g la
. e
rahoit uksen</w>
p k</w>
ansa itse@@</w>
Or ganis
time table</w>
tehtävä ä</w>
rikoll is@@</w>
käyd ä@@</w>
eurooppala isia</w>
entit led</w>
dise ases</w>
san oma@@</w>
represen ted</w>
nor ma
nim i@@</w>
materi al</w>
lo w
liik enn
is a@@</w>
co as
tho rou
saman aika@@</w>
hyödy n
hol ding</w>
histor ic</w>
continu ed</w>
conflic ts</w>
c ent</w>
vah va@@</w>
ta isi</w>
res tor
pi iri
paran tamis@@</w>
l or
contin ues</w>
contin ent</w>
Inter nal</w>
Balkan s</w>
vastu un</w>
tuks en@@</w>
reflec t</w>
pa a@@</w>
osapuol i@@</w>
onnettom uu
mon itor</w>
m id
lä is@@</w>
tre ated</w>
puol ella</w>
im posed</w>
cus tom
assosi aatio@@</w>
9 2</w>
pil ari@@</w>
kaupa llis@@</w>
f our
exten ded</w>
ehkä ise@@</w>
citiz en</w>
Liber al</w>
quali fied</w>
prec ed
per he@@</w>
pass ed</w>
muod ostu@@</w>
in t</w>
alu etta</w>
7 @@</w>
ó n</w>
viljel y@@</w>
ristiri ita@@</w>
legiti mate</w>
ende av
Amsterd am@@</w>
d ro
Pro tocol</w>
AK T</w>
ta ho
sov er
sover ei
pel k
o iden</w>
it tel
et ing</w>
transa tlan
lap si@@</w>
genu in
electron ic</w>
EL DR</w>
rakenn us@@</w>
pre fer
opin ions</w>
mas s</w>
kehity kseen</w>
en ess</w>
d e@@</w>
am bi
y ttävä@@</w>
tiedo tus
separ ate</w>
merk kejä</w>
genuin ely</w>
anta i@@</w>
3 2</w>
voima kka@@</w>
s em
lähestymis tapa</w>
la in</w>
i el@@</w>
guarante ed</w>
en du
au toma
ulkom a
tal ks</w>
rec over
ratkais uja</w>
ks ellä</w>
Zimbab we</w>
Amsterd am</w>
vuod e@@</w>
pub lic
ol enna
gra du
b ila
P SE</w>
toimenpi teiden</w>
minis ters</w>
ll ään</w>
ko ke
confir m</w>
valtio ta</w>
toissija isuus@@</w>
sugg est</w>
utu nut</w>
suor i@@</w>
solidaar is@@</w>
seik ka</w>
s sa@@</w>
men ding</w>
luov utta@@</w>
ongel miin</w>
in ta</w>
i um</w>
au to@@</w>
Gal ic
terveyd en
tarkastel tava</w>
prec ise</w>
o in@@</w>
j au
T ou
tu on</w>
tiedotus väline@@</w>
te bor
maa ta</w>
k id
tuke va@@</w>
trad itional</w>
todis te@@</w>
s ources</w>
peace ful</w>
ohjel mia</w>
en ed</w>
Gö tebor
E K
yl e@@</w>
tekni ikan</w>
mä t</w>
koordino inti@@</w>
Organis ation</w>
voi tava</w>
toteu tetaan</w>
maks u
jat ta@@</w>
hil jatta@@</w>
hava i@@</w>
al ities</w>
ti veness</w>
sub sequ
s ou
pol ttoaine@@</w>
penal ty</w>
istunn on</w>
F i
yhteenkuulu v@@</w>
tar ve</w>
puhemieh e@@</w>
proses siin</w>
o l</w>
mod ern
en ta
viivä sty@@</w>
puolu e@@</w>
kysym ysten</w>
ki o@@</w>
he idät</w>
h ou
demonstra te</w>
bri ef</w>
volun tary</w>
s mo
realis tic</w>
re infor
mä ssä</w>
la w
kaup pa</w>
b la
NG Os</w>
suhte et</w>
rajo it
kustann uksia</w>
emerg ency</w>
consider ing</w>
al ha@@</w>
Laek en</w>
tapa us</w>
deli ghted</w>
d ings</w>
cr imes</w>
a ff
Bud get</w>
0 8</w>
vall itse@@</w>
ta ke
si v
n es
määrä yksiä</w>
kaup paa</w>
empha sis</w>
vi isi</w>
tä h
ttö miä</w>
olenna ise@@</w>
k el@@</w>
dign ity</w>
di gi
conclu ded</w>
Bus h</w>
pas s</w>
h ence</w>
ev ening</w>
Euroop asta</w>
ver ta
oper ators</w>
op tion</w>
examin e</w>
credi bility</w>
amoun ts</w>
ab s
A L
ti ä</w>
sec re
ri ittämä@@</w>
perustusla in</w>
p y
man age</w>
käsittel yyn</w>
Husse in</w>
tion ary</w>
mone tary</w>
mahdoll @@</w>
kiin to@@</w>
in vi
depend ent</w>
th u
sotil as@@</w>
restric tions</w>
labe lling</w>
l ying</w>
jud g
Po et
ver ta@@</w>
var ova@@</w>
tasa pain
str ö
oike uksista</w>
nuor ten</w>
is la
ch em
to p</w>
co decision</w>
vah ing
tasa puol@@</w>
politic ians</w>
mielen kiinto@@</w>
halu si@@</w>
clari fy</w>
allow ing</w>
W at
Ni el
K io
3 8</w>
yo to</w>
tapa a</w>
kuul e@@</w>
inten ds</w>
huol ehdi@@</w>
h id
dis tor
alo it@@</w>
K yoto</w>
B ul
ves sels</w>
pid e</w>
paran n@@</w>
mie hi
löyd @@</w>
Afric an</w>
19 8
perman ent</w>
nuor i@@</w>
mi ten@@</w>
lausun non</w>
jäsen elle</w>
it y@@</w>
inn o@@</w>
il mi
vakuu tus@@</w>
v ina</w>
ta i
ple as
nop eu
ne g
k le</w>
0 2</w>
tel e
regula tory</w>
pit o@@</w>
g ender</w>
K uu
A ss
välis essä</w>
van h
stan ds</w>
pako t@@</w>
etu sija@@</w>
V al
Mo ro
Bul gar
piiri in</w>
le ik
ker ta@@</w>
invol ves</w>
im pression</w>
ha ita
en e</w>
I tä</w>
tämä t@@</w>
tuoll o@@</w>
painopis te@@</w>
no ted</w>
at tava</w>
aam una</w>
ymmärr y@@</w>
vapa us</w>
työ markkina@@</w>
tuot ta
säännö ll@@</w>
sul ke@@</w>
ph ase</w>
ni ght</w>
ad voc
J ugosla
Comm on</w>
some what</w>
lento yhtiö@@</w>
kri isi@@</w>
järjestel miä</w>
I ran</w>
yhteis työhön</w>
syrj ä@@</w>
ordin ary</w>
happen s</w>
al i</w>
vehic les</w>
tila is@@</w>
technolog ies</w>
näy t@@</w>
moder n</w>
ki is
elec tion</w>
Mac edon
wr itten</w>
ver si
uu t
sil mä@@</w>
ri ers</w>
ri en</w>
perfec tly</w>
määräraho jen</w>
muod os
determin ation</w>
ap plying</w>
H i
4 8</w>
yr ittää</w>
yl imäärä@@</w>
vo ice</w>
under taken</w>
tied on@@</w>
rekis ter
periaat teiden</w>
oso it@@</w>
12 .@@</w>
wa ters</w>
por ting</w>
oc ca
occa sion</w>
ka asu@@</w>
in kin</w>
Y @@</w>
T un
Den mark</w>
vah v@@</w>
uudes saan</w>
ther lands</w>
tety n</w>
inte gro
go ro
exam ples</w>
cen tre</w>
Ne therlands</w>
veto a@@</w>
reques ted</w>
pa yment</w>
na apu
han ds</w>
fle et</w>
ase tus</w>
as sure</w>
Laek en@@</w>
Kio to@@</w>
te t
mill ään</w>
he ug
harjo itta
cre d
capa ble</w>
Makedon ia@@</w>
te ko@@</w>
rikoll isuuden</w>
min ority</w>
lainsäädä nnö@@</w>
laati mis@@</w>
kou lu@@</w>
he ll@@</w>
tra gic</w>
rauhan oma@@</w>
po or
or al</w>
n ers</w>
määritel mä@@</w>
menettely jä</w>
associ ation</w>
ag ency</w>
Ver heug
val o@@</w>
konferens sissa</w>
kann attava@@</w>
hyv @@</w>
ha it
um i@@</w>
ole ell@@</w>
mä stä</w>
lä n
li ability</w>
fel t</w>
d i@@</w>
Trans port</w>
Au th
vaka va</w>
tois ista@@</w>
tois in@@</w>
ta an
o ita</w>
kriitt is@@</w>
keskustel u
er i
defin e</w>
Palac io</w>
toimi va@@</w>
teho kas</w>
sus pen
refer endu
nel jä@@</w>
ch ing</w>
tit uu
religi ous</w>
proc eed</w>
ko t
bila teral</w>
En ergy</w>
re hell@@</w>
pla ces</w>
encoura ging</w>
mill oin</w>
exis ts</w>
appro ve</w>
so ta</w>
pi c</w>
nation als</w>
huom aa@@</w>
ben e
b it</w>
sanot tu</w>
re vision</w>
ins ist</w>
ig er
g one</w>
et na
ed essä@@</w>
tan t</w>
pr e</w>
pos t</w>
la tter</w>
korke i@@</w>
järjestel y
ha ki
tu kien</w>
j emme</w>
h ours</w>
experi enc
E mp
199 5</w>
w e@@</w>
vä hä
vaike uksia</w>
lää ke@@</w>
käyttöö n@@</w>
kes tä
c ally</w>
Jugosla via@@</w>
suojel un</w>
perus te
mahdollisuu ksien</w>
hä tä@@</w>
facilita te</w>
a pu@@</w>
ystä vä
tapa an</w>
stric t</w>
ponnis telu@@</w>
ne essä</w>
lisään tymis@@</w>
Is o@@</w>
I N
. ..</w>
yl ittä@@</w>
sol ve</w>
pill ar</w>
os alta@@</w>
oper ating</w>
le h
ik ais@@</w>
en try</w>
e jä</w>
awar eness</w>
ark alu
arkalu on
all a@@</w>
I C
tac kle</w>
sisäl tyvä@@</w>
sion ers</w>
m oun
li ev
kon e@@</w>
y tymis@@</w>
uu si
lisää mis@@</w>
kkaam min</w>
j ö@@</w>
em is@@</w>
a man
Ir an@@</w>
Al ban
sig nal</w>
rahas ton</w>
onn e@@</w>
eläk elä
eläkelä is@@</w>
edellyty kset</w>
di a</w>
d o@@</w>
I G
8 @@</w>
uudis tuksia</w>
tur y</w>
qu ar
p us
ll istä</w>
lisää mä@@</w>
kri isin</w>
ker ro@@</w>
kas v
kap pal
inno vation</w>
al usta</w>
H ome</w>
wel com
welcom ed</w>
r ich</w>
negoti ating</w>
kertom uksen</w>
h os
Lat in</w>
In dus
viik ko@@</w>
todis ta@@</w>
tab ly</w>
ni c</w>
be ha
prosess issa</w>
memb ership</w>
i .e
i.e .</w>
freed oms</w>
fe el
dik ta
b ase</w>
5 5</w>
tied ot
spen ding</w>
safegu ard</w>
sa ir
re di
proceed ings</w>
monop ol
mechan ism</w>
jaks o@@</w>
iti on
ita ble</w>
h o@@</w>
alkuperä is@@</w>
a void
wel fare</w>
tar get</w>
tan ts</w>
säännö ksiä</w>
käy nti@@</w>
ke ja</w>
hankke iden</w>
easi er</w>
aik ais@@</w>
F a
x ed</w>
tel tava</w>
tehtä viä</w>
prim ary</w>
mi es@@</w>
l ose</w>
individu als</w>
4 2</w>
3 6</w>
toim een
su ku@@</w>
päätö ksen@@</w>
na is@@</w>
la isen</w>
j ääd
C as
tur ned</w>
tuh o@@</w>
telev isi
tavo itetta</w>
suos tu@@</w>
raken teell@@</w>
pro mo
ot on
om et
lear n</w>
l e@@</w>
hyväks y</w>
cour t</w>
schem e</w>
katso o</w>
M i
suoj ella</w>
proc esses</w>
pro hi
koh tien</w>
ed essä</w>
ä ltä</w>
ulkom inis
tarpe et@@</w>
strategi aa</w>
res truc
protec ted</w>
om ista
nn yt</w>
et ty@@</w>
deb t</w>
P os
Auth ority</w>
ti vat</w>
te tut</w>
poll u
an t
seura a</w>
menettel yssä</w>
keskustel uja</w>
eb ru
N iger
suku pol
prepar ing</w>
os tus@@</w>
m us
d omin
saa pu@@</w>
sa ttu@@</w>
ro om</w>
re ment</w>
paik an</w>
fre qu
Ira q
In don
välia ikais@@</w>
täysi määrä@@</w>
järjestel y@@</w>
he al
hankke ita</w>
fo ot</w>
aut onom
A asia@@</w>
re construction</w>
oper ational</w>
maail ma@@</w>
kuulu va@@</w>
kul jet
ed ut</w>
contrac ts</w>
condem n</w>
arvos ta@@</w>
ttä miseksi</w>
tou rism</w>
terve yden</w>
te mp
si e
s li
pel kää@@</w>
nä h@@</w>
Fis her
vaatim usten</w>
jär ky
heik o@@</w>
h un
ga in</w>
for mu
ehkäis y@@</w>
al e@@</w>
Qu es
Indon es
Emp lo
Ag enda</w>
valta lais@@</w>
te iltä</w>
ta vasta</w>
pää oma@@</w>
p lu
nouda teta@@</w>
m ly</w>
ll isiä</w>
ki elle@@</w>
ker ta</w>
institu tion@@</w>
dist inc
consid ers</w>
con vention</w>
am ma
Vi etna
M ol
won der</w>
ud esta</w>
sisäl ty@@</w>
pos t
nähd @@</w>
laus e@@</w>
käy tettävä</w>
huom a
hank keen</w>
9 5</w>
pros per
om i@@</w>
ta kaa</w>
ebru ary</w>
Sec re
Fre ed
F ebruary</w>
voit u</w>
velvoll isuus</w>
vaka a@@</w>
ta so</w>
sa man</w>
maan viljeli
ku va</w>
fir m</w>
esti ma
believ es</w>
IG C</w>
tutkim us</w>
suure mpi</w>
palau ttamis@@</w>
maa han</w>
descri bed</w>
aik om
y ty
pa an</w>
impi en</w>
consis ten
asiakirj an</w>
alo ja</w>
Ass embly</w>
yksi puol@@</w>
vasta inen</w>
shor t
politic ally</w>
on e@@</w>
is ina</w>
independ ence</w>
implic ations</w>
elä ä</w>
b ann
uudis tuksen</w>
s ala
nä h
f ru
confir med</w>
as et
B o
pp ed</w>
ongel maan</w>
o on</w>
e ties</w>
cra ft</w>
cen tury</w>
ar m</w>
He ads</w>
uudis ta@@</w>
usko a@@</w>
urg ency</w>
sa ll
its estään</w>
is oi@@</w>
H ar
w ed</w>
us ers</w>
produc tive</w>
plan ned</w>
ou @@</w>
muo to@@</w>
explan ation</w>
ess enti
assa olo@@</w>
Fisher ies</w>
Emplo yment</w>
uni on</w>
spo ken</w>
päätöslausel ma</w>
p e@@</w>
main taining</w>
ks u
euvos to@@</w>
väki vallan</w>
ver ra@@</w>
sen sible</w>
oll is@@</w>
nim e@@</w>
ke hi
ite et
fri end
esiin ty@@</w>
com pul
Y or
Indus try</w>
vir he
s mall
lin ed</w>
hel mik
au di
mietinnö stä@@</w>
c le</w>
vasta ista</w>
uudes taan</w>
teks ti</w>
prev enting</w>
helmik uu@@</w>
govern ance</w>
emb ar
d om
consu mption</w>
alloc ated</w>
ag @@</w>
T @@</w>
Lat in@@</w>
C oton
val vo
u ne
tavo itte@@</w>
satis fied</w>
o ts</w>
luotta mus@@</w>
hu ole@@</w>
h ir
el in</w>
deta ils</w>
at t@@</w>
tarkistuks esta</w>
taloudell isesti</w>
p is
man i
koulu tusta</w>
ha kem
gi ble</w>
exten sion</w>
decisi ve</w>
tapahtu mat</w>
substan ce</w>
s inc
refer ring</w>
miel i@@</w>
man a</w>
lo va
keskus tella@@</w>
ke pt</w>
kapa si
jo lla@@</w>
ff s</w>
Zimbab we@@</w>
vall assa</w>
tasapain o</w>
m man</w>
ke ho
effec tiveness</w>
B os
viljelijö iden</w>
va kauden</w>
tuom itse@@</w>
tulo ksen@@</w>
puhu ja@@</w>
mi d</w>
lait osten</w>
ittä vä</w>
gla d</w>
dis pos
aste itta@@</w>
alis e</w>
ad e</w>
ulkominis ter
toimenpi teisiin</w>
sor y</w>
saavu tettu</w>
pow er
po istamis@@</w>
m itta@@</w>
lai m</w>
kol og
kein o@@</w>
hyvin vo
go t</w>
ex tra
cla use</w>
vapa a</w>
ur a@@</w>
tila isuuden</w>
kes tä@@</w>
eth nic</w>
v ul
toiminn asta</w>
stu dies</w>
p li
n tö</w>
medic ines</w>
main itsi@@</w>
chan ging</w>
tul i</w>
tex ts</w>
recover y</w>
re ja</w>
pursu e</w>
trans fer</w>
t on@@</w>
sel ke@@</w>
er illis@@</w>
emm at</w>
cond ition</w>
ammat ti
vis ed</w>
vastaa van</w>
us con
rela tes</w>
publis hed</w>
por ted</w>
par e@@</w>
aver age</w>
4 9</w>
valu able</w>
sex ual</w>
sa man@@</w>
nor mal</w>
ne tään</w>
käytä nnö@@</w>
introduc ing</w>
hallit usta</w>
exclu sion</w>
en immäis@@</w>
e z
Berl uscon
u den</w>
mun ic
kas vun</w>
j än</w>
ac knowled
4 4</w>
sitoumu ks@@</w>
pu ite@@</w>
la itte
kasv u</w>
bud sman</w>
anal yy
tuho a@@</w>
pidet tävä@@</w>
mo ot
la illa</w>
ku vi
koko on@@</w>
ka ava@@</w>
enna kko@@</w>
distri bu
con tain</w>
aika an
ad jus
Maa ilman</w>
Bar ni
3 4</w>
tra g
taud in</w>
muu ton</w>
lear ning</w>
kapasi teet
fic ations</w>
compul sory</w>
Vitorin o</w>
L än
F or
E M
vi our</w>
sett le
consider ations</w>
associ ated</w>
I @@</w>
F eir
vai hd
siir ry@@</w>
re marks</w>
rauh a@@</w>
oso ite@@</w>
ly k
kirjo i@@</w>
j ista</w>
esity ksen</w>
ar me
an tly</w>
ti lo
see ks</w>
puu tu@@</w>
p at
n os
ic s</w>
after noon</w>
acc ident</w>
4 1</w>
va u
to m</w>
tekni ik
käsittel yä</w>
is issä</w>
es tic</w>
compe tences</w>
b om
ala isen</w>
yh ty@@</w>
tun to@@</w>
tu ssa</w>
tavoitte ista</w>
tarkas tella@@</w>
mi es</w>
käynn issä</w>
ks essa</w>
huol to@@</w>
fri ends</w>
ent ity</w>
arme i
Ara f
van oma@@</w>
van g
tric ity</w>
ta vanoma@@</w>
su ffici
poikke us@@</w>
mo bility</w>
ig nor
hyväksy ttävä</w>
hyväks ym
equip ment</w>
af for
speak er</w>
saman lais@@</w>
kä teen</w>
exec u
compar ed</w>
ase tuks
vien ti@@</w>
uh kaa</w>
tu le</w>
se where</w>
se itsem
reques ts</w>
ma cy</w>
li ha@@</w>
ev ä</w>
essenti ally</w>
el sewhere</w>
va cc
respec tive</w>
ne w
main itsi</w>
jousta va@@</w>
Soci alists</w>
teknolo gi
seura ukset</w>
o ffic
in o@@</w>
fe ed</w>
wi ll
vaar a@@</w>
työntekijö itä</w>
os asto@@</w>
fa ir
3 9</w>
te ihin</w>
sugges ted</w>
see ing</w>
saan e@@</w>
pan o
over come</w>
id en
elec tricity</w>
eed ed</w>
disas ters</w>
S i
Kore a</w>
D el
tarkastel @@</w>
ota mme</w>
mark ed</w>
go als</w>
g as</w>
coura ge</w>
Gre ens</w>
sym b
kan tojen</w>
fo ot
en tr
coher ent</w>
announ ced</w>
we a
van h@@</w>
s tor
ponnis telu
b ru
aine ita</w>
Kuu ba@@</w>
uskonn o@@</w>
osapuol et</w>
ko i@@</w>
tä ll
täll ö
tila isuutta</w>
main itsema@@</w>
leg ally</w>
high est</w>
g ain
edis tämä@@</w>
contac t</w>
tu pa
oppos ite</w>
main tained</w>
liit on</w>
B la
under stood</w>
tw enty</w>
supple mentary</w>
sub mit</w>
prepar e</w>
p ä@@</w>
liitty vä</w>
c au
as kel@@</w>
S to
valtuus kunnan</w>
re min
k risti
compe tent</w>
categ ory</w>
care ful</w>
beha viour</w>
Y ugosla
W all
san a
rac ism</w>
la h
is tic</w>
fac ts</w>
exces sive</w>
amend ed</w>
w arm
s port</w>
s in@@</w>
r a</w>
pos sibly</w>
pi te@@</w>
min orities</w>
il e
f os
da ily</w>
d t</w>
b urg@@</w>
argu ment</w>
a h
0 4
sy vä@@</w>
kumppan i@@</w>
inves tments</w>
gener ation</w>
b ers</w>
amma ti@@</w>
Ir la@@</w>
tällö in</w>
statis tics</w>
se ka
pro of</w>
otsa kke@@</w>
k er</w>
hall into</w>
g ence</w>
determin ed</w>
compati ble</w>
0 4@@</w>
viranoma isen</w>
tiu k
puol us
ogra ph
nyky aika@@</w>
kesk inä@@</w>
im mista</w>
h ouse</w>
fin ding</w>
dom estic</w>
argu ments</w>
allow s</w>
ab use</w>
Regi onal</w>
3 00</w>
than king</w>
teoll isuus</w>
obsta cles</w>
kohtu ull@@</w>
il men
huom ion</w>
elim iä</w>
c at
ai empaa</w>
Götebor g@@</w>
Bolkes tein</w>
to tu
saas tu
pan e@@</w>
lu pa
huoles tune@@</w>
explo itation</w>
teh tiin</w>
syd ä
la test</w>
kom mun
jo ku</w>
Iraq i</w>
rajo ja</w>
ma us
lä hd
ka i
Is la
ympäris tön
pi eni</w>
mul tila
main ita@@</w>
larg ely</w>
3 .</w>
tä isi@@</w>
ter ri
tapo ja</w>
run ning</w>
referendu m</w>
plan ts</w>
pan o</w>
mieh en</w>
laad un</w>
kohd e@@</w>
is el
er ään@@</w>
dou ble</w>
dipl oma
al koh
I D
tää kseni</w>
spo ke</w>
reite rate</w>
n et</w>
me ja</w>
kysymyks en@@</w>
hien o@@</w>
fulfi l</w>
tell en</w>
nnö stä</w>
koh tiin</w>
al ta
ai o</w>
K au
tulo kseen</w>
sisä markkina</w>
sih teer
pol @@</w>
merk in
m mistä</w>
constan tly</w>
clas si
basi cally</w>
asian osa@@</w>
arkaluon te@@</w>
vakuu t
tiedot tamis@@</w>
oikeu tettu@@</w>
näkö kohdat</w>
minister in
kustann usten</w>
isel itte@@</w>
ilma ise@@</w>
il os
help ing</w>
fir mly</w>
expec tations</w>
er y</w>
coun ter</w>
collec tive</w>
än sä</w>
usko ttav@@</w>
ud u@@</w>
käyd y@@</w>
kka ita</w>
Presid ents</w>
C O@@</w>
regre tta
ranga is
mill ions</w>
he a
arv on</w>
Can c
tu ettava</w>
puolue iden</w>
pros ent@@</w>
p om
kka u@@</w>
investo inte
ess ään</w>
assu me</w>
advanta ges</w>
ved en</w>
ty nee@@</w>
turvall isuudesta</w>
s ki
llis een</w>
kokou kseen</w>
im peri
fi g
et n@@</w>
bi olog@@</w>
M us
vaal ien</w>
ttu ja</w>
tell yt</w>
sopim uksiin</w>
pit i</w>
periaatte et</w>
ongel mana</w>
ne itä</w>
muka isia</w>
men esty@@</w>
ad vice</w>
S lova
war ran
voit te</w>
valmistelu kunta</w>
sc ru
rec ord</w>
rau haa</w>
o ta@@</w>
li itt
kr itiik
ko ke@@</w>
head ing</w>
func tion</w>
d y</w>
O m
Macedon ia</w>
GM Os</w>
yks in</w>
väl isiä</w>
succ eed</w>
pyrki vä@@</w>
produc ing</w>
prec au
or i</w>
mu ita@@</w>
ehdo t</w>
P u
199 4</w>
vuo si
tuo te@@</w>
terve yttä</w>
te re
tax es</w>
tapahtu i</w>
palvel ut</w>
modi fied</w>
lu otta@@</w>
deli ber
cha irman</w>
K inno
CO S</w>
9 9</w>
vä is
vi iden</w>
ulkom a@@</w>
sa w</w>
obli ged</w>
komite a</w>
ko t</w>
er ään</w>
constitu te</w>
co operate</w>
c as
ty istä</w>
tric h
sou thern</w>
men nä</w>
maks e@@</w>
kuu kautta</w>
hä mmä
yr itä@@</w>
vapau teen</w>
tta koon</w>
pu rely</w>
pa per
p hen
ou b
ko ti@@</w>
indic ated</w>
ill ä@@</w>
han ke</w>
blo od</w>
as trich
Ma astrich
vir ka@@</w>
tru th</w>
selv ity
s esta</w>
pyy nnön</w>
painopis te
l @@</w>
ehdotuks ista</w>
ed un</w>
K al
6 5</w>
yhteis vastuu@@</w>
sci ence</w>
ede tä</w>
uni la
und oub
ttä mistä</w>
ttu jen</w>
käsitel tävä</w>
kaks in
ac knowledge</w>
M os
Bos ni
tul osta</w>
run sa@@</w>
pla ying</w>
main ittu</w>
luon te
llis yyttä</w>
iti o@@</w>
foun d
eval u
dispos al</w>
c laim</w>
väes tö
r at</w>
p ing</w>
m outh</w>
alo ite@@</w>
allekirjo it@@</w>
CA P</w>
yhdenmuka ista@@</w>
vaati o@@</w>
pal a@@</w>
o a</w>
hark itse@@</w>
cho ose</w>
C itiz
vaike i@@</w>
uu temme</w>
trad ition</w>
ta vara@@</w>
sel ec
prim arily</w>
par tly</w>
olo issa</w>
ol a</w>
kys el
koko on
huom atta@@</w>
fiel ds</w>
E I
4 3</w>
välis ten</w>
viik on</w>
v in@@</w>
tre aty</w>
ss ään</w>
emp ia</w>
Om budsman</w>
Kore a@@</w>
ään es
ttö män</w>
torjun ta</w>
tehtä vän</w>
kah teen</w>
hu oll
for mal</w>
fig ure</w>
en vis
ap pa
an ts</w>
Sto ck
S cot
vir tu
uudis tus</w>
tor al</w>
technolog ical</w>
imag ine</w>
et c</w>
arvo a</w>
arm ed</w>
ala lle</w>
a var
T ai
se ven</w>
main ittu@@</w>
k enn
elä mään</w>
communic ations</w>
c ar</w>
acti vely</w>
G o
C am
uni ted</w>
tä jä@@</w>
tapahtu mien</w>
sy itä</w>
re hu@@</w>
qu ota
ks ell@@</w>
highli ghted</w>
vaiku tusta</w>
t t@@</w>
suunnitel man</w>
pien en@@</w>
maus aine@@</w>
koulu tukseen</w>
keino in</w>
concentra te</w>
Poet tering</w>
Gu ine
E @@</w>
var i
valtio ille</w>
syy ttä
jour n
ins tituu
inclu sion</w>
in adequate</w>
coun ter
becom es</w>
D P</w>
prof it</w>
poor est</w>
nou se@@</w>
lääkke iden</w>
järjestelmä stä</w>
is u
id es</w>
func tioning</w>
for med</w>
e et</w>
difficul ty</w>
appreci ate</w>
analyy si@@</w>
M in
Johannes burg</w>
C ol
, 5</w>
vaiku t@@</w>
univers al</w>
te i@@</w>
kti o@@</w>
kan a@@</w>
het ki</w>
absolu te</w>
uks @@</w>
ro ko
passeng ers</w>
määrä rahat</w>
ka usi</w>
fundamen talis
cc o</w>
br ings</w>
at ly</w>
ass ess</w>
B yr
teki jä@@</w>
tarko itettu@@</w>
selvä sti@@</w>
omin ais@@</w>
huu mausaine@@</w>
hallinno i@@</w>
ep idem
buil t</w>
vo jen</w>
