, 712481
. 500801
ja 336625
on 293409
a 244806
n 241475
että 167192
in 139946
an 109732
mme 108590
en 100475
ä 97845
t 92535
ta 85535
kin 82619
tä@@ 82559
a@@ 72750
tä 71008
si@@ 70059
ei 68945
ssa 63801
en@@ 62502
ta@@ 62163
-@@ 61732
Euroopan 60159
i 58769
@ 55949
@@@ 55942
i@@ 55734
ten 54190
- 53979
ni@@ 53281
e@@ 51950
inen 48786
myös 47803
llä 47582
iden 47063
se 46822
vat 46537
ista 45510
ksi 42043
jo@@ 41800
ovat 41788
o@@ 40669
än 40215
koske@@ 39642
an@@ 39179
sen 38839
sta 38724
nä@@ 38043
arvoisa 37914
@@ 37900
is@@ 37899
ole 37767
lle 37593
komission 37056
ku@@ 36408
sti 35507
lla 33580
tu@@ 33468
joka 32987
nyt 32620
tämä 32262
t@@ 32070
va@@ 31786
et 31489
ssä 31184
puhemies 30623
jotka 30207
u@@ 30151
ille 30041
te@@ 29913
siitä 28332
stä 28041
sa@@ 27811
n@@ 27591
ni 27590
istä 27384
e 27105
meidän 27099
jäsen 26677
maan 26634
mut@@ 26471
ka@@ 25970
neet 25824
issa 25418
parlamentin 24752
kuit@@ 24666
jäsenvaltio@@ 24635
in@@ 24607
to@@ 24470
nut 24454
isen 24372
ole@@ 24350
taan 23880
isesti 23729
tämän 23721
minen 23544
taa 23514
er@@ 23454
ä@@ 23453
it@@ 23249
kuin 23145
jen 22949
y@@ 22155
esti 22076
ia 21995
) 21843
olisi 21835
k@@ 21830
( 21742
itä 21349
sekä 20914
kun 20634
ti@@ 20501
ko@@ 20285
unionin 20257
ne 20003
on@@ 19909
ihin 19897
lisä@@ 19452
vasta@@ 19415
: 19309
komissio 19294
jos 19277
? 19152
u 18909
ty@@ 18740
ki@@ 18597
&quot; 18455
erityis@@ 18436
hyväksy@@ 18000
ma@@ 17979
isia 17863
kanssa 17853
voi 17809
s@@ 17586
een 17429
ja@@ 17421
sano@@ 17314
olen 17216
koska 17157
la@@ 17037
työ@@ 16864
tta 16762
us@@ 16756
voi@@ 16692
perus@@ 16685
van 16537
na 16534
pää@@ 16326
toimi@@ 16210
halu@@ 15996
neuvoston 15981
ita 15951
jo 15822
kaan 15809
isten 15415
hyvin 15334
yhteis@@ 15279
vien 15199
mielestä@@ 15117
emme 15037
kansalais@@ 15021
jonka 15020
vi@@ 14949
illa 14813
isiin 14811
esi@@ 14605
kaikki@@ 14387
oli 13882
isi 13846
kaikki 13677
et@@ 13582
ke@@ 13568
o 13567
j@@ 13467
haluaisi@@ 13292
vielä 13280
miseksi 13262
esta 13106
iset 13103
ko 13090
eivät 12956
issä 12949
v@@ 12948
nä 12917
suur@@ 12872
os@@ 12832
mitä 12726
tärkeä@@ 12582
s 12439
ihmis@@ 12407
ittäin 12382
siihen 12337
va 12330
me 12263
ll@@ 12240
olla 12117
hyvä@@ 12101
vä@@ 12063
sella@@ 11948
essa 11779
ttava 11720
m@@ 11710
saa@@ 11688
ha@@ 11649
vaan 11637
re@@ 11602
voidaan 11513
tode@@ 11427
eksi 11422
vät 11414
tta@@ 11296
val@@ 11293
joita 11247
es@@ 11152
mi@@ 11148
al@@ 11107
kään 11098
/ 11089
via 11003
lu@@ 10982
as@@ 10923
hän 10810
hän@@ 10788
ti 10736
y 10718
vuoksi 10708
ase@@ 10602
l@@ 10542
h@@ 10484
halua@@ 10447
mukaan 10132
ina 10042
miseen 10023
tään 10005
parlamentti 9962
ista@@ 9951
ikä 9911
ra@@ 9871
mista 9865
jä@@ 9862
r@@ 9841
is 9756
ö@@ 9727
sa 9675
vuoden 9638
ne@@ 9633
ri@@ 9628
siksi 9611
ik@@ 9592
nsa 9590
puhu@@ 9588
yhteisön 9571
kaik@@ 9568
tähän 9506
väli@@ 9462
mieltä 9461
p@@ 9453
ennen 9451
nyky@@ 9445
joiden 9313
el@@ 9297
jota 9291
S@@ 9280
eurooppalais@@ 9263
essä 9250
ympäristö@@ 9217
EU:n 9176
im@@ 9165
paljon 9163
liitty@@ 9149
pitäisi 9121
määrä@@ 9108
kä@@ 9099
puheenjohtaja@@ 9081
yleis@@ 9023
epä@@ 9017
to 9010
nämä 8911
tälla@@ 8851
iin 8812
huomioon 8802
vaikka 8797
esittä@@ 8754
elle 8738
ensimmä@@ 8727
d@@ 8715
ot@@ 8662
nne 8626
kseen 8536
tus@@ 8505
asta 8487
ollut 8382
puolesta 8351
estä 8340
staan 8340
mahdollis@@ 8319
uuden 8302
lta 8296
:n 8283
K@@ 8282
politiikan 8272
il@@ 8229
tehdä 8227
pitää 8222
ttävä 8193
malla 8181
täysi@@ 8155
kansallis@@ 8150
ettei 8109
T@@ 8101
A@@ 8084
siinä 8076
neuvosto 8075
he 8059
tetaan 7969
jälkeen 7939
jä 7925
matta 7919
ksen 7888
se@@ 7876
llis@@ 7864
kansainvälis@@ 7851
var@@ 7808
ks@@ 7801
muu@@ 7792
taa@@ 7759
käy@@ 7758
pan@@ 7745
uu@@ 7739
ys@@ 7696
ehdot@@ 7688
tettava 7674
mu@@ 7625
maa 7621
mis@@ 7609
E@@ 7607
mikä 7586
isiä 7571
isi@@ 7541
ala@@ 7519
sitte@@ 7512
itse@@ 7492
iseen 7472
asia 7458
at 7444
lla@@ 7442
maiden 7437
arvo@@ 7434
koko 7359
iä 7345
misen 7344
kka@@ 7329
kuulu@@ 7327
tte 7267
us 7251
1@@ 7248
tö@@ 7247
ella 7244
Yhdys@@ 7243
lopu@@ 7240
ttiin 7225
misesta 7225
olle@@ 7211
P@@ 7207
otta@@ 7205
un 7205
vuonna 7184
itse 7171
ol@@ 7159
M@@ 7149
pa@@ 7127
sisä@@ 7125
moni@@ 7108
kaikke@@ 7085
tava@@ 7082
ksi@@ 7073
kyse 7064
juuri 7033
ar@@ 7030
yhteydessä 7026
miten 7024
sosiaali@@ 7009
aan 7009
mä@@ 6989
si 6985
voima@@ 6978
valta@@ 6977
na@@ 6904
eri 6897
johta@@ 6872
ro@@ 6863
jäsenet 6848
viime 6831
sopimuksen 6822
meillä 6815
Eurooppa 6814
li@@ 6792
euro@@ 6778
saa 6715
valiokunnan 6684
merkiksi 6673
uusi@@ 6652
puol@@ 6635
toimia 6610
aja@@ 6605
mään 6580
asiassa 6573
tel@@ 6555
myönte@@ 6536
ia@@ 6516
ainoa@@ 6505
uutta 6496
uksia 6485
talousarvio@@ 6471
oma@@ 6375
toivo@@ 6364
nn@@ 6291
assa 6280
osallistu@@ 6276
osalta 6254
usei@@ 6253
maa@@ 6253
emmän 6251
llinen 6249
mistä 6241
un@@ 6221
men@@ 6221
ttä@@ 6217
tois@@ 6213
toim@@ 6203
puheenjohtaja 6191
teen 6176
ukset 6156
uh@@ 6141
isin 6090
tärkei@@ 6075
tie@@ 6070
heidän 6065
yhte@@ 6047
tava 6043
istu@@ 6038
oli@@ 6007
yksi 5991
B@@ 5986
tuleva@@ 5984
esittelijä 5966
pa 5954
tieto@@ 5944
illä 5930
unioni@@ 5908
asioiden 5908
osoitta@@ 5900
mietinnön 5888
eseen 5855
tiedä@@ 5852
päätöslauselma@@ 5798
edelleen 5751
; 5746
ite@@ 5733
kysymys 5730
avulla 5719
joilla 5697
pi@@ 5693
alalla 5690
talous@@ 5680
te 5639
kannalta 5632
isesta 5629
me@@ 5623
mitä@@ 5623
ksia 5609
jäsen@@ 5603
selvä@@ 5598
tu 5597
utu@@ 5595
ksiin 5591
ien 5572
aikana 5563
joh@@ 5560
henkilö@@ 5540
tänään 5535
ver@@ 5504
vastuu@@ 5500
oikeus@@ 5495
:@@ 5475
unioni 5472
julkis@@ 5455
g@@ 5441
sija@@ 5431
minun 5417
mien 5411
ltä 5403
kan@@ 5385
sel@@ 5379
etu@@ 5375
yhteistyö@@ 5362
hyvä 5359
tettu 5336
le@@ 5314
tapa@@ 5296
toivon 5296
viä 5288
tuke@@ 5277
ava@@ 5267
oltava 5264
joissa 5251
osa 5243
tulee 5239
tetään 5213
asiasta 5198
hä@@ 5198
uksen 5195
jolla 5189
kehit@@ 5181
tapauksessa 5156
viin 5147
pu@@ 5139
tieten@@ 5131
perusteell@@ 5126
tää 5126
ryhmä@@ 5110
pidä@@ 5103
jien 5100
viime@@ 5086
R@@ 5081
prosentti@@ 5077
itta@@ 5060
at@@ 5046
mmin 5040
mietinnössä 5024
parlament@@ 5017
ky@@ 5012
kyse@@ 5008
oikeuksien 4986
tärkeä 4984
amme 4983
aika@@ 4968
meille 4966
esittelijä@@ 4966
seura@@ 4958
määri@@ 4954
saada 4949
kau@@ 4943
ki 4939
tapahtu@@ 4937
lii@@ 4935
pitkä@@ 4922
ottaa 4920
tämä@@ 4918
valtio 4905
kä 4897
van@@ 4882
2@@ 4870
todellis@@ 4868
ina@@ 4868
pien@@ 4854
komissio@@ 4839
tarvi@@ 4837
mietintö 4834
teitä 4832
2001 4823
alue@@ 4811
ilta 4801
ilman 4785
eli 4779
vara@@ 4778
kiittää 4766
I@@ 4766
tehtävä 4762
su@@ 4761
am@@ 4760
huoli@@ 4754
tävä@@ 4746
osa@@ 4741
ellä 4725
liittyvä@@ 4723
aikaan 4718
ttää 4678
ään 4668
sä 4659
toja 4658
per@@ 4657
täällä 4642
luo@@ 4630
kset 4622
C@@ 4620
O@@ 4619
han@@ 4605
ryhmän 4567
een@@ 4559
llisesti 4547
korosta@@ 4534
vaa 4519
vasta 4517
kaksi 4511
imman 4508
pitä@@ 4506
asiaa 4504
tukea 4479
äänestä@@ 4474
miljoona@@ 4473
alan 4471
F@@ 4469
artikla@@ 4454
em@@ 4453
osta 4435
saatta@@ 4433
telu@@ 4413
kuu@@ 4390
kehitys@@ 4387
tulo@@ 4381
ker@@ 4375
yhä 4374
H@@ 4367
D@@ 4347
au@@ 4344
po@@ 4343
hetkellä 4339
asia@@ 4338
usta 4337
kiel@@ 4332
kuinka 4325
maan@@ 4318
ään@@ 4312
! 4312
varmista@@ 4302
neuvosto@@ 4290
mo@@ 4287
tun@@ 4283
2000 4279
G@@ 4272
paik@@ 4260
enn@@ 4259
tekemä@@ 4254
mukaisesti 4254
laati@@ 4252
he@@ 4234
yhtä 4233
syy@@ 4232
L@@ 4232
asti 4232
5 4231
kollegat 4218
toinen 4216
koh@@ 4215
vo@@ 4215
direktiivin 4212
käyttää 4211
turvallisuus@@ 4203
it 4189
isuutta 4189
välttämä@@ 4189
muiden 4182
parlamentissa 4179
valtioiden 4179
paranta@@ 4176
varma@@ 4173
tilanne 4170
politiikkaa 4164
tele@@ 4162
hd@@ 4157
ilma@@ 4152
sta@@ 4143
lle@@ 4143
op@@ 4141
ris@@ 4140
5@@ 4138
ehdotuksen 4132
mia 4131
teille 4129
kulu@@ 4117
ajan 4103
nopea@@ 4086
vista 4083
oike@@ 4077
enä@@ 4077
tuksen 4068
voisi@@ 4064
vahvista@@ 4052
ulko@@ 4046
0@@ 4026
varten 4018
valitettava@@ 4009
käyttä@@ 4006
ma 4006
tusta 4004
voida 4001
1 3996
kseni 3995
puheenvuoro@@ 3991
oh@@ 3991
uks@@ 3991
ali@@ 3989
tar@@ 3984
aihe@@ 3982
Euroopassa 3982
väl@@ 3975
parlamentti@@ 3974
tettiin 3973
yhd@@ 3960
laajentumis@@ 3952
san@@ 3937
asian 3936
perustamis@@ 3934
joutu@@ 3928
valmistelu@@ 3928
täytyy 3925
vaikutta@@ 3925
varsi@@ 3924
kas@@ 3923
kkaasti 3922
V@@ 3922
katso@@ 3922
om@@ 3921
inn@@ 3915
b@@ 3908
rahoitus@@ 3906
nsä 3896
ten@@ 3886
Yhdisty@@ 3884
tavalla 3878
ken@@ 3878
käyttöön 3874
tojen 3850
2002 3850
tarvitse@@ 3845
tama@@ 3831
tettävä 3825
stään 3819
voitaisi@@ 3806
turva@@ 3806
olemassa 3805
tti@@ 3804
yhdessä 3802
saavutta@@ 3794
yks@@ 3788
kerran 3781
asianmuka@@ 3779
ir@@ 3778
mon@@ 3770
vaati@@ 3768
avoim@@ 3764
olevan 3760
joista 3757
har@@ 3755
onnistu@@ 3745
neen 3742
miel@@ 3735
oikea@@ 3725
ohjel@@ 3723
otetaan 3719
aiheutta@@ 3707
7@@ 3702
iseksi 3677
keskustelu 3671
siir@@ 3667
teho@@ 3653
puh@@ 3642
6@@ 3640
isuu@@ 3640
tyytyvä@@ 3640
edusta@@ 3626
jul@@ 3624
suunnitel@@ 3624
toiminta@@ 3622
raken@@ 3617
kohd@@ 3616
tom@@ 3613
id@@ 3601
ehdotus 3596
ksemme 3595
maatalous@@ 3590
den 3589
jatka@@ 3586
kunnan 3583
asioita 3577
mattom@@ 3577
kilpailu@@ 3573
iksi 3568
markkinoiden 3565
miksi 3556
kunn@@ 3554
8@@ 3552
selkeä@@ 3544
valtio@@ 3544
mahdollista 3543
vuotta 3539
tettu@@ 3538
2 3538
teh@@ 3537
demokratia@@ 3533
no@@ 3521
vaiku@@ 3518
isessa 3509
monet 3506
laaj@@ 3506
pel@@ 3506
pal@@ 3504
J@@ 3504
luonno@@ 3499
voim@@ 3498
inti@@ 3498
vero@@ 3489
voisi 3489
tarkoit@@ 3489
uudelleen 3484
nimit@@ 3478
yn 3476
par@@ 3470
muutta@@ 3470
selvästi 3468
iv@@ 3465
politiik@@ 3464
tiin 3463
tti 3459
vähä@@ 3456
alo@@ 3452
tarkoituksen@@ 3441
kann@@ 3435
ttu 3430
ää@@ 3428
poliitt@@ 3428
3 3420
järjestelmän 3420
tila@@ 3418
silloin 3417
oi@@ 3416
oikeuksia 3416
kohta@@ 3411
torju@@ 3405
or@@ 3403
ensinnä@@ 3385
ty 3379
voin 3377
minusta 3370
ita@@ 3359
min@@ 3358
tur@@ 3343
usko@@ 3343
rajo@@ 3337
keskustelu@@ 3336
ou@@ 3335
tuo@@ 3332
oikeus 3328
loppu@@ 3324
maissa 3322
kasva@@ 3322
imme 3320
ut@@ 3318
isessä 3311
toteutta@@ 3310
teiden 3303
mer@@ 3302
kos@@ 3298
tavoin 3292
kansan@@ 3291
ön 3290
alueen 3290
kehittämis@@ 3289
vastaa@@ 3287
samo@@ 3274
oja 3273
naisten 3273
tekn@@ 3262
kunnioit@@ 3255
kö 3250
edisty@@ 3244
ul@@ 3241
tul@@ 3232
miä 3229
f@@ 3224
mättä 3223
yhteistyötä 3220
isuuden 3219
korva@@ 3217
ann@@ 3212
tetty 3209
kirj@@ 3205
päivä@@ 3204
ka 3202
Arvoisa 3201
ih@@ 3197
jälleen 3196
alueella 3192
työtä 3188
yksityis@@ 3184
uksista 3183
N@@ 3180
tarjo@@ 3180
ongelmia 3179
tuu 3179
kauppa@@ 3179
toimiin 3170
isista 3169
erilais@@ 3168
vall@@ 3165
muistut@@ 3162
suuri 3161
pyydä@@ 3145
tus 3138
määrä 3137
pysty@@ 3135
misestä 3131
kysy@@ 3129
ttävä@@ 3121
taminen 3119
uskon 3118
maailman 3116
hu@@ 3114
ve@@ 3109
käsi@@ 3108
isuus 3108
eh@@ 3107
sisälly@@ 3106
ras@@ 3105
pelkä@@ 3104
yhteisö@@ 3102
demokraatti@@ 3096
ulkopuol@@ 3094
onta 3091
vä 3090
pain@@ 3086
etta@@ 3084
ehdokas@@ 3084
7 3083
töntä 3078
tule@@ 3074
2003 3073
sy@@ 3072
tasolla 3072
lä@@ 3067
jia 3055
neiden 3049
tavoitteen@@ 3049
ho@@ 3045
sten 3043
ehdo@@ 3041
kautta 3035
valtion 3034
jan 3033
yl@@ 3032
yli@@ 3023
tarkist@@ 3015
tuot@@ 3015
io@@ 3008
ryhty@@ 3008
kalastus@@ 3007
kokonais@@ 3003
19@@ 3002
vuosi@@ 3001
toisin 3001
uus@@ 2998
puuttu@@ 2998
yli 2997
ell@@ 2994
yritysten 2991
tte@@ 2989
täytäntöönpano@@ 2987
aali@@ 2981
hi@@ 2981
missä 2980
syystä 2979
aikaa 2976
rik@@ 2975
mat@@ 2974
pyy@@ 2970
esiin 2966
komissiota 2964
alais@@ 2963
ongelma 2961
huomiota 2955
meitä 2947
toisaa@@ 2946
jää@@ 2945
sää@@ 2938
palvelu@@ 2935
kalas@@ 2932
lo@@ 2931
sopimus 2930
suora@@ 2925
z@@ 2924
vir@@ 2924
6 2923
joka@@ 2918
tosi@@ 2915
alueiden 2912
valiokunta 2911
tarkas@@ 2910
kärsi@@ 2910
vastusta@@ 2907
jot@@ 2906
otettava 2897
merk@@ 2896
energia@@ 2894
kohtaan 2893
ilu@@ 2886
vu@@ 2883
Irak@@ 2883
välinen 2880
aal@@ 2877
valtojen 2874
miin 2874
itu@@ 2869
muo@@ 2868
vaih@@ 2867
nen 2867
valvo@@ 2866
vaadi@@ 2863
säily@@ 2859
elin@@ 2852
tarkistuksia 2851
teli@@ 2836
ys 2835
edellyt@@ 2833
llaan 2832
tulevaisuudessa 2832
merkittävä@@ 2832
maksa@@ 2829
osta@@ 2828
pidä 2828
jou@@ 2826
kar@@ 2826
tunn@@ 2826
muita 2824
4 2822
seuraava@@ 2820
pe@@ 2819
läh@@ 2814
riittävä@@ 2811
tämis@@ 2811
massa 2809
jatkuva@@ 2808
ttaa 2807
myös@@ 2805
järjes@@ 2802
kun@@ 2801
esityslista@@ 2797
ehdotuksia 2797
istä@@ 2796
raha@@ 2796
parhai@@ 2794
oleva@@ 2793
kää@@ 2793
mennessä 2784
liit@@ 2784
ihmisten 2781
uudesta 2779
ansio@@ 2778
tunnus@@ 2774
ttä 2768
ehkä 2767
.@@ 2766
inä 2765
hei@@ 2762
av@@ 2762
mietintöä 2761
käsit@@ 2761
tasapaino@@ 2761
ov@@ 2758
etaan 2758
yksimiel@@ 2758
aj@@ 2757
� 2753
ehdotusta 2751
W@@ 2745
pyrki@@ 2744
so@@ 2742
joita@@ 2740
han 2738
ittava 2734
uksen@@ 2731
vissa 2728
entistä 2727
menettely@@ 2723
vakava@@ 2721
sovel@@ 2721
yksi@@ 2715
köyh@@ 2713
masta 2712
ensisija@@ 2701
tävä 2696
hin@@ 2694
soveltamis@@ 2685
toista@@ 2684
kse@@ 2684
tö 2680
salli@@ 2677
työn@@ 2670
kehot@@ 2668
hen@@ 2668
kes@@ 2668
kulttuuri@@ 2663
säännö@@ 2662
my@@ 2661
Venäjä@@ 2661
ossa 2654
ilo@@ 2651
mahdollisuus 2650
keskustelun 2647
vähen@@ 2646
til@@ 2646
pit@@ 2644
paremm@@ 2644
keski@@ 2643
syytä 2635
lento@@ 2630
elta 2625
lyhye@@ 2619
kestävä@@ 2616
joihin 2612
ttu@@ 2611
tavoitte@@ 2607
kojen 2607
kel@@ 2606
yy@@ 2605
ena 2604
uudis@@ 2602
teidän 2599
kala@@ 2596
noudat@@ 2593
toa 2592
budjetti@@ 2592
varo@@ 2584
Ranska@@ 2583
asetta@@ 2579
kertom@@ 2578
huomattava@@ 2577
valvonta@@ 2576
politiikka 2574
asu@@ 2572
kannatta@@ 2571
tell@@ 2567
tarkoitta@@ 2566
all@@ 2565
olisi@@ 2563
sä@@ 2560
je@@ 2559
isille 2559
EU 2559
taso@@ 2558
alka@@ 2551
seuraa@@ 2549
tymis@@ 2547
sia 2547
muun 2547
paitsi 2546
synty@@ 2546
lainsäädännön 2545
ter@@ 2541
kiitä@@ 2541
konkreett@@ 2540
toiminnan 2538
luku@@ 2538
4@@ 2535
vuo@@ 2535
merkitse@@ 2533
erinoma@@ 2532
ettu@@ 2532
tin 2531
kansa@@ 2530
kor@@ 2528
vuoropuhelu@@ 2528
suunn@@ 2525
tanut 2524
täy@@ 2523
jäsenten 2522
YK@@ 2521
uuteen 2516
00 2513
järjestelmä 2513
ystä 2509
ttom@@ 2507
Y@@ 2507
tuom@@ 2505
ittä@@ 2505
asiaan 2504
muut 2502
aika 2501
minä 2499
muuto@@ 2499
laaja@@ 2497
liik@@ 2497
ttava@@ 2496
osin 2494
ud@@ 2490
llista 2490
kuningas@@ 2486
sov@@ 2483
valmis@@ 2482
ihmisoikeus@@ 2480
jille 2476
keskus@@ 2473
uus 2472
oikeu@@ 2471
vallan 2468
menetel@@ 2463
aa 2462
Eurooppa@@ 2460
tehtä@@ 2459
hal@@ 2457
laajen@@ 2456
uksesta 2454
tehnyt 2452
kahd@@ 2452
selvi@@ 2450
essa@@ 2450
näkem@@ 2449
välis@@ 2447
päätty@@ 2443
minkä 2442
uusi 2442
paikallis@@ 2438
jäl@@ 2435
toimielinten 2435
erä@@ 2434
käytä@@ 2432
halua 2432
keske@@ 2427
Turk@@ 2427
liikenne@@ 2424
kysymyksiä 2422
kolmanne@@ 2422
ed@@ 2421
ttömy@@ 2420
koja 2418
ojen 2418
pääs@@ 2417
ukseen 2415
sille 2414
kannat@@ 2414
kehityksen 2414
riippu@@ 2414
oikeuden 2412
3@@ 2412
välisen 2410
kutsu@@ 2410
lainsäädäntö@@ 2406
pyritä@@ 2404
ili@@ 2401
teet 2398
kerto@@ 2397
kasvu@@ 2397
edistää 2397
elä@@ 2397
kollego@@ 2396
toteuttamis@@ 2395
tehtävä@@ 2395
direktiivi@@ 2393
vas@@ 2387
päättä@@ 2386
tarjoa@@ 2386
laad@@ 2386
ju@@ 2385
tau@@ 2385
itte@@ 2383
de@@ 2381
ryhmä 2379
keskustelua 2378
perä@@ 2377
yrity@@ 2376
8 2375
valtu@@ 2371
tunut 2368
toimien 2368
kon@@ 2367
jolloin 2363
poista@@ 2362
ati@@ 2362
etta 2361
kö@@ 2359
lopull@@ 2358
kohta 2356
hyöty@@ 2356
ohjelman 2353
strategi@@ 2349
li 2342
taas 2341
man@@ 2341
isenä 2338
10 2336
talouden 2335
Espanja@@ 2335
ydin@@ 2334
lähe@@ 2320
EU@@ 2318
tutkim@@ 2314
kumppan@@ 2313
ryh@@ 2311
peruste@@ 2310
hallituksen 2308
tuva@@ 2304
pyri@@ 2304
muka@@ 2303
llisen 2303
kirja@@ 2302
aktiiv@@ 2301
mietinnöstä 2300
tarpe@@ 2300
hieman 2294
tuen 2294
ymmärtä@@ 2291
pako@@ 2288
ensi@@ 2286
turvallisuuden 2285
hyödyn@@ 2285
näkö@@ 2276
esit@@ 2274
Mar@@ 2272
koulu@@ 2271
tien 2271
järjestelmä@@ 2271
tietty@@ 2270
terve@@ 2269
käsiteltävä@@ 2265
ksista 2264
1999 2263
tutki@@ 2263
ur@@ 2261
ministeri@@ 2261
kaa 2253
alueellis@@ 2253
U@@ 2249
mat 2248
toimet 2247
usea@@ 2244
alle 2244
osoit@@ 2244
valiokunnassa 2243
muuta 2242
paino@@ 2240
inno@@ 2238
pian 2237
neuvostossa 2237
takia 2236
poliittinen 2232
aloitta@@ 2232
myönn@@ 2231
ratkaise@@ 2230
elim@@ 2230
isto@@ 2227
jota@@ 2225
aik@@ 2225
kysymyksen 2224
yhtenäis@@ 2223
näky@@ 2222
tön 2220
hallitus 2217
eri@@ 2217
um@@ 2214
vapaa@@ 2213
tamaan 2208
jättä@@ 2207
puu@@ 2206
saavu@@ 2206
koska@@ 2204
tah@@ 2202
9@@ 2200
varoja 2200
15 2200
kaiken 2197
mmän 2197
useita 2195
klo 2193
konflik@@ 2192
joten 2189
huomio@@ 2187
liittymis@@ 2186
kulutta@@ 2180
ksiä 2178
tia 2175
nimenoma@@ 2174
yksinkertais@@ 2172
tty 2172
edistä@@ 2171
vaiheessa 2167
kolme 2158
asta@@ 2154
kohdistu@@ 2153
vapa@@ 2151
ero@@ 2150
neuvottelu@@ 2149
nnin 2148
ot 2147
di@@ 2147
saada@@ 2144
lin@@ 2143
varmis@@ 2141
oikeudenmuka@@ 2141
minulla 2137
isena 2137
toiv@@ 2134
tarkistusta 2134
hyväksi 2134
isestä 2132
oman 2130
jatko@@ 2130
todeta 2129
arvos@@ 2128
odot@@ 2127
ettu 2127
oikeudell@@ 2125
huomaut@@ 2123
sopimukseen 2122
pol@@ 2122
pä 2119
tomasti 2118
tarkoitus 2118
totea@@ 2118
ittele@@ 2117
vaikea@@ 2116
ettava 2116
anta@@ 2116
suo@@ 2116
tuki@@ 2116
seik@@ 2114
sanoi 2112
jouk@@ 2112
tutkimus@@ 2110
vastoin 2108
alis@@ 2105
kuntien 2104
toimintaa 2104
käsittele@@ 2099
alueilla 2099
käsitellä 2095
vaatimu@@ 2094
tilanteen 2091
da 2090
tasa@@ 2090
olette 2089
tuksia 2088
tilannetta 2084
ema@@ 2083
maat 2083
tehdään 2082
las@@ 2081
suhtaudu@@ 2080
tapahtuu 2076
lisää 2076
suunta@@ 2074
ksien 2074
sitoutu@@ 2071
kyllä 2070
met@@ 2068
äänestys@@ 2067
ak@@ 2067
tehty 2066
puolue@@ 2066
estä@@ 2065
tasa 2056
vakuut@@ 2056
suhte@@ 2056
suhtautu@@ 2054
Israel@@ 2054
järjestö@@ 2053
yhteen@@ 2050
isivat 2041
asioista 2040
iltä 2040
sop@@ 2039
oikeutta 2039
empaa 2038
usten 2036
sisäl@@ 2036
main@@ 2035
vaar@@ 2035
oso@@ 2034
siellä 2032
tekee 2032
pik@@ 2031
9 2031
itus@@ 2031
mmat 2031
mp@@ 2030
vil@@ 2029
roh@@ 2029
ittu@@ 2029
viranoma@@ 2028
voit@@ 2025
asetuksen 2025
täytäntöön 2024
tiedon@@ 2024
000 2023
poliittisen 2022
delle 2021
suos@@ 2019
liikenteen 2017
kantaa 2014
ikä@@ 2013
tyvä@@ 2013
aikaväli@@ 2013
edes 2012
ehdotuks@@ 2010
työllisyys@@ 2009
käsitellä@@ 2008
tuotta@@ 2007
minulle 2006
tarkistuksen 2001
mua@@ 2001
puolusta@@ 1999
maksu@@ 1999
huomenna 1997
jat 1995
muuta@@ 1994
koros@@ 1993
noin 1991
kul@@ 1989
varojen 1988
ville 1986
jäsenen 1985
aloitte@@ 1983
kehitystä 1982
ut 1976
heitä 1975
muutama@@ 1970
ag@@ 1969
lan@@ 1969
Lissabon@@ 1968
valta 1967
syrj@@ 1967
kahden 1966
arvio@@ 1962
tusten 1961
menesty@@ 1960
sopimusten 1959
laatu@@ 1958
alu@@ 1957
seuraavan@@ 1956
asiat 1955
maailmanlaaju@@ 1954
tiet@@ 1951
suu@@ 1951
maks@@ 1951
kohdalla 1948
issa@@ 1948
itte 1947
ittu 1945
huippu@@ 1944
ent@@ 1943
pet@@ 1942
vai 1941
pyrkim@@ 1937
kompromissi@@ 1937
mielessä 1936
palvelujen 1934
pysy@@ 1933
sääntöjä 1931
kysymystä 1930
lli@@ 1927
mikä@@ 1923
ly@@ 1923
väär@@ 1922
isyy@@ 1921
maailman@@ 1920
mole@@ 1919
tarkka@@ 1919
tan@@ 1917
viranomaisten 1916
än@@ 1915
oll@@ 1913
väline@@ 1912
ttamis@@ 1910
isuudesta 1907
Euro@@ 1906
poliittista 1906
kertaa 1905
tarpeen 1902
tamis@@ 1900
meren 1898
sopim@@ 1898
terrorismin 1898
lainen 1896
direktiivi 1892
empi@@ 1892
yhden 1888
elle@@ 1888
iste@@ 1886
mall@@ 1886
kiinn@@ 1885
vastu@@ 1884
Italia@@ 1882
aloilla 1881
puite@@ 1880
aihe 1879
kaa@@ 1878
enemmistö@@ 1878
tuho@@ 1877
kaupan 1876
lainsäädäntöä 1875
mahdollisuuksia 1875
uut@@ 1874
hallinto@@ 1874
kolmans@@ 1871
anne@@ 1868
olevien 1867
teks@@ 1866
työntekijöiden 1865
kysymykseen 1864
kokem@@ 1864
tietoja 1864
50 1864
eli@@ 1863
syyskuu@@ 1862
äänesti@@ 1862
20 1861
prosessin 1860
ru@@ 1860
tuotteiden 1860
pala@@ 1859
ensi 1857
ivat 1856
30 1856
keino@@ 1855
taloudellis@@ 1855
kuluttaja@@ 1855
tun 1854
mur@@ 1852
isella 1851
tietää 1848
vassa 1848
nee@@ 1845
mene@@ 1845
usta@@ 1844
lap@@ 1841
net@@ 1840
yd@@ 1839
Väli@@ 1836
yksittäis@@ 1836
täyttä@@ 1834
toi@@ 1834
mm@@ 1833
20@@ 1833
alla 1832
lais@@ 1832
enne@@ 1831
vistä 1830
esittämä@@ 1828
teoll@@ 1827
ing@@ 1825
sopimusta 1824
vesi@@ 1823
ratkais@@ 1820
tor@@ 1817
sana@@ 1817
ansa@@ 1816
kki@@ 1816
käytännössä 1815
puolueen 1813
kal@@ 1813
yyttä 1813
hallit@@ 1812
ittelu@@ 1811
ity@@ 1811
mieli@@ 1810
tehdy@@ 1809
asioissa 1807
rauhan@@ 1807
järjestelmää 1804
teta@@ 1803
ssaan 1803
jan@@ 1803
laaju@@ 1803
unioniin 1802
puolustus@@ 1801
uudessa 1800
ksen@@ 1799
äänestys 1798
presidentti 1798
jaka@@ 1797
isemmin 1795
koko@@ 1795
oikeudet 1793
tyy 1791
hankke@@ 1790
heik@@ 1787
Afrika@@ 1787
ito@@ 1786
ill@@ 1785
toimivalta@@ 1779
tiuk@@ 1776
aiemmin 1774
2004 1771
päästä 1770
lähes 1768
puoli@@ 1767
pä@@ 1767
tut@@ 1764
huom@@ 1763
laista 1761
vähe@@ 1760
historia@@ 1760
sit@@ 1759
investo@@ 1757
työn 1757
myöntä@@ 1756
edus@@ 1755
täydell@@ 1753
naan 1750
valtiot 1749
vel@@ 1747
hyödyll@@ 1746
arvoisa@@ 1743
00@@ 1740
netaan 1740
selv@@ 1738
järjestä@@ 1737
ilmoitta@@ 1734
ain@@ 1733
hallitusten 1732
Saksa@@ 1731
syistä 1731
ab@@ 1728
juu@@ 1728
raja@@ 1727
kohdan 1724
rikos@@ 1721
kri@@ 1720
suuri@@ 1718
ratkaisu 1717
lähtö@@ 1713
kier@@ 1712
luettel@@ 1712
aatio@@ 1711
myötä 1704
kokou@@ 1704
verk@@ 1703
kiito@@ 1702
kol@@ 1701
ok@@ 1699
isem@@ 1698
menettelyn 1698
vuosina 1697
aine@@ 1697
rahas@@ 1697
lähi@@ 1695
kokouksessa 1695
ainoa 1694
huol@@ 1693
muodosta@@ 1691
kut 1691
ämme 1691
käytetään 1691
tilanteessa 1690
uudet 1690
neuvo@@ 1689
löytä@@ 1686
yhteen 1686
virka@@ 1685
tella 1684
ino@@ 1684
tukset 1683
enä 1682
rahoit@@ 1682
teen@@ 1681
ille@@ 1680
kko@@ 1679
yllä@@ 1679
pöytäkirja@@ 1678
laus@@ 1678
tal@@ 1678
päätökseen 1677
päin@@ 1677
ek@@ 1676
isuuteen 1675
tietoa 1675
sääntöjen 1673
tensa 1673
perhe@@ 1673
kunnassa 1672
mä 1671
luoda 1671
viras@@ 1671
maailmassa 1669
keskustele@@ 1668
näyttää 1666
ap@@ 1665
meri@@ 1664
misessa 1664
perusta@@ 1664
aikoo 1662
työstä 1662
ssä@@ 1658
teollisuuden 1657
vuus 1656
tuomioistuimen 1655
lisään@@ 1654
turvallisuutta 1653
kolme@@ 1653
ihmisiä 1652
vasti 1651
yr@@ 1651
markkina@@ 1646
maahan@@ 1646
päätös 1645
tilanteesta 1645
hallitusten@@ 1645
ö 1645
missa 1644
kin@@ 1644
laill@@ 1643
tietysti 1643
hallin@@ 1642
tavoite 1641
Nizza@@ 1641
tuksesta 1640
tapa 1639
joulukuu@@ 1638
lait@@ 1637
ilmoit@@ 1636
määr@@ 1636
korkea@@ 1636
mukana 1636
keskustelussa 1635
sään@@ 1635
kohti 1634
merkittävä 1632
otta 1632
eteenpäin 1632
ais@@ 1632
vahvistet@@ 1631
keh@@ 1630
käsittely@@ 1629
mmä@@ 1629
aluksi 1629
uksiin 1629
myöhe@@ 1628
kauden 1626
johd@@ 1625
tavat 1624
pys@@ 1622
tua 1621
johdonmuka@@ 1621
onnitella 1620
ton 1620
toiminta 1617
määritel@@ 1616
olenna@@ 1614
luok@@ 1613
piir@@ 1612
ksestä 1610
vuoteen 1608
tarpeell@@ 1608
elintarvike@@ 1608
assa@@ 1605
ven@@ 1604
mit@@ 1604
poliittisten 1602
suosi@@ 1601
ryhmien 1601
olo@@ 1600
nnut 1599
toimenpiteitä 1598
käsittelevä@@ 1597
mielestä 1596
jatku@@ 1596
ile@@ 1596
kerta@@ 1595
laatima@@ 1594
suojel@@ 1594
vin@@ 1594
kollega 1592
ryhdy@@ 1589
ssakin 1589
odotta@@ 1588
yhteiskunnan 1588
kaupun@@ 1587
velvo@@ 1586
tais@@ 1586
kymmen@@ 1585
temme 1584
atti@@ 1584
toisen 1583
essaan 1583
tarv@@ 1583
minua 1581
yritykset 1580
do@@ 1579
rapor@@ 1579
kalta@@ 1577
keskustel@@ 1576
ini@@ 1576
suojelu@@ 1575
tosiasia@@ 1572
vaike@@ 1572
ohjelma 1571
sisältä@@ 1567
käytettäv@@ 1566
FR 1566
Bryssel@@ 1565
rahoitta@@ 1564
talou@@ 1563
,@@ 1563
missä@@ 1563
er 1562
tulisi 1561
emmin@@ 1560
syrjä@@ 1559
ettei@@ 1559
organis@@ 1559
iselle 1558
muut@@ 1558
:ssa 1558
ammatti@@ 1558
neljä@@ 1557
vallat 1557
llisia 1556
kirja 1555
c@@ 1553
rakenn@@ 1551
kke@@ 1550
tavoitteet 1550
aio@@ 1549
lähti@@ 1549
vin 1549
välistä 1548
lisää@@ 1548
nim@@ 1547
päätöksen 1547
tekevä@@ 1546
kauan 1546
her@@ 1546
esta@@ 1545
periaatte@@ 1544
käy 1544
vaikea 1544
tehokka@@ 1544
yhtä@@ 1542
ittava@@ 1540
harjo@@ 1539
nne@@ 1537
sääntely@@ 1536
hoid@@ 1536
l 1534
tää@@ 1534
pääse@@ 1532
ehd@@ 1532
01@@ 1531
tietojen 1530
kustann@@ 1530
tullut 1530
ongelmat 1529
yttä@@ 1527
ttua 1524
pano@@ 1523
inti 1522
päätel@@ 1522
askel 1520
totesi 1520
sor@@ 1520
jäseniä 1519
é@@ 1519
huon@@ 1516
kuolem@@ 1515
sen@@ 1515
asi@@ 1514
tied@@ 1514
sala@@ 1514
jö@@ 1513
maahanmuutto@@ 1513
nu@@ 1512
Ruotsi@@ 1512
es 1510
kanta 1510
näy@@ 1508
hall@@ 1508
ad@@ 1507
kiinni@@ 1507
kanna@@ 1507
raho@@ 1507
pur@@ 1507
eivät@@ 1506
ulottu@@ 1506
järkevä@@ 1504
vuosi 1504
käytön 1503
mpi 1503
ranga@@ 1502
mahdollisuuden 1502
itettava 1502
palestiinalais@@ 1502
vaarallis@@ 1501
elämä@@ 1500
teemme 1499
pyytää 1498
huomau@@ 1498
tut 1498
riippumattom@@ 1497
edellyty@@ 1496
muuttu@@ 1496
markkino@@ 1496
päätöksiä 1495
päivän 1494
evä@@ 1494
istö@@ 1493
lop@@ 1491
ehdotuksesta 1490
ilmi 1490
milla@@ 1488
itettu 1487
maita 1485
min 1485
oleva 1484
auttaa 1484
vissä 1483
kollegani 1482
mahdot@@ 1481
vaikutuksia 1481
vahvis@@ 1481
muuten 1480
tek@@ 1480
tynyt 1480
laatima 1479
päte@@ 1479
käynn@@ 1477
ttö@@ 1476
kiireell@@ 1475
verta@@ 1474
sotilaallis@@ 1474
aa@@ 1473
humanitaar@@ 1473
unoh@@ 1472
yt@@ 1470
pari@@ 1470
säännöt 1468
kieltä@@ 1468
oma 1467
mällä 1467
emme@@ 1466
sisäll@@ 1466
olin 1466
istun@@ 1465
kokouksen 1465
osten 1465
vapauden 1465
puitteissa 1464
kunta 1464
taneet 1464
yh@@ 1463
Kansa@@ 1463
eva@@ 1462
tune@@ 1462
järjestel@@ 1462
tapauksissa 1462
yksiä 1461
isissa 1459
periaatteen 1459
ehdotukset 1458
tunnusta@@ 1457
eläin@@ 1457
olisivat 1456
toteutu@@ 1455
entis@@ 1455
saatava 1455
maail@@ 1454
myönnet@@ 1454
kannan 1453
onn@@ 1451
lain@@ 1451
ttänyt 1451
ai@@ 1449
llisten 1448
ttaisiin 1448
töön 1448
hyödy@@ 1447
laito@@ 1447
ensin 1446
B5 1445
puutte@@ 1444
ari@@ 1444
ssani 1444
ama@@ 1444
yys 1443
meistä 1443
hoita@@ 1443
estää 1442
toista 1441
perustuva@@ 1441
saatav@@ 1441
asem@@ 1440
terveys@@ 1439
edellis@@ 1439
pid@@ 1439
maatalouden 1439
huono@@ 1439
kanssa@@ 1439
miljardi@@ 1439
mieh@@ 1439
opis@@ 1439
uksessa 1438
merkittävi@@ 1437
jal@@ 1437
kulje@@ 1436
ura@@ 1436
lää@@ 1435
tys@@ 1434
eurooppalainen 1431
sähkö@@ 1429
set 1425
ettävä 1424
sijo@@ 1422
yksityiskohta@@ 1421
osan 1420
tajien 1418
emä@@ 1418
tulla 1418
lleen 1417
ev@@ 1417
toimielime@@ 1416
apua 1416
konferens@@ 1416
stä@@ 1415
isistä 1415
pos@@ 1415
sien 1414
yhtiö@@ 1414
eläinten 1414
pohjalta 1413
telu 1413
itys 1411
T 1411
essä@@ 1407
tavan 1407
pidetään 1406
teollisuus@@ 1406
ittama@@ 1405
parempi 1405
peri@@ 1405
tavoitteita 1405
tutkimuksen 1404
koro@@ 1404
käytännön 1403
virallis@@ 1403
man 1401
askel@@ 1401
12 1400
lehd@@ 1399
lupa@@ 1398
markkinoilla 1396
johto@@ 1396
z 1394
mme@@ 1394
yttä 1393
kehity@@ 1393
kokous 1392
sanottu@@ 1392
pide@@ 1392
äskettä@@ 1390
sovelle@@ 1390
rannik@@ 1389
sopimuksia 1389
mainita 1388
valiokunta@@ 1388
Lähi 1387
välin@@ 1386
hallinnon 1386
vakavi@@ 1386
ilme@@ 1386
henkilöstö@@ 1386
suku@@ 1386
hyl@@ 1385
sovelletta@@ 1385
tämän@@ 1382
heti 1382
sama 1381
tukse@@ 1380
tason 1380
järjestely@@ 1379
käsittelyssä 1378
väestö@@ 1378
poliittisia 1378
seen 1377
käyttö@@ 1377
toteutetta@@ 1377
etty 1375
rautatie@@ 1374
merkitys 1374
Kiina@@ 1374
edel@@ 1373
periaatetta 1373
yhteiskunta@@ 1373
ala 1372
yksen 1371
kysymyksiin 1371
ilta@@ 1371
itä@@ 1370
vapautta@@ 1369
jäsentä 1365
tarkistus 1365
yö@@ 1365
taloudellisen 1364
ani@@ 1363
epäile@@ 1361
ette@@ 1361
toimin@@ 1361
asema 1359
kriteer@@ 1358
Portugali@@ 1358
viera@@ 1357
koke@@ 1357
avun 1357
ulkoma@@ 1356
kymmenen 1356
de 1355
mahdollista@@ 1355
eett@@ 1354
vastaa 1353
vanh@@ 1353
tumis@@ 1351
pois 1351
vahv@@ 1351
energi@@ 1351
tekijö@@ 1351
kestä@@ 1350
uksella 1349
merkitystä 1348
ansa 1347
päivänä 1345
Irlannin 1345
joiden@@ 1344
viranomaiset 1344
sopimuksessa 1343
keskustella 1342
itseva@@ 1342
tieteellis@@ 1342
Sch@@ 1341
arvioi@@ 1341
näh@@ 1340
valmis 1340
sosiaalisen 1340
neuvottelujen 1338
käyttöä 1338
rajoitta@@ 1338
maassa 1338
eltä 1337
itsi@@ 1336
vapauttamis@@ 1336
taistelu@@ 1336
mukaista 1335
nor@@ 1335
kyv@@ 1334
tyne@@ 1334
annettava 1333
tavoitteiden 1332
tetty@@ 1332
kehy@@ 1331
epäonnistu@@ 1330
pääasia@@ 1330
rajat 1330
vakaus@@ 1329
ttömästi 1328
kien 1326
sul@@ 1326
poliisi@@ 1326
harjoit@@ 1325
ongelman 1324
ponnistelu@@ 1324
olevia 1324
ttämään 1323
tuotanto@@ 1323
äänesty@@ 1323
kaup@@ 1323
tekem@@ 1322
uud@@ 1320
painopiste@@ 1319
esti@@ 1318
järjestyksen 1317
tarkistu@@ 1317
tyä 1316
Itä@@ 1314
udet 1313
sesti 1313
teita 1313
yyden 1313
od@@ 1313
kuul@@ 1312
tarkastele@@ 1311
turvapaikka@@ 1310
vaatimuksia 1308
arviointi@@ 1308
osallistumis@@ 1308
25 1308
luottamu@@ 1308
tilante@@ 1306
suuntaan 1304
yrit@@ 1303
ikka 1302
luon@@ 1301
isti@@ 1301
loukka@@ 1301
palaut@@ 1300
takaa@@ 1300
vielä@@ 1298
Li@@ 1298
C5 1297
viitta@@ 1297
laadi@@ 1294
ic@@ 1293
tty@@ 1292
ehdotuksessa 1292
kil@@ 1292
kielte@@ 1292
vie@@ 1290
ensa 1290
tyyd@@ 1290
lis@@ 1289
kysymykset 1288
järjesty@@ 1288
ksessä 1288
torjunta@@ 1288
paket@@ 1288
puolesta@@ 1286
uutta@@ 1286
tely@@ 1285
asiakirjo@@ 1285
kuluttajien 1285
tuhan@@ 1284
tee@@ 1283
ike@@ 1282
ratkaista 1282
työskentele@@ 1281
suoja@@ 1279
helpo@@ 1278
politiikkaan 1278
ediste@@ 1277
viikolla 1275
alta 1275
tio@@ 1274
isimme 1272
suor@@ 1272
viis@@ 1272
tuomio@@ 1271
ittävä@@ 1270
eni@@ 1270
isilla 1270
illa@@ 1270
tärke@@ 1269
direktiiviä 1269
edis@@ 1269
onnettom@@ 1268
hyök@@ 1268
markkinoille 1267
enne 1266
alaa 1266
res@@ 1265
ittamis@@ 1265
w@@ 1265
vähemmistö@@ 1265
Afganistan@@ 1265
vastuu 1264
empi 1264
nosta@@ 1263
päästö@@ 1262
melko 1261
aan@@ 1260
&apos; 1260
Na@@ 1260
gia@@ 1259
yys@@ 1259
mel@@ 1258
tamista 1258
alkuperä@@ 1256
äär@@ 1256
tilanteeseen 1255
taloudellista 1255
ke 1255
jatke@@ 1254
menettelyä 1254
aiheu@@ 1254
lopulta 1254
todennäköis@@ 1253
sopimus@@ 1253
ch@@ 1251
ositta@@ 1250
kannata@@ 1249
kas 1248
viita@@ 1247
mietintö@@ 1246
aiheesta 1246
myö@@ 1246
kiinnostu@@ 1246
esitetty 1244
päättävä@@ 1243
teistä 1243
minkään@@ 1243
paten@@ 1243
rakennerahasto@@ 1242
pohd@@ 1242
tarkistuks@@ 1241
kesäkuu@@ 1240
tekijä@@ 1240
toiseen 1240
yhdis@@ 1240
liikkuv@@ 1239
äärimmäis@@ 1238
taakseen 1236
suuntaviivo@@ 1234
vaale@@ 1233
mahdollisuutta 1232
Tanska@@ 1232
eni 1231
pidettävä 1231
tuo 1231
oikeudellis@@ 1231
luonn@@ 1230
kokoon@@ 1230
ttaessa 1230
etujen 1230
rauhan 1230
tuksista 1229
teke@@ 1228
maihin 1228
riko@@ 1227
ran@@ 1226
toivottava@@ 1226
vuositta@@ 1224
kat@@ 1223
iko@@ 1223
varma 1222
1. 1222
mukau@@ 1222
tavo@@ 1222
sol@@ 1222
void@@ 1222
muod@@ 1220
WTO@@ 1220
politiikassa 1219
valvontaa 1219
E 1219
matkailu@@ 1218
lopetta@@ 1218
esity@@ 1218
ymmärrä@@ 1217
huolestu@@ 1217
prosessi 1216
loppuun 1216
laittom@@ 1215
palk@@ 1215
perustuslaki@@ 1215
autta@@ 1214
eks@@ 1213
mietinnö@@ 1212
ilmaista 1211
tehokkuu@@ 1211
02@@ 1209
tukseen 1209
yhteiskunnallis@@ 1209
päätöks@@ 1208
maini@@ 1207
koti@@ 1207
muutoksia 1206
vetoom@@ 1206
löyd@@ 1205
Sa@@ 1205
päiv@@ 1204
palvel@@ 1203
vastaan@@ 1202
töä 1202
sopi@@ 1201
ksia@@ 1201
hyv@@ 1201
asiantunti@@ 1200
poikke@@ 1199
saata@@ 1199
tuki 1198
iden@@ 1197
tarvittava@@ 1196
ratkaiseva@@ 1196
tettaisiin 1195
mahdollisuudet 1195
kokouks@@ 1195
huolehti@@ 1193
ton@@ 1193
kehitysyhteistyö@@ 1192
ohjelma@@ 1191
tarvitse 1189
kk@@ 1189
saman@@ 1189
gen@@ 1189
mietintöön 1186
tuista 1185
yhdistä@@ 1183
nnö@@ 1180
rakentamis@@ 1179
viik@@ 1179
tuloksia 1178
ved@@ 1177
koulutus@@ 1176
alueita 1175
keskusteluun 1175
hark@@ 1175
sisältyy 1174
att@@ 1174
käyttö 1174
seudun 1174
tyy@@ 1173
ohjelmien 1172
inta@@ 1172
tymä@@ 1171
toukokuu@@ 1171
lliset 1171
selke@@ 1169
huu@@ 1169
mi 1168
ttömä@@ 1168
jat@@ 1168
yhteisöjen 1168
muista@@ 1167
vähimmäis@@ 1167
minä@@ 1166
joissa@@ 1165
vahin@@ 1163
kuva@@ 1163
itys@@ 1162
olosuh@@ 1162
eläim@@ 1162
kolmen 1160
käynnistä@@ 1159
nro 1159
vaaran@@ 1158
ettiin 1158
jonkin 1158
tely 1157
tiedot@@ 1156
asioihin 1156
puhe@@ 1155
järjestelmien 1155
esitä@@ 1153
tarkista@@ 1153
helpot@@ 1153
oda@@ 1152
ymmärre@@ 1152
jää 1152
kki 1152
kyseen@@ 1151
aid@@ 1151
tiivii@@ 1150
este@@ 1149
tis@@ 1148
politiikasta 1147
miselle 1146
ob@@ 1145
kia 1145
kansain@@ 1145
kilpailukyky@@ 1143
keskitty@@ 1143
yhdy@@ 1143
tiedonann@@ 1142
vaatimukset 1142
eilen 1142
neuvottelut 1140
ika@@ 1140
Tur@@ 1140
alue 1139
jen@@ 1139
poliittiset 1138
kiitos 1137
kohdassa 1137
os 1137
muihin 1137
aihetta 1136
korkea 1136
uun 1134
saavut@@ 1133
tuksessa 1133
astu@@ 1132
amis@@ 1132
vuoro@@ 1131
uudistamis@@ 1131
sodan 1131
emmin 1128
millä 1127
verkos@@ 1127
vähentämis@@ 1126
odo@@ 1126
risti@@ 1126
myy@@ 1126
ties 1126
aineiden 1125
miesten 1125
nykyisen 1124
pohti@@ 1123
ksille 1123
lähet@@ 1122
toimintaan 1122
du@@ 1121
oikeudellisten 1121
sektor@@ 1120
merkille 1120
vih@@ 1120
laske@@ 1118
Kreikan 1118
kehitys 1117
liikke@@ 1117
valloi@@ 1116
monimuoto@@ 1116
Amerika@@ 1116
haas@@ 1115
syy 1115
vuosien 1114
allekirjoitta@@ 1114
esite@@ 1113
käyttämä@@ 1113
huippukokouksessa 1113
tt@@ 1113
utuu 1112
käytävä@@ 1112
strategian 1112
kilpail@@ 1112
otettu 1111
ila@@ 1111
toman 1111
tammikuu@@ 1110
kohtaa 1110
isyyttä 1110
vakuutta@@ 1109
hol@@ 1108
neita 1107
pak@@ 1106
atta@@ 1106
kunnianhimo@@ 1106
kiinnittää 1105
kansa 1103
täminen 1103
ttämä@@ 1103
sovittelu@@ 1102
13 1100
etuja 1099
luov@@ 1099
lausun@@ 1097
naiset 1095
laajentuminen 1095
ny@@ 1094
joskus 1094
sitou@@ 1093
esittämää@@ 1093
toisi@@ 1093
esimerkki@@ 1093
ministeri 1092
kuukausi@@ 1091
toimista 1091
tuotan@@ 1089
kuud@@ 1088
matkusta@@ 1088
asiakirj@@ 1087
Belgia@@ 1086
yrityksiä 1086
ikka@@ 1086
kää 1085
vaihtoehto@@ 1085
maista 1085
isyyteen 1084
perinte@@ 1084
kuulemis@@ 1084
tark@@ 1083
perustus@@ 1082
käs@@ 1082
todeta@@ 1082
löy@@ 1080
määrää 1079
40 1079
teisiin 1079
taloudellinen 1078
koordinoi@@ 1078
yhteistyö 1077
itsenä@@ 1075
kesk@@ 1074
oppi@@ 1074
päätökset 1073
kiinni 1073
vaihtoeh@@ 1073
päätöksenteko@@ 1073
aloitteen 1073
ksesta 1072
mpaa 1072
vat@@ 1072
vähi@@ 1071
vuodesta 1071
kansalaisjärjestö@@ 1071
resurs@@ 1070
keskeinen 1070
tellä 1070
johtuu 1070
nnan 1069
erää@@ 1068
pois@@ 1068
tavoitteen 1068
ottamaan 1066
siirty@@ 1066
monimutka@@ 1065
kotimaa@@ 1065
rakenne@@ 1063
PPE 1062
g 1062
ottava@@ 1061
vuuden 1060
toden@@ 1059
toisen@@ 1059
ens@@ 1059
yleensä 1059
muis@@ 1059
ksu@@ 1059
sanottava 1058
perusoikeuskirja@@ 1058
rau@@ 1057
järjestöjen 1057
taloudellisia 1057
prosentin 1057
pääministeri 1057
lähestymis@@ 1056
osapuolten 1056
kem@@ 1056
asemaa 1056
eikö 1055
yrittä@@ 1055
otto@@ 1055
ri 1053
periaate 1053
maaliskuu@@ 1053
väkivalta@@ 1052
oista 1052
tyh@@ 1052
rauta@@ 1052
hava@@ 1052
eten@@ 1052
vaik@@ 1051
maille 1051
keen 1050
ttäminen 1050
prosessia 1050
käytö@@ 1049
lähestymistapa@@ 1049
mille 1048
telleet 1048
tulevaisuuden 1048
tiedot 1048
vammais@@ 1048
isty@@ 1047
pika@@ 1046
kysymyksistä 1046
mielipite@@ 1045
perusta 1044
henkilöiden 1044
kom@@ 1043
väline 1043
vatko 1042
markkinat 1042
tue@@ 1042
kanta@@ 1042
noudattamis@@ 1041
isyys 1041
eläke@@ 1041
lasten 1041
menettely 1040
vies@@ 1039
kansanterveyde@@ 1039
saatu 1038
käsitel@@ 1038
k 1038
ku 1038
utta 1037
ymmärr@@ 1037
tiedotus@@ 1037
as 1036
destä 1036
öljy@@ 1036
tulos 1035
liberaali@@ 1035
urheilu@@ 1035
suuren 1035
kannus@@ 1035
yhdentymis@@ 1035
noja@@ 1035
itsem@@ 1035
joudu@@ 1034
tilintarkastus@@ 1034
ard@@ 1034
valmi@@ 1033
ksilla 1033
ituksia 1032
tuoda 1031
pro@@ 1031
marraskuu@@ 1030
ajan@@ 1030
vän 1030
hyväksymis@@ 1029
toon 1028
välineitä 1028
istunto@@ 1027
ettava@@ 1027
taja@@ 1027
antama@@ 1026
laaja 1025
käydä 1022
merkitykse@@ 1022
direktiiv@@ 1022
Kypro@@ 1022
tamisesta 1020
joille 1019
mainitse@@ 1018
llä@@ 1017
neuvotteluissa 1016
huolenaihe@@ 1016
seuranta@@ 1016
tarkasti 1015
käsittel@@ 1015
paranne@@ 1015
siviili@@ 1015
d 1015
läpi 1014
osoituksia 1014
Y 1014
alta@@ 1014
demokraattisen 1013
Kosovo@@ 1013
tausta@@ 1012
syn@@ 1012
vaali@@ 1010
11 1010
tarkastella 1009
ratkaisu@@ 1008
kyken@@ 1008
valtioissa 1008
Ber@@ 1007
ehdoteta@@ 1007
tiedä 1005
edelly@@ 1005
pohjois@@ 1004
näkökulmasta 1003
alussa 1002
yden 1001
oikea 1000
yhteisö 1000
tarkoi@@ 1000
lähen@@ 999
esimerkki 999
nou@@ 999
suhteessa 999
eläkke@@ 999
liikku@@ 998
laisia 997
rs@@ 996
iso@@ 996
ope@@ 996
äl@@ 996
huippukokouksen 995
vuor@@ 995
valko@@ 995
oikeud@@ 995
ongelmaa 995
direktii@@ 995
tteko 994
synn@@ 994
tarpee@@ 993
rikko@@ 993
kais@@ 993
järjestön 993
por@@ 992
apu@@ 992
valvonnan 992
03@@ 992
komitea@@ 992
raja 992
sata@@ 991
deksi 991
kinta@@ 991
poikkeukse@@ 991
takaisin 990
ana@@ 990
hylä@@ 990
mpää 989
yhdenmukais@@ 989
keskity@@ 989
toihin 989
suojele@@ 989
sur@@ 988
toteu@@ 988
kuun@@ 987
pahoi@@ 987
ttama@@ 987
sitoumu@@ 987
määrän 986
kohtia 986
rahoitusta 986
ölj@@ 986
mpia 986
ympäris@@ 985
konferenssin 984
edustaja 984
ajoneu@@ 982
osuus 981
suosit@@ 981
helpp@@ 981
rajojen 980
ilmo@@ 979
valtion@@ 979
ehdotukseen 979
kaamme 978
ede@@ 978
uk@@ 978
ymmär@@ 977
asemassa 977
rin@@ 977
empää 977
suosion@@ 975
tilaisuus 975
11. 975
toisessa 973
enna@@ 973
peä@@ 972
Kre@@ 972
ong@@ 972
yle@@ 971
aseman 971
valiokunn@@ 970
saar@@ 970
myöntämis@@ 970
etelä@@ 969
alusten 969
ennalta 969
pysty 968
hun 968
2006 968
luke@@ 967
nähdä 967
mahdoll@@ 966
vuutta 966
14 966
kustannukset 966
kuun 965
terrorismi@@ 965
rä@@ 964
oper@@ 964
Etelä 964
sil@@ 963
toimenpi@@ 963
eita 963
ustus@@ 963
eu@@ 961
tena 961
ella@@ 960
katastrofi@@ 959
sin@@ 959
tamiseen 959
1998 958
voimaan 958
hyvän 958
ratkaisun 958
isivät 957
tukema@@ 957
varmuu@@ 956
tapahtuva@@ 955
turvallisuuteen 955
julkilausuma@@ 955
meidät 954
kommen@@ 954
vai@@ 954
utta@@ 954
viestintä@@ 953
ratka@@ 953
luule@@ 951
tiu@@ 951
ei@@ 951
lausunto@@ 950
riittä@@ 950
alueelle 950
llo@@ 950
Barcelona@@ 950
infrastruktuuri@@ 949
tin@@ 949
anto@@ 949
valti@@ 949
tori@@ 948
siirtä@@ 948
köyhyyden 948
toimi 948
mus@@ 947
väestön 947
pp@@ 947
äske@@ 946
käytäntö@@ 946
ankin 946
tieteell@@ 945
tiiv@@ 945
pankin 945
muutama 944
parhaa@@ 944
tuotteita 944
säännös@@ 943
istus@@ 943
työ 942
aat@@ 942
kum@@ 942
90 942
kansan 942
koulutuksen 941
kiinti@@ 940
tehty@@ 940
toimen@@ 940
keinoja 940
kilpailun 939
Alanko@@ 938
muissa 938
lokakuu@@ 938
esiin@@ 938
ksistä 938
Palestiina@@ 938
tra@@ 938
alueet 937
tunne@@ 937
ratifioi@@ 937
pysyvä@@ 936
hy@@ 935
sopimukset 935
isiksi 935
inte@@ 934
aikoina 934
määrärahoja 934
selkeä 934
Al@@ 932
omien 931
rikkom@@ 930
lainsäädä@@ 930
teltiin 929
periaatteita 929
periaatteessa 928
toiminn@@ 928
tekijät 928
mpi@@ 927
pidety@@ 927
vapaaehtois@@ 927
palveluja 927
täsmäll@@ 926
bi@@ 925
lähettä@@ 924
sivat 923
läsnä 922
Pohjois 922
aikataulu@@ 922
tehosta@@ 921
uksissa 921
idän 921
vastaava@@ 920
keskeisi@@ 920
valtioita 920
sivu@@ 919
Gen@@ 919
m 918
verrattu@@ 918
tuomioistuin 918
miehet 918
teki 917
Su@@ 917
tarkastel@@ 917
valmiste@@ 917
monen@@ 917
pakolais@@ 917
kaltais@@ 916
byro@@ 916
ksissa 916
käsity@@ 916
lainsäädäntö 916
paho@@ 915
mekanis@@ 915
ani 915
kulttuur@@ 915
monta 915
luoma@@ 913
llisyyden 913
panna 913
maton 913
myön@@ 912
mmeko 912
lai@@ 911
heinäkuu@@ 911
turvallisuus 911
jät@@ 911
enemmistö 910
omaa 910
esitetty@@ 910
edellä 910
turvall@@ 909
suhteen 909
mielellä@@ 908
ac@@ 908
arvioinn@@ 908
gi@@ 907
selvä 907
vapautta 907
ip@@ 907
tarke@@ 907
jälleen@@ 907
kaiken@@ 906
isyyden 905
päätösten 904
vaikuttava@@ 904
piiri@@ 904
tyt 904
elämän 904
teillä 903
tiivi@@ 903
raha 903
jär@@ 903
Balkan@@ 903
paran@@ 902
kahta 902
arvi@@ 902
siin 902
säädö@@ 901
esitti 901
KOM 901
pääsy@@ 901
öi@@ 900
mpä@@ 900
suoritta@@ 900
alku@@ 899
osaa 899
vähentää 899
yleissopimuksen 899
pohja@@ 899
muodossa 898
ajat@@ 898
kahden@@ 898
poliittisesti 898
nti@@ 898
avoimuutta 897
hallitukset 897
antoi 896
kannusta@@ 896
innän 896
vahingo@@ 896
tuksiin 896
todis@@ 896
hallinnollis@@ 895
direktiivissä 895
siirtymä@@ 895
suhd@@ 895
alen@@ 895
S 895
käytöstä 894
inhimillis@@ 894
jaa@@ 894
markkinoita 894
ves@@ 893
paikkoja 893
ette 892
perustelu@@ 892
riippuva@@ 892
totesi@@ 892
teja 891
äänestyksen 890
edistämis@@ 890
ttäisiin 890
ongelma@@ 890
keskey@@ 889
valmiita 889
mpien 889
ysten 889
rooli 889
suunna@@ 889
ykset 889
intä@@ 889
tarkistuksista 887
pakola@@ 887
käsittelemä@@ 886
nnissa 886
nuor@@ 885
pitävä@@ 885
isuus@@ 885
D 884
onnittele@@ 884
yrityksille 884
saas@@ 884
tarko@@ 884
anto 884
tulokset 883
korjaa@@ 883
päästä@@ 882
kampan@@ 882
aloitteita 881
dessä 881
unionia 881
kunta@@ 881
kiell@@ 880
ise@@ 880
päin 880
säilyttämis@@ 880
menettel@@ 879
tuks@@ 879
valtuus@@ 879
toimintasuunnitelma@@ 878
kiitoll@@ 878
viid@@ 878
toimielin@@ 878
arvioida 877
isen@@ 877
mmälle 877
sota@@ 877
julis@@ 876
teta 876
politiikkojen 876
ongelmien 876
luonnon@@ 876
jälj@@ 874
tettävä@@ 873
oikeutetu@@ 873
kattava@@ 872
tiede@@ 872
Euroop@@ 872
hor@@ 871
näkemyks@@ 871
velvoitte@@ 871
tia@@ 871
liikente@@ 870
nneet 870
koihin 870
namme 869
tunte@@ 869
vastaus 869
idemme 868
alojen 868
llut 868
ikään 868
päivä 868
edustajat 868
liika@@ 867
viä@@ 867
jonkin@@ 867
uksien 866
nähdä@@ 866
velvollisuu@@ 866
kea@@ 866
tee 866
estään 865
herättä@@ 865
täys@@ 865
ET@@ 865
hyviä 864
della 864
taloudellisten 864
johtava@@ 864
kesku@@ 864
johdo@@ 863
Britannia@@ 863
tekijä 863
kansojen 863
pyytä@@ 862
Strasbourg@@ 862
talous 862
tet@@ 862
ajattele@@ 862
omasta 861
ha 861
ante@@ 861
elu@@ 861
foor@@ 859
bia@@ 859
tarvetta 858
vähintä@@ 858
vaikutukset 858
parlamentaaris@@ 858
torjunn@@ 858
tamalla 857
silti 857
menee 857
oikeusperusta@@ 857
muista 857
paikalla 856
palj@@ 855
terroristi@@ 855
mma@@ 854
isellä 854
hank@@ 854
tasavallan 854
kim@@ 854
seuraavan 853
aih@@ 853
utua 852
kunnio@@ 852
oikeusvaltio@@ 852
demokra@@ 852
pyyntö@@ 851
vihd@@ 851
ilmas@@ 851
lujit@@ 851
tuotte@@ 851
hallinn@@ 850
tamiseksi 849
täydentä@@ 849
varat 849
tion@@ 849
suoj@@ 848
satama@@ 848
pidet@@ 847
eva 846
kuka 846
isuud@@ 846
mukainen 845
taloutta 844
rinna@@ 844
ova@@ 844
r 843
luopu@@ 843
yteen 843
vihreä@@ 843
nimissä 843
ehdottama@@ 842
väärin 842
tämänhetk@@ 842
omia 842
käytössä 842
yhtälä@@ 842
onnistunee@@ 842
ismi@@ 842
tahd@@ 842
tettava@@ 841
mas@@ 841
kalais@@ 841
vaa@@ 841
proses@@ 840
suhteell@@ 839
järke@@ 839
toteut@@ 839
tehtävänä 839
sovi@@ 838
80 838
komitean 838
jaa 838
menettä@@ 838
kesken 838
uudelleen@@ 837
aloite 837
arvo 837
käyttöönot@@ 836
annettu 835
ajatus 835
suhteiden 835
tuva 835
ollaan 834
välttää 834
ilmais@@ 834
työs@@ 834
noudattama@@ 834
riidassa 834
tuomioistuim@@ 834
naisia 834
olem@@ 833
varsina@@ 833
kaise@@ 833
anska 833
huolell@@ 832
ee 831
tietävä@@ 831
kelu@@ 830
etsi@@ 829
taloud@@ 829
kohdista 829
H 829
tekstin 828
tote@@ 828
usko 827
tulle@@ 827
Kööpenhamina@@ 827
ajankohta@@ 826
sio@@ 826
vaihe@@ 825
rj@@ 825
vapauksien 825
neuvotteluja 825
vakau@@ 825
sopimuksesta 825
reag@@ 824
ess@@ 824
alueille 823
päätöstä 823
elintarvikkeiden 823
työjärjesty@@ 822
ventä@@ 822
Internet@@ 822
tuotannon 822
vapau@@ 822
saira@@ 821
valmista@@ 820
kulj@@ 820
kuljetus@@ 820
amerikkalais@@ 820
työskentely@@ 819
sopiva@@ 819
uudistus@@ 819
viraston 819
syö@@ 819
sääde@@ 818
yhdenmukaistamis@@ 817
työstä@@ 817
hyväksytty 817
rakentava@@ 817
Mon@@ 817
tiedon 817
suhteita 817
paras 816
18 816
vaikutus 815
luomis@@ 815
toimenpiteet 815
heikentä@@ 815
tarkistuksessa 815
menne@@ 814
alaan 814
issä@@ 814
asianoma@@ 814
usi 813
akka 813
ij@@ 813
yksinkerta@@ 813
hinn@@ 813
vaad@@ 812
tetun 812
kuulu 812
x@@ 812
kaudella 811
tarkistusten 811
An@@ 811
toteuttama@@ 811
isempi 810
kuukauden 809
tekni@@ 809
kii@@ 809
järjestelmään 809
ongelmista 809
ruo@@ 809
täyden@@ 808
kohe@@ 808
ottama@@ 808
br@@ 808
terroris@@ 808
sijoitta@@ 807
taloudelliset 807
välttämättö@@ 807
sti@@ 807
täysistunnossa 806
tulk@@ 806
I 806
työhön 806
ola@@ 806
mahdollisuu@@ 805
tämänpäivä@@ 804
edelleen@@ 804
ilu 804
vis@@ 804
oikeuteen 804
tähd@@ 803
mietinnössä@@ 803
yksinoma@@ 803
näkökohtia 803
tarkis@@ 802
60 802
varainhoito@@ 802
realist@@ 801
keino 801
io 801
viittaa@@ 801
poliitik@@ 801
sai 801
laivasto@@ 801
strategia 801
kollega@@ 800
kolmas 800
itti@@ 800
ohjelmaa 799
ryhmät 799
vääris@@ 799
vastuuta 799
lämpimä@@ 799
timme 799
kysymyksessä 799
tettä@@ 798
kuulla 798
valvonta 797
yksik@@ 797
edustajien 796
paikkojen 795
villa 795
tuvat 795
kir@@ 794
yleisö@@ 794
lti 793
tutkimusta 793
neljä 792
korke@@ 792
kompromis@@ 792
joukko@@ 792
yhteispäätös@@ 792
toimintaohjelma@@ 792
turvaa@@ 791
epäil@@ 791
joki@@ 791
kysymyksissä 791
maahanmuutta@@ 791
yksikö@@ 790
joustav@@ 789
kulku@@ 789
tetyt 789
ukselle 789
kunnoll@@ 788
pah@@ 788
noudatettava 788
tellut 788
sosialisti@@ 787
äänestyksessä 787
sosiaaliturva@@ 787
kesken@@ 787
pitämä@@ 786
kysymyksestä 786
Kes@@ 786
tekemistä 786
one@@ 785
olog@@ 785
tuh@@ 785
seikka@@ 784
korja@@ 784
osoitus 784
suojelua 784
llani 783
aiheuttama@@ 783
mitkä 783
valtaa 783
huhtikuu@@ 783
järjestäyty@@ 783
omaksu@@ 783
epäily@@ 782
tekst@@ 782
väärin@@ 782
kyseisen 782
edistys@@ 782
ota@@ 781
valmistele@@ 781
ratkaisua 781
käyttävä@@ 780
ankar@@ 780
hallituksi@@ 780
tyypp@@ 779
haaste@@ 779
ehdotusten 779
edu@@ 779
ge@@ 779
kieltäyty@@ 778
pohj@@ 778
pyyde@@ 778
vaativa@@ 778
erotta@@ 778
edustaja@@ 778
heng@@ 777
ihin@@ 777
mielipi@@ 776
myöhä@@ 776
ssamme 776
iti@@ 776
rahoituksen 775
ansaitse@@ 775
kään@@ 775
V 775
pk 775
yri@@ 775
käydä@@ 774
eurooppalaisia 774
tehtävää 774
ongel@@ 774
vi 774
rikollis@@ 774
ssa@@ 773
isa@@ 773
16 773
sanoma@@ 773
nimi@@ 773
liikenn@@ 773
samanaika@@ 772
taisi 771
parantamis@@ 771
vahva@@ 771
onnettomuu@@ 770
tuksen@@ 770
paa@@ 770
vastuun 770
läis@@ 770
osapuoli@@ 770
puolella 769
assosiaatio@@ 769
pilari@@ 768
ehkäise@@ 768
kaupallis@@ 768
aluetta 767
muodostu@@ 767
tos@@ 767
ket@@ 766
viljely@@ 766
kra@@ 766
Amsterdam@@ 766
ristiriita@@ 766
päätös@@ 765
AKT 765
pelk@@ 764
herä@@ 764
oiden 764
ber@@ 764
vied@@ 764
taho@@ 764
ittel@@ 763
lapsi@@ 763
kehitykseen 762
rakennus@@ 762
antai@@ 761
yttävä@@ 761
merkkejä 761
voimakka@@ 760
iel@@ 760
lähestymistapa 760
vakuu@@ 760
työllis@@ 759
ksellä 759
ratkaisuja 759
vuode@@ 758
oles@@ 758
toimenpiteiden 757
terro@@ 757
llään 757
toissijaisuus@@ 756
aste 756
valtiota 756
utunut 755
seikka 755
suori@@ 755
luovutta@@ 755
sin 755
solidaaris@@ 755
ongelmiin 754
auto@@ 754
tarkasteltava 753
oin@@ 753
jau@@ 753
inta 753
terveyden@@ 753
CO@@ 752
tiedotusväline@@ 752
L 752
maata 752
tuon 752
ohjelmia 751
DE 751
tukeva@@ 751
todiste@@ 751
puitte@@ 751
rah@@ 751
mät 750
tekniikan 750
koordinointi@@ 750
In@@ 750
voitava 749
havai@@ 749
toteutetaan 749
hiljatta@@ 749
istunnon 748
O 748
esitteli@@ 748
EK@@ 748
polttoaine@@ 748
puhemiehe@@ 747
yhteenkuuluv@@ 747
kiit@@ 747
prosessiin 747
tarve 747
mor@@ 747
viivästy@@ 746
tan 746
heidät 746
kysymysten 746
kio@@ 746
mässä 745
kauppa 745
kustannuksia 744
alha@@ 744
suhteet 744
rajoit@@ 744
tapaus 743
vallitse@@ 742
määräyksiä 742
siv@@ 742
kauppaa 742
ban@@ 742
ttömiä 741
viisi 741
olennaise@@ 741
täh@@ 741
Euroopasta 740
hil@@ 739
het@@ 739
tr@@ 739
tiä 738
imin@@ 738
riittämä@@ 738
prosent@@ 738
käsittelyyn 738
perustuslain 738
sotilas@@ 736
elo@@ 736
lain 736
nuorten 735
varova@@ 735
oikeuksista 735
tetta@@ 733
vahing@@ 733
halusi@@ 733
mielenkiinto@@ 733
tasapuol@@ 733
kuule@@ 732
huolehdi@@ 732
tapaa 732
aloit@@ 732
parann@@ 731
miehi@@ 731
miten@@ 730
pide 730
nuori@@ 730
jäsenelle 730
ilmi@@ 730
lausunnon 730
nopeu@@ 729
vakuutus@@ 729
pito@@ 728
etusija@@ 727
pakot@@ 727
välisessä 727
alus@@ 727
Itä 726
luul@@ 726
piiriin 726
haita@@ 726
leik@@ 726
emis@@ 726
tai@@ 726
tämät@@ 725
tuollo@@ 725
aamuna 725
attava 725
ymmärry@@ 724
säännöll@@ 724
työmarkkina@@ 724
sulke@@ 724
vapaus 724
A 724
kriisi@@ 723
järjestelmiä 723
lentoyhtiö@@ 723
hoito@@ 722
yhteistyöhön 722
näyt@@ 721
kiis@@ 721
tilais@@ 721
rien 720
og@@ 720
määrärahojen 720
silmä@@ 720
muodos@@ 720
entä@@ 720
periaatteiden 719
12.@@ 719
ylimäärä@@ 719
rekister@@ 719
yrittää 719
inkin 718
kaasu@@ 718
Prodi 717
perin@@ 717
emm@@ 717
tetyn 716
ponn@@ 716
integro@@ 716
vaihto@@ 716
uudessaan 716
asetus 715
lainsäädän@@ 715
Kioto@@ 715
naapu@@ 715
vetoa@@ 715
Laeken@@ 715
vina 714
millään 714
pes@@ 714
harjoitta@@ 714
Makedonia@@ 714
lainsäädännö@@ 713
laatimis@@ 713
teko@@ 713
aiko@@ 713
rikollisuuden 713
70 713
rauhanoma@@ 712
menettelyjä 712
määritelmä@@ 712
viljel@@ 712
kannattava@@ 711
valo@@ 711
konferenssissa 711
mästä 710
ellis@@ 710
paa 710
hait@@ 710
oleell@@ 710
umi@@ 710
toisista@@ 709
toisin@@ 709
vakava 709
suun@@ 709
oita 709
kriittis@@ 709
taan@@ 709
ba@@ 709
tehokas 708
toimiva@@ 708
män 707
II 706
rehell@@ 706
kot@@ 706
milloin 705
suh@@ 705
ympä@@ 705
huomaa@@ 704
sota 704
edessä@@ 703
sanottu 703
län@@ 703
korkei@@ 702
gu@@ 702
tod@@ 702
tukien 701
kkaam@@ 701
jemme 701
vaikeuksia 700
haki@@ 700
käyttöön@@ 700
tuon@@ 700
Jugoslavia@@ 700
lääke@@ 700
mahdollisuuksien 699
hätä@@ 699
suojelun 699
Iso@@ 698
väes@@ 698
ystävä@@ 698
lisääntymis@@ 698
keskit@@ 698
tapaan 698
neessä 698
alla@@ 697
leh@@ 697
osalta@@ 697
kysymyks@@ 697
ejä 697
ylittä@@ 697
sisältyvä@@ 696
yyn 696
liev@@ 696
kone@@ 696
PT 696
lisäämis@@ 695
kkaammin 695
ytymis@@ 695
Iran@@ 695
rahaston 694
py@@ 694
edellytykset 694
onne@@ 694
eläkeläis@@ 694
alusta 693
llistä 693
uudistuksia 693
kerro@@ 693
kriisin 693
kappal@@ 693
lisäämä@@ 693
kertomuksen 692
viikko@@ 691
todista@@ 691
prosessissa 690
jakso@@ 689
alkuperäis@@ 689
ide@@ 689
sair@@ 689
keja 688
aikais@@ 688
Se@@ 688
hankkeiden 688
käynti@@ 688
säännöksiä 688
tehtäviä 687
teltava 687
37 687
mies@@ 687
julk@@ 687
päätöksen@@ 686
isuudessa 686
toimeen@@ 686
jääd@@ 686
laisen 686
nais@@ 686
televisi@@ 685
Ar@@ 685
rakenteell@@ 685
tavoitetta 685
hyväksy 685
suostu@@ 685
katsoo 684
edessä 683
Ma@@ 683
kohtien 683
suojella 683
tarpeet@@ 682
nnyt 682
omista@@ 682
strategiaa 682
etty@@ 682
ältä 682
Per@@ 682
tivat 681
tetut 681
menettelyssä 680
keskusteluja 680
seuraa 680
dy@@ 680
ostus@@ 679
sukupol@@ 679
työsken@@ 679
sattu@@ 678
sum@@ 678
saapu@@ 678
paikan 678
turvapa@@ 678
väliaikais@@ 677
täysimäärä@@ 677
hankkeita 677
opp@@ 677
mielen@@ 677
glob@@ 677
Aasia@@ 677
kuljet@@ 676
arvosta@@ 676
kuuluva@@ 676
maailma@@ 676
edut 676
ttämiseksi 675
koon 675
seur@@ 675
terveyden 675
pelkää@@ 675
ehkäisy@@ 674
vaatimusten 674
ale@@ 674
heiko@@ 674
artikl@@ 674
järky@@ 674
teiltä 673
pääoma@@ 673
valtalais@@ 673
kerta 673
noudateta@@ 673
llisiä 673
institution@@ 673
kielle@@ 673
tavasta 673
huoma@@ 672
lause@@ 672
hankkeen 672
nähd@@ 672
käytettävä 672
sisälty@@ 672
radi@@ 672
udesta 672
omi@@ 671
puheen@@ 671
takaa 670
17 670
P 670
voitu 669
taso 669
maanviljeli@@ 669
saman 669
velvollisuus 669
vakaa@@ 669
kuva 669
dikta@@ 669
tutkimus 668
aikom@@ 668
suurempi 668
väh@@ 668
palauttamis@@ 668
maahan 668
asiakirjan 667
paan 667
aloja 667
impien 667
vaal@@ 667
ali 667
yty@@ 667
isina 666
elää 666
yksipuol@@ 666
vastainen 666
valvonn@@ 666
uudistuksen 665
aset@@ 665
ongelmaan 664
tol@@ 663
uskoa@@ 663
itsestään 663
lö@@ 663
uudista@@ 663
isoi@@ 663
muoto@@ 662
assaolo@@ 662
sall@@ 662
Car@@ 662
rat@@ 662
rans@@ 661
päätöslauselma 661
euvosto@@ 661
ollis@@ 660
esiinty@@ 660
ind@@ 660
kehi@@ 660
nime@@ 660
iteet@@ 660
verra@@ 660
itetta 660
väkivallan 660
virhe@@ 659
mietinnöstä@@ 658
hallinno@@ 658
lik@@ 658
helmikuu@@ 657
teksti 657
uudestaan 657
Ro@@ 657
vastaista 657
Latin@@ 657
huole@@ 656
luottamus@@ 656
prior@@ 656
koulutusta 655
tarkistuksesta 655
taloudellisesti 655
hakem@@ 655
tapahtumat 654
jolla@@ 654
keskustella@@ 654
Zimbabwe@@ 654
vallassa 653
standar@@ 653
mman 653
tasapaino 653
nope@@ 653
keho@@ 653
vakauden 652
ittävä 652
asteitta@@ 652
viljelijöiden 652
tuomitse@@ 652
puhuja@@ 652
laitosten 652
tuloksen@@ 652
poistamis@@ 651
avo@@ 651
saavutettu 651
hyvinvo@@ 651
säh@@ 651
mitta@@ 651
toimenpiteisiin 651
kolog@@ 651
ulkominister@@ 651
tilaisuuden 650
vapaa 650
sie@@ 650
kolleg@@ 650
luotta@@ 649
toiminnasta 649
mainitsi@@ 649
ntö 649
tuli 648
ana 647
emmat 647
erillis@@ 647
vastaavan 646
pare@@ 646
netään 645
käytännö@@ 645
hallitusta 645
enimmäis@@ 645
jän 644
kasvun 644
uden 644
urg@@ 643
kasvu 643
sitoumuks@@ 643
laitte@@ 643
ES 642
kuvi@@ 642
aikaan@@ 642
lailla 642
ennakko@@ 642
tuhoa@@ 642
kaava@@ 642
pidettävä@@ 642
Maailman 642
moot@@ 641
kapasiteet@@ 641
pis@@ 641
muuton 641
taudin 641
rikoll@@ 640
kirjoi@@ 639
esityksen 639
lyk@@ 639
vaihd@@ 639
siirry@@ 639
osoite@@ 639
jista 639
rauha@@ 639
pi 638
tilo@@ 638
ussa 638
yhtenä@@ 638
pil@@ 638
puutu@@ 638
Bus@@ 638
alaisen 637
vau@@ 637
käsittelyä 637
isissä 637
tekniik@@ 637
tavoitteista 636
tarkastella@@ 636
tussa 636
ksessa 636
yhty@@ 636
armei@@ 636
tunto@@ 636
käynnissä 636
huolto@@ 636
hyväksym@@ 635
poikkeus@@ 635
tavanoma@@ 635
hyväksyttävä 635
budjet@@ 635
hir@@ 634
samanlais@@ 634
käteen 634
asetuks@@ 634
vienti@@ 633
tule 633
evä 633
seitsem@@ 633
liha@@ 633
uhkaa 633
vang@@ 633
mil@@ 633
itsema@@ 633
työntekijö@@ 632
mainitsi 632
joustava@@ 632
seuraukset 631
teknologi@@ 631
reja 631
Ha@@ 631
á@@ 630
vaara@@ 630
osasto@@ 630
työntekijöitä 630
sod@@ 630
kirjo@@ 630
C 629
teihin 629
saane@@ 629
otamme 628
mal@@ 628
lyhy@@ 627
kantojen 627
aineita 626
doll@@ 626
Kuuba@@ 626
koi@@ 625
osapuolet 625
uskonno@@ 625
ans@@ 625
tilaisuutta 624
lyh@@ 624
SE@@ 624
Kar@@ 624
mainitsema@@ 624
edistämä@@ 624
liiton 623
ktiiv@@ 623
tupa@@ 623
use@@ 622
elin 622
isla@@ 622
liittyvä 622
elinten 621
valtuuskunnan 621
kristi@@ 621
kid@@ 620
pite@@ 619
ona 619
burg@@ 619
its@@ 618
ammati@@ 618
kumppani@@ 618
Irla@@ 618
syvä@@ 618
tällöin 617
hallinto 617
lah@@ 617
seka@@ 617
GM@@ 617
otsakke@@ 617
04@@ 617
immista 616
puolus@@ 616
nykyaika@@ 616
viranomaisen 616
keskinä@@ 616
arv@@ 616
Lam@@ 616
ilmen@@ 615
huomion 615
kohtuull@@ 615
esimer@@ 615
teollisuus 615
elimiä 615
Göteborg@@ 615
aiempaa 615
pane@@ 614
huolestune@@ 614
totu@@ 614
uja 614
ostu@@ 614
saastu@@ 614
aati@@ 614
joku 613
tehtiin 613
sydä@@ 613
kommun@@ 613
kai@@ 612
lähd@@ 612
rajoja 612
oon 611
pieni 611
mainita@@ 611
vun 611
ympäristön@@ 611
histor@@ 611
erään@@ 610
pano 610
täisi@@ 610
laadun 610
tapoja 610
miehen 610
alkoh@@ 610
kohde@@ 610
kysymyksen@@ 609
hieno@@ 609
tääkseni 609
sovell@@ 609
meja 609
nnöstä 608
tellen 608
kohtiin 608
president@@ 607
asianosa@@ 607
aio 607
mmistä 607
sisämarkkina 607
arkaluonte@@ 607
merkin@@ 607
tulokseen 607
sihteer@@ 607
iselitte@@ 606
tiedottamis@@ 606
ilmaise@@ 606
näkökohdat 606
ministerin@@ 606
kustannusten 606
oikeutettu@@ 606
fi@@ 606
väki@@ 606
päätöslausel@@ 605
änsä 605
kkaita 605
udu@@ 605
uskottav@@ 605
järj@@ 605
käydy@@ 605
arvon 604
ittää 604
rangais@@ 604
3. 603
investointe@@ 603
kkau@@ 603
tuettava 603
essään 603
puolueiden 603
lliseen 602
turvallisuudesta 602
tynee@@ 602
biolog@@ 602
veden 602
kokoukseen 602
etn@@ 602
ttuja 601
tellyt 601
sopimuksiin 601
neitä 601
piti 601
mie@@ 601
ongelmana 601
periaatteet 601
vaalien 601
mukaisia 601
Län@@ 601
voitte 600
Val@@ 600
liitt@@ 600
rauhaa 600
kritiik@@ 600
valmistelukunta 600
pyrkivä@@ 599
des@@ 599
välisiä 599
yksin 599
otti 599
muita@@ 599
ehdot 599
miljo@@ 599
terveyttä 598
palvelut 598
tapahtui 598
tuote@@ 598
Ch@@ 598
komitea 597
viiden 597
imp@@ 597
gen 597
väis@@ 597
erään 597
kuukautta 596
hämmä@@ 596
makse@@ 596
mennä 596
tyistä 596
lou@@ 596
lääkke@@ 596
.. 595
ttakoon 595
len@@ 595
illä@@ 595
yritä@@ 595
hanke 595
velvoll@@ 595
vapauteen 595
kot 595
pyynnön 594
edun 594
sesta 594
asto@@ 594
näkökul@@ 594
selvity@@ 594
ehdotuksista 594
yhden@@ 594
edetä 593
yhteisvastuu@@ 593
käsiteltävä 592
ttujen 592
ttämistä 592
kaksin@@ 592
diploma@@ 592
tulosta 591
luonte@@ 591
runsa@@ 591
llisyyttä 591
teet@@ 591
mainittu 591
itio@@ 591
aloite@@ 590
allekirjoit@@ 590
matka@@ 590
yhdenmukaista@@ 589
vaatio@@ 589
iva@@ 589
harkitse@@ 589
eng@@ 589
tavara@@ 588
oloissa 588
uutemme 588
huomatta@@ 588
af@@ 588
vaikei@@ 588
kysel@@ 588
viikon 587
ssään 587
välisten 587
empia 587
Korea@@ 587
ttömän 586
huoll@@ 586
kahteen 586
tehtävän 586
äänes@@ 586
monop@@ 586
torjunta 586
suuntavii@@ 585
mies 584
oin 584
alalle 584
arvoa 584
uudistus 584
elämään 583
mainittu@@ 583
ystä@@ 583
dyna@@ 583
sup@@ 582
nel@@ 582
syitä 582
ksell@@ 582
täjä@@ 582
solidaar@@ 582
kump@@ 582
rehu@@ 582
tapahtumien 582
Saddam 582
suunnitelman 581
vaikutusta 581
pienen@@ 581
keinoin 581
koulutukseen 581
istamis@@ 580
syyttä@@ 580
valtioille 580
instituu@@ 580
ow@@ 580
nouse@@ 579
analyysi@@ 579
tro@@ 579
tere@@ 579
järjestelmästä 579
kenn@@ 579
lääkkeiden 579
kana@@ 578
vaikut@@ 578
hetki 578
tei@@ 578
ktio@@ 578
Euro 578
kausi 577
katastrof@@ 577
ön@@ 577
matk@@ 577
määrärahat 577
roko@@ 577
ominais@@ 576
,5 576
hallinnoi@@ 576
selvästi@@ 576
tarkoitettu@@ 576
huumausaine@@ 576
pom@@ 575
vojen 575
ore@@ 575
isu@@ 575
talousarvi@@ 574
hou@@ 573
emmis@@ 572
lev@@ 572
itettu@@ 571
Pu@@ 571
Prod@@ 570
sty@@ 570
idä@@ 570
mar@@ 568
kohtu@@ 567
1997 566
ky 566
ttav@@ 565
sotila@@ 563
Lan@@ 562
í@@ 562
osapuol@@ 562
and@@ 560
demokrati@@ 559
Johannes@@ 559
stö@@ 558
da@@ 557
take@@ 556
sid@@ 556
for@@ 556
ppa@@ 555
tety@@ 555
läs@@ 555
Bar@@ 553
itel@@ 553
esty@@ 553
kti@@ 552
21 551
ga@@ 551
22 549
laa@@ 548
teur@@ 546
35 544
sosiaal@@ 544
tellä@@ 543
ehkä@@ 542
oppos@@ 542
materi@@ 541
tem@@ 541
tes@@ 541
ion 539
ristiri@@ 539
kana 538
terveyd@@ 537
markkin@@ 536
rati@@ 535
asiantun@@ 535
täs@@ 535
enti@@ 534
tto@@ 531
tella@@ 529
Cor@@ 529
uno@@ 528
Par@@ 528
ehkäis@@ 528
Roman@@ 527
eil@@ 526
2005 525
200@@ 525
kohdat 524
analys@@ 524
hyö@@ 523
23 522
Scheng@@ 522
jon@@ 521
tapo@@ 521
Hel@@ 520
19 520
avar@@ 520
arvioid@@ 517
Luxemb@@ 516
nos@@ 516
kr@@ 515
OLA@@ 515
NL 515
bet@@ 514
Patten 514
bio@@ 514
nnössä 512
ü@@ 512
100 510
ero 509
sääd@@ 507
92 507
demokraatt@@ 507
eg@@ 505
24 505
Z@@ 505
tuotann@@ 503
ser@@ 502
ammat@@ 502
saan 502
inf@@ 502
kats@@ 501
vah@@ 501
vuoropuh@@ 501
kans@@ 501
Tamper@@ 500
pyyd@@ 500
Ver@@ 500
kiin@@ 499
summ@@ 499
ue 499
uma@@ 498
norma@@ 498
ang@@ 497
kah@@ 497
tuomioistu@@ 497
säil@@ 496
rea@@ 496
ep@@ 496
tarkastus@@ 496
yhteyd@@ 495
nouda@@ 494
dell@@ 493
th@@ 492
Le@@ 490
toi 490
Sol@@ 490
avi@@ 489
hid@@ 489
julkilaus@@ 488
automa@@ 488
kis@@ 487
Doh@@ 487
lim@@ 486
täm@@ 486
Gu@@ 481
poh@@ 480
täytäntöön@@ 479
päätö@@ 479
elintarv@@ 479
mik@@ 479
Bur@@ 479
27 477
BSE 477
viit@@ 476
01 476
uo@@ 476
kusta@@ 475
08 474
ukse@@ 473
pas@@ 472
noud@@ 472
ota 472
K 469
eet 469
ian 468
Bro@@ 468
tit@@ 467
yt 467
ellä@@ 467
pöytä@@ 465
Van 465
atu 463
15@@ 462
Mc@@ 462
Alger@@ 461
son 460
impi@@ 460
ah@@ 460
vaka@@ 460
ig@@ 459
Pa@@ 458
45 458
vaatim@@ 457
onni@@ 456
mill@@ 455
Az@@ 455
1996 454
kulttu@@ 453
rak@@ 452
Ti@@ 452
Pat@@ 452
hyvin@@ 451
liber@@ 450
Ser@@ 450
ity 449
kein@@ 449
identi@@ 449
sääntö@@ 448
ash@@ 446
qu@@ 445
del@@ 444
komissi@@ 442
28 442
yä 442
Ang@@ 442
via@@ 441
PSE 441
tehd@@ 441
etään 440
kejä 440
puhemieh@@ 440
rauh@@ 439
johdon@@ 438
La@@ 438
issu@@ 437
aar@@ 436
saan@@ 436
ss@@ 436
poli@@ 435
NS 435
dra@@ 434
neu@@ 433
yttämis@@ 433
end@@ 433
ELDR 433
sing@@ 433
500 433
vira@@ 433
ordin@@ 433
lleet 432
perustusla@@ 432
stand@@ 431
Maa@@ 431
Kau@@ 431
Pres@@ 431
sal@@ 430
x 429
lopul@@ 429
Du@@ 429
feder@@ 429
kyky@@ 428
Ukra@@ 428
kut@@ 427
N 426
š@@ 426
menet@@ 425
Pak@@ 425
Gal@@ 425
nnön 424
ima@@ 424
Irlan@@ 423
neuvot@@ 423
hasto@@ 422
viljelijö@@ 422
serva@@ 422
pon@@ 422
teki@@ 422
kapa@@ 422
innova@@ 421
vet@@ 420
el 420
gra@@ 420
Poh@@ 418
yhti@@ 417
Egy@@ 417
our@@ 416
itettava@@ 416
29 416
ite 415
puolu@@ 415
amb@@ 414
not 414
saad@@ 412
Itali@@ 412
palau@@ 411
Ruot@@ 411
oikeuden@@ 410
Ä@@ 410
henkil@@ 410
Internet 409
ym@@ 409
der 409
taud@@ 408
33 408
Geor@@ 408
200 407
tonn@@ 407
miet@@ 407
co@@ 407
Venä@@ 407
dik@@ 406
set@@ 405
Atlan@@ 405
rup@@ 404
lau@@ 401
v 401
Mor@@ 401
omet@@ 400
Espan@@ 400
ins@@ 399
jousta@@ 398
attava@@ 398
Nor@@ 395
al 395
omis@@ 395
75 395
26 394
do 393
Bas@@ 393
mit 392
10@@ 392
pen@@ 391
Me@@ 391
määräraho@@ 390
transatlan@@ 390
ass@@ 389
tou@@ 388
h 386
mista@@ 386
Jap@@ 385
uudell@@ 385
minis@@ 385
hel@@ 385
Husse@@ 384
bru@@ 382
be@@ 382
eb@@ 382
AL@@ 382
02 380
mää@@ 379
leg@@ 378
isuudet 378
Bu@@ 378
ff@@ 377
Mi@@ 377
lains@@ 375
run@@ 375
New 374
der@@ 374
Her@@ 374
Ki@@ 373
ste@@ 372
rahat 372
Erika 371
ge 371
jur@@ 371
ts 371
DA 371
kap@@ 370
puheenjohta@@ 370
etel@@ 369
kolle@@ 369
mes@@ 369
Niel@@ 369
ECH@@ 369
terveyde@@ 369
Lu@@ 369
Mos@@ 368
viljeli@@ 367
luu@@ 367
38 367
kanso@@ 367
digi@@ 367
ing 366
oa 365
ros@@ 365
ra 364
jus@@ 363
strö@@ 363
ec@@ 360
48 360
sani 359
ituksi@@ 359
UN@@ 359
Bulgar@@ 358
immä@@ 357
kok@@ 357
Or@@ 357
päi@@ 356
Verheug@@ 356
ón 355
itsi 355
ratifio@@ 355
tiedo@@ 353
32 353
prote@@ 352
WTO 352
gan@@ 351
Ne@@ 350
jet@@ 349
Mad@@ 349
seud@@ 348
1995 348
c 347
onom@@ 347
vät@@ 347
valio@@ 347
Co@@ 346
mak@@ 346
sosi@@ 346
36 345
Wat@@ 344
Man@@ 344
kre@@ 343
suure@@ 342
net 342
istunnossa 342
elintarvikke@@ 341
tilin@@ 341
Indones@@ 340
R 340
uskonn@@ 340
kokon@@ 339
omen 338
iri@@ 338
Galic@@ 338
Shar@@ 338
toma@@ 337
ehti@@ 337
kär@@ 337
ulot@@ 336
55 335
Ru@@ 335
Niger@@ 335
ittämä@@ 334
42 334
symb@@ 334
aman@@ 334
Mol@@ 334
31 333
M 333
95 332
49 332
pyr@@ 331
tilan@@ 330
ve 330
avan@@ 329
tas@@ 329
Yor@@ 329
vos@@ 328
bel@@ 327
komite@@ 327
Fischler 327
epidem@@ 327
EM@@ 325
Vietna@@ 325
too 324
Cas@@ 324
ikke@@ 324
Coton@@ 324
sig@@ 323
orm@@ 323
talis@@ 323
Araf@@ 323
imperi@@ 323
erila@@ 322
Berluscon@@ 322
so 321
ter 320
Barni@@ 320
Feir@@ 320
optimis@@ 319
sit 318
kou@@ 318
ine 318
44 318
allis@@ 317
Ri@@ 316
täyty@@ 315
Tun@@ 315
prosess@@ 314
ensä 313
ú@@ 313
Bla@@ 312
top@@ 312
toge@@ 312
merkity@@ 311
NG@@ 311
demok@@ 311
tehok@@ 310
takais@@ 310
äh@@ 310
41 310
ponnis@@ 310
14@@ 309
39 309
fundamentalis@@ 309
Eng@@ 308
uni@@ 308
300 307
re 306
Har@@ 306
teell@@ 305
tuuri@@ 305
Kal@@ 305
Guine@@ 305
arvois@@ 304
Portug@@ 304
urhe@@ 304
ksa@@ 303
sis@@ 303
34 302
Th@@ 301
fil@@ 301
EI@@ 301
Afrik@@ 301
Fa@@ 301
ken 300
US@@ 300
analy@@ 299
Maastrich@@ 299
zz@@ 299
COS 298
99 298
ub@@ 298
Slova@@ 298
Israel 298
Di@@ 298
yste@@ 297
Kinno@@ 297
audi@@ 297
43 296
Fisch@@ 294
ikan 294
sto@@ 294
Canc@@ 294
é 293
uro@@ 292
anti@@ 292
Sta@@ 291
ori 291
1994 290
pää 290
osall@@ 290
välia@@ 289
Tai@@ 288
mid@@ 288
NAT@@ 288
Bosni@@ 288
pros@@ 288
199@@ 287
Byr@@ 287
emb@@ 287
b 286
sanot@@ 286
IN@@ 286
Ca@@ 286
hien@@ 284
pöy@@ 283
ord@@ 283
ard 283
ona@@ 283
yhteiskunn@@ 282
Sw@@ 282
&a@@ 281
&#91; 280
&#93; 280
Pos@@ 280
Solana 279
65 279
kl@@ 278
sivi@@ 278
Br@@ 277
kysymy@@ 277
kaks@@ 277
rid@@ 277
gh@@ 275
lämp@@ 274
Wall@@ 274
ttoaine@@ 274
aste@@ 273
Go@@ 273
pun@@ 273
aikataul@@ 273
rke@@ 273
des 270
ir 270
und@@ 270
asian@@ 269
jaks@@ 268
Agenda 268
Mac@@ 268
ug@@ 268
immi@@ 267
sch@@ 267
öl@@ 266
mietin@@ 266
kolman@@ 266
ua 265
infrastruk@@ 264
varain@@ 263
tig@@ 263
muutto@@ 262
IC@@ 262
loo@@ 261
ck@@ 260
ven 260
euro 259
legiti@@ 259
reä@@ 257
p 257
pul@@ 255
interven@@ 255
od 255
hom@@ 254
mukais@@ 254
we@@ 254
kus 253
EC@@ 253
sih@@ 253
kaupa@@ 253
alisti@@ 252
nop@@ 251
Inter@@ 251
integra@@ 251
pl@@ 251
kym@@ 250
ci@@ 249
Ira@@ 249
urs@@ 248
Palacio 246
numer@@ 246
asio@@ 246
ch 244
neuvost@@ 244
ck 244
perusoikeus@@ 244
ez@@ 243
ark@@ 243
periaat@@ 242
è@@ 242
CA@@ 242
j 241
itystä 241
ren@@ 241
ation 241
Belgi@@ 241
ittäis@@ 241
strate@@ 240
of 239
inter@@ 238
abor@@ 238
haa 237
uoto@@ 237
vuod@@ 236
marg@@ 235
into 234
teri@@ 234
nes@@ 234
yksin@@ 233
yssä 232
ulkom@@ 232
jel@@ 232
sem@@ 231
tama 230
bo@@ 230
# 230
liiken@@ 229
bour@@ 229
Bel@@ 229
poten@@ 228
enta@@ 228
koordino@@ 228
æ@@ 228
tein 227
istunn@@ 227
ban 227
ikkalais@@ 227
mahd@@ 226
mpan@@ 226
Bolkestein 226
go@@ 225
idät 225
bar@@ 224
aim@@ 224
En@@ 224
yll@@ 223
itur@@ 223
Fi@@ 223
kea 222
Is@@ 221
itt@@ 220
ivi@@ 220
gene@@ 220
teknolo@@ 219
eir@@ 219
toimintasuunnitel@@ 219
Qu@@ 219
fin@@ 219
avu@@ 217
prof@@ 217
Alban@@ 216
Vitorino 215
Poettering 213
Vitorin@@ 213
12@@ 213
ry 213
vii@@ 213
syd@@ 212
lly 212
co 212
puhemi@@ 212
istumis@@ 212
AT@@ 212
inä@@ 211
Erik@@ 211
mär@@ 211
uc@@ 209
le 209
idem@@ 208
Pe@@ 208
il 208
euvos@@ 208
oc@@ 207
ME@@ 206
Bush 206
solu@@ 205
yer 204
Bo@@ 204
tak@@ 204
Hu@@ 204
super@@ 203
up@@ 203
jois@@ 203
ente@@ 202
ola 201
käytettä@@ 201
oth@@ 200
minister@@ 200
ira@@ 200
ardi@@ 198
autonom@@ 198
dt 198
Europe 198
Palac@@ 197
tiete@@ 197
nimen@@ 197
kiire@@ 196
one 196
opu@@ 196
Re@@ 196
aam@@ 195
neuvottel@@ 195
imä@@ 194
Q@@ 194
tlan@@ 193
ettel@@ 192
markkina 192
otsa@@ 192
Amer@@ 192
fran@@ 191
medi@@ 191
ene 191
are@@ 190
qui@@ 189
Cam@@ 189
sym@@ 189
Vi@@ 189
no 188
Del@@ 188
ern@@ 188
teg@@ 188
ans 187
diplom@@ 187
milj@@ 187
lob@@ 187
ill 187
tain 186
Lat@@ 186
F 185
our 185
f 184
cos@@ 184
Hussein 184
imäärä@@ 182
Po@@ 181
ile 181
Si@@ 181
tron@@ 181
ator@@ 180
ers 180
mäll@@ 179
peria@@ 179
huolen@@ 178
men 177
ó@@ 176
aw@@ 176
yhteenkuulu@@ 174
infor@@ 174
B 174
ous@@ 174
Rom@@ 173
fa@@ 172
wa@@ 172
fe@@ 171
fos@@ 170
eder@@ 168
mili@@ 168
plan@@ 168
mani@@ 168
oda 167
arti@@ 167
taul@@ 167
visi@@ 167
Ara@@ 167
Bolkes@@ 166
nation@@ 165
Ac@@ 164
usten@@ 164
muistu@@ 163
ry@@ 163
voita@@ 162
Bal@@ 162
ener@@ 162
fio@@ 161
+ 161
viestin@@ 161
Aus@@ 159
ye@@ 159
argu@@ 158
eläk@@ 158
bus@@ 158
ò@@ 158
inten@@ 157
taudu@@ 157
tari@@ 157
Europol 156
ttäm@@ 156
riid@@ 156
Poet@@ 155
paper@@ 155
monimut@@ 154
opti@@ 154
anti 154
ish 154
ire 154
rekis@@ 154
sh@@ 154
Ky@@ 153
ant@@ 153
Ven@@ 152
Mus@@ 152
use 151
omin@@ 151
vien@@ 151
tic@@ 151
neg@@ 150
dy 148
OLAF 148
oth 147
tain@@ 147
ett@@ 147
mun@@ 147
­ 147
ro 146
inhim@@ 145
appa@@ 144
bro@@ 143
198@@ 142
työh@@ 142
versi@@ 141
ric@@ 141
hti@@ 140
has@@ 140
id 140
AC@@ 140
fiel@@ 140
painopis@@ 139
rou@@ 139
aut@@ 139
kausi@@ 138
presid@@ 137
ad 137
rap@@ 137
Pro@@ 137
Por@@ 137
tre@@ 136
union@@ 136
tab@@ 135
mot@@ 135
pre@@ 134
Schengen 133
the@@ 133
mod@@ 133
teer@@ 132
bud@@ 132
istan 132
eet@@ 132
parlamen@@ 131
öö@@ 130
Fra@@ 130
fas@@ 130
rit 130
or 130
ron@@ 130
ehdi@@ 129
sek@@ 129
bor@@ 129
assosi@@ 129
mark@@ 129
kriitt@@ 128
ean 128
hea@@ 127
Dan@@ 127
tituu@@ 127
hap@@ 127
AK@@ 126
meet@@ 126
opin@@ 125
una 125
veto@@ 125
Am@@ 125
usk@@ 125
jit@@ 124
lor@@ 122
be 122
oun@@ 122
X@@ 121
allekirjo@@ 121
Joh@@ 121
Tou@@ 121
kema@@ 120
esitys@@ 119
acqu@@ 118
Fin@@ 118
gar@@ 118
spe@@ 118
demokraat@@ 117
äs@@ 116
teu@@ 116
Korea 116
ous 116
himo@@ 115
kilpa@@ 114
harmon@@ 114
temp@@ 114
For@@ 113
ye 113
rac@@ 113
ran 112
G 112
con@@ 112
dia 112
hun@@ 112
met 111
tom 111
PP@@ 111
for 111
and 111
Medi@@ 111
adop@@ 111
wit@@ 110
wi@@ 109
est 108
tuoll@@ 108
emmistö 107
car@@ 107
go 107
gro@@ 107
shar@@ 107
vapaaeh@@ 107
ê@@ 106
ear@@ 106
tri@@ 106
bia 106
U 105
parha@@ 104
ner@@ 104
ityis@@ 104
sissa 104
lausel@@ 104
hetke@@ 103
täytäntö@@ 103
Britann@@ 103
amer@@ 103
Å@@ 103
Tra@@ 103
katastro@@ 102
stan@@ 102
menn@@ 102
Kuu@@ 102
kuning@@ 102
am 101
ar 101
konkre@@ 101
pri@@ 101
Pal@@ 100
So@@ 100
Ö@@ 99
dem@@ 99
Sep@@ 98
th 98
toin 98
pay@@ 98
päätöksente@@ 98
Á@@ 98
laivas@@ 98
gn@@ 98
moder@@ 97
Ban@@ 96
uudes@@ 95
Makedon@@ 95
ning 95
He@@ 94
ID@@ 94
hard 94
näköis@@ 94
solid@@ 94
entu@@ 94
ber 94
ilos@@ 94
Iran 93
edon@@ 93
vuos@@ 92
yhdenmuka@@ 92
rimin@@ 92
reas@@ 92
enna 92
ety 91
ce 91
organ@@ 91
pat@@ 91
contro@@ 91
Es@@ 90
Ni@@ 90
arkaluon@@ 90
Sadd@@ 90
tön@@ 89
out 89
lähesty@@ 89
dus@@ 89
As@@ 89
by@@ 88
à@@ 88
dre@@ 88
pr@@ 88
Irlann@@ 88
mes 88
tapah@@ 87
vää@@ 87
International 87
ganista@@ 87
human@@ 86
ø@@ 86
iz@@ 86
viol@@ 86
ment 86
inc@@ 86
Pol@@ 86
dr@@ 85
taloudell@@ 85
bour 85
che@@ 84
Com@@ 84
syys@@ 84
hop@@ 84
termin@@ 83
head@@ 83
bin@@ 82
tasapain@@ 82
esim@@ 82
Brys@@ 82
Uni@@ 82
lista@@ 82
mas 82
just 81
ç@@ 81
X 81
Zimbabwe 81
jäs@@ 80
edell@@ 80
vul@@ 80
ex@@ 79
bur@@ 79
typ@@ 78
rann@@ 78
over@@ 78
kysym@@ 78
itten 78
sosiaalitur@@ 77
dis@@ 77
lem@@ 77
ily 76
som@@ 76
bil@@ 76
inde@@ 76
euroopp@@ 76
ster@@ 76
ã@@ 76
Hi@@ 75
plu@@ 75
w 75
parlamentaar@@ 75
med 75
ars 75
enter@@ 75
st@@ 74
viim@@ 74
ise 73
om 73
res 73
log@@ 73
emp@@ 73
virtu@@ 73
ade@@ 73
Ir@@ 73
Liber@@ 73
syste@@ 72
ate@@ 72
Col@@ 72
EC 71
World 71
olev@@ 71
NATO 71
ler 71
reg@@ 71
SE 71
sotil@@ 71
um 70
ph@@ 70
innä@@ 70
torj@@ 70
erin@@ 69
pe 69
valvon@@ 69
J 69
Char@@ 69
ker 69
sub@@ 68
atte@@ 68
ben@@ 68
Bol@@ 68
ester@@ 67
are 67
que 66
big 66
ull@@ 66
joulu@@ 65
Kosovo 65
à 65
veh@@ 65
den@@ 64
les 64
konf@@ 64
eding 64
help@@ 64
analyy@@ 64
sens@@ 64
ogra@@ 64
.e@@ 64
realis@@ 63
ttö 63
pati@@ 63
Afganista@@ 63
ures 63
asy@@ 62
air@@ 62
cu@@ 62
meat 62
stu@@ 61
ase 61
opportun@@ 61
rat 61
del 61
ff 61
tras@@ 61
Kos@@ 60
puun 60
minu@@ 60
telev@@ 60
Mo@@ 60
ly 60
star@@ 59
stra@@ 59
EL@@ 59
ed 59
sp@@ 59
ques@@ 59
ws 59
fur@@ 59
nään 58
Jun@@ 58
tär@@ 58
ganis@@ 58
fel@@ 58
dri@@ 57
valv@@ 57
arm@@ 57
USA 57
hes@@ 57
pus@@ 56
ñ@@ 56
tion 55
esten 55
hetk@@ 54
imag@@ 54
ord 54
eik@@ 54
pass@@ 54
0 54
ó 54
Gro@@ 54
lamen@@ 53
mana 53
ner 53
tetu@@ 53
käyd@@ 53
separ@@ 53
char@@ 53
his@@ 53
ef@@ 53
LA@@ 52
itor@@ 52
laajentu@@ 52
ong 52
kedon@@ 52
tre 51
com@@ 51
toissija@@ 51
ges 51
rian 51
majo@@ 51
The 51
Ex@@ 50
kasv@@ 50
Gö@@ 50
lling 50
not@@ 49
vol@@ 49
kunnian@@ 49
ins 49
dro@@ 48
era@@ 48
mid 48
Fre@@ 48
Ger@@ 48
ï@@ 48
ant 48
ies 47
Lis@@ 47
time@@ 47
vois@@ 47
enc@@ 47
polit@@ 47
komis@@ 47
ic 47
OM 47
head 47
him@@ 46
ese 46
Stock@@ 46
all 45
ally 45
France 45
sis 45
than 45
House 45
put 44
ud 44
Ag@@ 44
fis@@ 44
cel@@ 44
ence 44
vamma@@ 44
pill@@ 44
Bud@@ 43
í 43
vic@@ 43
shi@@ 43
Den@@ 43
tulis@@ 43
off@@ 43
bab@@ 43
def@@ 42
app@@ 42
lova@@ 42
sc@@ 42
stres@@ 42
tilann@@ 42
cal@@ 42
Au@@ 41
ettom@@ 41
status 41
ling 41
ors 41
æ 41
ay 41
Etel@@ 41
viivä@@ 41
uro 40
fu@@ 40
US 40
Palesti@@ 40
taar@@ 40
land 40
multi@@ 40
ary 40
cial 40
hagen 40
ò 40
unila@@ 40
we 39
Tre@@ 39
tarp@@ 39
line 39
ude 39
tautu@@ 38
mom@@ 38
amma@@ 38
str@@ 38
siih@@ 38
aid 38
imes 38
á 38
uri@@ 37
idea 37
ääd@@ 37
by 37
reite@@ 37
gh 37
tal 36
atten@@ 36
her 36
hein@@ 36
fre@@ 36
Fis@@ 36
Isla@@ 36
soci@@ 36
thy 35
up 35
cor@@ 35
... 35
ood 35
COM 35
eth@@ 35
poliit@@ 34
of@@ 34
pub@@ 34
kuulem@@ 34
ice 34
lic@@ 34
Gre@@ 34
ent 34
merkittä@@ 34
Bri@@ 34
Energy 34
had 34
dou@@ 34
aff@@ 33
merki@@ 33
ech@@ 33
journ@@ 33
stitu@@ 33
Scot@@ 33
viel@@ 33
ß@@ 33
ide 32
Ä 32
Rights 32
Zim@@ 32
post@@ 32
ippu@@ 32
lar@@ 32
Trans@@ 32
maus@@ 31
ger 31
farm@@ 31
ysti 31
uclear 31
instru@@ 31
ek 31
ulkominis@@ 31
cy 31
nal 31
Yhd@@ 31
manner 30
yo@@ 30
ine@@ 30
öy@@ 30
els 30
Brit@@ 30
cal 30
institu@@ 30
etna@@ 30
my 30
pol 29
Can@@ 29
prov@@ 29
ate 29
prog@@ 29
eman 29
ost 29
tw@@ 29
col@@ 29
top 29
back 29
trans@@ 29
anu@@ 28
meet 28
xemb@@ 28
ting 28
control 28
Trade 28
ô@@ 28
Con@@ 27
shall 27
hon@@ 27
obli@@ 27
Väl@@ 27
blo@@ 27
agre@@ 27
transa@@ 27
kys@@ 26
law 26
alle@@ 26
ale 26
bu@@ 26
ld 26
É@@ 26
ca@@ 26
territor@@ 26
Democ@@ 26
rakennera@@ 26
ime 26
shor@@ 26
ger@@ 26
gg@@ 26
Nizz@@ 26
lec@@ 25
ref@@ 25
prim@@ 25
W 25
titu@@ 25
Human 25
ambi@@ 25
mys@@ 25
und 25
wan@@ 25
% 25
Cour@@ 25
ery 25
East 25
fo@@ 25
cat@@ 25
st 24
bal@@ 24
reser@@ 24
tor 24
Jugosla@@ 24
side 24
mis 24
Union 24
ols 24
maj@@ 24
age 24
ds 23
don@@ 23
over 23
une@@ 23
sus 23
can 23
tes 23
parti@@ 23
law@@ 23
cha@@ 22
will 22
bri@@ 22
vel 22
the 22
1.@@ 22
abs@@ 22
q@@ 22
Wor@@ 22
ical 22
ende@@ 22
gre@@ 21
work 21
ft 21
Pr@@ 21
happ@@ 21
sus@@ 21
per 21
arri@@ 21
noll@@ 20
Strasbourg 20
ture 20
oton@@ 20
able 20
ther@@ 20
ist 20
air 20
val 20
non 20
pend@@ 20
improv@@ 20
ikais@@ 20
fra@@ 20
call 20
lia@@ 19
sha@@ 19
ew 19
ance 19
jos@@ 19
ago 19
Barcelona 19
inis@@ 19
mul@@ 19
ess 19
ich 19
ol 19
rich 19
Tam@@ 19
valu@@ 19
call@@ 19
sou@@ 18
fer@@ 18
trad@@ 18
him 18
ope 18
Group 18
bon 18
Kio@@ 18
sion 18
car 18
media 18
ittee 18
vuonn@@ 18
lif@@ 18
monopol@@ 17
mone@@ 17
Dec@@ 17
rele@@ 17
Lissa@@ 17
unc@@ 17
DP 17
ski@@ 17
lot 17
dec@@ 17
tann@@ 17
ath 17
Läh@@ 17
ulk@@ 17
int 17
sion@@ 17
Soci@@ 16
fir@@ 16
Cha@@ 16
Ö 16
fac@@ 16
acc@@ 16
inv@@ 16
ens 16
Econom@@ 16
business 16
atetta 16
ding 16
ian@@ 16
Nov@@ 16
mal 16
arms 16
bila@@ 16
Americ@@ 16
Ó 16
influ@@ 16
ust 15
marras@@ 15
pla@@ 15
eurooppala@@ 15
see 15
king 15
burg 15
war 15
Ge@@ 15
domin@@ 15
problem@@ 15
thou@@ 15
Res@@ 15
cr@@ 15
Development 15
fundamen@@ 15
Laeken 15
Health 15
tru@@ 15
arm 15
ž@@ 15
comm@@ 14
war@@ 14
lloin 14
ow 14
ever@@ 14
row 14
wn 14
Commission 14
cre@@ 14
cho@@ 14
· 14
depend@@ 14
eteen@@ 14
cies 14
sm@@ 14
wor@@ 14
repe@@ 14
ium 14
Bos@@ 14
toler@@ 14
ks 13
vers@@ 13
ë@@ 13
its 13
ple@@ 13
hope 13
rela@@ 13
fam@@ 13
q 13
kapasi@@ 13
ast 13
manu@@ 13
proble@@ 13
low 13
tamm@@ 13
Ass@@ 13
dom 13
ders 13
found@@ 13
Johannesburg 13
end 12
regi@@ 12
onal 12
cc@@ 12
ods 12
ver 12
loc@@ 12
tra 12
popu@@ 12
ations 12
national 12
port 12
field 12
duc@@ 12
can@@ 12
aga@@ 12
governance 12
lack 12
mark 12
ace 12
sian 12
Office 12
estiinalais@@ 12
alter@@ 12
cour@@ 12
fer 11
pic 11
Rus@@ 11
Council 11
gani 11
pers@@ 11
pres@@ 11
ted 11
ual 11
join 11
elec@@ 11
å@@ 11
get@@ 11
ely 11
dic@@ 11
tric@@ 11
ult 11
off 11
ns 11
ú 11
Hus@@ 11
elime@@ 10
Jus@@ 10
day 10
force 10
right 10
ms 10
fro@@ 10
with 10
Sto@@ 10
bre@@ 10
obser@@ 10
bac@@ 10
fla@@ 10
thu@@ 10
cro@@ 10
bility 10
let@@ 10
pensa@@ 10
join@@ 10
Götebor@@ 10
tory 10
ried 10
clause 10
Fund 9
ef 9
ministra@@ 9
ther 9
û@@ 9
ening 9
modern@@ 9
Party 9
kettä@@ 9
kuin@@ 9
ight 9
pursu@@ 9
United 9
viran@@ 9
Kööpenhamin@@ 9
well 9
cl@@ 9
regula@@ 9
isation 9
ade 9
IG@@ 9
Oc@@ 9
Security 9
share 9
Foreign 9
reac@@ 9
lar 9
Α@@ 9
any@@ 8
Ü@@ 8
ce@@ 8
far 8
terran@@ 8
ping 8
individu@@ 8
Q 8
cas@@ 8
year 8
jois 8
Presid@@ 8
hold 8
ere 8
part@@ 8
old 8
fri@@ 8
cy@@ 8
vari@@ 8
illis@@ 8
China 8
ial 8
bon@@ 8
ure 8
ket 8
amin@@ 8
State 8
promis@@ 8
touko@@ 8
ps 8
äkuu@@ 8
democ@@ 8
achi@@ 8
ters 8
maalis@@ 8
South 8
People 8
cen@@ 8
ep 8
itiik@@ 8
ones 8
if 7
Liberal 7
sex@@ 7
Proc@@ 7
cap@@ 7
lanko@@ 7
ities 7
hell@@ 7
out@@ 7
Vitor@@ 7
less 7
Min@@ 7
bec@@ 7
UK 7
coll@@ 7
economy 7
tammik@@ 7
ative 7
peace 7
ß 7
terr@@ 7
road 7
äärä@@ 7
eing 7
gla@@ 7
ves 7
fic@@ 7
evel@@ 7
vice 7
p.@@ 7
ory 7
ference 7
CAP 7
way 7
trag@@ 7
ward 7
div@@ 7
Government 7
group 7
red 7
assu@@ 7
Indus@@ 7
with@@ 7
ign 7
demon@@ 7
ach 7
form 7
tällö@@ 7
Ε@@ 7
dela@@ 6
add@@ 6
fare 6
have 6
pec@@ 6
ular 6
als 6
ists 6
time 6
chil@@ 6
main 6
practice 6
refer@@ 6
act 6
tics 6
secu@@ 6
Research 6
low@@ 6
Bank 6
ets 6
ners 6
pic@@ 6
No 6
gran@@ 6
emplo@@ 6
sure 6
bla@@ 6
poin@@ 6
bit 6
pac@@ 6
show 6
operation 6
North 6
Authority 6
ates 6
fied 6
public 6
stand 6
Regi@@ 6
ulti@@ 6
gener@@ 6
system 6
cla@@ 6
Í@@ 6
global 6
ete 6
oura@@ 6
lines 6
º@@ 5
pris@@ 5
Direc@@ 5
high 5
must 5
volun@@ 5
ght 5
this 5
substan@@ 5
³ 5
ved 5
ful 5
ever 5
lea@@ 5
ses 5
data 5
teur 5
dire@@ 5
agenda 5
early 5
ility 5
Af@@ 5
mausaine@@ 5
ebru@@ 5
sing 5
vention 5
Members 5
let 5
Afric@@ 5
tive 5
their 5
regulation 5
market 5
Economic 5
täntö@@ 5
ition 5
represen@@ 5
table 5
stre@@ 5
Sec@@ 5
ution 5
rule 5
seem@@ 5
Africa 5
Ê@@ 5
multila@@ 5
clas@@ 5
single 5
trade 5
tionary 5
meth@@ 5
ways 5
gas 5
sman 5
ouse 5
gy@@ 5
¤ 5
− 5
unti@@ 5
DR 4
very 4
board 4
Emplo@@ 4
mission 4
buil@@ 4
ugosla@@ 4
cond@@ 4
you 4
counter 4
base 4
requ@@ 4
correc@@ 4
proc@@ 4
manag@@ 4
gal 4
ì@@ 4
spi@@ 4
public@@ 4
them 4
they 4
four 4
Environment 4
nel 4
was 4
night 4
Amsterdam 4
cur@@ 4
ferens@@ 4
legal 4
ù 4
has 4
tance 4
Commis@@ 4
prevention 4
governmental 4
America 4
Z 4
anim@@ 4
too@@ 4
Regional 4
Agre@@ 4
Parliament 4
cer@@ 4
how 4
eag@@ 4
trac@@ 4
good 4
own 4
vil 4
yers 4
wait 4
è 4
loka@@ 4
bers 4
â@@ 4
tic 4
kiinto@@ 4
General 4
dru@@ 4
ground 4
change 4
coun@@ 4
cell@@ 4
exec@@ 4
reduc@@ 4
WT@@ 4
Afgh@@ 4
ble 4
ose 4
Agency 4
estin@@ 4
ology 4
power 4
Home 4
ustra@@ 4
fair 4
eve 4
ural 4
mekan@@ 4
cri@@ 4
court 4
mukaistamis@@ 4
beg@@ 4
members 4
each 4
open@@ 4
″ 4
ons 3
press 3
where 3
² 3
basi@@ 3
outh 3
nor 3
sive 3
cle@@ 3
sec@@ 3
tives 3
ject 3
memb@@ 3
aim 3
possible 3
xi@@ 3
µ@@ 3
cul@@ 3
get 3
led@@ 3
ethnic 3
two 3
munic@@ 3
fair@@ 3
ours 3
pli@@ 3
hes 3
commer@@ 3
scope 3
ency 3
tex@@ 3
position 3
spo@@ 3
crime 3
free 3
tech@@ 3
Portugal 3
Sum@@ 3
EUR 3
Green 3
treaty 3
Cy@@ 3
dipl@@ 3
ls 3
voc@@ 3
eed@@ 3
short 3
better 3
nic 3
oil 3
gy 3
kle 3
face 3
ends 3
chec@@ 3
now 3
fail@@ 3
under 3
private 3
ming 3
È@@ 3
ffer 3
Govern@@ 3
fron@@ 3
å 3
term 3
Minis@@ 3
exac@@ 3
simi@@ 3
ils 3
cand@@ 3
wel@@ 3
comes 3
fact 3
wis@@ 3
wh@@ 3
President 3
Convention 3
ship 3
eness 3
Coun@@ 3
equ@@ 3
_ 3
enda 3
= 3
custom@@ 3
action 3
ital 3
civil@@ 3
access 3
funds 3
women 3
country 3
Environ@@ 3
eas@@ 3
attle 3
toral 3
suspen@@ 3
other@@ 3
É 3
dies 3
productive 3
space 3
los@@ 3
tusla@@ 3
indic@@ 3
there 3
ple 3
overty 3
pid 3
op 3
ace@@ 3
else 3
make 3
arme@@ 3
dama@@ 3
fig@@ 3
Public 3
tural 3
balan@@ 2
even 2
benefit 2
Portugu@@ 2
helmik@@ 2
º 2
dealt 2
assis@@ 2
countries 2
ches 2
won@@ 2
world 2
basis 2
risk 2
later 2
lum 2
ond 2
ffer@@ 2
attac@@ 2
charge 2
competent 2
authorities 2
voisa 2
direct 2
pression 2
ated 2
part 2
À@@ 2
divid@@ 2
sina@@ 2
ism 2
kel 2
order 2
present 2
yet 2
Central 2
happy 2
regre@@ 2
impor@@ 2
small 2
govern@@ 2
Leg@@ 2
which 2
sense 2
&@@ 2
enlarg@@ 2
approach 2
subsidi@@ 2
statement 2
social 2
gets 2
light 2
manufac@@ 2
§ 2
priva@@ 2
ready 2
tically 2
ions 2
may 2
person 2
his 2
how@@ 2
larg@@ 2
ources 2
immäis@@ 2
finan@@ 2
source 2
signed 2
plo@@ 2
lear@@ 2
compe@@ 2
allow@@ 2
Wh@@ 2
initiative 2
procedure 2
White 2
fish 2
paper 2
union 2
endorse 2
tional 2
lead@@ 2
deman@@ 2
num@@ 2
major 2
gs 2
tly 2
tant 2
rance 2
cus@@ 2
enter 2
labelling 2
house 2
new@@ 2
sever@@ 2
asylum 2
î@@ 2
rapid 2
ross 2
Â@@ 2
jud@@ 2
ï 2
gue 2
travel 2
Middle 2
differ@@ 2
± 2
versity 2
security 2
Parlia@@ 2
points 2
poll@@ 2
people 2
cross 2
friend@@ 2
fight 2
ians 2
bodies 2
cle 2
health 2
regis@@ 2
holding 2
exc@@ 2
run 2
Gener@@ 2
thre@@ 2
pay 2
modi@@ 2
after@@ 2
step 2
tho@@ 2
¡ 2
author@@ 2
cru@@ 2
eiv@@ 2
isel@@ 2
wee@@ 2
culture 2
prob@@ 2
weap@@ 2
led 2
great 2
Russia 2
ition@@ 2
ilies 2
ised 2
bed 2
again 2
hos@@ 2
than@@ 2
Emp@@ 2
tions 2
alise 2
ù@@ 2
operators 2
Affairs 2
itions 2
laim 2
Citiz@@ 2
ă@@ 2
through 2
four@@ 1
tation 1
yed 1
sci@@ 1
other 1
mental 1
prehen@@ 1
embar@@ 1
regard 1
aring 1
recognised 1
dependent 1
reci@@ 1
ness 1
laid 1
high@@ 1
standard 1
prac@@ 1
Paper 1
special 1
either 1
cot@@ 1
learn 1
know 1
know@@ 1
evalu@@ 1
any 1
huhti@@ 1
labe@@ 1
rec@@ 1
orig@@ 1
ving 1
mean 1
tual 1
solution 1
scheme 1
Auth@@ 1
orities 1
conom@@ 1
teral 1
Develop@@ 1
istic 1
pow@@ 1
mic 1
mouth 1
train@@ 1
proceedings 1
fle@@ 1
Ì@@ 1
Ï@@ 1
Consumer 1
abo@@ 1
¼ 1
debt 1
organisation 1
trust 1
extre@@ 1
show@@ 1
authority 1
claim@@ 1
remember 1
ause 1
things 1
commit@@ 1
got 1
clari@@ 1
kept 1
achieved 1
changed 1
under@@ 1
curr@@ 1
trial 1
left 1
marks 1
produced 1
December 1
natural 1
zone 1
rs 1
mind 1
traffic@@ 1
preci@@ 1
oblig@@ 1
viously 1
February 1
Assembly 1
gative 1
fec@@ 1
talk 1
Minister 1
oms 1
Ø@@ 1
syr@@ 1
commitment 1
bad 1
simp@@ 1
incorpor@@ 1
adopted 1
codecision 1
elines 1
fav@@ 1
difficult 1
ics 1
individuals 1
aver@@ 1
broad@@ 1
poor@@ 1
did 1
May 1
judg@@ 1
aware 1
awar@@ 1
ender 1
specific 1
rise 1
pects 1
ements 1
return 1
cris@@ 1
truk@@ 1
try 1
terranean 1
reform 1
involved 1
promo@@ 1
ased 1
Ñ@@ 1
teurs 1
Pub@@ 1
institution 1
expres@@ 1
medic@@ 1
fru@@ 1
ful@@ 1
lands 1
wish 1
medium 1
uses 1
Å 1
iddle 1
date 1
¸ 1
sible 1
tors 1
inves@@ 1
course 1
supported 1
Mrs 1
grateful 1
room 1
favour 1
foot@@ 1
Bul@@ 1
balance 1
process 1
respect 1
betw@@ 1
Cyprus 1
supports 1
establis@@ 1
invi@@ 1
fy 1
particular 1
significant 1
foc@@ 1
ship@@ 1
emer@@ 1
compan@@ 1
ied 1
explo@@ 1
stric@@ 1
UN 1
tter 1
alth 1
wr@@ 1
death 1
home 1
tebor@@ 1
together 1
ë 1
Secre@@ 1
enough 1
ý 1
ý@@ 1
Ý@@ 1
ð@@ 1
ded 1
wrong 1
parliamentary 1
third 1
oub@@ 1
post 1
cou@@ 1
ome 1
paid 1
disc@@ 1
legis@@ 1
accoun@@ 1
relevant 1
moment 1
desig@@ 1
place 1
execu@@ 1
central 1
estiin@@ 1
allowed 1
think 1
threat 1
ators 1
negative 1
should 1
range 1
deb@@ 1
youn@@ 1
mate 1
orrow 1
acco 1
clos@@ 1
ced 1
Yugosla@@ 1
Macedonia 1
nec@@ 1
inst 1
spec@@ 1
read@@ 1
conc@@ 1
ths 1
event 1
guid@@ 1
kers 1
week 1
ü 1
pre 1
some@@ 1
emmistö@@ 1
real 1
compatible 1
seri@@ 1
Swedish 1
½ 1
exis@@ 1
Ç@@ 1
communic@@ 1
õ@@ 1
candid@@ 1
tably 1
direc@@ 1
last 1
adver@@ 1
xt 1
Iraq 1
propor@@ 1
tants 1
reach 1
independ@@ 1
ines 1
speci@@ 1
ings 1
ides 1
blood 1
cam@@ 1
ì 1
dom@@ 1
trich@@ 1
prohi@@ 1
September 1
regu@@ 1
presen@@ 1
budget 1
resolved 1
issues 1
Greece 1
cco 1
reli@@ 1
chance 1
build 1
gent@@ 1
fic 1
southern 1
goro@@ 1
ê 1
portun@@ 1
opportunity 1
Brussels 1
entry 1
cent 1
Stras@@ 1
cred@@ 1
sometimes 1
ces 1
tury 1
bution 1
Summit 1
partic@@ 1
sensitive 1
descri@@ 1
sort 1
busin@@ 1
entific 1
orders 1
craft 1
substantial 1
Α 1
entra@@ 1
sugg@@ 1
aspects 1
seem 1
progress 1
these 1
apply 1
respec@@ 1
distribu@@ 1
establish 1
measures 1
vely 1
ules 1
hear@@ 1
meas@@ 1
cra@@ 1
neighbour@@ 1
double 1
entr@@ 1
kansainväl@@ 1
saf@@ 1
ral 1
then 1
Ι@@ 1
Ν@@ 1
Ι 1
economic 1
quar@@ 1
struc@@ 1
