#version: 0.2
i s
t h
t e
i n
t a
i t
e n
a n
e n</w>
th e</w>
o n</w>
i n</w>
a l
t i
e s
a n</w>
o n
a r
e r
l l
s i
r o
t ä
t u
r e
t a</w>
o u
a t</w>
t o</w>
o r
o f</w>
o m
a s
o s
o l
e t
e l
i s</w>
t ä</w>
j a</w>
k s
u s
an d</w>
e m
i k
i m
in g</w>
i d
t o
e s</w>
r a
l a
m a
o p
s a</w>
j o
k a
u u
i c
e d</w>
i l
m en
m is
ä n</w>
th at</w>
e r</w>
ti on</w>
h a
v a
m e</w>
k u
v ä
v o
v i
k e
al l
e c
v e</w>
w h
a l</w>
p ro
u ro
t y
s a
s u
o r</w>
e t</w>
n e
r es
et tä</w>
E uro
p u
n o
ä ä
n i
l i
m i
a t
e ll
r i
k o
w e</w>
te n</w>
t i</w>
h d
j ä
e en</w>
p os
th is</w>
f or</w>
te l
m u
a c
c on
a s</w>
i t</w>
y s
t ta
p ar
v al
t s</w>
l e
is i
@ -
@- @</w>
p a
ks i</w>
k i
l e</w>
p e
k a</w>
en t</w>
l y</w>
b e</w>
e d
v at</w>
y h
k ä
s ä</w>
is ta</w>
i ll
id en</w>
it ä</w>
p or
ar e</w>
t ö
si on</w>
it i
in en</w>
ta r
l d</w>
k an
ti on
m e
c om
no t</w>
m y
e v
p er
o ll
tä m
te r
u n
k in</w>
ou ld</w>
c e</w>
a is
u t</w>
men t</w>
ha ve</w>
s e
l u
a d
te d</w>
i h
c i
q u
ic h</w>
wh ich</w>
d i
ou n
k si
C om
u r
w it
s e</w>
te n
wit h</w>
f or
t r
p ol
ta an</w>
h u
u l
t ta</w>
a si
k om
is es
v u
v er
it y</w>
h y
a g
n ä
Euro op
ta n
h o
a tion</w>
ta a</w>
v as
al u
e x
jä s
o t
& a
m me</w>
&a pos
er e</w>
e i</w>
my ö
b y</w>
a b
d e
to im
th e
il l</w>
n n
Euro pe
a an</w>
s h
Europe an</w>
k os
s o</w>
w ill</w>
h e
kom is
yh te
g h
is sa</w>
t e</w>
s o
v a</w>
it tä
ll ä</w>
i r
Com mis
ik e
Euroop an</w>
l is
tion s</w>
u ks
al l</w>
ha s</w>
is tu
p o
ou r</w>
as sa</w>
m ä
f f
it a</w>
p ää
y t
m in
uu d
it te
M r</w>
is en</w>
j en</w>
w or
i v
l o
n a
u d
us t</w>
th er</w>
tu r
ises ti</w>
em me</w>
is i</w>
o ike
kan s
i es</w>
n y
v ar
res id
por t</w>
i te
ty ö
la men
vä t</w>
par lamen
is tä</w>
0 0
u s</w>
myö s</w>
a p
ka ik
ar vo
k es
er s</w>
es ta</w>
Commis sion</w>
it y
m an
ou t</w>
r is
c h
en t
jäs en
m p
s el
w ould</w>
em b
in s
re c
ill e</w>
r j
P resid
parlamen t
ä än</w>
ol e</w>
m an</w>
o vat</w>
i o
in n
at e</w>
b e
&apos ;</w>
ti ve</w>
h alu
is a</w>
o d
val ti
t ra
te s</w>
g o
ta l
al so</w>
c oun
u ni
mi el
ll e</w>
te r</w>
p al
a r</w>
k ys
i a</w>
2 00
es sa</w>
u c
ne u
e hd
tu s
tä ä</w>
b ut</w>
yhte is
s en</w>
ll a</w>
s it
on e</w>
h em
per us
sh ould</w>
id än</w>
re g
f ro
kos ke
j a
m on
Presid ent</w>
un d
fro m</w>
m ust</w>
arvo isa</w>
ny t</w>
b le</w>
komis sion</w>
c h</w>
t ri
U ni
k e</w>
ks en</w>
it ta
p ec
all y</w>
all a</w>
isi a</w>
s an
y d
li a
p l
ksi a</w>
v ä</w>
d is
s sä</w>
p it
a y</w>
s uu
ö n</w>
v os
P ar
m uu
uni on
ehd o
th ere</w>
k uu
b een</w>
e p
t ing</w>
on s</w>
m ar
s tä</w>
y o
valti o
m er
m or
tar k
tal ou
jo t
g e</w>
S ta
s ta
jo ka</w>
h ta
es s</w>
u tta
a ik
an n
a a</w>
pu ol
täm ä</w>
yo u</w>
pu hem
as ta</w>
e ksi</w>
k ä</w>
te t
s y
m o
ka an</w>
l ik
us e</w>
es e</w>
ou r
Par lia
en n
es s
p res
kes k
d e</w>
i r</w>
tä än</w>
it s</w>
jä rj
puhem ies</w>
ma an</w>
ää n
Parlia ment</w>
M emb
neu vos
jot ka</w>
ti l
ä ä</w>
mor e</w>
järj es
h i
c an</w>
f in
k y
Uni on</w>
gh t</w>
to d
i ta
th ese</w>
con c
ti c
es sä</w>
d s</w>
C oun
&apos ;
a j
f i
p an
u p</w>
ä n
isi in</w>
hy vä
ci l</w>
k ing</w>
t or
pro pos
a m
Coun cil</w>
in g
si itä</w>
a ti
d o</w>
in o
w as</w>
d o
is uu
r ke
&apos; s</w>
t y</w>
f u
t om
is ten</w>
men ts</w>
in c
kä y
em ent</w>
the y</w>
komis si
vu o
ten kin</w>
ih in</w>
me idän</w>
m ää
wh at</w>
s op
d em
g ra
mi et
ta mis
on n
or d
lik e</w>
vi r
jäs en</w>
hu om
re port</w>
tu n
mu tta</w>
s itä</w>
vä l
v el
no w</w>
l ä
ell a</w>
qu ot
i f</w>
s ec
c o
ma hd
o tta
o ther</w>
tel u
quot ;</w>
& quot;</w>
en ce</w>
Sta tes</w>
y r
ill a</w>
tion al</w>
the ir</w>
kys y
ac c
te en</w>
p i
v all
g i
th er
g u
tä rke
ku i
ta pa
s is
parlament in</w>
for e</w>
ver y</w>
it u
ou s</w>
os sa</w>
ko k
Memb er</w>
vo im
k i</w>
an s
täm än</w>
en c
mahd oll
s om
ma a
t on</w>
ne et</w>
p re
tä vä</w>
b ec
ab le</w>
ke h
iti ik
ic al</w>
p e</w>
a m</w>
t u</w>
sop im
kesk us
su p
ku in</w>
f ac
a tions</w>
pol ic
tri es</w>
ku n
v an</w>
tä n
ta i</w>
te h
hyvä ks
ka u
h an
e i
im por
on g
wor k</w>
va ik
m y</w>
pu he
coun tries</w>
h all
it ty
a u
i d</w>
n e</w>
ci al</w>
j ec
u la
k er
mää r
pro v
el i
ol isi</w>
h än</w>
uud en</w>
ku nn
pää tö
v e
pol itiik
g h</w>
impor tan
ti in</w>
iti on</w>
jäsen valtio
ma t
d uc
al ais
sa a
d ing</w>
tur e</w>
se kä</w>
al is
i en</w>
v es</w>
jo hta
to is
as ti</w>
s er
o h
Euro pe</w>
ku n</w>
o b
y e
puhe en
ta va</w>
f ir
t h</w>
ka is
os e</w>
al ta</w>
is su
h en
s tan
union in</w>
p la
su r
tta va</w>
k k
vas ta
d ec
b et
j ä</w>
kä yt
in a</w>
ab out</w>
ar d</w>
u n</w>
us ta</w>
o c
com m
tu ks
em p
kysy my
po in
ag re
j el
ff ic
men d
m än</w>
p en
is sä</w>
wh o</w>
mu n
kui tenkin</w>
m inen</w>
ev el
a use</w>
ti et
s t</w>
komissi o</w>
w i
jo s</w>
alu e
ih mis
on ly</w>
re s</w>
n o</w>
an t</w>
lis ä
k en
it t
le g
er ity
as t</w>
is et</w>
in te
y hd
u ra
op le</w>
al o
m s</w>
l op
oll a</w>
ho w
o w
ev er</w>
iti es</w>
re as
ta vo
vi en</w>
toim i
ti ed
wi th
it s
in ter
ne ed</w>
sis ä
qu es
r yh
v en
j on
hy v
si on
ti me</w>
pro c
ther e
i on</w>
d evel
h e</w>
s tr
k em
vo i</w>
ku ten</w>
e h
kans sa</w>
pe ople</w>
ag a
en er
na tional</w>
it ys
m in</w>
w el
E U</w>
uks en</w>
bec ause</w>
y ty
il ity</w>
to te
m mä
ik ä</w>
vo id
: n</w>
polic y</w>
y ks
tu le
ar y</w>
p r
us ta
tr y</w>
ko h
ol en</w>
ol emme</w>
t in
i c</w>
pol i
kos ka</w>
k il
there fore</w>
ta l</w>
y s</w>
h ar
e uro
li itty
ol u
k ti
e w</w>
w ay</w>
tä ssä</w>
g ro
miel es
te taan</w>
ell e</w>
tark istu
e ve</w>
importan t</w>
i p
g re
h el
ta ke</w>
san o
ll e
ne w</w>
su b
k s</w>
hyväks y
1 9
o d</w>
va pa
v an
t ro
di rec
kan n
os ta</w>
l em
v er</w>
mer k
devel op
u tu
conc er
va a</w>
ittä in</w>
k ka
ittä ä</w>
järjes tel
r an
m a</w>
p ä
en ts</w>
p on
ni in</w>
on om
itte e</w>
puheen johta
os t</w>
tä vä
j o</w>
ar e
miet inn
la aj
gh ts</w>
a ih
neuvos ton</w>
l ar
talou s
ma in
c le
mu ka
E U
si ble</w>
m ä</w>
su ch</w>
in v
wh en</w>
ti a</w>
in e
en a</w>
how ever</w>
op er
ma ke</w>
pro s
k o</w>
vi a</w>
pro b
t ly</w>
in to</w>
ong el
u m
pol it
a al
va in</w>
hyv in</w>
ed ell
t itu
al s</w>
p ri
s in
pec i
an s</w>
el y</w>
jon ka</w>
is h</w>
ol i</w>
mis ta</w>
ar vi
th ose</w>
pit ä
vi el
ill ä</w>
os o
enc y</w>
de b
th ing</w>
ra t
an y</w>
som e</w>
Commis sion
ään es
f er
as e
u e</w>
t tu
ks een</w>
val io
ec onom
mis en</w>
c an
w een</w>
bet ween</w>
k ö
o g
asi o
k ol
p id
be ing</w>
c r
j ou
im me</w>
poli itt
o k
sup port</w>
kaik ki
a d</w>
si llä</w>
oike u
us e
va an</w>
f a
par tic
en ti
ks et</w>
se ura
tar ko
b eli
talou d
Commission er</w>
s tra
lä h
täm ä
res pon
ar ly</w>
ver n
s ti</w>
com p
kaik ki</w>
ta in</w>
halu ais
g an
j at
mis tä</w>
vas ti</w>
v is
te ttava</w>
man y</w>
fir st</w>
tar v
tä tä</w>
as e</w>
ep ä
hu ol
ra l</w>
k al
b ility</w>
i g
b u
ma de</w>
ff ec
viel ä</w>
tr ans
ev er
r ik
huom io
a ted</w>
a mme</w>
k as
the m</w>
re ad
u us
pu b
el ä
ei vät</w>
se e</w>
ar s</w>
vä lis
y y
propos al</w>
it taa</w>
si d
ka a</w>
ko hd
th an</w>
l in
as u
ti e
mar kk
g e
tel y</w>
w ere</w>
es tä</w>
polit ical</w>
im e</w>
per i
isi ä</w>
b ud
m itä</w>
re kti
at ta
la us
is e</w>
com e</w>
tän i</w>
ää d
ed is
an ce</w>
y le
c es</w>
an a</w>
w a
su o
jo tta</w>
te hd
va h
li c</w>
k en</w>
re la
ma a</w>
t w
halu an</w>
di rekti
kunn an</w>
beli eve</w>
m il
ord er</w>
on g</w>
k on
m ost</w>
i an</w>
an te
sur e</w>
si ih
ku l
concer n
ro u
a mend
sa y</w>
siih en</w>
er ittäin</w>
ra ho
Com m
x t</w>
ta s
ni iden</w>
pro duc
s ell
aih e
vu od
in ä</w>
oike ud
kans alais
suu r
haluais in</w>
d es
itte li
ev en</w>
poin t</w>
el in
k or
tur vall
j ul
re d</w>
f ic
nn ö
ap pro
b er</w>
ra c
g et</w>
mieles täni</w>
im er
määr ä
y mp
toim in
19 9
it e</w>
ys te
isi on</w>
oh jel
ur e</w>
c l
fac t</w>
v ic
issu e</w>
ri ghts</w>
j ossa</w>
so si
C on
kä än</w>
en s
j ust</w>
euro op
en si
n te
ho w</w>
ä ris
us sa</w>
tavo itte
ar ds</w>
tar y</w>
es itteli
deb ate</w>
is een</w>
c er
kä sit
mun ity</w>
Comm ittee</w>
et te
void aan</w>
c re
k im
ra ti
h al
suu n
euroop pal
all e</w>
ais ten</w>
d ed</w>
ko lle
ta n</w>
tu t
e f
th in
pub lic</w>
men tal</w>
ke a</w>
und er
jä l
jo ita</w>
ac h</w>
t ö</w>
ta b
p a</w>
ing s</w>
con sid
nä in</w>
ins t</w>
i vat</w>
hall it
tta a</w>
aga inst</w>
s yste
tu ksen</w>
Y hd
tel y
in for
y ing</w>
an ta
ny ky
u ation</w>
ra p
mi en</w>
tä stä</w>
keskus tel
o ver</w>
ad op
f e
utta a</w>
oike us
lisä ksi</w>
u p
f und
h ere</w>
ymp äris
ff er
pro te
d ra
do es</w>
h tu
ri ght</w>
vuo ksi</w>
wh ere</w>
ques tion</w>
yhteis työ
tiet o
en ta
tod ell
rat kais
h er
pos sible</w>
ro s
vi ew</w>
tw o</w>
li ik
maa il
wel l</w>
op e</w>
en i</w>
d a
si a</w>
ter ro
g iv
ympäris tö
ke en</w>
ksi in</w>
s peci
c our
v ing</w>
par t</w>
t re
min is
tu s</w>
ksi ä</w>
erity isesti</w>
tä llä</w>
te ll
a mp
th an
I n
u h
ä mme</w>
miet in
kä si
d u
p yr
vir on
i in</w>
econom ic</w>
it o
ha d</w>
is la
kan sa
read y</w>
go vern
c us
es t</w>
ta in
jo ta</w>
n ec
en em
pu hu
is uud
va ati
et y</w>
mu kaan</w>
en s</w>
r s</w>
ins ääd
is uuden</w>
in d
is in</w>
f o
gan is
mis eksi</w>
ki rj
th en</w>
mietinn ö
w ant</w>
ke t</w>
ta mme</w>
pal j
ye ars</w>
parlament ti</w>
ent ly</w>
tus ta</w>
l an
es imer
ol em
tä ys
iti z
al a
y yd
inc lu
develop ment</w>
si ksi</w>
stra te
c ould</w>
im pl
en d</w>
to jen</w>
so cial</w>
vas tu
th ou
h än
M rs</w>
thin k</w>
n im
e ikä</w>
can not</w>
pa ik
di es</w>
to o</w>
ell ä</w>
vi ä</w>
us ten</w>
e ffec
to a</w>
m it
c ur
ol e
ad d
ha p
enn en</w>
la insääd
sit uation</w>
olu tion</w>
200 1</w>
ksi en</w>
prov id
vuod en</w>
sa me</w>
hy ö
to iv
yhteis ön</w>
tä ll
sa id</w>
men et
ti en</w>
with in</w>
val mis
inc reas
fu ture</w>
en g
tä hän</w>
su m
terro ris
me asu
miel tä</w>
arvi o
hu man</w>
mi a</w>
m alla</w>
coun try</w>
ye ar</w>
mis een</w>
a f
al ready</w>
dem ok
h ä
pro gra
jo iden</w>
c itiz
pec t</w>
tod ay</w>
sel vä
con tin
ta ken</w>
Com munity</w>
prote c
päätö s
f re
leg isla
acc ep
s pe
ch an
cle ar</w>
EU :n</w>
ter s</w>
measu res</w>
jäsenvaltio iden</w>
mu ch</w>
ot h</w>
at ing</w>
ll is
palj on</w>
oper ation</w>
s ää
pitä isi</w>
reg ula
til l</w>
ais en</w>
a i
ku lu
ul t</w>
n ä</w>
v än</w>
s till</w>
i ous</w>
tark as
tu ral</w>
taloud ell
ys tä</w>
por te
tö ä</w>
kansa in
pos ition</w>
or ity</w>
res s</w>
ex c
a at
direc tive</w>
fin an
mar ket</w>
nä mä</w>
w n</w>
tu om
ip pu
ins titu
u ksia</w>
i la
dis cus
b asi
j uu
cur r
m at</w>
rap porte
s ä
tö ön</w>
cour se</w>
inte res
huomio on</w>
wh y</w>
vaik ka</w>
jec t</w>
for m</w>
f ur
en viron
mi ll
lop u
va ih
p uu
ensi mmä
k et
r u
kans all
ac hi
kuu lu
th rou
r ic
fu l</w>
isuu s</w>
b oth</w>
ti la
u r</w>
und er</w>
b er
kok ou
va ka
p ys
vo te</w>
kau p
emp lo
h et
sec on
sosi aal
200 0</w>
oll ut</w>
as s
tärke ää</w>
k now</w>
n ou
to r</w>
pla ce</w>
neu vo
comm on</w>
it se</w>
w e
ite t
al ity</w>
ni itä</w>
A r
di ffer
ises ta</w>
h is</w>
ll y</w>
jo h
r i</w>
h ope</w>
tapa htu
on al</w>
en d
ma tion</w>
ula r</w>
puol esta</w>
pr in
an taa</w>
markk ino
a ino
go od</w>
yt tä
os all
c ase</w>
täm ään</w>
ti ves</w>
pää t
som e
hen kil
asi assa</w>
isuu tta</w>
direkti iv
tehd ä</w>
pit ää</w>
k ke
j ien</w>
dem oc
seura a
n um
uks essa</w>
a ja
as taan</w>
o w</w>
ven tion</w>
ve l</w>
e l</w>
u a</w>
l ast</w>
v ed</w>
prin ci
e qu
y l
keskus telu
ette i</w>
y our</w>
ex amp
si inä</w>
ra u
o in</w>
ow n</w>
j at</w>
a inen</w>
tu nn
ti es</w>
citiz ens</w>
neuvos to</w>
c a
s ol
g ener
t is
jäl keen</w>
si is</w>
ma y</w>
käsit tel
wor ld</w>
so ci
so v
ou se</w>
partic ular</w>
a ir
perus te
uu tta</w>
saa vu
agre ement</w>
h te
ol ev
p el
a kin</w>
re qu
tut kim
sa an</w>
g y</w>
tä y
politiik an</w>
em min</w>
ty ä</w>
tu lo
ser vic
amend ments</w>
syste m</w>
e ar
ki el
proc ess</w>
than k</w>
or ganis
ob jec
200 2</w>
otta a</w>
yhte yd
ä t
tri bu
nec ess
ac tion</w>
täys in</w>
r as
em ents</w>
osall istu
yt tää</w>
th re
rapporte ur</w>
it uks
j an</w>
t in</w>
num ber</w>
be fore</w>
te ho
si g
var o
te k
co operation</w>
m ikä</w>
sa ad
i vo
n al</w>
ehdo tuks
pu t</w>
asi a</w>
us ed</w>
asi an
henkil ö
infor mation</w>
et ta</w>
k in
inv ol
m ed
inter national</w>
vä li
me ans</w>
ter ve
au th
pal vel
a ks
te tään</w>
y mmä
in iti
tu a</w>
k l
with out</w>
s en
v il
i ä</w>
ymmä r
e g
y ksi
giv en</w>
examp le</w>
si ons</w>
ur ity</w>
kok o</w>
s et</w>
op e
es it
iti ons</w>
es een</w>
T ur
ne ed
tö n</w>
A f
pro mis
are a</w>
keh itys
tä ä
laaj en
hy vät</w>
te kem
issu es</w>
Yhd ys
tet tu</w>
ol og
sit ten</w>
s te
ffic i
hän en</w>
m assa</w>
f ar</w>
onn a</w>
a ista</w>
d ly</w>
re pres
j ö
te ri
le vel</w>
a vu
Uni ted</w>
vu onna</w>
y ment</w>
laus el
tun ut</w>
vah vis
gre at</w>
hal f</w>
sopim uksen</w>
päätös lausel
en sure</w>
h as
pa il
es ti</w>
a va
lar g
im in
si ir
le m</w>
la ati
m es</w>
s ed</w>
prob lem</w>
p yy
vas ta</w>
g ent
kys e</w>
iv an</w>
H ouse</w>
ma ks
at t
juu ri</w>
yhteyd essä</w>
mi ten</w>
str uc
tamis ta</w>
as ed</w>
is ta
sel f</w>
reg ard</w>
c c
0 0</w>
reg i
f oll
c k</w>
ma iden</w>
a in
P ro
pa a</w>
kolle g
vas taan</w>
in no
y n</w>
impl em
e et</w>
inv es
u m</w>
val v
gi ve</w>
tä yty
äänes ty
nä kö
voim me</w>
prob lem
puheenjohta ja
ra ken
neuvo t
thou gh</w>
kys e
ed usta
a k
consid er
jäsen et</w>
kil pail
es tab
estab lis
finan cial</w>
I s
ul es</w>
esimer ki
vi ime</w>
om en</w>
me illä</w>
Euroop pa</w>
sin ce</w>
er i</w>
var mis
gent lem
necess ary</w>
h ed</w>
mä än</w>
sa a</w>
kä s
fi c</w>
nä iden</w>
sa f
gentlem en</w>
is eksi</w>
in e</w>
k ed</w>
al th</w>
isi lle</w>
la dies</w>
et ta
va ike
i vä
as em
valio kunnan</w>
or ities</w>
f ra
ki r
esimerki ksi</w>
problem s</w>
ic e</w>
propos als</w>
val ta
ka t
mat ter</w>
w er</w>
ti c</w>
pros ent
i l</w>
throu gh</w>
u t
s c
väl t
jul k
s ään
toim ia</w>
te lla</w>
l ong</w>
wh e
ou ra
ta sa
ul arly</w>
ac t</w>
tule va
te xt</w>
myö nte
pu r
l ed</w>
om e</w>
il ma
sh i
con f
is uus
f t</w>
in de
proc ed
ais et</w>
leg al</w>
si en</w>
comp et
aga in</w>
in ten
in f
a a
con tro
ra jo
e tu
is ed</w>
peri aat
per s
b r
iti ve</w>
s in</w>
ises sa</w>
an om
raho it
whe ther</w>
to ja</w>
op in
yt tä</w>
ex pres
onn istu
pää s
f is
ta ble</w>
a id</w>
dec ision</w>
d y
ap p
kun ni
til ann
us ti
I ra
isi ons</w>
mi t</w>
ag e</w>
os alta</w>
la w</w>
c ar
requ i
a ivan</w>
Memb ers</w>
partic ularly</w>
kaikki en</w>
tr u
puheenjohta ja</w>
h ing</w>
l as
por tun
af ter</w>
l ess</w>
ises sä</w>
it or
are as</w>
tor j
ou s
cer tain</w>
por ts</w>
o f
koske van</w>
d ay</w>
200 3</w>
tan ut</w>
muka isesti</w>
uks et</w>
asi a
a isia</w>
si bility</w>
enem män</w>
sisä l
go ti
In ter
y ksi</w>
k ou
lopu ksi</w>
basi s</w>
c ed</w>
täm me</w>
tu l
he idän</w>
conc lu
g es</w>
el ec
wa ys</w>
sää nnö
e e</w>
th ir
adop ted</w>
c oll
en ä</w>
ne goti
m emb
kansain välis
keh ity
ind us
fur ther</w>
yr ity
pres ent</w>
m ely</w>
yle is
a tive</w>
ki inn
käy tä
merk ittä
ten t</w>
di ffic
esitteli jä</w>
s titu
te ch
ki a</w>
op portun
n ut</w>
w omen</w>
p rac
vir anom
til ante
ac coun
res pect</w>
su hte
me work</w>
mietinn ön</w>
kal as
o t</w>
bud get</w>
asio iden</w>
M ar
u al</w>
te iden</w>
pa in
nä än</w>
fi ed</w>
g en
legisla tion</w>
jo illa</w>
c all
fu lly</w>
vi in</w>
ll oin</w>
ac e</w>
tu o
mis esta</w>
oun d</w>
is im
ne xt</w>
h ol
d one</w>
res olution</w>
p le</w>
G ro
o k</w>
go ing</w>
si mp
progra mme</w>
il e</w>
lainsääd än
edell een</w>
shi p</w>
ou t
su or
k no
ic ation</w>
o m</w>
al alla</w>
aino astaan</w>
koske e</w>
sy y
id e
avu lla</w>
re f
el i</w>
kysymy s</w>
ter ms</w>
b ac
menet tely
n ope
suun ni
sec urity</w>
po h
s i</w>
il i
is ty
fer ence</w>
differ ent</w>
fa v
sel ke
en larg
con tribu
kann alta</w>
be half</w>
tech n
isi vat</w>
it tel
en ted</w>
tar pe
h in
pro g
emplo yment</w>
b o
ar ti
p ite
concern ed</w>
täy tän
aik ana</w>
m asta</w>
laajen tu
toim en
mu od
T re
val tion</w>
tä vät</w>
protec tion</w>
con d
m ik
tä nään</w>
jo lla</w>
mit ään</w>
vi im
so vel
suo jel
es ty
r ules</w>
os a
il man</w>
tu ot
sel ves</w>
ric ul
union i</w>
comm it
ma king</w>
koske vat</w>
ryh mä
r an</w>
su cc
stan d
w ish</w>
R e
sano a</w>
sub ject</w>
gu ar
min un</w>
opin ion</w>
as k</w>
tö ö
ex is
kou lu
gro up</w>
w ard</w>
ef for
demok ra
uu s</w>
ever y
o ver
o ta</w>
hy vä</w>
com pan
s tar
agre e</w>
g o</w>
servic es</w>
ro le</w>
si ve</w>
fra mework</w>
va ar
l et</w>
gre a
ka hd
toiv on</w>
ud en</w>
ma an
t tö
jo issa</w>
d el
p resid
c u
air s</w>
to ivo
kes ke
ff airs</w>
vuo ro
tor s</w>
k ko
saf ety</w>
w ards</w>
asi asta</w>
si j
ta v
os a</w>
ol tava</w>
some thing</w>
min u
kulu tta
Sta te</w>
väli llä</w>
M ad
et tava</w>
lu on
its em
en sa</w>
tule e</w>
ises tä</w>
vo ivat</w>
n u
h is
cl os
k ri
a vat</w>
ite tta
w s</w>
tö jen</w>
qu ite</w>
Gro up</w>
it se
B r
ten kaan</w>
te tta
si l
foll ow
hi gh
ä l
propos ed</w>
toimin ta
tapa uksessa</w>
kui tenkaan</w>
id e</w>
uud istu
f ew</w>
a voim
ko hta
gra tion</w>
thre e</w>
sh all</w>
al an</w>
jo on
pä ivä
di v
sec tor</w>
secon d</w>
wh ole</w>
u es</w>
neuvot telu
princi ple</w>
a w
te oll
sa maa</w>
at y</w>
hyväksy ä</w>
ous ly</w>
mil joon
wor king</w>
is sa
et t
tet tävä</w>
he alth</w>
prog ress</w>
vu os
suunni tel
cle arly</w>
pi en
Is ra
mietinnö ssä</w>
a ina</w>
C h
enlarg ement</w>
perus tu
il ta</w>
b i
at taa</w>
to ge
enc es</w>
tärke ä</w>
speci fic</w>
vo ita
nn ön</w>
me ille</w>
an other</w>
un d</w>
saad a</w>
I ta
A mer
kun ta</w>
his tor
l im
n ing</w>
se e
tu ksia</w>
ke y</w>
ma in</w>
do wn</w>
tan n
our ces</w>
ko ros
palvel u
a v
ur ing</w>
c or
valti o</w>
mi ä</w>
j än</w>
mää ri
aik a
l ö
ik ke
institu tions</w>
bet ter</w>
kuu ta</w>
f ul
su l
contin ue</w>
1 0</w>
täm inen</w>
puol u
mietin tö</w>
for ward</w>
oikeu ksien</w>
al i
at ten
toimen pite
de fin
pre par
vält tämä
uu n</w>
s or
tet tiin</w>
li ber
hyö dy
lin e</w>
com mun
fund a
ki ittää</w>
vel y</w>
k es</w>
teh tävä</w>
res ult</w>
in is
lu o
l ic
ear ch</w>
Con vention</w>
aik aan</w>
chan ge</w>
yks ity
ta is
ri ippu
man ag
enta tion</w>
Presid ency</w>
N o</w>
an im
sit ou
muu ta
uud ell
kysymy ks
tuom io
k us
sa an
ar m
k op
ever y</w>
on ce</w>
ord in
ig n</w>
appro ach</w>
l and</w>
sa malla</w>
ra ther</w>
va kuu
guar ante
e ur
asi aa</w>
s ta</w>
te itä</w>
cer tain
pa ino
nä itä</w>
m as
b en
lo b
Yhdys val
toge ther</w>
tää llä</w>
t on
sisä ll
achi ev
vaik u
itta va</w>
si ten</w>
kaikki a</w>
valv on
es ittä
kansalais ten</w>
jat ku
G o
su hta
p le
ag ricul
l es</w>
to inen</w>
työ llis
ty y</w>
a ine
halu amme</w>
an sa
regula tion</w>
fav our</w>
gener al</w>
pen d
kan na
con sum
di d</w>
ka ksi</w>
s m
wel come</w>
it see</w>
acc ord
ac ti
vastu u
s to
vel vo
environ mental</w>
tä yd
talous arvi
kol man
mon e
järjestel mä
ta king</w>
jo hd
appro pri
vaati mu
stan d</w>
curr ent</w>
trans port</w>
mu kais
d uring</w>
me et
ffic e</w>
es sion</w>
ty nyt</w>
ex tre
199 9</w>
sta te</w>
ki jö
enti al</w>
im prov
het ke
alo itte
to wards</w>
an sa</w>
Tre aty</w>
työ s
k on</w>
voim a
jä t
tote utta
oikeud ell
myö n
kok on
asi an</w>
g ed</w>
mill ion</w>
työ nte
ks essa</w>
yhd en
rati c</w>
h im
P al
te ille</w>
vä hen
yks in
G re
need s</w>
comm ittee</w>
tu kea</w>
y ys
fi el
A mend
t ol
ni istä</w>
il y</w>
ap pe
tod ella</w>
es peci
is imme</w>
Mad am</w>
ku in
ne en</w>
b ased</w>
c ri
n or
mis estä</w>
c ul
especi ally</w>
as es</w>
kir jo
yh ä</w>
et te</w>
en sä</w>
nou d
kaik kea</w>
viim e
at ta</w>
in tro
accoun t</w>
it self</w>
il mo
1 5</w>
tr uc
grea ter</w>
rac y</w>
ll isesti</w>
importan ce</w>
fin ally</w>
poin ts</w>
en ä
cond itions</w>
k an</w>
p rec
el im
kuin ka</w>
hetke llä</w>
hel p</w>
oll en</w>
A ffairs</w>
ac tu
y et</w>
isuud essa</w>
00 0</w>
e ach</w>
o tetaan</w>
tra de</w>
se qu
ap pl
le ast</w>
jäsenvaltio t</w>
direktiiv in</w>
valtio iden</w>
la ad
n ed</w>
du ce</w>
li f
te ita</w>
respon sibility</w>
k enn
thir d</w>
prosent tia</w>
es ittää</w>
et s</w>
vas tus
re ally</w>
p er</w>
de al</w>
A 5</w>
m ot
im p
ha ving</w>
yhteis ö
yh tä</w>
lo c
kans ala
käsi tel
c ap
aj an</w>
turvall isuus
j usti
direkti i
kolleg at</w>
al though</w>
käyt tää</w>
k el
j e
rec og
toim inn
on e
k ers</w>
recog n
provid e</w>
la te</w>
aik o
mu iden</w>
tar jo
parlament issa</w>
ke e</w>
tie tenkin</w>
an ne
ryh män</w>
cr imin
oll e</w>
täyty y</w>
op a</w>
si de</w>
ty yty
tilann e</w>
res ources</w>
auth orities</w>
r en
su os
ch ar
koske va</w>
j opa</w>
teh tävä
kunni o
in ti
valmis telu
pe ace</w>
fin d</w>
te ks
arti kl
sol id
indus try</w>
ser ious</w>
tarko ituks
g g
pid et
sopim uks
bec ome</w>
val itetta
li ian</w>
inde ed</w>
tuomio istu
v es
sh or
muu t
med i
gu e</w>
ul kop
opportun ity</w>
it te</w>
wh ile</w>
tek n
edis ty
b al
increas e</w>
is ista</w>
vasta a
produc ts</w>
yyd en</w>
div id
suu re
maa han
fre ed
en ää</w>
suun ta
ris ti
inclu ding</w>
void a</w>
kul ttu
hu ippu
at or
es ti
tr ic
var ten</w>
ur g
rahoit us
kans an
al ways</w>
väl ine
sä il
ll een</w>
var ious</w>
govern ment</w>
mi in</w>
b us
an g
tus la
yr itys
EU R</w>
Euroop assa</w>
it us</w>
amend ment</w>
d er</w>
tic le</w>
par t
m en</w>
en kin</w>
isim man</w>
la a
contro l</w>
g lob
os ta
lainsääd ä
sy n
achi eve</w>
tav alla</w>
regi ons</w>
muu to
vi ol
teho kka
ku ussa</w>
y t</w>
h an</w>
all ow</w>
mahdoll isimman</w>
et tom
ma tta</w>
ehdo tuksen</w>
res earch</w>
tö jä</w>
re form</w>
pros ess
polic ies</w>
u ol
proced ure</w>
politiik kaa</w>
tan ce</w>
comp le
perus tamis
te ell
c all</w>
de f
p yyd
wor ds</w>
Yhd isty
s olu
val tu
ite taan</w>
tö n
par lia
l yh
gi an</w>
maail man
hu man
sel v
vä ä
töö n
R i
j et
vas sa</w>
markk in
lar ge</w>
kunn assa</w>
g a
an i</w>
käyt töön</w>
B ar
spe a
jo ista</w>
2 0</w>
hi gh</w>
soci ety</w>
par ha
os in</w>
diffic ult</w>
compet ition</w>
ter m</w>
pro f
P or
aik ais
ra kenn
ri ittä
om me</w>
ex ten
om aan</w>
ki it
e tel
con stitu
olem assa</w>
interes ts</w>
d er
tote u
re duc
o re
3 0</w>
yhd essä</w>
ch il
h and</w>
pec ts</w>
negoti ations</w>
h er</w>
alis ation</w>
s tu
reas on</w>
ma jo
yh ten
invol ved</w>
acti v
r e</w>
concern s</w>
ker ran</w>
com b
acc ess</w>
taloud en</w>
par ti
olev an</w>
funda mental</w>
ran g
k ar
po is
bac k</w>
M inis
mone y</w>
S ch
laaj u
consid er</w>
b an
yhte isen</w>
minis ter
parlamen ti
majo r</w>
vi ik
on ko</w>
jo in
th ings</w>
Ita li
a tes</w>
nä kem
vä ä</w>
ess ential</w>
o th
voita isiin</w>
ab ility</w>
j osta</w>
demok rati
re ac
n er
puol us
follow ing</w>
certain ly</w>
sm all</w>
fiel d</w>
r in
dec isions</w>
environ ment</w>
qu ality</w>
is m</w>
muu tta
5 0</w>
fic ation</w>
re al</w>
b ro
im mi
mat tom
va ad
extre mely</w>
kö yh
gra tu
accep t</w>
tä nyt</w>
keskustel u</w>
te m
ir e</w>
con gratu
Amer ic
compan ies</w>
t ou
re ques
todell akin</w>
kau tta</w>
e ag
oso itta
es tin
concer n</w>
initi ative</w>
its i</w>
ää r
B el
can d
keh ittä
te et</w>
pos itive</w>
aw are</w>
min d</w>
tyyty vä
mi ksi</w>
ä t</w>
s usta
ke ho
democ ratic</w>
pä iv
tun a</w>
res ul
s ing</w>
tamis eksi</w>
lo ok</w>
l en
re a
atten tion</w>
töön pan
per ä
vo ted</w>
täytän töönpan
jä ä</w>
implem entation</w>
ks ista</w>
järjes ty
democ racy</w>
ma j
an al
vall an</w>
200 4</w>
mahdoll ista</w>
th s</w>
Por tu
har jo
vuo tta</w>
maa talous
objec tives</w>
progra m
et o
we e
ik an</w>
th em
es itet
Ar ticle</w>
n on</w>
le ad
ker tom
aihe utta
A l
mon et</w>
vo isi</w>
ben ef
to on</w>
be g
asio ita</w>
tion ed</w>
gro w
ku mp
ful l</w>
er ila
i taan</w>
h on
hall in
Go vern
selvä sti</w>
peruste ella</w>
ta tion</w>
uudell een</w>
s s
es itys
v ista</w>
con sequ
emp i</w>
ys sä</w>
O ffice</w>
C O
susta in
reg ar
tä v
d ou
demokra att
com pl
to de
ko jen</w>
te tu
y yttä</w>
p ris
for ce</w>
pro ve</w>
ehdo tus</w>
do cu
effec tive</w>
vä sti</w>
kus tann
tunn us
fo od</w>
s ing
perus tusla
päätö ks
pro mot
us ko
maj ority</w>
cr it
bu il
joh on</w>
es ite
L i
yksity is
pu hel
objec tive</w>
hyväks yt
mahdoll isuu
järjestel män</w>
re fer
si lloin</w>
s p
m el
markkino iden</w>
ins tru
w an
sin nä
simp ly</w>
bus in
coll eag
tä vän</w>
op en</w>
inter nal</w>
effor ts</w>
n et
o s</w>
m ed</w>
mi ght</w>
in divid
ste p</w>
en sinnä
sub stan
sov ell
end a</w>
sta te
elin tarv
1 2</w>
ni fic
terve yd
min usta</w>
R u
a vo
im atta</w>
mu istu
c os
p op
ener gy</w>
ed uc
pos e</w>
alu een</w>
union issa</w>
s all
van a</w>
tur va
tar vi
f le
freed om</w>
ol o
liik en
työnte kijö
use in</w>
i in
fre e</w>
la b
ki en</w>
en ing</w>
te llä</w>
ava ila
a ffec
pit kä
ell isesti</w>
ener gi
m od
hel p
nim ittäin</w>
r y</w>
ros s</w>
er a
yksin ker
uks ista</w>
trans par
pre v
oikeu ksia</w>
of ten</w>
m all
cr u
jou tu
he ik
yhten ä
läh esty
f y</w>
up on</w>
an si
tavo in</w>
fo re
lop pu
interes t</w>
yhteistyö tä</w>
oike us</w>
strate gy</w>
fe el</w>
a ta</w>
agre ements</w>
sa mo
respon sible</w>
n aisten</w>
str eng
ita kin</w>
täm än
s olution</w>
per io
b our
tois eksi</w>
kor va
men tioned</w>
ensinnä kin</w>
kor ke
tarvi taan</w>
sig nific
for ms</w>
appropri ate</w>
tä mistä</w>
toimi elin
gro up
parti ci
ko ja</w>
prac tic
to si
li ght</w>
com es</w>
huippu kokou
call ed</w>
s ten</w>
iti onal</w>
hap s</w>
ä kin</w>
si lle</w>
alo gue</w>
E s
il u
per haps</w>
kilpail u
an y
fis her
ti mes</w>
minis tra
var m
Ar vo
tois in</w>
econom y</w>
conf lic
2 0
oth ers</w>
kump pan
j ud
terroris m</w>
ki ito
ques tions</w>
Govern ment</w>
el ess</w>
käy nn
jä lleen</w>
ity ks
com promis
alue ella</w>
Arvo isa</w>
huol imatta</w>
W T
c ris
fund s</w>
kä r
b il
m men
is ation</w>
bud jet
f am
ar ity</w>
ne iden</w>
develop ing</w>
i ksi</w>
intro duc
va al
rec ent</w>
työ tä</w>
meet ing</w>
l ää
ag o</w>
ongel mia</w>
kno w
vä hem
tur n</w>
tied on
1 1</w>
tet ty</w>
huom atta
ro w</w>
ke ino
suur i</w>
kuu n</w>
il o
id a</w>
im mä
mil i
ris k</w>
w ar</w>
tet tu
se ik
ehd ot
yksi miel
j ää
od a</w>
us kon</w>
toimi in</w>
han kke
b est</w>
p ik
ong er</w>
d ic
työs ken
puheenjohtaja valtio</w>
program mes</w>
aik aa</w>
uu sia</w>
ä sti</w>
em aan</w>
ent ing</w>
co ordin
o ff
group s</w>
san i</w>
vaih e
yhte en
fer ens
R ans
s how
star t</w>
ffici ent</w>
app li
tarkas tel
b an</w>
selvä ä</w>
actu ally</w>
määr ä</w>
all ow
ä s
vapa u
luon no
koh taan</w>
po wer</w>
kokon ais
di alogue</w>
sup por
ulkop uol
jec ts</w>
tas olla</w>
br ing</w>
f arm
availa ble</w>
A n
o tettava</w>
vu or
pos ed</w>
ver s
a mon
u ri
accep table</w>
re com
maail man</w>
it ään</w>
V enä
erity is
lif e</w>
kon ferens
il tä</w>
erity isen</w>
ar vos
uud esta</w>
g ran
secon dly</w>
vi lle</w>
d on
ver o
ad van
manag ement</w>
ehdo kas
saavu tta
osa puol
mis sä</w>
wor kers</w>
valitetta vasti</w>
p ö
Amend ment</w>
in kin</w>
l ann
m om
vuoro puhel
a pu
lis ää
e tenkin</w>
es saan</w>
cand id
them selves</w>
Ri ghts</w>
techn olog
repres enta
under stand</w>
tor y</w>
ko ro
alue iden</w>
men n
ad ministra
puu ttu
yl i</w>
pys ty
l tä</w>
eg al</w>
agricul tural</w>
us ing</w>
nn et
mat ters</w>
human ita
b ur
B er
es iin</w>
concern ing</w>
r en</w>
a kseen</w>
th eless</w>
k re
koros taa</w>
com ing</w>
sy ystä</w>
R us
me itä</w>
pa ko
fi ght</w>
yritys ten</w>
memb ers</w>
P ol
ymmär r
le d
enc oura
c ases</w>
tamis en</w>
g ing</w>
tois a
komissi ota</w>
curr ently</w>
y ed</w>
C our
po ikke
ongel ma</w>
n el
huomio ta</w>
reg ion</w>
re ports</w>
rela tions</w>
re alis
la it
do ing</w>
om an</w>
kansain väl
S o
tus ten</w>
cre ate</w>
know led
a utta
par ties</w>
n i</w>
is enä</w>
nä istä</w>
ta u
käy tö
on kin</w>
ja a</w>
epä il
käytä nnö
ma issa</w>
ra te</w>
sing le</w>
kti iv
ks eni</w>
es sa
le v
d ate</w>
un for
oikeud en
t tä</w>
fir s
at te
tävä ä</w>
valio kunta</w>
eh kä
j ia</w>
ky mmen
kan a</w>
con text</w>
kalas tus
vi ous</w>
on ta</w>
firs tly</w>
de al
enn e</w>
E n
tra c
S w
regi onal</w>
s ci
lyh y
B 5</w>
liitty vät</w>
on in</w>
mi eh
ohjel man</w>
D i
ku t
Cour t</w>
h es</w>
hap pen
ensimmä inen</w>
t ment</w>
liitty y</w>
M E
mon ths</w>
la ck</w>
ou th</w>
op is
elä in
pit e</w>
tarkistu ksia</w>
od s</w>
chil d
toisa alta</w>
lähesty mis
id ence</w>
re ly</w>
2 5</w>
o a</w>
strate g
dra ft</w>
vi e
la p
pu n
pid ä</w>
mu ita</w>
w r
isuu teen</w>
mu o
ll inen</w>
me th
im prove</w>
esitys lis
vo in</w>
f oc
od o
ula tion</w>
ob li
par an
a uttaa</w>
myö s
tied ämme</w>
y tä
tel e
stand ards</w>
pl es</w>
ity s</w>
e p</w>
ri ed</w>
fa il
reas ons</w>
no thing</w>
toimi elim
mu l
enem mis
koske via</w>
menn essä</w>
ihmis ten</w>
dem on
dou b
tu na
tamis esta</w>
m i</w>
tuna tely</w>
s t
laus un
vä es
eh kä</w>
vaih to
requi re
at tom
torj un
sta tes</w>
po w
p et
el in</w>
syste ms</w>
i re
oso ittaa</w>
en te
mietin töä</w>
tön tä</w>
tu ll
produc tion</w>
mar ket
ar v
d ue</w>
as te</w>
vaik uttaa</w>
ta c
M a
var sin
M ed
kin d</w>
fin al</w>
ent istä</w>
varm asti</w>
child ren</w>
demon stra
v ement</w>
e en
mieles tämme</w>
kysy m
it tu</w>
Es pan
parlamenti lle</w>
en na
ex peri
perio d</w>
am oun
l onger</w>
ti u
kom promis
i al</w>
el ta</w>
mo ve</w>
om ais
G er
su gg
nn e</w>
pel käs
myös kään</w>
vaik utu
p h
kuulu u</w>
ti ce</w>
liik ku
tamis een</w>
jä rke
e taan</w>
me an</w>
ehdo tuksia</w>
educ ation</w>
emb er</w>
ens isi
ess es</w>
t ossa</w>
pelkäs tään</w>
tuomioistu im
et tu</w>
Yhdysval tojen</w>
alue ell
Y K
is ing</w>
strate gi
legisla tive</w>
kirj an</w>
e iv
as sis
suu nn
jo ihin</w>
ni ihin</w>
loc al</w>
achiev ed</w>
istu n
tän ä</w>
compromis e</w>
paik all
is taa</w>
princi ples</w>
govern ments</w>
or ig
la tion</w>
al ku
ehdo tusta</w>
regar ding</w>
mom ent</w>
itt le</w>
tu u</w>
ci es</w>
si in</w>
resul ts</w>
ti al</w>
pri va
ol i
vi l</w>
prev ent</w>
itu ksia</w>
Itali an</w>
l ittle</w>
jo itakin</w>
ge tary</w>
its emme</w>
ty jen</w>
mahdoll isuus</w>
organis ations</w>
keskustelu n</w>
con struc
kon kre
jo ka
miel ip
exc ell
de ta
syy tä</w>
tarv itta
s een</w>
g en</w>
et ting</w>
congratu late</w>
v issa</w>
miljoon aa</w>
d ang
artikl an</w>
pys y
sopim us</w>
huom au
0 1
ab o
u o
or row</w>
join t</w>
tu otta
ag enda</w>
Portu g
a ar
kat so
er in
tell ään</w>
koske vaa</w>
sustain able</w>
tra in
ti vely</w>
mili tary</w>
commun ication</w>
ul ko
te idän</w>
a tely</w>
tom orrow</w>
asi aan</w>
sa man
ou gh</w>
od y</w>
kolle go
itta in</w>
c ho
nope asti</w>
hap p
N i
n ess</w>
ine et</w>
jäsenvaltio issa</w>
le ad</w>
kun ing
as pects</w>
Yhdys vall
kom ite
velvo ll
var a
si s</w>
en ough</w>
rela tion</w>
p ast</w>
ab ly</w>
s ever
abo ve</w>
effec t</w>
it ing</w>
tab led</w>
ks esta</w>
candid ate</w>
C 5</w>
d i</w>
cris is</w>
te s
tarkoituks ena</w>
jäsen ten</w>
muu n</w>
tr ue</w>
grow th</w>
isi lla</w>
gu id
lu om
ten ce</w>
ide a</w>
lu ku
I r
pa itsi</w>
inf ras
a an
sub si
es ille</w>
tuleva isuudessa</w>
käyt tä
pi en</w>
k ki
as et
yh ti
nä ky
vir as
ter nal</w>
reg ards</w>
tuks et</w>
nou da
ma kes</w>
app ly</w>
need ed</w>
oike in</w>
prov ed</w>
agre ed</w>
fur ther
c el
rau han
euro a</w>
järjestel mä</w>
pri ority</w>
j os
nä hd
is em
san ot
p s</w>
muu t</w>
min ä</w>
eur o</w>
työ paik
ass ess
p p
A g
l ec
individ ual</w>
commit ment</w>
g ets</w>
tä isiin</w>
l ing</w>
of f</w>
keh itty
talous arvio
n sä</w>
aik a</w>
tu kem
u res</w>
pl an
tied o
periaat te
kuning as
p ly</w>
maailman laaju
koske vien</w>
ha a</w>
ään ty
un ti
välis en</w>
k ö</w>
b ody</w>
tavoitte ena</w>
kka asti</w>
es ter
e te
e tään</w>
cos ts</w>
a ati
con sul
s on</w>
isuud esta</w>
ihmis oikeus
kuu l
further more</w>
ter min
Tur key</w>
Ira q</w>
esti in
excell ent</w>
ta maan</w>
yt tävä</w>
kä yd
our selves</w>
teh nyt</w>
puheen vuor
activ ities</w>
c ing</w>
vapa utta
se em
len to
os taa</w>
discus sion</w>
kal ta
min kä</w>
wa ter</w>
halu a</w>
es taan</w>
uus i</w>
poh j
kaup pa
pla y</w>
ri a</w>
unti l</w>
toimielin ten</w>
sh e</w>
ne i
every one</w>
er ä
y ö
ob ser
guarante e</w>
ch all
B al
em an</w>
dec id
a maan</w>
ci r
tu ho
speci al</w>
it telu
res tric
budjet ti
y ys</w>
rau ta
S ec
te st</w>
l ou
p as
Pal estin
pyr ki
edell yty
tu res</w>
kehity ksen</w>
Con ference</w>
sa tis
ab solu
pros es
k ää
kysymy ksiä</w>
ic ations</w>
1 3</w>
x i
enn a</w>
fis hing</w>
provid ed</w>
j ar
Par ty</w>
va t
des pite</w>
ent ral</w>
edis tää</w>
ik o
fund ing</w>
m et
unfor tunately</w>
u b
sel s</w>
presid ent
torj u
oura ble</w>
mo tion</w>
a im
L a
so on</w>
politiik ka</w>
F ran
acc ession</w>
tell aan</w>
hi m</w>
er o
D ec
ul kom
p ass
pyr itään</w>
kaik ille</w>
keskustelu a</w>
ty jä</w>
toiminn an</w>
pro jects</w>
huol es
con nec
ta pa</w>
z z
jä t</w>
com pe
b s</w>
vä ki
rec eiv
ra has
N or
H e
ki in
servic e</w>
j ille</w>
w ar
sever al</w>
samo in</w>
jo lloin</w>
vas to
val mi
lainsäädän tö
pl an</w>
prac tice</w>
bal ance</w>
oikeud en</w>
em oc
ol d</w>
lainsäädä nnön</w>
contin u
sa at
nu or
ra h
kiit än</w>
it tu
contribu tion</w>
techn ical</w>
polit ic
pres ented</w>
le a
inclu de</w>
adop t</w>
koh ta</w>
väl it
un c
käy tet
la in
kut su
yhd is
ta as</w>
sa attaa</w>
for m
mon im
hel d</w>
recom mend
cru cial</w>
sen se</w>
dra w</w>
shor t</w>
ne ksi</w>
n er</w>
kansalais et</w>
ö l
yksinker ta
is tan</w>
wor ks</w>
sh are</w>
puu t
use ita</w>
F R</w>
in ut</w>
har mon
ci vil</w>
tö mä
os ten</w>
ke in</w>
ehdo tta
cri teri
re li
is t</w>
suhta utu
ksi lle</w>
imp act</w>
än i</w>
määri tel
chan ges</w>
ai m</w>
d en</w>
c ha
mietinnö stä</w>
add ition</w>
pi an</w>
ol ivat</w>
toim ien</w>
prov isions</w>
hallit uksen</w>
conflic t</w>
con tain
hi eman</w>
l uu
lu otta
am b
expres s</w>
e an</w>
kansainvälis en</w>
Af ric
ka uden</w>
eurooppal aisen</w>
car ried</w>
val vo
nim en
vah in
tuo tan
knowled ge</w>
men etel
tuks een</w>
immi gration</w>
sta ge</w>
kann atta
exc lu
te ki
konkre ett
pä in</w>
mu r
cir c
ta kin</w>
kär si
as te
gen u
consum ers</w>
emp has
sell ais
promot e</w>
muka ista</w>
a ktiiv
D emoc
signific ant</w>
state ment</w>
puolu e
n or</w>
lin es</w>
S um
tie teell
im um</w>
pop ulation</w>
kon f
YK :n</w>
työ järjesty
stan ding</w>
inves to
re main
proced ures</w>
ehdot tom
ei ther</w>
U N</w>
EU :
valio kunnassa</w>
r on
muu ta</w>
s ch
e il
yd in
tarko ittaa</w>
ne ver</w>
atte mp
lan gu
res ol
men tary</w>
crit ic
at h</w>
va tion</w>
transpar ency</w>
ta kia</w>
ill aan</w>
ing ly</w>
accord ing</w>
pu itte
vil j
hu on
ro ad</w>
inte gration</w>
tä neet</w>
1 1
Sw ed
v eto
lis t</w>
myö nnet
all e
re pe
ite m</w>
tämä llä</w>
joh taa</w>
par emmin</w>
sh ip
fisher ies</w>
tu en</w>
is taan</w>
hallit us</w>
al e</w>
every thing</w>
fore ign</w>
kysymy ksen</w>
M on
b on</w>
ta minen</w>
ri an</w>
Sum mit</w>
poliitt inen</w>
kaik en</w>
ed us
kos kaan</w>
i vät</w>
en tr
toim et</w>
na ture</w>
k ki</w>
kl o</w>
kas va
si jo
pyyd än</w>
0 2
hall inn
co ver
c la
tarkistu kset</w>
seem s</w>
konf lik
jo ten</w>
sano en</w>
neuvos tossa</w>
as ked</w>
mon ia</w>
esityslis ta
ati ves</w>
B ud
lu et
pö ytä
market s</w>
h or
ihmis et</w>
b io
varo ja</w>
re main</w>
k ään
K re
pi ir
vaik utta
tä miseksi</w>
b order</w>
ain akin</w>
respon se</w>
suhta ud
jo htu
halu aa</w>
turvall isuuden</w>
sa ying</w>
vaihe essa</w>
ryhmä ni</w>
ma at</w>
colleag ues</w>
n ers</w>
dem an
read ing</w>
c lar
benef it</w>
Minis ter</w>
memb er</w>
käsitel tävä
am mat
ihmis oikeuksien</w>
Di rec
consum er</w>
vaihto eh
kol me</w>
ko ti
K oso
to ista</w>
kohd istu
onn is
kal a
tote uttaa</w>
tärke itä</w>
reg re
s es</w>
bud getary</w>
po ver
p lo
ki ire
inte gra
ans wer</w>
alue illa</w>
valvon ta
uu teen</w>
y oun
an teen</w>
än ä</w>
i ted</w>
minu lla</w>
f lo
tarkistu sta</w>
hyvä ksi</w>
varmis taa</w>
p ä</w>
tode ta</w>
sh ar
id enti
ac tions</w>
y li
expres sed</w>
ansi osta</w>
v in
requi red</w>
ll isen</w>
minister i</w>
4 0</w>
hall inno
y ksiä</w>
basi c</w>
tarko itus</w>
und s</w>
is istä</w>
al ka
pyr kim
te mme</w>
neuvos to
inde pend
fle xi
sano i</w>
ra ised</w>
glob al</w>
vo ting</w>
risti ri
h in</w>
exis ting</w>
vasto in</w>
tutkim us
talousarvi on</w>
k ly</w>
ite ttava</w>
diffic ul
th us</w>
reques t</w>
lo o
ic es</w>
throu gh
spea k</w>
val ta</w>
en la
con sis
val taa</w>
ryh mä</w>
mä t</w>
toimin taa</w>
palvelu jen</w>
käsi tellä</w>
tan a</w>
siir ty
kas vu
ol ette</w>
asi at</w>
he ar
S ep
läh et
ky ky
y ll
markkin a
de termin
Af rik
qu ic
through out</w>
s ään</w>
S E</w>
tehd ään</w>
is ella</w>
tic ally</w>
c ks</w>
& #
&# 9
ti mme</w>
pa y</w>
el s</w>
uks issa</w>
u no
tapahtu u</w>
farm ers</w>
e f</w>
a tional</w>
komissi olle</w>
Pol ic
lis ää</w>
ais esti</w>
vilj eli
tilann etta</w>
fa ir</w>
sä h
f f</w>
ky llä</w>
u g
train ing</w>
tas k</w>
kun tien</w>
it tanut</w>
E C
tek ni
no in</w>
as y
tu ne
teh ty</w>
dis as
tarv itsemme</w>
res pec
itor ing</w>
establis h</w>
ins te
yy n</w>
til anteen</w>
h es
Pro di</w>
johd on
succ ess</w>
ord ino
onn ettom
harjo itta
d eli
ta sa</w>
Polic y</w>
lu onn
ko ordino
1 4</w>
tur vapa
pover ty</w>
inste ad</w>
ref lec
kaik issa</w>
ura l</w>
re ach</w>
kansall isten</w>
clos ed</w>
increas ing</w>
ed es</w>
ind ic
establis hed</w>
da ta</w>
as sa
L is
vic ti
tu n</w>
sopimuks een</w>
ro h
ple ased</w>
rik oll
merk itsee</w>
lu m</w>
i o</w>
lle et</w>
institu tional</w>
ten sa</w>
vi h
te kee</w>
tasa paino
si ellä</w>
poin ted</w>
välttämä töntä</w>
kan taa</w>
en i
määrä raho
t lan
vi ously</w>
tel ev
del eg
ase tuksen</w>
täytän töön</w>
anne taan</w>
öl j
prepar ed</w>
lab our</w>
eurooppal ais
dis crimin
cul tural</w>
em paa</w>
oll eet</w>
v in</w>
op ol
S aks
busin ess</w>
v uutta</w>
ta lly</w>
ell inen</w>
ne ver
ta kes</w>
va m
su ku
pa tion</w>
ka h
uu sien</w>
pre vious</w>
so tila
it ti</w>
ttu a</w>
minu lle</w>
ta x
all inen</w>
0 3
youn g</w>
effor t</w>
tyytyvä inen</w>
ty ö</w>
tarkistu ksen</w>
fi ve</w>
a min
P P
yhte inen</w>
aj an
ta x</w>
reac hed</w>
ko a</w>
huom enna</w>
edell yttää</w>
yhti ö
a ir</w>
käsit tely
jäsen en</w>
criteri a</w>
istu nn
g n
dis e
poliitt isen</w>
mu assa</w>
tra d
kulttu uri
kehitys tä</w>
F is
appl ication</w>
oikeu tta</w>
vää r
ra uh
da ma
Lis bon</w>
täll ainen</w>
hyödy n
L issa
suunta vi
pur su
ni ille</w>
na mely</w>
initi atives</w>
se ur
pa an</w>
kyse essä</w>
var sin</w>
noud atta
työllis yys
bil ities</w>
V äl
hol d</w>
asio ista</w>
yhden mukais
p ac
kok em
ka a
he itä</w>
equ al</w>
po ten
asy lum</w>
advan ta
jou sta
require ments</w>
dec lar
WT O</w>
yhteis kunn
stu d
käsi tellään</w>
ed er
as tu
ta vat</w>
kul je
Lissa b
va ksi</w>
kahd en</w>
pa ho
o ista</w>
amon g</w>
ta h
sugg es
cl ose</w>
am inen</w>
j u
ex amin
w aste</w>
v uuden</w>
op im
har k
ap proved</w>
ten kään</w>
gh tly</w>
järjes tö
tä s
ur s
tekem ään</w>
justi ce</w>
decid ed</w>
ad equ
sy ys
doub t</w>
elin es</w>
uc le
pro ject</w>
tärke ä
sij aan</w>
yks ittä
obli g
kohd alla</w>
in tia</w>
consequ ences</w>
uks esta</w>
ti ä</w>
regula tions</w>
on a</w>
ik ä
cor rec
cap ac
Väl imer
tr as
val ues</w>
ita l</w>
va i</w>
rang ais
inn in</w>
ul ot
representa tives</w>
presid ency</w>
Ir lann
200 6</w>
sta bility</w>
ti vat</w>
teh tä
vä t
tas tro
y n
ar ound</w>
implem ented</w>
F ren
ka s</w>
im medi
Ru ot
Bar cel
ucle ar</w>
miel essä</w>
inclu ded</w>
as soci
e ed
b ly</w>
ter r
wh ose</w>
us es</w>
mo re
ac tive</w>
turvapa ik
more over</w>
govern mental</w>
ma teri
j ana</w>
id ät</w>
K ansa
yhteistyö n</w>
rela ting</w>
o ffici
ru le</w>
f our</w>
kysym ystä</w>
Rus sia</w>
wee k</w>
p een</w>
lisä tä</w>
viranom aisten</w>
itet tu</w>
spe ec
A m
äl i</w>
add res
tel em
Med i
tieto ja</w>
et tävä</w>
Fren ch</w>
199 8</w>
su fficient</w>
mon itoring</w>
mik äli</w>
ens i</w>
A us
o p</w>
kulttu ur
in ä
rec ently</w>
muka inen</w>
ity ksen</w>
d in</w>
no te</w>
men esty
ker taa</w>
Venä jän</w>
b ri
speci fic
ill egal</w>
men tion</w>
terroris min</w>
ter ran
tar peen</w>
ord ers</w>
coordin ation</w>
N ations</w>
is elle</w>
fac e</w>
sy rj
is ely</w>
liitty viä</w>
hon ourable</w>
d le</w>
poliitt ista</w>
tem ber</w>
seuraa vana</w>
Sep tember</w>
yhd en</w>
terran ean</w>
direc t</w>
arvo is
c ost</w>
alo illa</w>
f ri
Medi terranean</w>
ex ternal</w>
as ure</w>
P e
ke ep</w>
ita n</w>
im ate</w>
com munity</w>
E ast</w>
W or
r un
pu ite
is o
aih e</w>
ex tent</w>
eur on</w>
to isen</w>
ensisi j
Fran ce</w>
con fir
hallit us
ole vien</w>
k alais
exc ep
priva te</w>
m olem
ttö my
im aan</w>
ät tä</w>
oll u
kaik kein</w>
def ence</w>
kaup an</w>
comple tely</w>
amoun t</w>
never theless</w>
direktii vi
sosiaal i
varo jen</w>
than ks</w>
direktiiv i</w>
työntekijö iden</w>
t tävä</w>
mahdollisuu ksia</w>
Isra el</w>
sell aisen</w>
mod er
viol ence</w>
devel op</w>
rat ka
n et</w>
add ress</w>
S pan
teho k
p onnis
mat ka
kysymy kseen</w>
assis tance</w>
uks een</w>
tie tää</w>
s ti
s sa</w>
ks emme</w>
saa ta
c ause</w>
itys tä</w>
il s</w>
pri orities</w>
elec tions</w>
practic al</w>
i ans</w>
cr ime</w>
PP E</w>
maahan muut
guid elines</w>
f unc
ys ten</w>
energi a
solid arity</w>
sa atta
jou kko
ilo inen</w>
vä hän</w>
hyväksy i</w>
pow ers</w>
halu avat</w>
ät te</w>
vahvis taa</w>
or y</w>
or m
is ik
i ra
sopim usta</w>
mis essa</w>
liiken ne
it us
ell ow</w>
t os
sopim usten</w>
conclu sion</w>
rou ght</w>
p idän</w>
lö y
S e
me et</w>
absolu tely</w>
Ira kin</w>
str ong</w>
prec isely</w>
ma ase
o on</w>
pres sure</w>
mielip ite
terr itor
käynn is
d ri
s ter
ex er
te tta</w>
käytännö ssä</w>
to ok</w>
rik os
protec t</w>
pa kol
on ni
is ena</w>
ell isen</w>
tal king</w>
ou ght</w>
maks u
jat kaa</w>
alle kirjo
syn ty
kunnio itta
li ve</w>
ha va
sil tä</w>
om in
n uclear</w>
al most</w>
ko on</w>
järjestelmä ä</w>
giv ing</w>
a alis
union iin</w>
väl inen</w>
mit ted</w>
f ellow</w>
selvä ksi</w>
jatku vasti</w>
Span ish</w>
puolu een</w>
connec tion</w>
1 2
vo it
vel s</w>
valtio t</w>
te ke
kor ja
inves tment</w>
he ad</w>
äänesty s</w>
pa ten
b ar
jo bs</w>
succ ess
ag es</w>
emp ia</w>
tan i</w>
H u
to i</w>
prosess in</w>
k ra
h uu
le ar
foll ow</w>
ar gu
tod en
esityslista lla</w>
president ti</w>
lainsäädän töä</w>
er e
Tur kin</w>
cre ation</w>
c are
myönte isesti</w>
v ision</w>
ul ta</w>
pyy n
koh tia</w>
ac ross</w>
val ue</w>
suor aan</w>
histor i
pro per
to ihin</w>
receiv ed</w>
di o
tuks esta</w>
S tras
G u
eurooppal aisten</w>
consider ed</w>
Stras bour
so d
s ääd
ai emmin</w>
säh kö
lait tom
selke ästi</w>
pää stä</w>
res t</w>
le vels</w>
capac ity</w>
to dis
läh es</w>
työ n</w>
pac ka
er i
s how</w>
re duce</w>
k is
ku olem
S a
ven ess</w>
th y</w>
is issa</w>
aine iden</w>
tel l</w>
ä h
suur in</w>
re fu
bec om
di a</w>
pa y
et e</w>
elintarv ike
mi la
dem and</w>
min kin</w>
experi ence</w>
ex per
v ed
jou lu
con dem
w is
sc ope</w>
na tion
foc us</w>
sell aisten</w>
quic kly</w>
le ft</w>
circ um
tuot teiden</w>
e u
L at
esitteli jän</w>
ec e</w>
discus sed</w>
specific ally</w>
lis äänty
ex pec
vi is
tre at
increas ed</w>
in ta</w>
ki er
asio issa</w>
si bilities</w>
h il
saan ut</w>
p ollu
ku t</w>
alis ed</w>
oikeud et</w>
jäsen valtion</w>
vi itta
im en
direc tion</w>
re ality</w>
ev a</w>
valv onn
em er
f ound</w>
par antaa</w>
apu a</w>
aks eni</w>
Rans kan</w>
tun te
la an</w>
hallit usten</w>
tic s</w>
tal k</w>
com par
tu al</w>
em minkin</w>
nä ihin</w>
puolus tus
en päin</w>
nimen omaan</w>
hin d</w>
be hind</w>
appli ed</w>
S ol
va l</w>
gro und</w>
docu ment</w>
N os</w>
re ference</w>
en ter
ho ito
ann ettava</w>
ni issä</w>
liber alisation</w>
g s</w>
spe ak
conc ep
kanna tan</w>
puhu a</w>
impl ement</w>
1 8</w>
vähem män</w>
aihe utu
B us
utta va</w>
me istä</w>
accord ance</w>
a way</w>
ec han
b orders</w>
p ann
myö tä</w>
e val
p il
kohd an</w>
ag rap
tieto a</w>
ulot tu
u ksiin</w>
koske vasta</w>
kas v
sy istä</w>
vuos ina</w>
ks issa</w>
b el
un acceptable</w>
de l</w>
aino a</w>
victi ms</w>
mo vement</w>
G al
s po
ys ti</w>
ma l</w>
käy tetään</w>
jo b</w>
instru ments</w>
da ys</w>
a kaan</w>
t tu</w>
huomatta vasti</w>
A T
valtu us
tel ut</w>
clar i
he ad
1 6</w>
yhte en</w>
teh neet</w>
op en
til as
conclu sions</w>
te ty
id ent</w>
et tiin</w>
b rought</w>
sään töjä</w>
Con stitu
li it
leg it
te g
otta en</w>
ne g
ad d</w>
tiedo tus
päätö kseen</w>
m echan
r yhd
parlia mentary</w>
G en
t to
maail massa</w>
Bal kan
r ann
m ys
technolog y</w>
sta ted</w>
i ri
pro per</w>
lu oda</w>
koro sta
discus sions</w>
alku perä
yhte istä</w>
os an</w>
develop ed</w>
ann e</w>
B an
w ing</w>
b ill
Ni zz
valmistelu kunnan</w>
nä yttää</w>
j an
assess ment</w>
uud et</w>
läh tö
j aan</w>
tömä sti</w>
saa vat</w>
o il</w>
kesk itty
in ti</w>
Portug al
ratkais u</w>
em is
aiko o</w>
s ens
ko ko
työ stä</w>
C har
us sels</w>
opportun ities</w>
oc c
kes ki
effec ts</w>
re lev
relev ant</w>
mi es
re jec
r o</w>
jat ka
N ice</w>
Americ an</w>
in o</w>
ihmis iä</w>
en cies</w>
Br ussels</w>
demokrati an</w>
bal an
aj at
tilante essa</w>
te ral</w>
anim al</w>
pen sa
en able</w>
e ik
sec tors</w>
luonno llisesti</w>
inn ing</w>
d es</w>
crimin al</w>
Dec ember</w>
Br ys
w ise</w>
om a</w>
ll ista</w>
tiet ysti</w>
sa kin</w>
päätö s</w>
nä issä</w>
luo vu
kno wn</w>
ev ents</w>
ator y</w>
tuomioistuim en</w>
s us
ili ation</w>
tavo ite</w>
k u</w>
am min</w>
w id
perustu u</w>
mu kana</w>
id dle</w>
ti i
te ta</w>
s al
päätöslausel man</w>
koh ti</w>
gen e
ud e</w>
parha illaan</w>
e th
discus s</w>
tilante esta</w>
merkittä vä</w>
keskustel ussa</w>
ete enpäin</w>
ess ään</w>
el f</w>
alu ksi</w>
L u
y p
propos e</w>
or s</w>
instru ment</w>
com ments</w>
orig in
B ri
to tta</w>
ta van</w>
myö hem
V er
tapa a</w>
s ha
mil jar
circum stan
I I</w>
ther n</w>
sell aisia</w>
pl om
hallitus ten
consider able</w>
Koso v
o v
n s</w>
pos sibility</w>
ka tastro
al ter
onni tella</w>
Espan jan</w>
vo isimme</w>
minis teri
laajentu misen</w>
es iin
al ong</w>
ty pe</w>
parlament tia</w>
kokou ksessa</w>
sy r
enti fic</w>
he ard</w>
välis tä</w>
su per
re view</w>
ol in</w>
muistu ttaa</w>
i ons</w>
Re gu
over all</w>
sec u
Wor ld</w>
G ener
tä mis
re forms</w>
lo w</w>
tri al</w>
e b
vuo teen</w>
varsin kin</w>
tu lis
pä in
out side</w>
Isra elin</w>
päät tää</w>
saad aan</w>
res er
id enkin</w>
di plom
agricul ture</w>
vir all
luet tel
ator s</w>
treat ment</w>
con tr
täll ais
isuud et</w>
Bel gian</w>
in ed</w>
toimin ta</w>
Tur k
mieles tä</w>
add itional</w>
t tiin</w>
pr ice</w>
ehkä is
h ard</w>
ti g
suppor ted</w>
ner ship</w>
ex pla
com mer
päiv än</w>
m essa
kolleg a</w>
a ksi</w>
vi lla</w>
mis sa</w>
ki lle</w>
im b
uud is
circumstan ces</w>
yhteis kunnan</w>
em me
O r
Direc tive</w>
lainsäädä nnö
ki ell
is yy
pa ti
b or
auth ority</w>
is es</w>
ri t</w>
partici pation</w>
min ua</w>
cre ating</w>
car ry</w>
t tom
jat kos
co hes
yrity kset</w>
sa ta
kau pun
toimenpite itä</w>
poliitt isten</w>
direc tly</w>
Aus tri
on d</w>
kolle gan
fam ily</w>
U S</w>
ks estä</w>
Gener al</w>
si ja
refer red</w>
consider ation</w>
P at
w ide</w>
ser i
ex plo
tas on</w>
alis t</w>
w ill
per he
Brys sel
Af gh
ester day</w>
8 0</w>
terveyd en</w>
g in</w>
kansala isille</w>
tulis i</w>
li es</w>
koske vassa</w>
y esterday</w>
mys elf</w>
tr ying</w>
mo del</w>
miel en
la ista</w>
affec ted</w>
l er</w>
J usti
ympäristö n</w>
tieto jen</w>
sitou mu
mp i</w>
kir ja</w>
Justi ce</w>
ks essä</w>
avo id</w>
spea king</w>
ap er</w>
ik en
anta maan</w>
vä hä
sell aista</w>
our s</w>
määr in</w>
prov ision</w>
la ill
järjes töjen</w>
fac il
päätö ksen</w>
näkö kul
kau an</w>
accep ted</w>
vi era
saan eet</w>
vaike a</w>
tavoitte et</w>
kä y</w>
täyd en
h ön</w>
turvall isuutta</w>
syr jä
si z
vers ity</w>
vapa a
ei ve</w>
is saan</w>
alter na
kuu lem
kann attaa</w>
hd o
con tent</w>
6 0</w>
osallistu a</w>
as ke
ur o</w>
tetta isiin</w>
kymmen en</w>
kk o</w>
jäsen iä</w>
jäl j
ta so
pää tel
käy tän
ka tta
anim als</w>
vaar all
ole vat</w>
neuvosto lle</w>
T ans
t it
vas taa</w>
suu ria</w>
pr im
C ha
jo in</w>
mar k</w>
imb ab
el tä</w>
Am ster
tull ut</w>
ti iv
s ty
o iden</w>
mu is
menet tel
difficul ties</w>
ann ual</w>
inc or
wan ted</w>
ongel mat</w>
h tunut</w>
C ar
yhtenä is
refu ge
p i</w>
hu ge</w>
to tal</w>
r ans
ku m
jot kut</w>
elä mä
compl ete</w>
tote si</w>
kul j
aske l</w>
U S
Palestin ian</w>
Br it
ohjel ma</w>
kiinn os
encoura ge</w>
an d
toiv omme</w>
sell ainen</w>
om an
ne tään</w>
cohes ion</w>
pur pose</w>
ob viously</w>
yhteis kun
pal estiin
o issa</w>
D E</w>
Char ter</w>
Inter net</w>
tä misestä</w>
la at
ch ed</w>
vie ws</w>
tark is
go es</w>
yle isesti</w>
pers on
ra ts</w>
dis tribu
kan ta</w>
asia kirj
a id
P s</w>
läh tien</w>
tämä ttä</w>
pä te
par ty</w>
humanita rian</w>
conf idence</w>
mahdoll isuuden</w>
yr ittä
pyy tää</w>
ic ally</w>
genu ine</w>
docu ments</w>
v uus</w>
ac qu
riippu mattom
main it
käy tön</w>
ei vät
e ed</w>
val tion
t ti</w>
c tions</w>
an ti
al a</w>
c k
beg in</w>
tu ke
puhem i
par agrap
ni illä</w>
allow ed</w>
En viron
vasta ta</w>
päätö ksiä</w>
Z imbab
il mi</w>
administra tive</w>
pl ans</w>
pl ann
d ru
adequ ate</w>
su ffer
gh ted</w>
f io
tiedon ann
po or</w>
poten tial</w>
olev a</w>
menettely n</w>
mä llä</w>
Sec urity</w>
kollegan i</w>
Afric a</w>
vaikutu ksia</w>
urg ent</w>
sta tus</w>
peri aa
muod os
mahd ot
c are</w>
ver ta
uud essa</w>
täv issä</w>
tarkas tus
struc tural</w>
ratkais u
muu ten</w>
san otta
lä s
laati ma</w>
con trac
we ap
ty vät</w>
discrimin ation</w>
si x</w>
oike astaan</w>
voima kkaasti</w>
sy m
sa fe
pre hen
Lissab onin</w>
pu l
humanita ar
any thing</w>
E C</w>
res olu
sitou tu
r up
puu n</w>
ris h</w>
ensimmä isen</w>
valio kun
ra por
A gre
til in
ri ghtly</w>
dra wn</w>
de ath</w>
pain opis
lo t</w>
bill ion</w>
ar ily</w>
Yhdysvall at</w>
I tä
vapa uden</w>
u tta</w>
se par
käyt töö
char ge</w>
buil ding</w>
un anim
puitte issa</w>
ens in</w>
Pro c
I re
part ners</w>
henkilö s
ev ent</w>
ehdotuks esta</w>
h ment</w>
M O
päät tynyt</w>
off er</w>
loo king</w>
Ire land</w>
saa tava</w>
käyt töä</w>
asian tun
La e
päätöslausel ma
1 7</w>
te emme</w>
tasa pain
saavu ttaa</w>
ol isivat</w>
inten ded</w>
beg inning</w>
tapa uksissa</w>
m itta
vaka vasti</w>
täll aista</w>
sor t</w>
sisäll y
ka ud
meth od</w>
lä he
dama ge</w>
streng th
kann an</w>
F in
mis sään</w>
issa kin</w>
il ed</w>
for ces</w>
tied än</w>
s etting</w>
s ession</w>
con v
ratkais em
jul ki
deman ds</w>
mat k
deal ing</w>
d en
organis ation</w>
lim ited</w>
julki laus
Q u
es tää</w>
c od
Regu lation</w>
L A
Americ a</w>
vuos i</w>
ec h
ear li
vir ka
vi tal</w>
ship s</w>
satis fac
pa in</w>
implem enting</w>
ma ita</w>
ehdottom asti</w>
sci entific</w>
pa id</w>
hy l
äär immä
tet tua</w>
re mind</w>
aihe uttaa</w>
C o
str ic
reg ime</w>
on i</w>
maa talouden</w>
ref er</w>
om s</w>
koh taa</w>
i el
suo j
m ing</w>
eurooppal ainen</w>
jäsenvaltio ita</w>
tote utu
esitteli jää</w>
bro ad</w>
A ra
vuo si
remain s</w>
pik emminkin</w>
perustamis sopimuksen</w>
main tain
elintarv ikke
conv inc
ati es</w>
teoll isuuden</w>
viljeli jö
tä ltä</w>
ma assa</w>
kri te
L am
periaat teen</w>
e as
sur ing</w>
hyö tyä</w>
eläin ten</w>
Amster d
us i</w>
Re public</w>
st ress</w>
per inte
c o</w>
em ättä</w>
var ain
ta m
rec eive</w>
comb at</w>
tapa htunut</w>
mis sion</w>
ittä vä</w>
exer c
eurooppal aista</w>
Ban k</w>
sa ma</w>
om a
min imum</w>
ex pect</w>
coll ec
v istä</w>
p ic
lyhy esti</w>
N a
kuulu vat</w>
Pat ten</w>
J un
y es</w>
er in</w>
Brit ish</w>
re turn</w>
pohj alta</w>
kes ä
Ger many</w>
ta an
polic e</w>
e ja</w>
as etta
com ment</w>
op p
I rish</w>
jäsen valti
defin ition</w>
suuntavi ivo
reas on
pid etään</w>
commit ments</w>
par empi</w>
otta maan</w>
isi vät</w>
inf lu
ehdo ttaa</w>
commit ted</w>
s pec
myöhem min</w>
mies ten</w>
ehdotuks et</w>
conc ent
uks ena</w>
luu l
J oh
tied ätte</w>
käyttöö no
kan so
con duc
T h
itse vat</w>
esitteli jä
K ore
yksityis kohta
ris ks</w>
tavoitte ita</w>
sum mit</w>
ryh tyä</w>
S u
L äh
tehokka asti</w>
sään tely
ra ise</w>
l y
tu kee</w>
käytä nnön</w>
teoll isuus
me asure</w>
kokou ksen</w>
id em
c ross</w>
c am
a vi
koske vaan</w>
sel vi
vil jel
sotila all
medi um</w>
ed el
talous -</w>
speec h</w>
seri ously</w>
äs ket
vih re
eivät kä</w>
P er
tutkim uksen</w>
tu lla</w>
pre vention</w>
mi hin</w>
main ita</w>
direc tives</w>
muu ttaa</w>
establis hing</w>
effec tively</w>
as kel
P aper</w>
Läh i</w>
käsittel yssä</w>
han sa</w>
ryh mien</w>
päivä nä</w>
evel op
g ar
äsket tä
Amend ments</w>
sit ting</w>
het i</w>
M iddle</w>
toim itetaan</w>
reduc tion</w>
em ään</w>
all oc
So ci
gran ts</w>
be y
3 7</w>
inves tig
ilma is
esite tään</w>
D evelop
tu jen</w>
anal y
E uro</w>
jud ic
K iin
ä ssä</w>
terve ys
kaik ista</w>
N e
kaik illa</w>
huoles tu
alo ittaa</w>
N G
Environ ment</w>
sään töjen</w>
nä h
merk itys</w>
al aa</w>
solid aar
hel po
some times</w>
Inter national</w>
rik o
lim it</w>
joh to
b rea
P oh
kä ä</w>
ku s</w>
kansala isia</w>
streng then</w>
packa ge</w>
me an
it ur
rela tion
jäsen tä</w>
suur im
li ving</w>
Agre ement</w>
tarkistu s</w>
olog ical</w>
m is</w>
bey ond</w>
taloudell isen</w>
sta ff</w>
markkin at</w>
dec ide</w>
com pensa
L an
pers onal</w>
e ks
yttä vät</w>
perus oikeus
ex ac
com prehen
kaikki in</w>
Euroop paa</w>
0 4
yh tä
asem a</w>
. .
kysymy ksiin</w>
cre ated</w>
va i
te dly</w>
ammat ti
aks emme</w>
7 0</w>
messa ge</w>
infras truc
sto p</w>
periaa tetta</w>
high ly</w>
g r
at tava</w>
par em
ite tta</w>
po is</w>
os la
improv ing</w>
tur ally</w>
do m</w>
vo isivat</w>
ug osla
poliitt isia</w>
kok ous</w>
ar ms</w>
tic al</w>
merk itystä</w>
organis ed</w>
markkino illa</w>
contribu te</w>
alis ts</w>
ta kais
Irlann in</w>
w ha
viranom aiset</w>
ur he
requi res</w>
provid ing</w>
happ en</w>
keskus tella</w>
incor por
in vo
b y
appli es</w>
val mis</w>
ta hansa</w>
respon d</w>
rela ted</w>
it ure</w>
Hu man</w>
Develop ment</w>
saa mme</w>
j alla</w>
. 00</w>
ins pec
il men
ff ic</w>
ky v
mis elle</w>
lu pa
al one</w>
tois een</w>
sosiaal isen</w>
f oun
recogn ise</w>
maase ud
activ ity</w>
in es</w>
epä onnistu
end or
säil y
oper ate</w>
main tain</w>
ME Ps</w>
vaka us
sen su
tra ffic</w>
provid es</w>
balan ced</w>
alo itta
Af ganis
ole via</w>
dra f
develop ments</w>
sovel tamis
s pi
ku kaan</w>
ka p
tavoitte iden</w>
ni a</w>
ex pend
as pect</w>
päätöks ente
asiantun ti
P T</w>
wor d</w>
ongel man</w>
k keen</w>
isi ksi</w>
hallinn on</w>
discus sing</w>
tarpe ell
f ish</w>
en suring</w>
tel ee</w>
näkem yks
deleg ation</w>
tä misen</w>
muka isia</w>
em en
auth or
O LA
vähem mis
show n</w>
pu h
k ka</w>
si an</w>
ki ll
expend iture</w>
R es
K y
D an
voim assa</w>
toivo tta
tan ne</w>
Jun e</w>
te et
qu ali
out come</w>
busin esses</w>
S add
vaatimu ksia</w>
parlia ments</w>
nyky ään</w>
direktii viä</w>
weap ons</w>
vastu ussa</w>
ra jat</w>
puheen vuoro
ol ta</w>
e ffici
des cri
b lo
Minis ters</w>
1 5
toiminta suunnitel
produc ed</w>
noud at
hä ne
ex plan
emphas ise</w>
earli er</w>
ni in
S pain</w>
yhden ty
ta ar
langu age</w>
contr ary</w>
toimi i</w>
regre t</w>
pro duce</w>
m et</w>
jo idenkin</w>
era has
bo dies</w>
suun taan</w>
in sa</w>
her ät
bro ad
o l</w>
la ter</w>
Sch eng
vaad itaan</w>
neuvottelu jen</w>
luotta mu
ho id
tu ja</w>
m al
concep t</w>
Ch ina</w>
vi ita
las tly</w>
ä ty
success ful</w>
T ra
velvoll isuu
tu ken
si mila
sa maan</w>
l os
hän tä</w>
erin om
call s</w>
toim itta
rati fio
ma s</w>
independ ent</w>
analy sis</w>
ur ge</w>
dis t
ca used</w>
a isille</w>
ty yd
sov ittelu
to co
toco l</w>
si vi
mon i
prof es
kiel te
clos ely</w>
R oman
uu si
pl en
ev an</w>
Democ rats</w>
1 4
sopim uksessa</w>
requ ire</w>
lea ve</w>
exis t</w>
conc iliation</w>
R ules</w>
2 1</w>
kulutta jien</w>
Välimer en</w>
tu ki
A C
en orm
e arly</w>
ratka ista</w>
cam pa
asia kirjo
ke hy
lu ok
l s</w>
kysymy kset</w>
ta ri
sop i
pos itions</w>
simila r</w>
pla ced</w>
construc tion</w>
alue ita</w>
ti t</w>
na tural</w>
inter pre
enti re</w>
sur ance</w>
Nizz an</w>
viik olla</w>
telu a</w>
tark ka
par ann
h op
cul ture</w>
toden näkö
sopim uksia</w>
ud et</w>
te ja</w>
la id</w>
ati c</w>
jäsenvaltio ille</w>
jo takin</w>
increas ingly</w>
er ous</w>
Afrik an</w>
stud y</w>
wh om</w>
rakenn erahas
tä miseen</w>
tu on
te li
qu e</w>
v ol
pre ci
palestiin alais
consul tation</w>
na turally</w>
vastu u</w>
sovel taa</w>
re ply</w>
net works</w>
li ves</w>
ell ing</w>
b ia</w>
no on</w>
it tiin</w>
adop tion</w>
mon ien</w>
mel ko</w>
kolman neksi</w>
M ac
aset taa</w>
use ful</w>
r ural</w>
F ore
äänes tää</w>
valvon taa</w>
nei gh
happen ed</w>
enter pris
Fore ign</w>
säännö t</w>
kan sa</w>
h ti
en ge</w>
chall enge</w>
Yhdysval tain</w>
taloudell ista</w>
sens itive</w>
op position</w>
oikeus perus
lop ulta</w>
ar rang
2 4</w>
markkino ille</w>
heik en
f all</w>
aihe esta</w>
Swed ish</w>
hyvä ä</w>
y ers</w>
prob ably</w>
lää kke
di versity</w>
C entral</w>
s pen
sup pl
k tu
hallin to
des ig
produc t</w>
pres s</w>
appe ar</w>
solu tions</w>
m usta</w>
stand ar
sc ale</w>
histor y</w>
dy na
perus tel
he ille</w>
esitet ty</w>
yhteiskunn all
respon sibilities</w>
min kään
ka amme</w>
esite ty
ol os
kuu n
ad s</w>
N AT
Fis ch
reli gi
pers on</w>
par ts</w>
tilante eseen</w>
po hd
colleag ue</w>
Sadd am</w>
S er
välttämä ttö
kunni an
anal ys
man ner</w>
ita tion</w>
Gre ece</w>
1 .</w>
pa ket
henkilö kohta
proper ly</w>
es i
emme kä</w>
ymmär tää</w>
ur s</w>
koske vista</w>
il me
con sensu
ann es
cap ital</w>
san ctions</w>
op pos
uu tta
tu o</w>
pidet tävä</w>
at s</w>
thou ght</w>
rauh an</w>
pers pec
pen al
mik ään</w>
kuningas kunnan</w>
koko on
tetu n</w>
mahdoll isuutta</w>
lan ds</w>
k tor
comp li
ste ps</w>
mor ning</w>
flexi bility</w>
erin omais
C a
thin king</w>
paragrap h</w>
käsittel ev
giv es</w>
dang erous</w>
huol en
an u
deal t</w>
bur g</w>
yksinkerta isesti</w>
tra ffic
s issa</w>
c al
att it
äänesty s
etu jen</w>
ehdotuks essa</w>
ed u
cover ed</w>
ab or
suu res
sch em
rann ik
ll isiä</w>
is issä</w>
bo ard</w>
ä kseni</w>
var ma</w>
ittel en</w>
WT O
vä him
tru ktu
resolu tions</w>
monim ut
lle en
itor s</w>
ita mme</w>
en ds</w>
compan y</w>
attemp t</w>
1 9</w>
wr ong</w>
raho itta
issa mme</w>
tais tel
pr ices</w>
lop puun</w>
achiev ing</w>
vasta an
part nership</w>
muu ttu
med ic
k än</w>
go ods</w>
g er
M aa
2 3</w>
call ing</w>
lu j
h ome</w>
ette ivät</w>
L e
yhteisö jen</w>
wan ts</w>
vähim mä
ho ita
f eder
F und</w>
thir dly</w>
lain kaan</w>
ki is
jä lleen
ilma ista</w>
e asi
äärimmä isen</w>
p ill
B u
iken teen</w>
net work</w>
s ent</w>
jä r
jon kin</w>
vi estin
ver kko
k r
huol eh
valmis ta
its enä
dise ase</w>
veto om
tan sa</w>
co ver</w>
W h
M o
2 2</w>
riittä västi</w>
nyky istä</w>
ihmis oikeuksia</w>
convinc ed</w>
con ven
t ty</w>
pen sion</w>
M ay</w>
Afgh an
pi ä</w>
puheenvuor on</w>
on es</w>
mahdoll isesti</w>
in s</w>
tuks ista</w>
rajo itta
me kin</w>
la un
jät tää</w>
i j
crit ical</w>
consensu s</w>
S outh</w>
subsi di
el ements</w>
Afghan istan</w>
ris m</w>
parlamen taar
om aa</w>
arvo a</w>
K ar
na me</w>
infras truktu
T he</w>
.. .</w>
sosi aalis
actu al</w>
ty p
tarv itse</w>
is ms</w>
esittä nyt</w>
benef its</w>
tuo tann
teke vät</w>
neuvos toa</w>
main itsem
laa tu
high er</w>
des er
So cial</w>
ra tes</w>
ol enna
mietin töön</w>
jul istu
r id
partici p
Yhdisty neiden</w>
ap pla
vi es
muuta man</w>
tou ko
spi rit</w>
kolman sien</w>
koh tu
becom ing</w>
O M</w>
1 00</w>
wee ks</w>
promot ing</w>
con om
administra tion</w>
Proc ed
tettu ja</w>
el se</w>
co her
ren e
politiik kaan</w>
mahdoll isuudet</w>
He alth</w>
E conom
rapporte urs</w>
nei ther</w>
improv ed</w>
du ty</w>
conclu de</w>
tu t</w>
ol enn
Proced ure</w>
prosess i</w>
equ ality</w>
chall eng
sisäl tyy</w>
o jen</w>
luonn on
ku va
ca teg
addres sed</w>
tu ki</w>
kann us
B SE</w>
vam ma
tu h
t te</w>
introduc ed</w>
aika välillä</w>
keskustel uun</w>
c ut</w>
w on
uudell een
tulo ksia</w>
muuto ksia</w>
et ty</w>
e vat</w>
c y</w>
bi g</w>
käyt tö
aih etta</w>
le hd
la ws</w>
käyt tö</w>
ker toa</w>
i ght</w>
väl in</w>
todell inen</w>
pain os
p .
emp ää</w>
C an
op ti
fail ure</w>
cre di
b re
kes tävän</w>
inter ven
elä im
de gre
comb ating</w>
repres ent</w>
menettely ä</w>
ksi lla</w>
ver s</w>
terroris t</w>
sub mitted</w>
relation ship</w>
introduc tion</w>
im äär
ra ja
olos uh
o ita</w>
wh il
whil st</w>
ta ata</w>
ma alis
kol men</w>
n ro</w>
julk isen</w>
c entr
ymmär re
ta tions</w>
intro duce</w>
avu n</w>
men d</w>
he ar</w>
H us
ta ka
pos es</w>
C or
toim iv
mi lle</w>
men e
järjestel mien</w>
la isia</w>
ensi ksi</w>
Yhdisty neen</w>
kyse en
san ne</w>
r un</w>
puol usta
pro por
ma ihin</w>
tärke im
e ir
pitä nyt</w>
f all
des ire</w>
ys tävä
see k</w>
neigh bour
matk usta
maaseud un</w>
kanna tamme</w>
istunn ossa</w>
invol ving</w>
er ship</w>
epäil emättä</w>
judic ial</w>
a mista</w>
recogn ition</w>
c entral</w>
anu ary</w>
J anuary</w>
s ound</w>
re le
ll isten</w>
henkilö iden</w>
täll aisen</w>
ti me
terveyd en
ra il</w>
päin vastoin</w>
infor med</w>
tr on
suku puol
ra ha
inter vention</w>
eil en</w>
de pen
ac y</w>
vaatimu kset</w>
meth ods</w>
tä nne</w>
tä isi</w>
med ia</w>
m us
kilpailu kyky
n os
d ik
P o
Ch risti
välit tömästi</w>
pu t
liber aal
K i
Joh annes
sa ys</w>
mu ihin</w>
char ac
asio ihin</w>
yl ittä
kohd assa</w>
kiito s</w>
ev idence</w>
en in</w>
2 7</w>
kor kea</w>
kaikki alla</w>
es sani</w>
B ur
sup ply</w>
sij ais
ri itä</w>
R o
under standing</w>
te eseen</w>
o ther
imen sion</w>
asem assa</w>
alu e</w>
C A
täy si
op ening</w>
mi llä</w>
U K</w>
Ber l
199 7</w>
ryh ty
ista minen</w>
us kon
r ing</w>
de pend
compet itive</w>
Kansa kuntien</w>
E rik
refuge es</w>
järjestel y
e fficient</w>
an ti</w>
väes tö
toim ista</w>
suur ta</w>
r ö
e ing</w>
as ta
Poh jo
Li ber
Hus se
tus ti</w>
om aks
nel jä
var at</w>
happ y</w>
Ita ly</w>
ohjel mien</w>
la ito
kunnian him
kohd at</w>
ka mp
ehdokas valtio
asian mukaisesti</w>
suo ja
other wise</w>
nyky isen</w>
keh ittää</w>
se a</w>
o tettu</w>
poliitt iset</w>
alterna tive</w>
C y
tam mik
t ti
substan tial</w>
oikeudell isten</w>
j us
to isi
inno va
il un</w>
one theless</w>
n onetheless</w>
lou kka
kansainväl inen</w>
ap preci
un able</w>
neuvot telut</w>
mer kille</w>
be ar</w>
Kre ikan</w>
vahin go
pid ämme</w>
kehity s</w>
b ed</w>
tetu t</w>
monim uo
k y</w>
indus trial</w>
vää rin
otta nut</w>
enti rely</w>
e k</w>
as king</w>
P act</w>
F re
sy y</w>
differ ences</w>
vuo sien</w>
thre at</w>
is t
in in</w>
exac tly</w>
show s</w>
os aa</w>
is hed</w>
hyö k
ch ec
tut ki
sääd ö
suppor ting</w>
huippukokou ksessa</w>
disas ter</w>
ac e
inten tion</w>
finan cing</w>
u ations</w>
re mo
oh ja
erä s</w>
vi ll
sa astu
ra il
os ittain</w>
muod osta
enorm ous</w>
arvois at</w>
Econom ic</w>
main ly</w>
av us
van sa</w>
toimin taan</w>
san on
politiik assa</w>
kiinn ittää</w>
Constitu tion</w>
sod an</w>
it tämään</w>
P ub
suure m
si v
pal autta
iti ous</w>
19 8
tr ansa
määr ää</w>
hyv invo
appl ic
puhemi eh
nu mer
eurooppal aiset</w>
t tunut</w>
m .</w>
vä h
to t</w>
substan ces</w>
recogn ised</w>
degre e</w>
sovell etaan</w>
re member</w>
emplo ye
ti vät</w>
str ong
ponnis telu
kol m
it usta</w>
Pub lic</w>
vaati i</w>
traffic king</w>
suo si
ol s</w>
od ottaa</w>
lö yd
jot kin</w>
cl as
ase tuks
laajentu minen</w>
im es</w>
x emb
to tally</w>
tiet y
sy ö
jos kus</w>
f ec
CO M</w>
establis hment</w>
V i
perus ta
käy n
etu ja</w>
ulkopuol elle</w>
commer cial</w>
sig ned</w>
s ala
asem aa</w>
saf e</w>
erila isia</w>
as su
tule vat</w>
repe at</w>
alis m</w>
tu k
määr än</w>
lead ers</w>
deb ates</w>
3 5</w>
y ksen</w>
fi f
au tom
Mar ch</w>
ä stä</w>
ik ka</w>
ris e</w>
la inen</w>
dang er</w>
clos er</w>
N ov
väl in
state ments</w>
l ess
hy lä
m ber</w>
lu vu
ll istä</w>
any one</w>
Inter governmental</w>
ä kään</w>
yrity ksiä</w>
ta po
speak ers</w>
katastro f
g etting</w>
et ä</w>
cho ice</w>
taloudell inen</w>
a isiin</w>
yhteis työ</w>
re ject</w>
plen ary</w>
n aiset</w>
con tra
tä lle</w>
par issa</w>
ma ista</w>
kiin ni
e iden</w>
con ference</w>
ci vil
wor ked</w>
jo issakin</w>
ja ka
con stan
Pe ople</w>
telu n</w>
kiinn i</w>
aloitte en</w>
F unds</w>
use im
per fec
it uksen</w>
id ents</w>
f er</w>
vuod esta</w>
ver kos
työ ttömy
min äkin</w>
ve h
s ett
päätö kset</w>
johtu u</w>
influ ence</w>
H er
ul ti
keske inen</w>
con ver
a head</w>
G MO
turvapaik ka
tavoitte en</w>
see m</w>
kom men
f ying</w>
er ää
struc ture</w>
p es
a ate</w>
y er</w>
tois sijais
reduc ing</w>
for ced</w>
S truc
Lu xemb
te ista</w>
sc ho
kuolem an
f la
c al</w>
Ch ech
uu ta</w>
mä ssä</w>
kokon aan</w>
gh ting</w>
g ia</w>
P :n</w>
vähimmä is
ta vall
ing dom</w>
hu n</w>
ensimmä isessä</w>
un employment</w>
tärke änä</w>
rene w
ra haa</w>
lä mp
adop ting</w>
äänes tin</w>
ver si
sisäl tää</w>
meet ings</w>
con tac
c ro
yle ensä</w>
tem por
sij asta</w>
noud attaa</w>
lä hen
Struc tural</w>
sanotta va</w>
pollu tion</w>
is ellä</w>
form er</w>
ad ded</w>
taloudell isia</w>
san on</w>
pää ministeri</w>
mo di
immedi ately</w>
contain s</w>
tr ust</w>
ta a
osapuol ten</w>
nä illä</w>
gi c</w>
ölj y
tettu jen</w>
ken ties</w>
exten d</w>
eik ö</w>
de tään</w>
200 5</w>
tämä ttö
sur pris
re ad</w>
prosent in</w>
inn an</w>
er ed</w>
Nov ember</w>
tode taan</w>
sano taan</w>
m usten</w>
uni vers
simp le</w>
res urs
poh jo
dis charge</w>
P r
äskettä in</w>
ten a</w>
ing ing</w>
ann oun
Kosov o</w>
v alla</w>
tol d</w>
subsi dies</w>
strate gian</w>
pit kään</w>
or d</w>
emis sions</w>
J u
we a
t onn
our ce</w>
e vä
V al
re mar
ty h
politiik asta</w>
fi gu
tote an</w>
maahan muutta
cl imate</w>
bac k
appe ars</w>
K ingdom</w>
sp ace</w>
mar ras
man u
its ell
f und</w>
correc t</w>
tä viä</w>
pre ven
l et
jo ille</w>
beli ev
väl ine</w>
ss ään</w>
put ting</w>
exis tence</w>
e ita</w>
ca pa
wis hes</w>
s end</w>
pit kän</w>
3 ;</w>
&#9 3;</w>
uh re
ll iset</w>
kysymyks istä</w>
sopim us
profes sion
laati a</w>
in him
h a</w>
tied ot</w>
strategi c</w>
reason able</w>
om en
inhim ill
1 ;</w>
&#9 1;</w>
see king</w>
saat u</w>
päät tävä
halu taan</w>
ette mme</w>
E T
2 8</w>
sa ira
p lu
mer ik
mer ely</w>
advanta ge</w>
subsidi arity</w>
high li
critic ism</w>
Gre ek</w>
tuleva isuuden</w>
säännö s
peri aate</w>
orig in</w>
ex change</w>
c he
all i
vapaa eh
manag ed</w>
is yyttä</w>
las ten</w>
ulti ma
tois ta
pe ace
os as
arti k
un ut</w>
j our
elec ted</w>
c oura
P a
O c
Austri a</w>
tu oda</w>
recommend ation</w>
kk ää
b in
asem an</w>
ad ap
ab ol
väline itä</w>
us kom
tarko ite
pitkä llä</w>
tulo s</w>
suur en</w>
rejec ted</w>
H el
rau d</w>
laa ja</w>
ky ken
ir man</w>
säil yttä
exerc ise</w>
A c
uu t
uno h
tiu k
ma ille</w>
it ime</w>
ide as</w>
amb itious</w>
wh ere
r ying</w>
ki in</w>
ex pen
si t</w>
resol ve</w>
myönte isenä</w>
pan o
käyd ä</w>
Saks an</w>
op les</w>
ll isia</w>
lead ing</w>
improv ement</w>
consequ ently</w>
ar ing</w>
alue et</w>
aikais emmin</w>
Tra de</w>
T am
occ asi
ch ance</w>
Yhdisty ne
thou san
on ia</w>
m alle</w>
in tä</w>
f ron
attit ude</w>
takais in</w>
tark asti</w>
järjes tön</w>
id aan</w>
S E
to isessa</w>
oso ituksia</w>
lä pi</w>
enterpris es</w>
EU: ssa</w>
Afganis tan
9 0</w>
täll aisia</w>
manu fac
tra g
Ger man</w>
CO D</w>
vä lia
te kijö
olem aan</w>
julkilaus u
proses sia</w>
liik enn
komite an</w>
elä kke
constitu tional</w>
tarkas tella</w>
liitty vien</w>
eval uation</w>
es tään</w>
ac ts</w>
varmis tettava</w>
tilin tarkastus
recommend ations</w>
im possible</w>
congratu la
tä vien</w>
tol er
pres sion</w>
la u
kehitys yhteistyö
val ko
spe ed</w>
o ja</w>
ann ut</w>
veh ic
tied ä</w>
thousan ds</w>
se ktor
proc eed
muuta mia</w>
g st</w>
amon gst</w>
L egal</w>
E tel
to ki</w>
de ksi</w>
at on</w>
1 0
yhd isty
voim aan</w>
va at
te lleet</w>
ik in</w>
al ussa</w>
työjärjesty ksen</w>
funda men
fe ar</w>
yhteis ö</w>
oike a</w>
ko vin</w>
integra ted</w>
ö ö
usko tta
työnte ki
inn än</w>
facil ita
er ill
vi id
tyytyvä isiä</w>
rik kom
propos ing</w>
mä ä</w>
harmon isation</w>
f el
esimer kki</w>
ep ing</w>
al usten</w>
ai omme</w>
to p
ehdo tetaan</w>
arvio ida</w>
Tre aties</w>
sy nn
mon opol
lop et
ku r
ehdokas valtioiden</w>
buil d</w>
ta ho
miljoon an</w>
huippukokou ksen</w>
sit uations</w>
sano in</w>
or gan
op posed</w>
Ruot sin</w>
2 6</w>
valvonn an</w>
ne ita</w>
inten d</w>
E x
yhteis ymmärr
si mme</w>
reduc ed</w>
ka ks
for get</w>
construc tive</w>
Tam per
yyd estä</w>
ristiri id
pe oples</w>
näkökul masta</w>
kolman n
comp ly</w>
vat ko</w>
rahoit usta</w>
j al
ran ge</w>
par anta
ongel maa</w>
myön tää</w>
figu res</w>
en han
comple x</w>
aim ed</w>
voima kka
utu a</w>
oike assa</w>
esit tämä
yksinker tais
safe gu
kiire ell
d imension</w>
äänes tä
ter ing</w>
liik ke
f raud</w>
ess ämme</w>
transpar ent</w>
suhte essa</w>
institu tion</w>
end er</w>
ja ks
enemmis tö
edusta ja</w>
com pla
an na
Barcel ona</w>
yt tämään</w>
os uus</w>
mp tion</w>
grea test</w>
a ffairs</w>
Christi an</w>
re ite
kulutta ja
koh te
gran ted</w>
elä ke
val taan</w>
riittä vän</w>
koulu tus
sisä llä</w>
3 1</w>
suo sion
l ent
contro ls</w>
tila isuus</w>
ra ja</w>
en jo
. 30</w>
toimi vat</w>
päät ty
pi d</w>
on sa</w>
ne l</w>
luon te
esit tämään</w>
11 .</w>
vuoropuhel ua</w>
te re
roh ke
päätöslauselma es
oblig ations</w>
guarante es</w>
vol un
ki ä</w>
d ers</w>
as h
Europe ans</w>
ta ud
konferens sin</w>
keino ja</w>
constitu tion</w>
repres ents</w>
raken ta
pi iri
neuvottelu issa</w>
jo ll
velvo itte
todell ista</w>
tamis essa</w>
eas y</w>
compensa tion</w>
ko ke
enn alta</w>
te istä</w>
pys ty</w>
n ation</w>
merkittä västi</w>
ec u
d oll
Pr ime</w>
Ky pro
nähd ä</w>
välia ik
to ber</w>
ri en</w>
man date</w>
kansall iset</w>
gro unds</w>
des tro
ca me</w>
arrang ements</w>
Oc tober</w>
Bri tan
tiedon an
star ting</w>
sa mme</w>
raken ne
for es
ans w
u ksien</w>
s ho
pass eng
S c
Etel ä</w>
re h
one u
kos kem
B as
ser ies</w>
appla use</w>
tie tenkään</w>
kilpail un</w>
de fic
challeng es</w>
4 5</w>
ohjel maa</w>
continu ing</w>
compe tence</w>
ympäristö ä</w>
practic es</w>
om ien</w>
ei ght</w>
aw ar
valio kunn
ne ll
la use
inte ll
hyv än</w>
defin ed</w>
aim s</w>
täs mä
c ement</w>
br inging</w>
B ro
lu op
emp ha
appe al</w>
sup ports</w>
kaup paa</w>
demokra at
declar ation</w>
ver rat
ratkais un</w>
me idät</w>
comprehen sive</w>
alue elle</w>
ot ti</w>
mu tual</w>
ma x
käyttööno t
koske viin</w>
D oh
ha gen</w>
effici ency</w>
ch es</w>
at tu</w>
a jo
Portug al</w>
sää s
siz ed</w>
ic ated</w>
V an</w>
t ments</w>
hyväksy tään</w>
chan ged</w>
Pal estiin
Barcel on
tempor ary</w>
st res
o gra
is ts</w>
ad vo
väline iden</w>
ten ed</w>
strong ly</w>
lo ka
la i
jäl ke
dru gs</w>
päätöslausel massa</w>
politiik ka
o in
köyh yyden</w>
käytö stä</w>
ker ro
joutu vat</w>
jo ko</w>
Kiin an</w>
tu te</w>
tarko itan</w>
su h
ma ksi</w>
iti veness</w>
in aan</w>
immi grants</w>
Nor th</w>
toim i</w>
puheenjohta jan</w>
kunnianhim o
c ell
E S</w>
vo tes</w>
tarjo aa</w>
struc tures</w>
muuta ma</w>
pub lis
palvelu ja</w>
o ffice</w>
mi c</w>
invol ve</w>
huolen aihe
unoh taa</w>
offici al</w>
myö tä
maahanmuut to
initi al</w>
infrastruc ture</w>
Ju ly</w>
An g
tu pa
suojel un</w>
ro ol
rah at</w>
maks aa</w>
loppu jen</w>
v isi
trag ed
pay ments</w>
kalas ta
atta cks</w>
alais en</w>
NAT O</w>
menet tely</w>
deta iled</w>
a mis
tu emme</w>
te ful</w>
sa ar
osa ksi</w>
oll aan</w>
nyky isin</w>
määr ittel
mu issa</w>
lan kom
employe es</w>
emb ly</w>
A lankom
pan kin</w>
kysy ä</w>
Dan ish</w>
osoitta vat</w>
kans an</w>
ed ing</w>
origin al</w>
kiito ksia</w>
he inä
an tanut</w>
N ew</w>
tuleva isuutta</w>
selke ä</w>
c en
mon issa</w>
aiko ina</w>
yd en</w>
h om
chil d</w>
Bel gi
suojel ua</w>
si vely</w>
nyky inen</w>
j ur
ehdotuks een</w>
ag o
ä m
om asta</w>
ma tic</w>
ha as
al aan</w>
ma as
ker ta
hyväksyt tiin</w>
v issä</w>
periaatte essa</w>
ha aste
tärke in</w>
i er
desig ned</w>
appropri ations</w>
appro val</w>
turvall isuuteen</w>
te ver</w>
os ti</w>
kehitys maiden</w>
jou du
ex port</w>
Sta bility</w>
Portu gu
vastuu ta</w>
suosion osoituksia</w>
my y
langu ages</w>
Gre en</w>
5 00</w>
wha tever</w>
vakuu ttunut</w>
te red</w>
säil yttää</w>
periaat teita</w>
kat som
se hdo
pri or
kustann ukset</w>
glob alisation</w>
direktiiv issä</w>
M c
työ n
territor y</w>
tar gets</w>
representa tive</w>
läs nä</w>
koulu tuksen</w>
Pohjo is</w>
seura uksena</w>
kulj etta
kan is
des truc
ag ed</w>
Portugu ese</w>
yhteen kuulu
het k
fail ed</w>
esti ma
compet itiveness</w>
vaike aa</w>
t ista</w>
ser va
muod ossa</w>
edell ä</w>
va tions</w>
tuot teita</w>
te ki</w>
reg is
määräraho ja</w>
merk ityks
kiit oll
is yys</w>
high light</w>
e enkin</w>
de ad
En g
mon th</w>
lik ely</w>
by ro
Turk ish</w>
Erik a</w>
D u
us tra
mon ta</w>
im ag
Fisch ler</w>
ryhmä mme</w>
päätös ten</w>
l ost</w>
kansainvälis tä</w>
care fully</w>
199 6</w>
pann a</w>
me ko</w>
legit im
k er</w>
en ab
ag encies</w>
Strasbour g</w>
verrat tuna</w>
u aal
pääs tö
pen sions</w>
kansainvälis ten</w>
gra teful</w>
ent it
em iseksi</w>
turvall isuus</w>
te in</w>
per c
expla in</w>
el o
dic ta
ar ri
alka en</w>
af ter
A z
vä hin
un less</w>
tion ing</w>
pres ence</w>
ensimmä istä</w>
enemmis tö</w>
de ep
a tu
propos es</w>
neg ative</w>
keskustel emme</w>
miel ell
vapau tta</w>
thre a
sel vä</w>
i z
häne lle</w>
fac ing</w>
Swed en</w>
Pal ac
pr us</w>
Cy prus</w>
od otta
imäär ä
re te</w>
rah a</w>
produc ers</w>
pres er
no jalla</w>
ff er</w>
esit ti</w>
Pro gra
Cha mber</w>
tuomioistu in</w>
ef ly</w>
D A</w>
sta tis
p o</w>
ki inti
kah ta</w>
justi fied</w>
deta il</w>
del a
a part</w>
Isra eli</w>
E g
E L
lim its</w>
it or</w>
en ter</w>
K OM</w>
0 1</w>
s man</w>
niin pä</w>
kaup all
del ay</w>
Rus sian</w>
yleis sopimuksen</w>
vähen tää</w>
jat ket
invol vement</w>
tu ksiin</w>
tas ks</w>
mä stä</w>
as sosi
aj oneu
yll ä
yhtä lä
o ffer
g er</w>
avoim uutta</w>
an toi</w>
person ally</w>
od aan</w>
jo tain</w>
hallit ukset</w>
di g
Euroop paan</w>
yhteistyö ssä</w>
si vat</w>
bu rea
A K
riippu matta</w>
kyseen alais
hi en
consis tent</w>
will ing</w>
sosiaal ista</w>
gener ally</w>
c e
än kin</w>
vaal e
ro und</w>
muka isen</w>
ma ton</w>
ko ihin</w>
ita ble</w>
individ u
Sol ana</w>
torjun n
suh teen</w>
suffer ing</w>
puheenjohta j
contribu tions</w>
äänesty ksen</w>
seura uksia</w>
sa ttu
resol ved</w>
pers ons</w>
fac ed</w>
emen tary</w>
2 9</w>
vu ot
valmi ita</w>
ro oli</w>
myönte inen</w>
mahdot onta</w>
itte es</w>
ik ään</w>
c ra
viras ton</w>
ol es
mechan isms</w>
kansan terveyden</w>
happen ing</w>
be ings</w>
tarkistu ksista</w>
strength ening</w>
US A</w>
I ran
toista iseksi</w>
poliitt isesti</w>
pol tto
ple ase</w>
interes ting</w>
ympäristö asioiden</w>
s tään</w>
r ä
la aja
ha ki
N L</w>
tulo ks
sp ent</w>
löy tää</w>
emer g
union ia</w>
sanot tuna</w>
pil ar
isi llä</w>
flo or</w>
suhtaud u
f il
edusta jat</w>
b ad</w>
ituks et</w>
follow ed</w>
el ement</w>
aloitte ita</w>
yrity ksille</w>
in come</w>
lää ke
kat son</w>
hä tä
en kä</w>
dis pu
20 10</w>
tapa an</w>
i pu
eni ten</w>
infor m</w>
ell ei</w>
conc rete</w>
yksi kö
tut k
tarpe eksi</w>
sit o
monimut ka
il e
in surance</w>
fa il</w>
arv on</w>
a merik
todennäkö isesti</w>
om ia</w>
lainsäädän tö</w>
is yyden</w>
alue ille</w>
N S</w>
valtio ta</w>
tulo kset</w>
pre ad</w>
immedi ate</w>
grow ing</w>
an tu
vah v
ty y
sid es</w>
pöytä kirj
ongel mien</w>
ob sta
kehittä misen</w>
elä män</w>
Amer ikan</w>
ob vious</w>
mis essä</w>
h und
to istu
ter n</w>
sto cks</w>
päätö stä</w>
po l</w>
pa per</w>
ke eping</w>
inclu des</w>
han d
f as
ar ed</w>
yks is
vasta us</w>
ser ve</w>
mu ista</w>
inn e</w>
V itor
A s
kulu ttua</w>
jon kin
bin ding</w>
perspec tive</w>
Progra mme</w>
käsiteltävä ksi</w>
am in</w>
acc o</w>
Chech ny
taloudell isten</w>
sosiaal itur
oper ations</w>
hy viä</w>
ga ve</w>
distribu tion</w>
di gn
Ag ricul
toivotta vasti</w>
t ter</w>
joka inen</w>
for th
e ksi
Eg yp
Britan ni
talou s</w>
sosi alis
ot on</w>
occasi ons</w>
essa mme</w>
cl es</w>
Chechny a</w>
val u
under min
olog y</w>
ke don
julk isten</w>
i va
contro ll
1 3
kää mme</w>
ks istä</w>
pää asiassa</w>
pyr imme</w>
per man
markkino ita</w>
curr ency</w>
al ha
vaiku tukset</w>
tarv etta</w>
politiik kojen</w>
lo g
kanso jen</w>
ita va</w>
sil ti</w>
kes ku
fo or
c ol
b ian</w>
S lo
ol itiik
ik u
ca uses</w>
AC P</w>
ulkopuol ella</w>
sovell etta
ok ra
joka isen</w>
ilmo ittaa</w>
fin e</w>
T rans
sa in</w>
man a</w>
ent ises
ell ista</w>
charac ter
burea uc
ad ver
Portugal in</w>
seuraa van</w>
päiv ä</w>
k assa</w>
j en
id emme</w>
contra dic
compli ance</w>
Ru le</w>
yhteistyö stä</w>
vic e</w>
om at</w>
let ter</w>
il mas
atta ck</w>
G e
Con sum
y e</w>
u re
tehok kuu
oc cu
it täminen</w>
T i
te issa</w>
ra tion</w>
Re gi
vastus ta
se x
ne itä</w>
lin ked</w>
P ak
tune ita</w>
commun ities</w>
vastu un</w>
to b
puuttu a</w>
l än
ev en
U kra
A ud
wa it</w>
vo inut</w>
sopim ukset</w>
re kis
opti mis
o od</w>
ku ka</w>
kamp an
edisty stä</w>
alo jen</w>
yks et</w>
stand ard</w>
ru o
pid ät
histori all
tell ut</w>
talou tta</w>
si hte
matka ilu
mar itime</w>
M one
y teen</w>
väär in</w>
tob acco</w>
aktiiv isesti</w>
Consum er</w>
vä än</w>
työllis yyden</w>
pa per
7 5</w>
tlan tic</w>
sisäl ty
perus taa</w>
oikeus -</w>
nim issä</w>
e k
ty ihin</w>
tieto inen</w>
tiet tyjä</w>
na isia</w>
maan viljelijö
le ik
entises tään</w>
B ol
tehtävä nä</w>
tar jota</w>
particip ate</w>
ot sa
max imum</w>
ing u
expres sion</w>
ex ecu
väes tön</w>
v ina</w>
tur ning</w>
ten ces</w>
te x
lämp im
käytö ssä</w>
kesk en</w>
ann ettu</w>
typ es</w>
ta hd
t osin</w>
pyr ittävä</w>
no ise</w>
me kanis
kri itt
koske vissa</w>
ha min
fisher men</w>
arv o</w>
alo ite</w>
Mone tary</w>
G ö
öö pen
ööpen hamin
sa isi</w>
miljar dia</w>
merkittä viä</w>
equ ally</w>
comm ittees</w>
alais ten</w>
alais et</w>
K ööpenhamin
se et</w>
satisfac tory</w>
open hagen</w>
on te
aja tus</w>
Res earch</w>
C openhagen</w>
vält tää</w>
vall e</w>
r on</w>
kansall isen</w>
allekirjo itta
affec t</w>
tu oll
painopis te
kasvu n</w>
jul kais
hear t</w>
ex emp
hal un
us ko</w>
und a
syys kuun</w>
ristiriid assa</w>
pitkä lle</w>
pi in</w>
pel k
S har
ulkop olitiik
tau lu
sisä markkinoiden</w>
s tre
liitty mis
er ing</w>
differ ence</w>
ap par
Ag ency</w>
flexi ble</w>
fac tor</w>
puhu mme</w>
ole vaa</w>
odo tamme</w>
ob tain</w>
liitty vistä</w>
kohd ista</w>
dis ap
destruc tion</w>
teks tin</w>
star ted</w>
saa pu
rauta tie
il ies</w>
gr ant</w>
emplo yed</w>
ar k
aine ita</w>
viime inen</w>
tied otta
sec ure</w>
p. m.</w>
im pose</w>
vapau ksien</w>
vaati a</w>
pää sy
go al</w>
ensisi ja
e ten
ar ies</w>
WTO :n</w>
realis e</w>
forth coming</w>
ester n</w>
elä k
el imin
ten ing</w>
ra pid</w>
ol isin</w>
kaik enla
c ou
s yd
poli it
yt täminen</w>
y ri
met sä
kul ku
P res
z one</w>
yr it
valmis tel
sig n</w>
plann ing</w>
käytet tävissä</w>
kki ä</w>
fam ilies</w>
au t
2 00</w>
v ity</w>
krite er
investo in
equ ip
dra wing</w>
certain ty</w>
U N
tu kien</w>
r at</w>
perä isin</w>
le vi
elintarvikke iden</w>
al ta
aat t
vi an</w>
pro motion</w>
pri l</w>
om assa</w>
hyväksyt ty</w>
J ap
A pril</w>
str ik
par as</w>
kesk isuu
exc es
au tu
F unda
D R</w>
vä stä</w>
vaikutu s</w>
tämän hetk
tarkistu ksessa</w>
respec ted</w>
erity istä</w>
asi all
Funda mental</w>
tieto isia</w>
pyrki i</w>
me at</w>
liiken teen</w>
elec tron
vis it</w>
teh os
s em
ra dio
qu o
muo to
com pati
ajat tel
EC H
suure t</w>
perus tamista</w>
oblig ation</w>
kuul u</w>
Wh ite</w>
vi ed
val in
tarkistu sten</w>
p is
käsittely n</w>
it ten</w>
cla im
Ge or
uks ella</w>
tu ally</w>
ti eli
re ci
re ago
kuu kauden</w>
järjestel mään</w>
itet tävä</w>
ik kaa</w>
Ma kedon
tra vel</w>
tied on</w>
puhu n</w>
moder n
kuu lla</w>
ko he
järjestö t</w>
fac tors</w>
vä äris
vaiku tus
toim ittava</w>
taloudell iset</w>
ongel mista</w>
mieh et</w>
käsiteltävä nä</w>
expec ted</w>
aika välin</w>
täys istunnossa</w>
järjes täyty
itet tiin</w>
d ev
saa maan</w>
protec ting</w>
numer ous</w>
ista maan</w>
il ta
a ver
tämän päivä
pla yed</w>
onnettom uu
ess ing</w>
endor se</w>
wor se</w>
tä hd
si vu
isyy teen</w>
interes ted</w>
hyök käy
ent y</w>
campa ign</w>
ann etta
D en
Al ger
toim is
mo ving</w>
lin k</w>
kuu ll
kahd en
en de
Euro pol</w>
tävä än</w>
shar ed</w>
sa i</w>
ke ino</w>
ó n</w>
oikeu teen</w>
n ais
kol mas</w>
kiinti ö
hu hti
f are</w>
edisty s
def end</w>
T u
Com mun
Agricul ture</w>
yle isen</w>
to re
neuvottelu ja</w>
markk ina</w>
Ang ol
tur ing</w>
se ka
pöytä kirjan</w>
ol isimme</w>
na tions</w>
c ally</w>
valvon ta</w>
ulko -</w>
tarkoituks en
puol estaan</w>
pois taa</w>
na a
h un
farm ing</w>
d re
al laan</w>
al kaa</w>
O s</w>
todell akaan</w>
teks t
pur poses</w>
politic s</w>
is tö
aikais esti</w>
Aud itors</w>
ty yn</w>
toimenpite et</w>
tax ation</w>
er o</w>
wor th</w>
ri is
lo wer</w>
kompromis si
komissi olla</w>
institu tion
con solid
a iden</w>
require ment</w>
m er</w>
bri efly</w>
yhte isestä</w>
työ hön</w>
there by</w>
oso ittanut</w>
mul ti
kno ws</w>
kka a</w>
exper ts</w>
anta vat</w>
Bud gets</w>
si bly</w>
fin ance</w>
K es
ta ll
su hd
p us
alu etta</w>
a man
v i</w>
ultima tely</w>
tru ly</w>
toim imaan</w>
ta lis
sto od</w>
san om
nel jä</w>
muu n
fi ghting</w>
edusta jien</w>
dec isi
A u
wa iting</w>
vaad imme</w>
nouda tettava</w>
m id
kun no
i it
demokrati aa</w>
ajoneu vo
3 2</w>
äänesty ksessä</w>
vuoropuhel un</w>
vi ivä
var aa</w>
profession al</w>
poli isi
komissi ossa</w>
ic ate</w>
brea k</w>
a misen</w>
tekem istä</w>
riippu va
kysymyks essä</w>
valvo a</w>
raho ituks
offici als</w>
inn ut</w>
conduc t</w>
bur den</w>
Or ganis
varain hoito
vakuu ttaa</w>
ta van
suur ten</w>
siirty mä
oso itus</w>
näkö kohtia</w>
ke p
f ran
demonstra ted</w>
todell isuudessa</w>
se ja</w>
reac hing</w>
mit kä</w>
maa ta</w>
it u</w>
att le</w>
OLA F</w>
Mar ket</w>
Commission ers</w>
kyse isen</w>
kulu essa</w>
e kin</w>
tärke än</w>
tutkim usta</w>
ma mme</w>
la ted</w>
käs itte
improv ements</w>
i taa</w>
an kar
acc idents</w>
Bol kes
yksimiel isesti</w>
th o
kesk en
D el
vir he
kysymyks issä</w>
jud g
hyväksy mään</w>
hen g
d it</w>
contain ed</w>
Scheng en</w>
tri ed</w>
tr a</w>
su rely</w>
dis ab
d ro
vuo ros
con su
tarv itsee</w>
sisäll yttä
l ta</w>
it ä
ins tance</w>
g la
erinomais esta</w>
toteu tetta
s ource</w>
p k</w>
läh te
jatkos sakin</w>
jatkos sa</w>
in ation</w>
em inen</w>
Inter nal</w>
time table</w>
tehtävä ä</w>
me ja</w>
idem okra
huom i
eurooppal aisia</w>
entit led</w>
dise ases</w>
am bi
. e
än sä</w>
ver ei
tul k
repres ented</w>
rahas ton</w>
materi al</w>
il u</w>
en ess</w>
co as
työjärjesty s
tho rou
laa tua</w>
keho tan</w>
ke jä</w>
ite ll
hol ding</w>
histor ic</w>
ha kem
continu ed</w>
conflic ts</w>
Balkan s</w>
äs ken</w>
yhd ys
res tor
puol ella</w>
l or
f al
contin ues</w>
contin ent</w>
tele vat</w>
ri es</w>
reflec t</w>
per in
mon itor</w>
lo w
tre ated</w>
im posed</w>
cus tom
vuos ittain</w>
varo va
quali fied</w>
kas vaa</w>
f our
exten ded</w>
d us
citiz en</w>
Liber al</w>
prec ed
pass ed</w>
a miseksi</w>
legit imate</w>
ende av
ad vis
Bryssel issä</w>
voita va</w>
kysymyks estä</w>
istun to
a ff
Pro tocol</w>
AK T</w>
väli lle</w>
vasta uks
tunn usta
so verei
ri it
genu in
en du
electron ic</w>
EL DR</w>
tuot te
ratkais ua</w>
pre fer
opin ions</w>
mas s</w>
kehity kseen</w>
ex pl
esit än</w>
b ila
Palestiin an</w>
Itä vallan</w>
strateg ia</w>
separ ate</w>
mp ää</w>
genuin ely</w>
T ou
C NS</w>
tal ks</w>
tain ed</w>
ta ke
paik alla</w>
lähestymis tapa</w>
guarante ed</w>
amp i</w>
laajentu mis
jäsenvalti ossa</w>
hyö d
huol ehd
en empää</w>
Zimbab we</w>
Amsterd am</w>
yy teen</w>
il mi
gra du
P SE</w>
Organis ation</w>
tuotan to
minis ters</w>
ik o</w>
confir m</w>
F i
toissijais uus
tasa vallan</w>
sugg est</w>
hyödyn tää</w>
en immä
piiri in</w>
men ding</w>
k id
artikl assa</w>
use at</w>
rahoit uksen</w>
ongel miin</w>
ite tään</w>
ilmo itta
i m</w>
Tans kan</w>
Gal ic
E K
0 5
ymmärr än</w>
u tunut</w>
tu han
tarkastel tava</w>
prec ise</w>
nyky isten</w>
kaik esta</w>
h ou
ensisij ais
tu on</w>
toim een
te bor
huolestu tta
E ner
viestin tä
trad itional</w>
ta usta
suhtaud un</w>
s ources</w>
pu hta
peace ful</w>
mu s</w>
käyd ään</w>
ite et
al ities</w>
Gö tebor
var muu
tarko ita</w>
ratkaisu ja</w>
oh j
valtio issa</w>
toteu tetaan</w>
s ou
paho ill
merk in
lähestymis tapaa</w>
i um</w>
hil jat
1 7
täytäntöönpan oa</w>
ti veness</w>
sub sequ
pos t
penal ty</w>
mun a</w>
laajentu mista</w>
käsittel yyn</w>
aj ien</w>
ol isik
ne llä</w>
istunn on</w>
ihmis tä</w>
hyväksy y</w>
hyväksy nyt</w>
han kal
depend ent</w>
bri ef</w>
te tusti</w>
talousarvi osta</w>
s mo
ras is
liit to
it usten</w>
he idät</w>
demonstra te</w>
d ings</w>
ann an</w>
volun tary</w>
realis tic</w>
re infor
b la
NG Os</w>
komissi olta</w>
emerg ency</w>
ehdo tusten</w>
consider ing</w>
T un
Lae ken</w>
union ille</w>
toimenpite iden</w>
tar ve</w>
saavutta miseksi</w>
m min</w>
kaup pa</w>
kaud ella</w>
ha ita
deli ghted</w>
cr imes</w>
cod ec
Bud get</w>
vä is
tuotann on</w>
te tä</w>
ks elle</w>
kos sa</w>
ke in
empha sis</w>
vi isi</w>
tapa us</w>
seik ka</w>
pas s</w>
nä mme</w>
dign ity</w>
conclu ded</w>
K uu
Bus h</w>
valtio ita</w>
tasa puol
op tion</w>
h ence</w>
examin e</w>
ev ening</w>
Euroop asta</w>
torju miseksi</w>
th u
saata isiin</w>
parlament tien</w>
oper ators</w>
käsittelev än</w>
kilpail ua</w>
g ender</w>
credi bility</w>
amoun ts</w>
W at
sec re
perustusla in</w>
oikeus asia
man age</w>
Husse in</w>
A L
ul gar
tion ary</w>
mone tary</w>
in vi
esitteli jö
aa muna</w>
Pres ti
sijo itta
restric tions</w>
ra j
lab elling</w>
l ying</w>
Po et
viel äkin</w>
str ö
nuor ten</w>
ch em
ajan kohta
Afric an</w>
mielen kiin
codec ision</w>
täyd ell
to p</w>
suhte ita</w>
so tilas
seur anta
sano isin</w>
politic ians</w>
mahdoll inen</w>
en e</w>
clari fy</w>
allow ing</w>
Ni el
yo to</w>
väl isessä</w>
tä h
mill ään</w>
la in</w>
inten ds</w>
h id
ab s
K yoto</w>
Barcelon an</w>
yhte isiä</w>
ves sels</w>
tiet tyjen</w>
tet täisiin</w>
teki jä</w>
perman ent</w>
jäsen elle</w>
hyväks yty
tu lle
l yö
kysym ysten</w>
j emme</w>
dis tor
b it</w>
täll aiset</w>
tus sa</w>
minkään laista</w>
mi e
k le</w>
työpaik koja</w>
stan ds</w>
regula tory</w>
määrä yksiä</w>
lausun non</w>
la a</w>
at te</w>
saa tav
n tä</w>
mi tenkään</w>
Mo ro
M or
M an
B ulgar
tod ettava</w>
pien ten</w>
invol ves</w>
im pression</w>
eläk elä
ase iden</w>
I tä</w>
v en</w>
no ted</w>
kuu ka
ksi aan</w>
huom auttaa</w>
ans all
am alla</w>
Comm on</w>
vapa us</w>
ulkom inis
r y
ph ase</w>
ni ght</w>
myönte istä</w>
advo c
J ugosla
A ss
yhteis päätös
union illa</w>
some what</w>
puhu taan</w>
p om
kaikki aan</w>
järjestel miä</w>
is ku
in ts</w>
he u
I ran</w>
tan t</w>
ordin ary</w>
happen s</w>
elec tion</w>
aika taulu
vehic les</w>
technolog ies</w>
om ista
olo gi
moder n</w>
k asta</w>
Mac ed
wr itten</w>
sov itta
ri ers</w>
perfec tly</w>
determin ation</w>
appl ying</w>
yr ittää</w>
uud essaan</w>
under taken</w>
por ting</w>
ko os
yhd yn</w>
wa ters</w>
uud estaan</w>
sopimuks esta</w>
oc ca
occa sion</w>
ko t</w>
go ro
yl imäärä
rajo jen</w>
periaat teiden</w>
li itt
itu ksiin</w>
Den mark</w>
4 8</w>
työ markkina
ther lands</w>
pa yment</w>
lop ussa</w>
inte gro
examp les</w>
centr e</w>
Ne therlands</w>
äänes tämme</w>
vakuu tus
ttu ja</w>
sosiaal idemokra
sivi il
sisäll yttää</w>
reques ted</w>
kä d
kansall isia</w>
han ds</w>
fle et</w>
ase tus</w>
as sure</w>
ar d
Lae ken
vi ksi</w>
vaka via</w>
työ voim
tosi asiassa</w>
tie tävät</w>
d om
capa ble</w>
5 5</w>
4 2</w>
or i
min ority</w>
kk inä</w>
associ ation</w>
Trans port</w>
I C
tra gic</w>
po or
la isten</w>
itu n</w>
ag ency</w>
Ver heu
E mp
san a
ryhd yttävä</w>
puheenjohtaja valtion</w>
li ability</w>
assosi aati
F ra
vall an
su ffici
or al</w>
nä yt
julk isia</w>
fel t</w>
Au th
vo ice</w>
vaka va</w>
pan a</w>
om et
mer en
g issa</w>
defin e</w>
Palac io</w>
3 3</w>
teho kas</w>
saman aikaisesti</w>
refer endu
pal au
ch ing</w>
vil pit
sus pen
suos tu
religi ous</w>
proc eed</w>
mu ille</w>
hiljat tain</w>
ed essä</w>
demokraatt isen</w>
bila teral</w>
H ar
Ener gy</w>
1 6
tehd yn</w>
pla ces</w>
os al
oike uksista</w>
la w
kehittä mistä</w>
etel ä
encoura ging</w>
ymp ä
vaikutta vat</w>
toimi valta
tit uu
tekni ikan</w>
mill oin</w>
kansall is
exis ts</w>
appro ve</w>
an ts</w>
nation als</w>
kustann uksia</w>
ben e
asu kka
vastu un
sanot tu</w>
re vision</w>
pitä vät</w>
pid äty
ot on
määräraho jen</w>
ins ist</w>
g one</w>
et na
vastaa maan</w>
utu u</w>
re vis
pr e</w>
pos t</w>
osallistu mista</w>
la tter</w>
pakol ais
jär k
j ääd
h ours</w>
experi enc
199 5</w>
vaike uksia</w>
rahoitus näky
kesken ään</w>
järke vää</w>
go t</w>
In dus
vasta avat</w>
tarvitta vat</w>
siir re
pyyd ämme</w>
laad u
konkreett isia</w>
konferens sissa</w>
facilita te</w>
ark alu
I N
stric t</w>
ihmis ille</w>
tuoll oin</w>
sol ve</w>
pill ar</w>
oper ating</w>
liik aa</w>
koh tana</w>
awar eness</w>
tac kle</w>
sion ers</w>
maa han</w>
tö ihin</w>
r ich</w>
pa si
ks ella</w>
ke ja</w>
iti on
Al ban
tule van</w>
sig nal</w>
ryhmä t</w>
pro secu
en try</w>
al usta</w>
I G
B o
tur y</w>
tark emmin</w>
ta ul
spen ding</w>
n es
lä hi
koros tetaan</w>
inno vation</w>
g in
edellyty kset</w>
N ig
H ome</w>
wel com
welcom ed</w>
tul osta</w>
tois istaan</w>
toimen pid
negoti ating</w>
hä v
fi l</w>
avoim uuden</w>
ase tetaan</w>
Lat in</w>
union ista</w>
ttu jen</w>
ni c</w>
memb ership</w>
jäsen ille</w>
be ha
avoim esti</w>
a void
0 2</w>
wel fare</w>
t osta</w>
ohjel massa</w>
ksi kin</w>
kau pan
i .e
i.e .</w>
freed oms</w>
fe el
safegu ard</w>
proceed ings</w>
peruste ellisesti</w>
molem mat</w>
mechan ism</w>
luul en</w>
lento yhtiö
ha an</w>
b ase</w>
to isia</w>
tar get</w>
tan ts</w>
talousarvio ta</w>
syrj in
ehkä isem
easi er</w>
coura ge</w>
1 8
yksi lö
uudistu ksia</w>
tun tuu</w>
toimielim et</w>
tehtä viä</w>
qu ar
prim ary</w>
kertom uksen</w>
is tamme</w>
individu als</w>
h inn
proses siin</w>
pro mo
a h
tur ned</w>
tavo itetta</w>
perus ta</w>
lear n</w>
katso o</w>
hyväks y</w>
et si
cour t</w>
b es
tämä stä</w>
talousarvio on</w>
schem e</w>
mer i
ilme isesti</w>
x ed</w>
var i
telev ision</w>
tab ly</w>
suoj ella</w>
rikoll isuuden</w>
proc esses</w>
pro hi
kolmann en</w>
im iel
i red</w>
etu sij
an t
P os
B os
use iden</w>
ta vasta</w>
res truc
protec ted</w>
kes tävää</w>
esittä neet</w>
dik ta
deb t</w>
aut onom
C as
Auth ority</w>
äänesty stä</w>
te illä</w>
poliit ik
parlamenti lla</w>
ohjel mia</w>
ll iseen</w>
hankke iden</w>
3 8</w>
us ti</w>
tut kin
sosiaal inen</w>
saa kka</w>
inn ista</w>
eb ru
aika taul
Kypro ksen</w>
Fre ed
ä llä</w>
ulkom aan
suhte iden</w>
seuraa vaksi</w>
prepar ing</w>
min im
mahdollisuu ksien</w>
keskustelu ja</w>
kap pal
ittu jen</w>
Fis her
tu kia</w>
seura a</w>
s li
päätöslausel maa</w>
palvel ut</w>
i ten</w>
fre qu
Ira q
In don
täysi määrä
tyy pp
sy yttä
suures ti</w>
paran tamiseksi</w>
lu v
kri isin</w>
ko vasti</w>
he al
fo ot</w>
viivä sty
työpaik kojen</w>
til ä
so ta</w>
ro om</w>
re construction</w>
oper ational</w>
ne taan</w>
man sa</w>
maatalous politiikan</w>
liitty mistä</w>
ed ut</w>
contrac ts</w>
condem n</w>
ala inen</w>
vi it
tou rism</w>
suhte et</w>
käsittely ä</w>
jo kin</w>
consid ers</w>
vaati musten</w>
kohtu u
koh tien</w>
ga in</w>
Qu es
Emp lo
Ag enda</w>
touko kuuta</w>
te en
saata villa</w>
pyrki ä</w>
m ly</w>
ker ta</w>
for mu
dist inc
con vention</w>
W all
Vi etna
won der</w>
valitetta vaa</w>
käy tettävä</w>
ell aan</w>
c y
c ent</w>
työn anta
ta kaa
pros per
am ma
9 5</w>
voit u</w>
to tu
joulu kuuta</w>
ebru ary</w>
Sec re
F ebruary</w>
sa man</w>
puheenvuor oni</w>
nä y
kasvu a</w>
k kä
ic s</w>
hallit uks
fir m</w>
believ es</w>
IG C</w>
vasta inen</w>
varmis tamaan</w>
suure mpi</w>
sm all
shor t
lent oli
kan ta
descri bed</w>
consis ten
aik om
koulu tusta</w>
independ ence</w>
Y :n</w>
Indus try</w>
Ass embly</w>
yksi puol
u ne
säännö ksiä</w>
politic ally</w>
ku vi
kel po
impl ications</w>
el ää</w>
edis tämiseksi</w>
confir med</w>
b ann
an tly</w>
Emplo yment</w>
wor k
suunn ittel
kuluttaja politiikan</w>
huu me
he illä</w>
f ru
esittelijä nä</w>
d omin
velvoll isuus</w>
vasta uksen</w>
rakenn us
l ose</w>
ihmis en</w>
e ties</w>
cen tury</w>
He ads</w>
urg ency</w>
onnistu nut</w>
its estään</w>
ho itaa</w>
ess enti
cra ft</w>
ar m</w>
Fisher ies</w>
w ed</w>
vuo sia</w>
us ers</w>
uni on</w>
syy llis
se itsem
raken teell
produc tive</w>
plann ed</w>
is emmin</w>
explan ation</w>
d a</w>
spo ken</w>
ristiri ita
päätöslausel ma</w>
ongel maan</w>
maintain ing</w>
hel mik
f in</w>
esiin ty
Amsterd amin</w>
väki vallan</w>
sen sible</w>
p li
ka asu
its isi</w>
fri end
com pul
c king</w>
Y or
vastuu ll
vastus taa</w>
vasta ista</w>
tois tan</w>
re di
otta matta</w>
lin ed</w>
kri is
kokonais uudessaan</w>
han kkeen</w>
Ki oton</w>
yhteistyö hön</w>
täytäntöönpan on</w>
tukem aan</w>
ja mme</w>
c le</w>
välttämä ttä</w>
tutkim us</w>
saatta vat</w>
prev enting</w>
joulu kuussa</w>
govern ance</w>
emb ar
consu mption</w>
alloc ated</w>
Lat in
C oton
ympäristö n
suku pol
satis fied</w>
pp ed</w>
henkilö t</w>
deta ils</w>
asia kirjan</w>
3 4</w>
tarkistu ksesta</w>
taloudell isesti</w>
mo ot
gi ble</w>
exten sion</w>
e vät</w>
decisi ve</w>
Inter net
tapahtu mat</w>
substan ce</w>
s inc
rup tion</w>
refer ring</w>
parlament tiin</w>
p at
oles kel
mon en
kep t</w>
in tiin</w>
ff s</w>
ad e</w>
F or
varmis tamiseksi</w>
tä kin</w>
tasapain o</w>
t inen</w>
onn ittelen</w>
k uud
h ir
enn us
vaka uden</w>
tu ista</w>
tila isuuden</w>
pow er
mi d</w>
ine u
gla d</w>
alis e</w>
a misesta</w>
ver ran</w>
teks ti</w>
sor y</w>
saavu tettu</w>
pahoill ani</w>
ex tra
dis pos
cla use</w>
4 4</w>
vapa a</w>
tuloks ena</w>
tarv itsevat</w>
sel ven
rekis ter
rec o
hankke ita</w>
eth nic</w>
am paa</w>
3 6</w>
vaati vat</w>
stu dies</w>
ra d
prosess issa</w>
mu kau
medic ines</w>
chan ging</w>
4 1</w>
tun tu
trans fer</w>
tex ts</w>
reco very</w>
pursu e</w>
paikall is
asian mukais
Yhdysvall oissa</w>
us con
tul i</w>
käyt tävät</w>
kuu kau
cond ition</w>
amp ia</w>
vastaa van</w>
uudistu ksen</w>
strategi aa</w>
sex ual</w>
rela tes</w>
publis hed</w>
por ted</w>
aver age</w>
M in
Berl uscon
yhteis een</w>
valu able</w>
sa mat</w>
nor mal</w>
introduc ing</w>
exclu sion</w>
ehdottom an</w>
O l
1 .
tel u</w>
p ing</w>
o tamme</w>
li i
kun kin</w>
b a
alo ja</w>
ac knowled
tois inaan</w>
toimenpite isiin</w>
to m</w>
tavoitte ista</w>
nouda tetaan</w>
lear ning</w>
d t</w>
bud sman</w>
yle istä</w>
menettely jä</w>
con tain</w>
ad jus
Maa ilman</w>
Bar ni
muu ton</w>
is empi</w>
hallit usta</w>
fic ations</w>
effec tiveness</w>
compul sory</w>
Vitor ino</w>
L än
välis ten</w>
väl isiä</w>
vi our</w>
luovu tta
kasv u</w>
kas vi
consider ations</w>
associ ated</w>
ar me
M i
remar ks</w>
poikke uks
myö hä
see ks</w>
after noon</w>
acc ident</w>
vo ineet</w>
vall assa</w>
taud in</w>
ra ted</w>
r in</w>
es tic</w>
ent ity</w>
enemmis tön</w>
compe tences</w>
b om
aj at</w>
S to
sell aiset</w>
perustu van</w>
pal k
mo bility</w>
käynn issä</w>
käy nyt</w>
kol og
katsom me</w>
k risti
fri ends</w>
F eir
tric ity</w>
ohjel maan</w>
myönte isiä</w>
kiitoll inen</w>
ig nor
hyväksyt tävä</w>
f ill
equip ment</w>
enn et
anna mme</w>
af for
M al
ö in</w>
tet tä</w>
speak er</w>
liitty vän</w>
ensi ksikin</w>
compar ed</w>
O n</w>
x im
ver on
v on</w>
us in</w>
tä yttää</w>
tä yttä
tu le</w>
te mp
ta bility</w>
se where</w>
ro ko
respec tive</w>
reques ts</w>
puheen vuoros
ohjel masta</w>
lämpim ästi</w>
la isen</w>
haluais imme</w>
essenti ally</w>
el sewhere</w>
va cc
perustusla ill
ne w
main itsi</w>
is itte</w>
amerik kalais
Soci alists</w>
H i
u hd
o ffic
k eli
ineu vos
fe ed</w>
F er
0 6
yle inen</w>
uh kaa</w>
ty neet</w>
toiminn asta</w>
sit te</w>
rik ka
k issa</w>
go als</w>
a miseen</w>
yksin omaan</w>
vat kin</w>
va ali
sugges ted</w>
see ing</w>
s tor
over come</w>
oikeu tetusti</w>
nä ille</w>
mä ttä</w>
elec tricity</w>
eed ed</w>
disas ters</w>
Kore a</w>
Ara f
telev isi
suor itta
puheenjohta jana</w>
p pa
fo ot
Gre ens</w>
yhte isessä</w>
tek op
sym b
is elta</w>
fa ir
es in</w>
en ed</w>
e z
coher ent</w>
bi olog
arvo ja</w>
announ ced</w>
työntekijö itä</w>
g as</w>
b ru
vakuu ttu
työsken tely
työs tään</w>
tu tus
ta k
syys kuuta</w>
syn tyy</w>
osapuol et</w>
kiel täyty
kahd eks
high est</w>
enimmä is
H a
vaiku tusta</w>
tila isuutta</w>
seura ukset</w>
menesty ks
leg ally</w>
il ua</w>
g ain
contac t</w>
asian om
al alle</w>
M us
vahvis tetaan</w>
suffici ently</w>
oppos ite</w>
myö nn
maintain ed</w>
kansall ista</w>
kan tojen</w>
is tic</w>
foor u
under stood</w>
tw enty</w>
suppl ementary</w>
sub mit</w>
prepar e</w>
liitty vä</w>
la h
c au
12 .00</w>
valtuus kunnan</w>
re min
pyy tä
m oun
compe tent</w>
categ ory</w>
care ful</w>
beha viour</w>
Y ugosla
sanon ut</w>
s port</w>
rac ism</w>
oikeuden mukais
maahan muuton</w>
fac ts</w>
exces sive</w>
amend ed</w>
3 00</w>
w arm
ves i
varmis ta
torj ua</w>
todell isen</w>
tell en</w>
pos sibly</w>
mu illa</w>
min orities</w>
ma al
f os
esimer kkinä</w>
da ily</w>
argu ment</w>
Yhdistyne essä</w>
ver sion</w>
tois taa</w>
o ihin</w>
kuningas kunnassa</w>
korke an</w>
inves tments</w>
gener ation</w>
g ence</w>
b ers</w>
allow s</w>
täll öin</w>
statis tics</w>
pro of</w>
lis ään
il tana</w>
henkilös tö
fin ding</w>
determin ed</w>
compati ble</w>
viranom aisen</w>
viim eksi</w>
myön netään</w>
kesk inä
kaks in
edusta j
dom estic</w>
argu ments</w>
ab use</w>
Regi onal</w>
usko akseni</w>
tule vien</w>
than king</w>
r a</w>
pasi teet
obsta cles</w>
ma us
luop u
järjes tää</w>
huom ion</w>
h ouse</w>
explo itation</w>
can c
c at
ai empaa</w>
Is la
I P
Bolkes tein</w>
tuks essa</w>
teh tiin</w>
riippu u</w>
huol ellisesti</w>
han k
Balkan in</w>
19 7
va kau
täll aisten</w>
sor kka
pi eni</w>
ou tu
mul tila
la test</w>
kulje tus
kom mun
kehity sa
jo ku</w>
elin ten</w>
Iraq i</w>
yks een</w>
ydin voim
omaks u
liitty vää</w>
il os
ensimmä iseksi</w>
puuttu u</w>
pik aisesti</w>
larg ely</w>
koh tiin</w>
B la
199 0</w>
ter ri
te iltä</w>
run ning</w>
referendu m</w>
mi lla</w>
mahdoll istaa</w>
dou ble</w>
al koh
, 5</w>
tävä ssä</w>
tävä ksi</w>
spo ke</w>
reite rate</w>
ra di
luo tetta
ful fil</w>
a ud
vara uks
toim ik
te ihin</w>
ll i
arvio inti
ai o</w>
S V</w>
välttämä tön</w>
vi iden</w>
ut tom
suu -</w>
sisä markkina</w>
os ana</w>
er y</w>
constan tly</w>
clas si
basi cally</w>
K au
perus telu
minister ineuvos
help ing</w>
fir mly</w>
expec tations</w>
el itte
coun ter</w>
collec tive</w>
Gu ine
vapa asti</w>
johd osta</w>
et n
aika an
T ai
Presid ents</w>
3 9</w>
vall itsee</w>
toteu tettava</w>
regre tta
na apu
mill ions</w>
keho ttaa</w>
investo inte
ge ogra
aan kin</w>
K al
Can c
äänestys sel
uh ka
tää ltä</w>
tu ettava</w>
ti kin</w>
er ään
assu me</w>
advanta ges</w>
y ä</w>
u d</w>
tävä stä</w>
tulo kseen</w>
ta s</w>
jäsenvaltio ta</w>
hall into</w>
fi g
edis tetään</w>
alu n</w>
Slo va
K a
vaal ien</w>
te e</w>
sisä asioiden</w>
rau haa</w>
pit i</w>
os assa</w>
ongel mana</w>
mu t
ill een</w>
c ent
anal yys
ad vice</w>
a van</w>
O m
vo itte</w>
valmistelu kunta</w>
uusi utu
tausta lla</w>
rec ord</w>
mon ik
laad un</w>
kr itiik
in kaan</w>
head ing</w>
gene ett
func tion</w>
as taa</w>
ar ia</w>
anne tun</w>
Maced onia</w>
GMO s</w>
succ eed</w>
s cru
produc ing</w>
prec au
pit o
my yn
modi fied</w>
kun taa</w>
a var
199 4</w>
tiet yt</w>
terve yttä</w>
tax es</w>
tapahtu i</w>
pla ying</w>
periaat teet</w>
or i</w>
muod ostaa</w>
la illa</w>
jä nä</w>
er ään</w>
elä mään</w>
deli ber
cha irman</w>
Ma as
K inno
CO S</w>
vä itte
vi enti
sa w</w>
obli ged</w>
men nä</w>
la iset</w>
käsi tell
enna kko
constitu te</w>
co operate</w>
D S</w>
6 5</w>
terroris mia</w>
teho kk
tarkas tellaan</w>
tapo ja</w>
sou thern</w>
s et
kys el
kuu kautta</w>
hä mmä
ehdo t</w>
edell eenkin</w>
Maas tric
9 9</w>
5 1</w>
vapau teen</w>
puut teell
pu rely</w>
pos ti
ou b
oll e
kon e
indic ated</w>
enna ko
blo od</w>
b urg
Maastric h
M ol
uh rien</w>
täv istä</w>
tru th</w>
tammik uuta</w>
sci ence</w>
nähd äkseni</w>
mä lle</w>
ed un</w>
ase ita</w>
ä kseen</w>
vas em
uni la
p hen
ero ja</w>
ed etä</w>
und oub
tta vat</w>
tel tava</w>
roh kais
pyy nnön</w>
naa pur
merkittä vää</w>
käsitel tävä</w>
keskitty ä</w>
fundamen talis
edis tämään</w>
ac knowledge</w>
vai hd
tod istu
tar jou
sisäll ö
se ks
paino ttaa</w>
os opim
main ittu</w>
m outh</w>
kirj all
julk is
j assa</w>
im peri
foun d
eval u
dispos al</w>
cla im</w>
M os
CA P</w>
Afganistan in</w>
tarkas ta
syrjä yty
direktii viin</w>
Sc ot
ton sa</w>
ket ta</w>
han ke</w>
cho ose</w>
c as
Isra el
C itiz
A I
väki valta
vuod essa</w>
varmis tetaan</w>
trad ition</w>
sel ec
puolue iden</w>
prim arily</w>
par tly</w>
olo issa</w>
is inä</w>
h edel
fiel ds</w>
4 3</w>
viik on</w>
tre aty</w>
suojel u
opp im
mi es</w>
kirj assa</w>
Om budsman</w>
Moro cc
y llä</w>
väline et</w>
teh tävän</w>
suo tu
mietinnö stään</w>
lann in</w>
kuoleman rangais
ku mo
kah teen</w>
hyvä ksi
for mal</w>
fig ure</w>
ensisij aisesti</w>
en vis
an in</w>
Sto ck
Fin an
: tä</w>
0 .
laati maan</w>
kka ita</w>
v ul
us k
torjun ta</w>
tor al</w>
technolog ical</w>
prof it</w>
pien en
p onnistu
menettel yssä</w>
imag ine</w>
et c</w>
arm ed</w>
s even</w>
perus tell
o ts</w>
commun ications</w>
an no
aiheutta vat</w>
acti vely</w>
ää nnö
uni ted</w>
te em
tapahtu mien</w>
ta var
seura ta</w>
laittom an</w>
highli ghted</w>
D P</w>
poh ja
hä pe
concent rate</w>
arme i
S A
Poet tering</w>
keino in</w>
jour n
jo kais
inclu sion</w>
in adequate</w>
hyl kää
for med</w>
coun ter
becom es</w>
ur in</w>
toimi valtu
s ista</w>
poor est</w>
maas sani</w>
keskus tellaan</w>
järjestelmä stä</w>
id es</w>
func tioning</w>
difficul ty</w>
appreci ate</w>
Johannes burg</w>
univers al</w>
työsken tele
ins tituu
huu maus
enn ut</w>
absolu te</w>
Zimbab w
E M
C F
vastus tamme</w>
ta so</w>
passeng ers</w>
onn e</w>
olenna inen</w>
maan tieteell
c ar</w>
br ings</w>
at ly</w>
ass ess</w>
u mp
selvä sti
istun tos
buil t</w>
B yr
si iv
organis aati
mu itakin</w>
luku isia</w>
lu omaan</w>
kulutta jille</w>
jäsen enä</w>
iv er</w>
istun to</w>
ep idem
car rying</w>
assa ol
alo itetta</w>
Morocc o</w>
vähin tään</w>
val ita</w>
uudistu s</w>
ud u
talousarvi o</w>
quo tas</w>
ni lle</w>
mä ksi</w>
l eng
hyvä stä</w>
fore most</w>
en ding</w>
ehdotuks ista</w>
deb ating</w>
b ra
Ex ternal</w>
Euro sta
yhteis ten</w>
tra ding</w>
sur vi
opol itiik
lyhy en</w>
jäsen valtio</w>
het ki</w>
a mending</w>
Britanni an</w>
su ffer</w>
määri tellä</w>
lisä ttävä</w>
l ement</w>
he av
uskom me</w>
spec ies</w>
sa ks
necess arily</w>
huol issaan</w>
er imiel
Th urs
Kosov on</w>
Gen eva</w>
ys tä
ymmärr ä</w>
välis et</w>
vu us
turvall isuudesta</w>
t isen</w>
rela tively</w>
parlia ment</w>
lead s</w>
komite a</w>
kehity ksestä</w>
ke ä</w>
ing ness</w>
Citiz ens</w>
A sia</w>
äänes timme</w>
vi esti</w>
tutkimus -</w>
traged y</w>
th res
ro und
puolustus politiikan</w>
p yys
os p
muod oll
me ant</w>
ma asta</w>
lä hd
kulutta jat</w>
kahd esta</w>
issu ed</w>
ine vi
eu vos
econom ies</w>
be l</w>
Tur kki</w>
undoub tedly</w>
tor ate</w>
tet tyä</w>
tac kl
sym pa
selv ittää</w>
res is
keskustelu issa</w>
keske y
kertom us</w>
kehittä miseen</w>
ka ble</w>
huoleh ti
fu el</w>
excep tion</w>
as een</w>
appro ac
Soci alist</w>
K an
will ingness</w>
soci eties</w>
op tions</w>
minu tes</w>
lä hem
lu kuun</w>
k it</w>
jo lle</w>
exten sive</w>
asi de</w>
arkalu onte
vastaa va</w>
tarkka ili
puolus taa</w>
p ath</w>
kauppa -</w>
joukko jen</w>
ep tion</w>
assosiaati osopim
ar rest</w>
ala isia</w>
Indon es
vapa an</w>
todell isia</w>
strö m</w>
run sa
ref ers</w>
re action</w>
puol es
proc essing</w>
määrä rahat</w>
kustann usten</w>
kohe esi
kiito kset</w>
kala talous
j un
at trac
ac ting</w>
D ef
yl pe
s ets</w>
pub lic
nähd en</w>
indus tries</w>
i assa</w>
ell ed</w>
an kin</w>
Bri tain</w>
tä essä</w>
otta neet</w>
oikeudell isen</w>
mar ked</w>
luvu n</w>
ka pasiteet
expl ic
attemp ts</w>
Sa har
viel äkään</w>
te ur
osallistu vat</w>
maan i</w>
lö yty
käsittel emään</w>
ill ustra
ha ja
geogra ph
c ard</w>
Kore an</w>
As soci
van ho
uskon no
urg ently</w>
ratkais eva</w>
lop e
kansainväl isiä</w>
direktiiv e
accoun ts</w>
W estern</w>
Thurs day</w>
Jugosla vian</w>
taa taan</w>
stres sed</w>
saan en</w>
perusoikeus kirjan</w>
pal auttaa</w>
paik an</w>
pa kko</w>
p eto
moot tor
m its</w>
la y</w>
kyv yn</w>
koulu tukseen</w>
fam ili
ar z
Secre tary</w>
Freed oms</w>
Fra mework</w>
B ö
yll ät
suhtaudu mme</w>
seuraa vaa</w>
re move</w>
näkö kohdat</w>
nyky isessä</w>
mieh en</w>
me iltä</w>
laajen taa</w>
ki ih
a amme</w>
Constitu tional</w>
yksis elitte
tu etaan</w>
toivo a</w>
tel emme</w>
ok ed</w>
ki ista
huol ta</w>
asia kirja</w>
E co
ympäristö ön</w>
tut kia</w>
toimin ut</w>
tii vi
strateg ies</w>
sovel tamista</w>
perustu vat</w>
o u</w>
no body</w>
kol me
hop es</w>
et tely
er ro
S ME
E as
teks tiä</w>
sto ck</w>
pää osas
prog res
kohd is
itse ään</w>
follow s</w>
SME s</w>
E Y:n</w>
C ub
tel ec
rail ways</w>
kesk ity
gre atly</w>
ess ed</w>
Def ence</w>
C r
yksi kk
sta ble</w>
seik kaa</w>
puu tu
my r
läs nä
käsittel emme</w>
ks issä</w>
cor e</w>
answ ers</w>
unanim ously</w>
tah toa</w>
suojel u</w>
suhte ellisen</w>
päivä ä</w>
n in</w>
infrastruktu uri
him self</w>
democ ra
categ or
avo in</w>
amma ti
air craft</w>
Hi gh</w>
w ent</w>
to ol</w>
sosiaal isia</w>
or e</w>
mielell äni</w>
liber al</w>
laaj em
kat s
advan ce</w>
Lam y</w>
Bryssel in</w>
Barni er</w>
lääkke iden</w>
eth ical</w>
e ett
demokra tia</w>
I V</w>
Finan cial</w>
E I
ris ki
rajo ja</w>
prepar ation</w>
off ers</w>
ir y</w>
esiin tyy</w>
enn ess</w>
abs ence</w>
Nig er
Con tro
tor sta
s ämme</w>
propor tion</w>
parha iten</w>
muis tettava</w>
käs ittä
konferens si</w>
kansalais vapauksien</w>
itsell een</w>
haluais i</w>
viol ations</w>
vasta usta</w>
vaatimu s</w>
trans itional</w>
ti an</w>
sopim uksiin</w>
ow s
men ne
fu els</w>
ab sta
vaiku tusten</w>
tiedonann on</w>
oh ella</w>
negoti ation</w>
materi als</w>
la m
kohd asta</w>
gh ter</w>
emphas ised</w>
ati t</w>
aja tusta</w>
ä hte
vä hi
ta isiin</w>
sy itä</w>
r ing
r end
pop ula
p all
muodosta vat</w>
jatket tava</w>
identi fied</w>
govern ing</w>
enn alta
dio vis
de p
EC B</w>
4 9</w>
vakaus -</w>
suunnitel man</w>
pur ka
opis keli
op enness</w>
itsem aan</w>
isuud elle</w>
is on</w>
har m
er iko
dela ys</w>
c op
Sw ob
Johannes burg
Bro k</w>
Associ ation</w>
wid er</w>
vahvis ta
tö my
ta varo
soverei gn
regula r</w>
rakennerahas tojen</w>
rajo ittaa</w>
oikeus valtion</w>
määrä tään</w>
mä ttö
minis ter</w>
la kka
käsit tely</w>
koskem attom
joutu neet</w>
hyväksy mme</w>
etu kä
er is
emb ows
der ly</w>
arz embows
Sch re
Luxemb our
J arzembows
: ssa</w>
3 0
vul ner
osallistu minen</w>
offer ed</w>
lisä tään</w>
j yr
impor ts</w>
el derly</w>
an ia</w>
G U
Belgi um</w>
veron maks
var as
toimiv all
th ly</w>
resul ting</w>
ks ell
imp ia</w>
ex ports</w>
erila iset</w>
el v
char ges</w>
asian mukaista</w>
4 6</w>
yhteen sovitta
pris on
käsittel evä
kann asta</w>
is ina</w>
incorpor ated</w>
hoid on</w>
e ye</w>
ais in</w>
Min u
vi g
ver se</w>
vaik ka
uni form</w>
työllis yyttä</w>
tun ate</w>
tiuk asti</w>
tila a</w>
teoll isuus</w>
te c
si ght</w>
rail way</w>
pys ä
prepar ations</w>
mie hi
lu ot
käd essä</w>
hallitusten välisen</w>
H aar
viit taan</w>
ta min
signific ance</w>
maail maa</w>
la imin
ka ttaa</w>
inn ä</w>
en for
comple ted</w>
asem aan</w>
air lines</w>
ad ing</w>
Verheu gen</w>
terroris ts</w>
stan ce</w>
pal ata</w>
ou l
is ol
et tu
b loc
Contro l</w>
väl isestä</w>
til an</w>
sol ely</w>
pysty mme</w>
p hy
o illa</w>
myönnet tävä</w>
muu alla</w>
kokonais valta
jä nn
is tään</w>
in i</w>
di ed</w>
bud gets</w>
au diovis
Mar ok
GU E</w>
Eas tern</w>
E Y</w>
C ol
A nn
vi iv
lähestymis tavan</w>
los s</w>
kokoon tu
hyväks yttä
henkilö itä</w>
declar ed</w>
coll abor
ai em
a tor</w>
V ice</w>
van g
tety n</w>
restruc turing</w>
ra a
pää sihte
par antamaan</w>
pa tent</w>
on going</w>
mahdoll ista
li itte
it tua</w>
syd äm
sy yt
su n
pos ti</w>
pal kka
open ed</w>
on neksi</w>
noudatta maan</w>
muuto s</w>
mi gration</w>
käyt tämään</w>
kyse inen</w>
ittä mistä</w>
i aan</w>
friend ly</w>
de als</w>
Ir lan
yli opis
yhdys valta
viranom aisille</w>
uus sa</w>
toteutta maan</w>
sata ma
päät ti</w>
mon ista</w>
järj et
ja kau
its ensä</w>
for mation</w>
eh toja</w>
do w</w>
con vic
al en
C am
vied ä</w>
tu esta</w>
th en
rin na
rele ase</w>
prosper ity</w>
poliitt isesta</w>
p ra
fe a
du ties</w>
an ces</w>
al co
Rans ka</w>
yksittä isten</w>
u ally</w>
talou teen</w>
schem es</w>
renew able</w>
exten ding</w>
Roman ia</w>
Gal ile
yks in</w>
vapautta mista</w>
uudistu sta</w>
tois et</w>
ti ally</w>
sovell ettava</w>
pien iä</w>
ne ar</w>
läh innä</w>
joutu u</w>
fall s</w>
deser ves</w>
acqu is</w>
Luxembour g</w>
E ch
vaiku tuksista</w>
r ul
mahdoll isia</w>
kasva tta
in een</w>
de z</w>
citiz en
an to</w>
Niel son</w>
Eco fin</w>
te sta
tapa hd
sovereign ty</w>
päte e</w>
pyy detään</w>
pys tyy</w>
pet ty
olu m
j iä</w>
ito im
in t
hon our</w>
han kin
foun ded</w>
form ing</w>
cod e</w>
vasta vuoro
vaal it</w>
sub jects</w>
oikeu ksiin</w>
mo ja</w>
ex tra</w>
artikl a</w>
appro xim
yksimiel isyyteen</w>
sä kin</w>
poh tia</w>
lis ten</w>
ks ensa</w>
ki eli
intell ig
compl icated</w>
c hap
vuo deksi</w>
vaar assa</w>
va uhd
tävä sti</w>
tapahtu a</w>
simp li
saastu tta
pid em
ne ws</w>
määr ää
maailmanlaaju istu
käy tetty</w>
keino t</w>
Välimer i</w>
9 2</w>
un fair</w>
ten sä</w>
tarvitta essa</w>
sustain ability</w>
suhtautu u</w>
pro tocol</w>
mor al</w>
mor aal
levi ä
kiel tää</w>
it in</w>
in ary</w>
es sions</w>
edusta jia</w>
edell y
alis ing</w>
ve to</w>
uu siin</w>
täyd en</w>
työnteki jät</w>
paik kansa</w>
ou red</w>
on issa</w>
nyky iset</w>
lo oked</w>
korosta n</w>
inno vaati
help po
tärkeim mistä</w>
teh tävät</w>
neighbour s</w>
la itte
istuntos al
deb ated</w>
S an
M ic
y lä
remain ing</w>
prosent tiin</w>
liikenne -</w>
back ground</w>
asi alis
Rans kassa</w>
M O</w>
D ut
C res
ty yp
torjun taa</w>
to pi
seuraa mu
n one</w>
lap si
laat inut</w>
ita lis
harjo ittaa</w>
a io
Minu tes</w>
Bar ón</w>
toteutta mista</w>
ta kaa</w>
speec hes</w>
sall ia</w>
ri d</w>
puol i</w>
pa hen
olev ansa</w>
luotta musta</w>
le z</w>
kos ke</w>
demokraatt inen</w>
a ion</w>
L on
yle isten</w>
val tava</w>
tarkistu ksissa</w>
ratkais e
prof its</w>
per in</w>
mas sive</w>
legitim acy</w>
k kau
j alle</w>
is yyd
ik assa</w>
fir e</w>
consider ably</w>
Sta tute</w>
M u
F eder
välis een</w>
suunnitel ma</w>
re ti
part ner</w>
järjestelmä t</w>
importan tly</w>
help om
guarante eing</w>
edell isen</w>
citizen ship</w>
G ar
ECH O</w>
yh täältä</w>
tic les</w>
sur ve
päät tänyt</w>
ol imme</w>
oc cur
monimuo tois
lin ks</w>
k ku
justi fy</w>
im ent</w>
com pon
asian os
suffer ed</w>
seuraa va</w>
respon ding</w>
re d
perustu va</w>
peruste ell
osal taan</w>
le y</w>
järjes tö</w>
huippu kokous</w>
heav y</w>
dru g</w>
atu zz
ala ista</w>
a has
Pos sel
yhte yttä</w>
tus kin</w>
toimi valtaan</w>
tin y</w>
some one</w>
seuraa vat</w>
restric ted</w>
ra vin
pres enting</w>
kos ki</w>
bene fic
P u
E D
val uutta
tur ers</w>
teollisuus -</w>
pri or</w>
poliitt iseen</w>
j iin</w>
emplo yers</w>
edellyty s</w>
Palestin ians</w>
Laeken in</w>
F atuzz
ö ntä</w>
vähi ten</w>
vastaan otta
vah ing
täh tää
tax pay
tark kaan</w>
ryhd y
pr ing</w>
ou lo
oso ite
market ing</w>
main itaan</w>
luo tava</w>
dep th</w>
Euro pol
7 1</w>
yhteis et</w>
uudistu s
sor ry</w>
pyy nnö
nou s
jos sain</w>
edus taa</w>
d et
cre dit</w>
as in</w>
arvo jen</w>
Dut ch</w>
ulko asioiden</w>
tu red</w>
so ta
muuto kset</w>
j alka
in ing</w>
i tely</w>
fif teen</w>
e ta</w>
coher ence</w>
al usta
a ation</w>
Cub a</w>
C ong
yhteisö ssä</w>
yh tään</w>
yd estä</w>
taan ko</w>
quot e</w>
puol et</w>
materi aal
ity ksiä</w>
id entity</w>
gran ting</w>
al ki
Län si</w>
x th</w>
ul ture</w>
regula ted</w>
pre viously</w>
mp ia</w>
med ical</w>
kesä kuuta</w>
kes tävä</w>
fron t</w>
ehdo tettu</w>
ar ise</w>
a .
E qu
A d
vakuu tta
te isiin</w>
res pects</w>
repres entation</w>
oike aan</w>
its ev
inten tions</w>
in ing
dyna mic</w>
defic it</w>
R a
Kööpenhamin an</w>
C oh
spen d</w>
puut teita</w>
laaj asti</w>
käsittel em
kolleg amme</w>
kko ja</w>
esitety t</w>
C z
ud esta</w>
toiv e
tak ings</w>
satisfac tion</w>
s kill
pre va
muut osta</w>
laun ched</w>
krite ere
helpo tta
fu sion</w>
enlarg ed</w>
W ash
Euroop alle</w>
5 7</w>
us ual</w>
su va
sta ke</w>
seks uaal
pi ece</w>
kanna ta</w>
jo ill
famili ar</w>
erity inen</w>
energi al
W est</w>
Tou rism</w>
Presti ge</w>
Kal ining
wor ding</w>
under takings</w>
tämis essä</w>
turvallisuus -</w>
toisi insa</w>
tis ing</w>
tapa uksia</w>
so taa</w>
s pread</w>
re ds</w>
r uu
proper ty</w>
op t</w>
o im
läh ellä</w>
is to
interpre tation</w>
huom attava</w>
Wash ing
P uol
where as</w>
määrä ysten</w>
järjes tet
itta vat</w>
investig ation</w>
hu one
be aring</w>
ase tusta</w>
Bud getary</w>
vuoropuhel u</w>
vuo ti
varo ista</w>
uud ella</w>
tois enla
tehokkuu tta</w>
siir tää</w>
sa tell
poin ting</w>
os en</w>
käy tävä</w>
kompromis si</w>
ittu ja</w>
ik aa</w>
fe wer</w>
dra ma
6 7</w>
we ak
uud elle</w>
toimi joiden</w>
re ve
mer en</w>
lu odaan</w>
joh tanut</w>
coordin ated</w>
NG L</w>
Americ ans</w>
4 7</w>
199 2</w>
wel comes</w>
tasapain on</w>
su m</w>
reser vations</w>
puhu i</w>
pos tal</w>
p y
out standing</w>
onnistu neet</w>
o vatko</w>
laimin lyö
isuu n</w>
institution aal
huolehd ittava</w>
fair ly</w>
facil ities</w>
enjo y</w>
bar riers</w>
Venä jä
Scheng enin</w>
Go then
w in
ved en</w>
vasem mis
ton a</w>
siz e</w>
sano itte</w>
san an
pos sibilities</w>
num bers</w>
määri tellään</w>
kier ro
keho tetaan</w>
kalas tuksen</w>
cle ar
br it
b ig
ar ch
addres sing</w>
OLA F
Gothen burg</w>
topi c</w>
re hu
päättävä isesti</w>
plan ts</w>
pl ant</w>
organ ise</w>
kilpail u</w>
hdo inkin</w>
ga p</w>
etukä teen</w>
es ityks
ei j
edusta ja
c eil
b ing</w>
ann a</w>
a isilla</w>
väl ittä
vi hdoinkin</w>
tämä tön</w>
tosi asia</w>
te i</w>
str u
r inn
plu s</w>
hu oll
halu a
h ope
draf ting</w>
cour ts</w>
cal c
asian mukainen</w>
anta ina</w>
affec ts</w>
accord ingly</w>
Doh a</w>
yhteis kunta</w>
viera il
suuntavi ivat</w>
sti pu
s cand
ratkaisem iseksi</w>
odo tan</w>
na u
monimuo to
menettely jen</w>
maalis kuuta</w>
kumppan uus
im pe
hi il
de plo
Tu k
Parlia mentary</w>
I S</w>
Fin land</w>
wor st</w>
va kautta</w>
ud an
tä n</w>
sektor in</w>
ro ads</w>
qu ant
power ful</w>
olenn aisen</w>
n dez</w>
multila teral</w>
merkittä vä
lähen ty
ly kä
koros tettava</w>
kaik in</w>
inn on</w>
inf ring
immä t</w>
hol m</w>
for um</w>
feel ing</w>
easi ly</w>
T E
Stock holm</w>
An d
wor l
vasta isen</w>
tu et</w>
r ant</w>
pit kä</w>
omin ais
ku usi</w>
kollego j
innova tive</w>
hund reds</w>
Se a</w>
Li ik
y lik
va ura
ti e</w>
ta asti</w>
sitou tunut</w>
short com
shortcom ings</w>
os uu
kann at
jälj ellä</w>
johdon mukais
imin al</w>
feder al</w>
alue politiikka
Tuk hol
Tamper e</w>
yrity ksen</w>
ymmärre t
vastuu vapauden</w>
vaihtoeh toja</w>
us ina</w>
tehok asta</w>
ss ämme</w>
rati fied</w>
pitä isik
pako t
o ko</w>
lop etta
ja kaa</w>
e kolog
ar ab
un n
te ac
t so
syy t</w>
suo jaa</w>
mil k</w>
kesä kuussa</w>
kansalais järjestöjen</w>
k ön</w>
he a
hal usin</w>
fav ourable</w>
ev ident</w>
diplom atic</w>
a ta
Austri an</w>
yt ti</w>
vaihtoeh to</w>
use am
tod ennut</w>
sur round
safe guar
prison ers</w>
olev ista</w>
mis take</w>
ko t
ko itu
ins is
hyväksy minen</w>
equ i
ennalta ehkäis
dri vers</w>
do c
condem ned</w>
ambi gu
Cr iminal</w>
AI DS</w>
tärke intä</w>
työllisyys -</w>
tavoitte isiin</w>
sum mer</w>
ras ka
pidet yssä</w>
p sy
o ille</w>
neighbour ing</w>
keskustelu jen</w>
isuud en
is hing</w>
ill emme</w>
cell s</w>
D a
valtu u
tekn isiä</w>
syy nä</w>
pu hd
ple asure</w>
pite mmä
n ar
lopet taa</w>
lisää mistä</w>
lai vas
kesk it
ke ll
kan tansa</w>
cro ps</w>
sig n
op pose</w>
interven e</w>
direktiivi ksi</w>
der og
cou ple</w>
ch osen</w>
c ars</w>
b ound</w>
yhten ä</w>
ut ti</w>
urhe ilu
un a</w>
tää kseen</w>
tilintarkastus tuomioistuimen</w>
tel i</w>
san an</w>
rekister ö
pos ing</w>
osoitta neet</w>
lu ottaa</w>
hyväksy mistä</w>
ener gian</w>
en su
el taan</w>
be ef</w>
R ep
5 2</w>
tämä töntä</w>
tr ans</w>
ss on</w>
sisäl töä</w>
pen sioners</w>
min uu
ke taan</w>
geneett isesti</w>
4 00</w>
y istä</w>
we alth</w>
var ha
strength ened</w>
seik koja</w>
onn ittel
oikeudell inen</w>
n osta
instituu ti
hy po
help ed</w>
examin ed</w>
E S
Berl in</w>
uni fication</w>
siir tol
ra ising</w>
pos iti
penal ties</w>
om mun
n ostaa</w>
muutta misesta</w>
mon illa</w>
jur is
itur vall
ira ble</w>
il ities</w>
esimer kke
ed essämme</w>
b our</w>
viita taan</w>
ulkominis ter
terri ble</w>
remo ved</w>
ratkais evan</w>
pääs seet</w>
poh ti
pi la
oper aati
om alla</w>
kä vi</w>
ky nn
kulttuur in</w>
joudu mme</w>
investointe ja</w>
arvio innin</w>
all een</w>
H au
talous politiikan</w>
su itable</w>
sisäl tyvät</w>
scho ols</w>
ra pid
op ho
laad ittu</w>
koulu tus</w>
il ing</w>
herät tää</w>
ase tettava</w>
appl ications</w>
a tion
Rep res
Re port</w>
ää ri
ver i
täytäntöönpan o</w>
ty t
ta kana</w>
o itu
mar gin
käsitel ty</w>
jäsen istä</w>
inter institutional</w>
identi fy</w>
g res
deep ly</w>
tois ella</w>
sem in
se l</w>
s outh</w>
määri ä</w>
liitty ä</w>
la keja</w>
kri isi</w>
kiinni tettävä</w>
keh itettävä</w>
j ista</w>
histor ical</w>
ef t</w>
correc tly</w>
ci pl
campa ig
Berluscon i</w>
yks issä</w>
vä ittää</w>
vulner able</w>
viita ta</w>
un necessary</w>
thorou gh</w>
lan tila
lainsäädännö ssä</w>
lainsäädän töön</w>
kasv us
is sani</w>
hin tojen</w>
help po</w>
exclu ded</w>
etusij alle</w>
et ten</w>
d on</w>
conf ron
b es</w>
Saks assa</w>
D ub
Ber li
w th</w>
sop e
scho ol</w>
sa imme</w>
rati fication</w>
pri vil
laun ch</w>
lap sia</w>
jou kossa</w>
ill ään</w>
ho l</w>
Gro wth</w>
v olu
tää kseni</w>
tuot teet</w>
tehtä vien</w>
stud ents</w>
puheenjohtaja kauden</w>
pros pects</w>
phy si
ik äänty
hel posti</w>
f ies</w>
de ep</w>
clar ity</w>
200 7</w>
vapautta minen</w>
v uudesta</w>
ris t
rapid ly</w>
rannik ko
puol ue</w>
hä ir
ac compan
199 3</w>
välin een</w>
uudistu sten</w>
sup posed</w>
s tic
pyrki vät</w>
ky l
its in</w>
il em
ih inkin</w>
comm od
an neet</w>
Repres enta
tön sä</w>
tö itä</w>
per su
p ää</w>
min ut</w>
mer iturvall
maahanmuutta jien</w>
lis h</w>
kau kana</w>
kannus taa</w>
fund ed</w>
ex pan
Marok on</w>
M er
Di aman
vahvis tettava</w>
pääs töjen</w>
perustell usti</w>
perustamis esta</w>
löyd ettävä</w>
keho tta
kansalais yhteiskunnan</w>
ityks ellä</w>
ho it
energial ähte
cent res</w>
applic ant</w>
Democ rat</w>
A SE
vaiku tel
täysimäärä isesti</w>
to ida</w>
puhu jat</w>
precau tionary</w>
käyt täyty
keskus pankin</w>
ente red</w>
demokraatt ista</w>
controll ed</w>
b ir
Galile o</w>
Canc ú
voim ak
suunta utu
ra han
pyy tänyt</w>
puheenjohtaja a</w>
par i</w>
par empaa</w>
oikeuden käyn
oikeudell ista</w>
minu te</w>
lö ytä
kysymyks eni</w>
kysel y
kan toja</w>
jää vät</w>
hear ing</w>
hallin toa</w>
depen ds</w>
conduc ted</w>
R ural</w>
yleis hyödy
verkko jen</w>
toimi valtaa</w>
tiedonann ossa</w>
tes ting</w>
sy ven
suuntaviivo ja</w>
poin tment</w>
osallistu u</w>
mean ing</w>
kristi llis
indic ators</w>
finan ced</w>
dis cipl
applic able</w>
Kansa in
viitta si</w>
vies tin</w>
tta isiin</w>
samo ja</w>
rec all</w>
raken taa</w>
rahoit us</w>
olo gian</w>
maan sa</w>
järjestelmä ssä</w>
itell en</w>
et ing</w>
en ded</w>
b a</w>
yhdis tää</w>
välttämättö miä</w>
vapautta misen</w>
van hem
ut most</w>
täyd ellinen</w>
sti mu
pla yers</w>
kustann uksella</w>
dri ving</w>
arvio idaan</w>
al ia</w>
yh tyä</w>
tur s
ki inte
ehdotta nut</w>
ec ological</w>
draf ted</w>
byro kra
ar i
5 3</w>
toteutta minen</w>
tosi aankin</w>
mon in
ip a</w>
alco hol</w>
F ood</w>
D e</w>
unanim ous</w>
telec ommun
sivi ili
saa miseksi</w>
rec y
ratkais emaan</w>
mat kus
manufac turers</w>
liikenn em
käsittel ee</w>
kuulem is
investo inti
en opho
e va
conver gence</w>
constan t</w>
analys o
aluepolitiikka -</w>
a tedly</w>
R ob
L eft</w>
ver ra
use issa</w>
täm ää</w>
tekst issä</w>
promis ed</w>
pr er
m es
ik ente
ec h</w>
artik laa</w>
anti ci
where by</w>
rauta teiden</w>
pääs y</w>
poliitt isista</w>
luom inen</w>
kalastus politiikan</w>
jou tua</w>
häpe ä
er ot</w>
arvio intia</w>
L ab
IN I</w>
H V
- oikeuksien</w>
vetoom us
täs men
tun ne
tra te
ten i</w>
simp lif
resid ence</w>
par all
pann aan</w>
kiinn ittä
i ten
hand ling</w>
vuos itta
tiiv is
tarpe ettom
signific antly</w>
rin ta
ri lle</w>
minister in</w>
kann usta
jälleen raken
id ensa</w>
deman ding</w>
arvo ista</w>
5 6</w>
viras to</w>
uhre ja</w>
tuke vat</w>
rik ko
reflec ted</w>
ob tained</w>
määrä tieto
heal thy</w>
aih een</w>
GMO :
yksimiel isiä</w>
uno hd
raho ittaa</w>
pro mp
konflik tien</w>
id en
huoleh tia</w>
edis tettävä</w>
ar ticle</w>
vo itta
vies t
s and</w>
re place</w>
os uo
ku or
jä tetään</w>
harm ful</w>
enn en
ban ks</w>
ap u</w>
a joissa</w>
Ara b</w>
tuleva isuudesta</w>
tol ta</w>
se ko
pelk kä</w>
pa ying</w>
konflik tin</w>
k rati
determin e</w>
avi ation</w>
acc ura
Cz ech</w>
Byr ne</w>
2 2
1 37</w>
vamma isten</w>
to isten</w>
recom mend</w>
perus tana</w>
man tere
mall in</w>
mahdoll is
kasvus opim
jäsenvaltio illa</w>
hol ds</w>
erinom ainen</w>
environ men
viljel y
tilas to
tetta vissa</w>
ta essa</w>
s wi
kolme a</w>
jäsenvaltio ista</w>
ing in</w>
ha z
h jel
geograph ical</w>
fre ight</w>
ent isen</w>
asetuks eksi</w>
W omen</w>
Ques tion</w>
Nor thern</w>
Cor bet
Co operation</w>
01 7
yli pää
warm ly</w>
vah vasti</w>
vaar a</w>
ulkom a
t issa</w>
sul kem
nyky aikais
nope ammin</w>
kyse isten</w>
kertom uksessa</w>
jä te
ik aat
epä oikeuden
disab led</w>
air ports</w>
agre es</w>
Ver ts</w>
AL E</w>
A lli
ymmärre ttävä</w>
tämän kalta
tes ts</w>
ta vasti</w>
se kin</w>
po tila
nä l
marras kuuta</w>
loka kuuta</w>
he istä</w>
euro on</w>
chec k</w>
asiakirjo jen</w>
arvio inti</w>
Kinno ck</w>
6 6</w>
uu ttaa</w>
tas olle</w>
ta aks
na ut
larg est</w>
har dly</w>
extre me</w>
every body</w>
et tua</w>
alueell isten</w>
vi llä</w>
uno hta
tote sin</w>
teki jä
sosiaalis et</w>
ra id</w>
päiv ittäin</w>
pyytä isin</w>
muuto ksen</w>
is tön</w>
gene tically</w>
fer red</w>
distinc tion</w>
aloitte esta</w>
al la
I F
Ac tion</w>
worl d
unanim ity</w>
turvallisuus neuvoston</w>
tunnus taa</w>
terve tulle
o tettiin</w>
ni t</w>
lähet tää</w>
li p
kko jen</w>
johta vat</w>
ita ge</w>
it h</w>
P i
under taking</w>
tärkeä mpää</w>
tavan om
ta tive</w>
succ eeded</w>
lead ership</w>
käytet tä
kos ket
its evan</w>
in ta
ful fill
foc used</w>
contribu ted</w>
a ito
Irlann issa</w>
var autu
tonn es</w>
ta ito
suuntaviivo jen</w>
suspen ded</w>
super vision</w>
spe ed
sin änsä</w>
si mil
paikall isten</w>
kunn es</w>
hä vi
d or
Kalining ra
yrity s</w>
yhteisymmärr ykseen</w>
world wide</w>
wit n
w an</w>
päte v
ongel mall
obser vation</w>
o teta</w>
l in</w>
j i
in sufficient</w>
in neet</w>
ha avo
goro us</w>
f ast</w>
dist ingu
alue eseen</w>
ulkomaan kauppa-</w>
tärkeä stä</w>
thre ats</w>
shar es</w>
pros pect</w>
nor m
mo bil
men ee</w>
kulj etu
kin ds</w>
ex p
esitys tä</w>
div ision</w>
depen d</w>
G ra
väl ityksellä</w>
täytäntöönpan o
tavoitte en
t ise</w>
säännö sten</w>
selke än</w>
out set</w>
op ar
neljä n
lait osten</w>
kulutta jan
e tä
Lissab onissa</w>
wid ely</w>
viol ation</w>
useim mat</w>
telecommun ications</w>
stu ffs</w>
ste m</w>
pohd ittava</w>
on ing</w>
käsittelev ä</w>
jul is
es pan
de a
av usta
attom ia</w>
ase tu
aja tellen</w>
Lab our</w>
Is on</w>
Alli ance</w>
sa si
repe atedly</w>
pakol aisten</w>
na r</w>
laaj an</w>
inspec tors</w>
in al</w>
er otta
congratula tions</w>
anta neet</w>
5 4</w>
yhteis keskustelu</w>
wor thy</w>
v im
tutkim ukseen</w>
surpris ed</w>
small er</w>
sett lement</w>
sano o</w>
regar ded</w>
ratka isuun</w>
osallistu maan</w>
län si
kärsi vät</w>
keskustel ut</w>
heiken tää</w>
Hel sin
v is</w>
tuleva isuus</w>
tila pä
saatta isi</w>
s tri
restor e</w>
rela te</w>
pitä en</w>
om is
määrä tä</w>
laad ittava</w>
julk ista</w>
halun nut</w>
gh t
edell yttä
del iver</w>
ar my</w>
acc es
: o</w>
viik ko
vahv istu
tä hän
työntekijö ille</w>
terve yteen</w>
tarjo a
syrj innän</w>
stru gg
oin t</w>
mu kan
menettel yyn</w>
k uuden</w>
join tly</w>
expla ined</w>
ener gia</w>
direktiiv istä</w>
deser ve</w>
aiko ja</w>
Schre yer</w>
ti lo
si ll
perus taminen</w>
p im
mu u</w>
luul tavasti</w>
he ij
ess äni</w>
es ään
divid ed</w>
ak ko
ad es</w>
Bu iten
Az nar</w>
yleis ön</w>
väh itellen</w>
tra ck</w>
ris kejä</w>
per sis
mo ti
il man
edistys askel
byro krati
appe ared</w>
ansa itsee</w>
P et
ME DA</w>
Helsin ki</w>
G i
vaih een</w>
ul kor
tunnus tetaan</w>
tehokka ita</w>
tehokk uuden</w>
selv ittä
on ne
mo ved</w>
kur s
kesk uudessa</w>
kans saan</w>
kann an
jos sakin</w>
ind ikaat
cor ruption</w>
Dec lar
A tlantic</w>
w at
viis u
tod ettu</w>
ti ellä</w>
tekijö itä</w>
tehok kaan</w>
sta y</w>
sopimuks issa</w>
sec tion</w>
juu rik
j ensa</w>
hin ta</w>
harmon ised</w>
ero on</w>
ante eksi</w>
ad mit</w>
Luxemb urg
vie wed</w>
valmistelu kunnassa</w>
tra ag
re ment</w>
olev assa</w>
nu ore
nel jän</w>
mall i</w>
lu o</w>
her itage</w>
hark ita</w>
expres sing</w>
consequ ence</w>
all ing</w>
Shar on</w>
Itali a</w>
ET Y</w>
vo iko</w>
valiokun taa</w>
sy vä
subsequ ently</w>
s ev
perustel tua</w>
määrä ykset</w>
log ical</w>
keh ittäminen</w>
k ro
k kaan</w>
julkilaus um
constitu tes</w>
E ura
Declar ation</w>
won der
tre aties</w>
tarpe et</w>
sugges tion</w>
s lau
ole kaan</w>
ohjel mat</w>
mall ia</w>
luj itta
iv an
fri end</w>
experienc ed</w>
doub ts</w>
coas tal</w>
ais sa</w>
E P
war rant</w>
vas t</w>
var moja</w>
valtu udet</w>
u ha
työ ssä</w>
tiet osuo
tekn olog
s ought</w>
ro mu
phen omen
pan e
obser ved</w>
muu tettava</w>
mill aisia</w>
miel i
kon serva
hi c</w>
enemmistö llä</w>
comb ined</w>
c ils</w>
aja tuksia</w>
5 8</w>
0 ,
yhtenä inen</w>
unfor tunate</w>
tehokka ammin</w>
tark istaa</w>
symb ol
n a</w>
lop ul
lisää mään</w>
ila hd
humanitaar isen</w>
esittelijö itä</w>
es teitä</w>
clari fication</w>
with draw</w>
sosialis ti
ryh miä</w>
pursu ant</w>
new s
na udan
johd anto</w>
inc enti
ilmo ittanut</w>
huon o</w>
ha aste</w>
h ill
eurooppalais esta</w>
co d</w>
b ot
al in</w>
Su om
yhte ensä</w>
vaad ittava</w>
tii viim
territor ial</w>
säännö llisesti</w>
sta tute</w>
selke itä</w>
ro ots</w>
rea u</w>
pp ing</w>
pit ää
op h
liitty vissä</w>
kehy s</w>
juurik aan</w>
johdon muka
j unc
itte ko</w>
increas es</w>
hyväks een</w>
helppo a</w>
eng age</w>
dicta tor
deleg ations</w>
bel ong
assa mme</w>
as teen</w>
Representa tive</w>
R ome</w>
Pak istan</w>
N ic
N :o</w>
ö r
z e</w>
val ent</w>
te tusta</w>
siir r
rool ia</w>
reser ve</w>
res um
ra v
pro ud</w>
pli ed</w>
pid ä
pic ture</w>
men ojen</w>
ir ing</w>
enn ettävä</w>
deli ver
com pu
af raid</w>
Cha irman</w>
x enopho
vähemmis tö
viranom ais
under take</w>
tule vina</w>
tu ottaa</w>
trans ition</w>
toimivall an</w>
säännö kset</w>
säännö istä</w>
strateg io
propor tion
nor thern</w>
mainit sen</w>
lää kä
lea ving</w>
le h
jääd ä</w>
inter governmental</w>
hän et</w>
for man
environmen tally</w>
el on</w>
congratula ting</w>
ain ut
S te
Bu reau</w>
6 3</w>
wor rying</w>
ur ban</w>
perio ds</w>
maase utu
löy tämään</w>
ko ordin
järjes töjä</w>
categor ies</w>
aiheutu u</w>
wr iting</w>
tiet ä</w>
tekem äs
sall ikaa</w>
puitte et</w>
per secu
nä yttä
n yttä</w>
ll emme</w>
huomatta via</w>
avoim uus</w>
Y M
N ational</w>
Mi gu
Hel sing
Col om
Araf at</w>
A asian</w>
6 2</w>
vapa ata</w>
ud uttava</w>
tel emaan</w>
tarko itettu</w>
ta ge</w>
sijo itus
si e
rauh a</w>
ole viin</w>
mul tin
monik ansall
kirj an
kehy ksen</w>
kahdeks an</w>
jou d
associ ations</w>
a mend</w>
S y
tuleva isuuteen</w>
shor tly</w>
sa ke</w>
ri in</w>
lopul takin</w>
kansan puolueen</w>
julk inen</w>
it tivat</w>
enab ling</w>
ehdokas valtiot</w>
ca using</w>
Possel t</w>
vuos is
va mme</w>
s pite</w>
religi on</w>
regretta ble</w>
mietinnö ssään</w>
käsittel en</w>
j uh
ensimmä isenä</w>
eng aged</w>
destro yed</w>
as en
S i
Eng lish</w>
undermin e</w>
terveyden huol
sel ittää</w>
preven ted</w>
ongel masta</w>
muu kalais
ministeri t</w>
lait onta</w>
ko vin
keskustel usta</w>
johta ja</w>
isuu ksia</w>
im a
esimerkke jä</w>
ensisija inen</w>
ehdo tamme</w>
cris es</w>
0 3</w>
varmuu tta</w>
tuhan sia</w>
pois tamista</w>
pitemmä lle</w>
phenomen on</w>
ot s
ong side</w>
kaksin kerta
jatku u</w>
har ma
d os
al ongside</w>
G DP</w>
. 5</w>
toimielim iä</w>
sa ati
receiv ing</w>
per mit</w>
palvel un</w>
mu ista
molem pien</w>
marras kuussa</w>
luom ista</w>
liikku vuuden</w>
l i</w>
kär s
kovin kaan</w>
innova tiiv
helpo ttaa</w>
direktii vien</w>
di an</w>
al kan
8 5</w>
toim ivan</w>
str onger</w>
siir to
sanon eet</w>
reflec ts</w>
ref use</w>
rad ical</w>
puolue ettom
noudat tamista</w>
negoti ated</w>
miehi ä</w>
luottamu ksen</w>
incenti ves</w>
huon osti</w>
ha u
demonstra tes</w>
consul ted</w>
canc er</w>
viis ti</w>
tii viisti</w>
te jä</w>
success fully</w>
sisälly tetään</w>
sinc er
runsa asti</w>
reli able</w>
re z</w>
per forman
p hic</w>
muka utta
laus u
lan d
kansainvälis et</w>
kann at</w>
jo ja</w>
is ra
inten sive</w>
inf lation</w>
ilmen ee</w>
ilmas ton
heinä kuuta</w>
elämä n
aik aista</w>
ab sur
A T</w>
0 s</w>
tuk emme</w>
thu si
sta bil
skill s</w>
sha pe</w>
priva tis
op a
ol ot</w>
liikku vuutta</w>
korja ta</w>
ava in
Diaman top
tra v
sää detään</w>
sil mällä</w>
person nel</w>
p u</w>
p lies</w>
ol ipa</w>
maa taloud
ly kkää
kil omet
henkilökohta isesti</w>
fra g
ehdo tan</w>
dead line</w>
claim s</w>
assis t</w>
aikais em
Iran in</w>
ää tä
ys ä
yhte ys</w>
wha tso
whatso ever</w>
työsken nellä</w>
toisi aan</w>
tieto on</w>
tied etään</w>
tain ing</w>
rea kti
pan kki</w>
o is
muistu tta
eri kseen</w>
e ista</w>
con fusion</w>
vasta ttava</w>
tö miä</w>
toden neet</w>
syyttä jä
saavutta maan</w>
res h</w>
por no
o v</w>
nn el
muistu tan</w>
laaja a</w>
koos tu
kans sanne</w>
kal tais
k all
johta jat</w>
hyväks eni</w>
cha in</w>
b all</w>
arv on
Ruot si</w>
Haar der</w>
toiminn assa</w>
politiik koja</w>
pien et</w>
naudan li
lopu llinen</w>
isi en</w>
henkil ö</w>
encoura ged</w>
ehdot ti</w>
conven tions</w>
achiev ement</w>
a mattom
Zimbabw en</w>
Se vill
Kes ki</w>
Fatuzz o</w>
9 6</w>
yks istä</w>
y ksiin</w>
w eight</w>
vääris ty
turvapaik an
territor ies</w>
sum mar
ot teeseen</w>
op s</w>
kar ko
ita li
ga be</w>
esittämä t</w>
collabor ation</w>
autom aatt
all eg
U n
Pol and</w>
Mu gabe</w>
uus ista</w>
tetu ista</w>
tehd yt</w>
tal s</w>
suo jan</w>
simil arly</w>
oikeudell isia</w>
obser vations</w>
nor th</w>
laat u</w>
l imin
kuuka usina</w>
kehitys maissa</w>
int res
hope fully</w>
h een</w>
contro versi
ber g</w>
adver tising</w>
adap t</w>
a me</w>
Latin alaisen</w>
yhteiskun ta
vilpit tömästi</w>
v ements</w>
riittä vä</w>
puu te</w>
poikke us
maks etta
maahanmuut toa</w>
lu kem
e eni</w>
dis cre
d rin
ban k</w>
asetuks essa</w>
Venä jä</w>
In dia</w>
B on
yh män</w>
restric t</w>
recy cl
re a</w>
otsa kke
myön tämistä</w>
mel kein</w>
ke ks
k lo
il o</w>
hyö ty
ha m
excep tions</w>
et on</w>
defin ing</w>
aja tella</w>
P V
N o
to isesta</w>
su inkaan</w>
sosiaal isten</w>
sli ghtly</w>
ryh m
ra tion
laaj enta
käytä n</w>
käs i</w>
im mil
er t</w>
edell yttävät</w>
coun t</w>
con ser
Se ville</w>
S ing
P l
Makedon ian</w>
täytäntöönpan osta</w>
tunnus tettava</w>
ten s</w>
sosiaalitur va
pal kki
olem assaol
näkem yksiä</w>
mo vements</w>
mo tions</w>
merkittä vän</w>
käsit e</w>
jou kko</w>
itse kin</w>
h inno
fis cal</w>
er ad
elämä ä</w>
cre ates</w>
chem ical</w>
bel ong</w>
asiakirj assa</w>
as saan</w>
aine et</w>
Wat son</w>
Pet itions</w>
Cres po</w>
pidem mälle</w>
oso ituks
näkem ys</w>
monimuotois uuden</w>
mar ine</w>
kiinn osta
inv est</w>
intell ec
i f
henkilös tön</w>
gu n</w>
en thusi
e yes</w>
di c</w>
bureauc ratic</w>
att isen</w>
a via</w>
Afrik assa</w>
ä nne</w>
v uuteen</w>
resum ed</w>
pä i
puheenvuor o</w>
post pon
perus tan</w>
p ace</w>
lisää minen</w>
kuu lleet</w>
ker to
g ras
et tis
esitet tiin</w>
dispu te</w>
det r
Swob oda</w>
yt ty</w>
yhtiö iden</w>
val itsem
turvapaikan haki
tlan t
paper s</w>
oso itettava</w>
näh neet</w>
no ista</w>
ne e</w>
koskem aan</w>
inf ec
edis täminen</w>
defin itely</w>
aihe ena</w>
a vaa</w>
a va</w>
W al
K olum
199 1</w>
yhd eks
teh tyjen</w>
surround ing</w>
seura uksista</w>
pois tetaan</w>
pel as
parlamentaar isen</w>
paranta minen</w>
ou n</w>
järjes tetään</w>
johdon mukaisesti</w>
ed s</w>
do or</w>
d ed
author isation</w>
artik laan</w>
P ac
Espan ja</w>
tr end</w>
toistu vasti</w>
tilante issa</w>
teks tiin</w>
tarko ituksiin</w>
ta attava</w>
san a</w>
re ven
preser ve</w>
las ting</w>
kuvi tella</w>
k alli
is ton</w>
i ed</w>
glob alis
enhan ce</w>
aja tuks
affec ting</w>
yksityiskohta isesti</w>
talousarvi omen
sitoumu ksia</w>
selvi yty
porno gra
performan ce</w>
l are</w>
ity kset</w>
isra eli
ha h
fa ith</w>
expen se</w>
excep tional</w>
e teen</w>
bel ow</w>
yri tetään</w>
yhteis kunnassa</w>
war ning</w>
ver en
va uh
tulo ksista</w>
tavo ittel
seitsem än</w>
pidäty s
parall el</w>
odotta vat</w>
menetel miä</w>
maks amaan</w>
ma y
ma p</w>
l ti</w>
kansall inen</w>
ilmi ö
ilma piir
huomio tta</w>
do w
d less</w>
ar kk
alloc ation</w>
aan ko</w>
3 .</w>
ä r
vähemmis töjen</w>
van kil
valvonn asta</w>
val inn
toler ance</w>
tavoitte eseen</w>
taso a</w>
t isesti</w>
secre t</w>
sa v
rauhan om
pöytä kirja</w>
prohi b
man t
lähtö kohtana</w>
ku van</w>
ka utta
im pien</w>
enthusi as
avoim en</w>
asiakirjo ja</w>
Yugosla via</w>
Espan jassa</w>
Con c
Alger ian</w>
uu ksia</w>
tied us
thres hold</w>
tekni ik
teki jät</w>
tavoitte emme</w>
tavaro iden</w>
tarko itta
no ike
moni vuot
mahdoll iset</w>
je ktiiv
in an</w>
er ation</w>
em iseen</w>
di en</w>
compla ints</w>
anta isi</w>
Re form</w>
Mol do
Buiten we
6 8</w>
tuo ta</w>
tu e</w>
sovel taminen</w>
s pon
puol en</w>
pu ts</w>
p harma
on ta
oikeud esta</w>
kyse iset</w>
kokou sta</w>
judg ment</w>
johta jien</w>
bann ed</w>
Internet in</w>
A tlan
9 8</w>
viljeli jät</w>
tes saan</w>
telem ään</w>
saa tetaan</w>
refuge e</w>
ra dik
pre fer</w>
pitkä lti</w>
perc enta
o tan</w>
mi ell
lähet ys
käsittä äkseni</w>
kier r
jät teen</w>
in qu
hi u
f resh</w>
edusta vat</w>
asi ana</w>
arvo t</w>
ad a</w>
Jarzembows ki</w>
A R
van h
valtio ille</w>
tämä ssä</w>
tunn e</w>
tarjo avat</w>
sa massa</w>
s inne</w>
oso itti</w>
muutta mista</w>
maail ma</w>
kiel to</w>
hämmä sty
hop ed</w>
hin ta
erää t</w>
ehkä pä</w>
demokraat tis
dec entr
controversi al</w>
vuosi kymmen
vi able</w>
uu n
toivo isin</w>
suhtautu a</w>
streng th</w>
sch ed
s low</w>
pres entation</w>
on no
minkään laisia</w>
menettely t</w>
ka ksi
häne llä</w>
estima ted</w>
ehdo tu
accoun ting</w>
Kuu ban</w>
J oint</w>
B K
transa tlant
tiet ok
sha dow</w>
see kers</w>
oulo u</w>
ol der</w>
no tes</w>
neuvo a</w>
muutta maan</w>
ll isiin</w>
justi fication</w>
ir tis
inspec tion</w>
erila isten</w>
aihe ita</w>
a u</w>
I L
B ou
wea k</w>
tan gible</w>
sugges tions</w>
strik e</w>
so vi
sig na
re tain</w>
päätöslauselmaes ityks
promo ted</w>
per uutta
pan tava</w>
jalka pall
is land</w>
inn issa</w>
h istu
ex ic
c ities</w>
broad er</w>
ar ising</w>
N aton</w>
M exic
tu li
tre at</w>
t less</w>
super vis
pää llä</w>
perustu vaa</w>
modern isation</w>
mietin tö
miel uu
kunno lla</w>
kesku ksen</w>
k kuu
hon est</w>
haavo ittu
gradu ally</w>
g es
el l</w>
educ ational</w>
de ja</w>
ai ot
S kot
A b
0 7
tom me</w>
tarkastel emme</w>
so ker
show ing</w>
regula te</w>
peruste ita</w>
passeng er</w>
mieluu mmin</w>
jou kot</w>
inc redi
g ar</w>
fe asi
direktiivi llä</w>
cover s</w>
am s</w>
Lan no
I S
Götebor gin</w>
syn tynyt</w>
ra tions</w>
ra jan</w>
pysty vät</w>
paket in</w>
no ti
ma ch
li e</w>
kuull ut</w>
kokou kseen</w>
kansala isi
ka i
isla mila
esitet tävä</w>
es tanne</w>
alue isiin</w>
ajoneuvo jen</w>
ainut laatu
: stä</w>
under lying</w>
tos is
tor ture</w>
tin i</w>
stric tly</w>
si tes</w>
sellais ena</w>
sci ent
puol i
per mitted</w>
par annettava</w>
näkö kohta</w>
nope an</w>
ne ista</w>
maalis kuussa</w>
m alta</w>
larg er</w>
ke utu
kansall isella</w>
kan taan</w>
han ketta</w>
en ian</w>
c ity</w>
b attle</w>
au tojen</w>
al at</w>
D E
B ra
tutkim uksia</w>
tieli ikenteen</w>
terroris ti
t isia</w>
suos ituksia</w>
sh e
selke ää</w>
riit tämättö
pre limin
popula tions</w>
muo to</w>
l un
käynnis tää</w>
keske isiä</w>
kaup pas
kan d
hy gi
ex ha
author ised</w>
Ukra ine</w>
Mon ti</w>
Isla mic</w>
0 8</w>
ölj yn</w>
yhtenä isen</w>
uudis tamista</w>
top ical</w>
ta li
sit e</w>
resurs seja</w>
ratkais tava</w>
pitä mään</w>
palestiinalais ten</w>
ksi llä</w>
ken ut</w>
is tan
infrastruc tures</w>
h our</w>
clear er</w>
appar ent</w>
I T</w>
Alger ia</w>
valti ossa</w>
usk onn
ss äni</w>
pää oman</w>
pla cing</w>
paik ka</w>
oun d
nyky isiä</w>
muo toja</w>
mon ito
ky ky</w>
kaik ken
huhti kuuta</w>
heng essä</w>
fores ts</w>
don ors</w>
budjetti valiokunnan</w>
ar res
S ou
8 9</w>
äänes tämään</w>
vasta kka
vaih e</w>
tä änkin</w>
te ko</w>
ta id
ri g
reh ell
p yö
merk ki</w>
laaj enn
käyt y</w>
käs ityks
kumppan e
kriteer it</w>
ka ta</w>
is at</w>
ignor e</w>
em isen</w>
ell emme</w>
ei gh
dic tion</w>
con tamin
ajan jaks
ag gres
S af
6 1</w>
w age</w>
työ nsä</w>
tulo ksiin</w>
sol di
so hjel
re conc
prelimin ary</w>
opar dis
mu istaa</w>
mi emme</w>
luv ut</w>
je opardis
ins tall
con ten
avo inta</w>
a hd
Wall ström</w>
Palestin e</w>
2 7
var mas
van i</w>
tuotta jien</w>
toteu tettu</w>
suos itus</w>
sen ding</w>
saati in</w>
reti rement</w>
preven tive</w>
man d
ll ing</w>
kirj aa</w>
elin ikä
dec lare</w>
dec ades</w>
d eni
custom s</w>
br id
amb ition</w>
al on
aio taan</w>
ain akaan</w>
aihe ista</w>
Val ko</w>
uudistu kset</w>
un certainty</w>
uh ka</w>
tuotan toa</w>
tulo ksen</w>
tasapaino a</w>
p has
ne esta</w>
luottamu s</w>
kohdistu u</w>
ka ttava</w>
jät teiden</w>
ittä vät</w>
incorpor ate</w>
i ve</w>
ge ted</w>
esit tämä</w>
erity isiä</w>
e ar</w>
cover ing</w>
conven i
contrac t</w>
calc ula
E l</w>
2 5
väestö stä</w>
vastu us
use aan</w>
tu pako
toimenpite istä</w>
ti ous</w>
talousarvi ossa</w>
pääs tään</w>
pohj immil
mat onta</w>
ik aal
identi teet
for tunately</w>
contac ts</w>
com men
candid ates</w>
alterna tives</w>
a ko</w>
I II</w>
valta vasti</w>
tu odaan</w>
sh rin
repe ated</w>
r ass
on z
oh je
medic inal</w>
la ins
kompromis sin</w>
kan tas
ilmo itti</w>
h os
dikta tu
al ed</w>
V ar
O b
G 8</w>
Euro just</w>
E EC</w>
1 ,
valtuus kunta</w>
val id</w>
uu tena</w>
tiedotus välineiden</w>
tekijä noike
sääntely n</w>
säännös tön</w>
sur u
ne arly</w>
käytettä vis
kunn at</w>
keskustel tu</w>
esimer kkiä</w>
appar ently</w>
P la
Itali assa</w>
Bulgar ia</w>
B lo
í a</w>
yrit ämme</w>
yksi kään</w>
väis tämättä</w>
viranom aisia</w>
vi ha
vi ent
valiokunn alle</w>
vah va</w>
transa tlantic</w>
ran kais
pr en
po istaminen</w>
op etta
m ere</w>
k ong
hen keä</w>
extra ordinary</w>
edellyty ksiä</w>
civil ian</w>
au to
Mon ter
F rid
y our
your self</w>
ven ä
til a</w>
tie to</w>
teur as
te esta</w>
t tia</w>
suunn ittelu
puhemieh en</w>
pitäisik ö</w>
physi cal</w>
monito red</w>
ministeri en</w>
lead er</w>
ks enä</w>
kiell etään</w>
keskustel tava</w>
jo ihinkin</w>
ista kin</w>
hinn at</w>
h ous
expen sive</w>
enn etty</w>
conser vation</w>
com mit</w>
bu y</w>
H ol
teri or
tarpe isiin</w>
tapahtu van</w>
sukupuol ten</w>
sisällö stä</w>
ra ises</w>
pel kään</w>
os aa
omais esti</w>
n kin</w>
lo ista
im min</w>
hund red</w>
de terior
bec ame</w>
W og
z en</w>
vaatimu ksiin</w>
under line</w>
under ing</w>
tul osten</w>
s onin</w>
rejec tion</w>
regar dless</w>
pursu ed</w>
olosuh teissa</w>
negoti ate</w>
maanviljelijö iden</w>
käynn in</w>
kuulu vien</w>
kes täv
ity kseen</w>
hyväksy neet</w>
huomau tuks
ha ittaa</w>
g all
e tua</w>
beli ef</w>
wid es
un ity</w>
tä ten</w>
tyyd yt
tekemäs tään</w>
t teja</w>
suojel emiseksi</w>
sa d
rohke utta</w>
pyr k
par ad
ol ders</w>
muut kin</w>
la ki
klo on
al e
Pro din</w>
M ul
wides pread</w>
väärin käytö
vasta isia</w>
turvallisuus politiikan</w>
syrjin tää</w>
seuraa vien</w>
pääsy ä</w>
pa kka
näkö kohtien</w>
nn yt</w>
mielip ide</w>
liik eto
lehd istö
ja kel
i -</w>
func tions</w>
entr e</w>
dis agree</w>
compromis es</w>
Monter re
vi en
vaale issa</w>
tule vaa</w>
tribu te</w>
tasa verta
su gar</w>
sa ir
revis ed</w>
rajo ituksia</w>
myönnet ty</w>
min kä
lis ts</w>
ku rin
kilpailu kyvyn</w>
kill ed</w>
im munity</w>
esimer kin</w>
endeav our</w>
dea ths</w>
chec ks</w>
ais uuden</w>
Mon day</w>
6 9</w>
valiokun tamme</w>
val ossa</w>
toivo o</w>
tel tu</w>
sp here</w>
sol ved</w>
san at</w>
neuvottelu ihin</w>
laajentu miseen</w>
korva ta</w>
kaik ilta</w>
it ämme</w>
is tics</w>
indic ate</w>
ed ly</w>
b lack</w>
asetu sehdo
al ition</w>
Europol in</w>
Bel ar
torjun taan</w>
syys kuussa</w>
pro pa
pos ts</w>
otta vat</w>
otta malla</w>
ol enkin</w>
mean time</w>
maksu jen</w>
lains äätä
ann ettiin</w>
Gen even</w>
7 7</w>
valta via</w>
vahin koa</w>
toiv om
to ols</w>
sympa thy</w>
se ar
s w
ponnistelu ja</w>
mon i</w>
kolm een</w>
kohte ena</w>
ker ää
kem ikaal
inf laati
ig no
f lu
ess alon
edusta jan</w>
dra w
disap pointed</w>
declar ations</w>
cor por
contain ing</w>
ar in</w>
HV K
voima an
tul kin
tamis sa</w>
ref used</w>
ra ce</w>
perspec tives</w>
neu v
luettel o</w>
jal os
inspec tions</w>
hor iz
h ind
bureauc racy</w>
alue ista</w>
ali jää
accompan ied</w>
a in</w>
C ulture</w>
C osta</w>
Bos nia</w>
virall isesti</w>
valmis teli
un like</w>
tö män</w>
toteutta miseksi</w>
torjunn assa</w>
tiedonan to</w>
s ar
resis tance</w>
poikke uksia</w>
pati ents</w>
onnettomuu ksien</w>
näkem ystä</w>
liikku ma
kärsi mään</w>
k kais
järke vä</w>
julk iset</w>
joukko tuho
ite ms</w>
ge ous</w>
fail ing</w>
e able</w>
direc ted</w>
des irable</w>
an en</w>
Th essalon
Ser bia</w>
M eksi
G onz
varautu misen</w>
var y</w>
var ti
tote aisin</w>
toimintasuunnitel man</w>
thou sand</w>
ta us
pää tettiin</w>
plu r
pidätys määrä
obser ve</w>
ko toisin</w>
kas van
jäsenvaltio ihin</w>
huoles tunut</w>
et taa</w>
epä suor
ent re
en kaan</w>
approxim ately</w>
Ira kissa</w>
C hin
C entre</w>
8 1</w>
yhteiskun taa</w>
v it
toimenpid e</w>
tasapaino inen</w>
taan tu
sincer ely</w>
ryhty mään</w>
parlament ti
paran tamista</w>
p ed</w>
määritel ty</w>
lääkke itä</w>
lopu llisesti</w>
käyttöönot toa</w>
inv ite</w>
in sä</w>
ell ään</w>
cu ts</w>
S ter
Chin ese</w>
A :n</w>
4 .</w>
vient itu
taxpay ers</w>
ta vaa</w>
ratkais ev
pitä mä
ll isessa</w>
köyh ien</w>
kunni a</w>
kalta isia</w>
et tel
em i
col on
bru tto
anti bio
Mer cos
L ud
Jap an</w>
1 50</w>
yhd ellä</w>
vä ssä</w>
vasta uksia</w>
vall asta</w>
us ually</w>
sorkka tau
pidet tiin</w>
olenna ista</w>
oikeudell isesti</w>
niin kään</w>
kau histu
ka ista</w>
ir lantila
extre mis
elec toral</w>
conclu des</w>
ac ted</w>
S om
Eurosta t</w>
Bas que</w>
yleis ö
vir he</w>
tu un</w>
torjun ta
tal ked</w>
shar ing</w>
respec ting</w>
pre dic
pharma c
perus sopimus
onnettom uuden</w>
obser vers</w>
ob jektiiv
nä emme</w>
le im
la cking</w>
kaupan käyn
kaikken sa</w>
ihmis oikeudet</w>
ic k</w>
huippukokou sta</w>
har ha
g ri
fre ely</w>
four th</w>
espan j
bo ost</w>
Fre e</w>
9 3</w>
yksikk ö
x in</w>
tu ber
tel en</w>
sisäl tö</w>
päät täneet</w>
puol een</w>
presid ent</w>
pohjimmil taan</w>
occur red</w>
myy nn
min e</w>
it ly</w>
equi valent</w>
el a</w>
distribu ted</w>
Ster ck
Scot land</w>
Pl an</w>
vaar antaa</w>
vaar ana</w>
under stand
torsta ina</w>
tapahtu mia</w>
su ju
pre text</w>
lisää miseksi</w>
less ons</w>
ku va</w>
korva us
kiel ten</w>
infor mal</w>
im inen</w>
enfor cement</w>
ei ksi</w>
dig ital</w>
asian muka
Belar us</w>
y a</w>
vi hd
tule via</w>
so f
si kä
promis e</w>
oppos iti
muuta mat</w>
mo itte
kats ot
in ha
fron ti
eurooppal aisille</w>
c ut
alo ite
Yhdysval toihin</w>
T ali
C hi
tähd en</w>
tuken sa</w>
tote aa</w>
to s</w>
ti vity</w>
soveltamis alaan</w>
s par
pro vo
oikeusperus ta</w>
keskustel emaan</w>
keskisuu r
im i
ic als</w>
han kk
explan ations</w>
demokraatt isesti</w>
EK P:n</w>
Angol a</w>
yhteis vastuull
yhd estä</w>
vihd oin</w>
valti osta</w>
työmarkkina osapuolten</w>
tod ettiin</w>
tarko in</w>
rä jä
päivä llä</w>
pun is
prov ing</w>
parann uksia</w>
nim essä</w>
muodos tu
me ihin</w>
kirj e
jatka mme</w>
help ful</w>
ell a
deni ed</w>
compar ison</w>
ch i
cer ti
alku per
aja a</w>
T ime</w>
Strasbour gissa</w>
O :n</w>
C E</w>
Alankom aissa</w>
tä yt
toimi va</w>
tet tuna</w>
tekn ologian</w>
takaa miseksi</w>
stic k</w>
soldi ers</w>
selvästi kin</w>
puhu jan</w>
kyv yt
keho tamme</w>
k it
johtu vat</w>
it uksessa</w>
intellec tual</w>
hou kut
ge en
exclu sively</w>
econom ically</w>
di e</w>
b it
V AT</w>
yhdenty misen</w>
vastus tan</w>
tr ansi
tehtävä mme</w>
syste matic</w>
pre mi
pol og
pa ys</w>
olenn ais
offic es</w>
lap set</w>
keske istä</w>
jat ketaan</w>
halu atte</w>
ehdo tuksiin</w>
c ked</w>
am a</w>
aj assa</w>
aihe eseen</w>
P as
Gonz á
Alankom aiden</w>
vi e</w>
täyden tää</w>
sano ja</w>
sa ve</w>
ri ittää</w>
pääs tävä</w>
pur ch
ple d
os u
näky y</w>
lea ves</w>
la ting</w>
ku vaa</w>
koti maassani</w>
katso a</w>
inc id
ikä vä</w>
id ässä</w>
ha itta
f arms</w>
Tamper een</w>
Ech elon</w>
E L</w>
D avi
yhteiskun taan</w>
viime isen</w>
uni que</w>
uks ensa</w>
tu onn
pääs ty</w>
päiv inä</w>
par empia</w>
nor maal
komissi oon</w>
kem i
julk isesti</w>
impe tus</w>
hu l
fru it</w>
f r
dig ita
commer ce</w>
av un
an an</w>
9 7</w>
z in</w>
sugges ts</w>
pyys i</w>
osoitta utu
onn an</w>
occ ur</w>
no tice</w>
mukan aan</w>
kul unut</w>
kansainvälis ellä</w>
initi ally</w>
es ityksen</w>
erinom aista</w>
cho ices</w>
b lin
ab an
Equ al</w>
8 7</w>
200 8</w>
äär ää
ä y
une qu
t one</w>
suos ituks
si vis
seik at</w>
resul ted</w>
princi p
on ut</w>
kä sti</w>
jou tunut</w>
jat ko
epä rö
Sch mid
J er
E N</w>
ää ni
yhd y
viime isim
toimi vien</w>
tiet yn</w>
tekn isen</w>
tarkistu kseen</w>
sta ges</w>
scient ists</w>
sa i
pää miehet</w>
promis es</w>
prepar atory</w>
perus oikeuksien</w>
pan os
neuvos toon</w>
n ine</w>
myötä tun
muoto il
mene illään</w>
loo ks</w>
kunnio itettava</w>
ito ista</w>
integra te</w>
histori allinen</w>
hen gen</w>
helmik uuta</w>
heinä kuussa</w>
e ability</w>
at onta</w>
advoc ate</w>
Lud for
Liik anen</w>
K ur
Her z
E ras
w as
var jo
v että</w>
usko a</w>
ulottu vuus</w>
u or
transi t</w>
poliitt isiin</w>
parem man</w>
paik ka
muut osten</w>
merk ityksen</w>
man ipu
lis tened</w>
journ alists</w>
g est</w>
entre pren
da tes</w>
cle an</w>
cat ch</w>
avar uus
asiakirj at</w>
vo isin</w>
veto an</w>
vaati musta</w>
taloudell iseen</w>
s low
ris ki</w>
restric tive</w>
recogn ises</w>
puhu u</w>
program ming</w>
nuore t</w>
mon en</w>
luvu lla</w>
liikke elle</w>
käs in</w>
kuukau sien</w>
kohte eksi</w>
kes tää</w>
fal us
excep t</w>
eurooppalais een</w>
compli ed</w>
be gun</w>
aja tuksen</w>
aiko oko</w>
a. m</w>
Lam falus
Ch il
un g</w>
toiminta ohjelman</w>
tarpe esta</w>
tarkastel emaan</w>
soci o</w>
sav ings</w>
s pring</w>
oike utta
monimut kais
liitty misen</w>
lentoli ikenteen</w>
kunnio ittaa</w>
is ti
ide olog
execu tive</w>
examin ation</w>
even tually</w>
esitet tyjä</w>
e z</w>
aste itta
aiko jen</w>
a matta</w>
vastaa vien</w>
työ ryhmän</w>
trac eability</w>
toimielim en</w>
toimi valta</w>
sään tö
suurem paa</w>
ship ping</w>
ro ati
pääs töjä</w>
pros enti
poliitt isessa</w>
olev ani</w>
offer ing</w>
mul ti</w>
mp ing</w>
minuu tin</w>
li ev
kyky ä</w>
ase tettu</w>
Roman ian</w>
OLAF in</w>
Guine a</w>
Al p
vi et
vaal eja</w>
todis teita</w>
tit ude</w>
te ko
tarkistu ksiin</w>
sisä isen</w>
saavutta neet</w>
pyr kin
o tettaisiin</w>
mon iin</w>
maailmanlaaju isen</w>
ki -</w>
kansainvälis issä</w>
kann usti
ik enn
huoll on</w>
ev es
effici ently</w>
e vi
e ihin</w>
accep ting</w>
U T
ä ksemme</w>
z io</w>
toteutta miseen</w>
sisälly tetty</w>
rauta ti
par annetaan</w>
olo jen</w>
m ol
kansainväl isesti</w>
join ing</w>
io ksi
ilo isia</w>
harmon ise</w>
dow n
demokraatt isten</w>
cul ti
credi ble</w>
b reach</w>
T it
Saf ety</w>
S en
Gre at</w>
E r
var maan
unila teral</w>
toge en
tar geted</w>
sul jet
sell aisiin</w>
palj as
otta mista</w>
n it
n esses</w>
liitt ol
kysy n</w>
kansainväl isessä</w>
clos ure</w>
ass es</w>
al i</w>
G MO</w>
Afganistan issa</w>
vaat inut</w>
tek isi</w>
taloudell isista</w>
syste ma
suure lta</w>
pus h</w>
prote st</w>
pr ime</w>
lii all
lento kon
jälj itet
itet ty</w>
histor ian</w>
fir ms</w>
en aan</w>
bor ne</w>
V en
O S
K u
1 20</w>
vo ttom
vaka us</w>
vaal ik
tapa usta</w>
sitoutu neet</w>
saavu tetaan</w>
saad akseen</w>
re med
percenta ge</w>
osapuol ia</w>
in ter</w>
ik ö</w>
hyödy nnet
dis mant
al asta</w>
S an</w>
6 4</w>
ympäristö lle</w>
vas tan
tu kahd
torjunn an</w>
tarpe ita</w>
sai rau
repres enting</w>
pysy y</w>
pohjo is
po istu
ole vaan</w>
määrä stä</w>
min or</w>
lip pu
li even
käyttöönot to</w>
kumppan uuden</w>
ka ap
k kien</w>
järjestelmä llisesti</w>
jousta vuutta</w>
itu ista</w>
itsem äärää
is yydestä</w>
inha bi
inc en
im age</w>
hyödy llistä</w>
elimin ate</w>
beg an</w>
atta ched</w>
as bes
aik an
BK T
8 8</w>
yksity isen</w>
valvon taan</w>
tuken i</w>
te imme</w>
tarkistu sehdo
re ported</w>
ph ilos
mielip id
m em
leng th</w>
investoin tien</w>
er b
con stra
Alban ian</w>
tiedonann osta</w>
te eksi</w>
suunnitel mia</w>
seuraa vassa</w>
red und
rasis min</w>
pyrkin yt</w>
puheenvuoro a</w>
mp ;</w>
menesty s</w>
men oja</w>
lik ed</w>
käytän tö</w>
kutsu a</w>
kiis tan
jatka maan</w>
im posing</w>
halun neet</w>
frequ ently</w>
f ers</w>
dos si
cul tures</w>
bre ak
aban don
a p</w>
Jer us
Coton ou</w>
&a mp;</w>
visi ted</w>
vero tuksen</w>
tul on</w>
suur u
ot ten</w>
o sia</w>
muuto in</w>
menetel mä</w>
li ity</w>
ka uni
k ik
jud ge</w>
jakau tu
hankke et</w>
hall itu
esite llä</w>
e ti
cl oning</w>
Eras mus</w>
E duc
9 1</w>
yhteenkuulu vuuden</w>
viest innän</w>
täys i</w>
tekni iko
rau hall
pääs emme</w>
pää asiall
prior ite
p. m</w>
ot tom
olisik o</w>
nuor ia</w>
neuvos tolta</w>
muut os
laajentu misesta</w>
koro sti</w>
kand aal
kan tamme</w>
jäs tä</w>
jo jen</w>
g otten</w>
es tämään</w>
ell isia</w>
demokraat tien</w>
ajat telu
J ac
8 2</w>
yhti ön</w>
var us
täs säkin</w>
tähän as
turva ta</w>
tiu ken
tarpeell ista</w>
suos ittel
suhd e</w>
rou te</w>
pharmac eu
pako ttaa</w>
ohjel miin</w>
käs itys</w>
kiell on</w>
kahd essa</w>
it ut</w>
is empia</w>
hyväksy n
ha jo
f arm</w>
dis tance</w>
buil dings</w>
brutto kansan
asem asta</w>
a polog
Yor k</w>
Commun ist</w>
: ta</w>
venä lä
vaka utta
täydell istä</w>
tuo re
toim in</w>
th ro
sc en
ruo ka
rahoitusnäky mien</w>
pa ted</w>
out lined</w>
merk kejä</w>
lyhy ellä</w>
luom iseksi</w>
kommen toida</w>
kehitty ne
kansainvälis een</w>
is en
huol issani</w>
g al
J os
I CA
yrittä vät</w>
väl ittää</w>
väki valtaa</w>
viranom ainen</w>
var attu</w>
vaiku ta</w>
union s</w>
sched ul
san aa</w>
peruste et</w>
periaatte eseen</w>
oun ds</w>
off ences</w>
ll isesta</w>
le va
koordino intia</w>
kohdistu vat</w>
ins pi
inc in
in t</w>
huomau tuksen</w>
hallituks elle</w>
erro r</w>
critic ised</w>
connec ted</w>
character istics</w>
asian mukaisia</w>
alueell isen</w>
Y ear</w>
R ü
Con serva
6 .</w>
0 8
ään i</w>
w in</w>
valta van</w>
s cre
ro per
rahan pes
qu anti
palvelu iden</w>
nuor iso
minis tere
liiken te
liik e</w>
ky ll
k ent
juris diction</w>
hä l
hun ger</w>
de pri
bla me</w>
as sum
al ti</w>
a taan</w>
T o
Educ ation</w>
A ug
5 9</w>
yli jää
yksinkerta inen</w>
vin ce</w>
utu mis
tar ttu
sa cri
sacri fic
recycl ing</w>
re placed</w>
rati fy</w>
quali fications</w>
pohjo isen</w>
paten tti
p ia</w>
läh itu
lähitu leva
kansa a</w>
kaik k
f an
erä itä</w>
en shrin
el ong</w>
el er
dispu tes</w>
co oper
b ile</w>
as i</w>
accep tance</w>
Med ia</w>
9 4</w>
vastaa vasti</w>
uud enla
toissijaisuus periaatteen</w>
tekop yh
suhte ista</w>
si vät</w>
sanom al
ryhm itty
reg ul
qu ota</w>
pris on</w>
president in</w>
na isille</w>
mo bile</w>
merk itsisi</w>
markkino ihin</w>
lif elong</w>
kauppa an</w>
järjestäyty neen</w>
incen tive</w>
flo ws</w>
convic tion</w>
com it
assess ments</w>
arvio itava</w>
absta ined</w>
Tali ban</w>
Nor dic</w>
EU: hun</w>
vahvis tamaan</w>
v et
um i</w>
tosis eik
tilintarkastus tuomioistuin</w>
sovel ta
safeguar ding</w>
quar ters</w>
pi il
loppu a</w>
lisään tyy</w>
ksi amme</w>
kans samme</w>
hyv inkin</w>
haaste isiin</w>
for gotten</w>
er ottaa</w>
con vince</w>
coll ap
b ad
Indones ian</w>
Galic ia</w>
voima varoja</w>
viol ent</w>
victi m</w>
vastuus een</w>
v isa</w>
tel uun</w>
tekn inen</w>
tau tien</w>
ta la
scru tiny</w>
san ovat</w>
sa dly</w>
propa gan
pa ine
opp ia</w>
onn ut</w>
monimutka inen</w>
mahdoll isen</w>
loc ation</w>
ll ään</w>
la kia</w>
käytän töjä</w>
konkreett isesti</w>
kiinni tetään</w>
itsemäärää mis
in taan</w>
ih met
henkil ön</w>
ent is
en nyt</w>
der in</w>
democ rat
Pak istan
wh ole
whole hear
w oman</w>
vacc ination</w>
toim illa</w>
to ivat</w>
ti lis
ta p
rat iso
ra ting</w>
puheenjohtaja kaudella</w>
prote s
perustusla kia</w>
paho ittel
mis tään</w>
laaj alti</w>
ka to
jäljitet täv
iti in</w>
ha a
en tää</w>
d op
bio diversity</w>
affor d</w>
W e</w>
S P</w>
Feir a</w>
Corbet t</w>
Aus tr
yksimiel isyys</w>
trad itions</w>
toimeen pan
tehtä viin</w>
tahd on</w>
sa d</w>
pres sing</w>
määritel tävä</w>
la undering</w>
kolm esta</w>
kiito kseni</w>
istuntosal issa</w>
invi ted</w>
hark ittava</w>
chap ter</w>
ceil ing</w>
aiheutta nut</w>
aihe u
acces sible</w>
absur d</w>
Tun isi
T im
K or
K ab
Atlan tin</w>
val uu
threa tened</w>
te kos
tarpe iden</w>
tapa uksen</w>
t wel
suurim man</w>
sosiaalis een</w>
sig ning</w>
ryh tynyt</w>
privatis ation</w>
parlia men
mill ainen</w>
la ki</w>
inter nation
gro w</w>
enta lly</w>
emis sion</w>
vihre iden</w>
v yö
univers ities</w>
tta mista</w>
tro ops</w>
toivotta vaa</w>
poltto ain
perustusla ki</w>
oikeusasia miehen</w>
neljän neksi</w>
myö h
koordino inti
kantas olu
ilma ilu
gener ations</w>
exemp tion</w>
disab ilities</w>
des per
co alition</w>
campaig ns</w>
Conc iliation</w>
Co x</w>
voim ien</w>
tettu un</w>
terro ri</w>
tapahtu mista</w>
taho t</w>
suo ja</w>
sal es</w>
res ear
qu es</w>
puol is
ot e</w>
oikeusperus taa</w>
mor ator
menestyks e
manag ing</w>
keskit yttävä</w>
järjestely jä</w>
isik o</w>
inte roper
in ten</w>
hu ll
ex changes</w>
esittä miä</w>
erila inen</w>
ehdo tus
edis tävät</w>
def ending</w>
de part
attom an</w>
asi alle</w>
Mor ill
: sta</w>
vallan kum
vahvis tamista</w>
va mpi</w>
tehtävä nsä</w>
se as</w>
ru ok
ri m</w>
pres cri
pr ud
paran tamiseen</w>
miljar din</w>
maailmanlaaju isesti</w>
loka kuussa</w>
l ingu
kloon a
ker r
ik a</w>
examin ing</w>
enter ing</w>
ehdotuks ella</w>
dis par
den y</w>
comit ology</w>
Yhdysval toja</w>
R and
O p
Nizz assa</w>
Na poli
yhdenmukais tamista</w>
wh er
wh en
tuotan tom
tro us</w>
toim ittaa</w>
tec tion</w>
sopimuks ista</w>
sh oul
pää se</w>
ne z</w>
lopu llisen</w>
kriteer ien</w>
ke tään</w>
ga an
es teet</w>
en neet</w>
ad an</w>
Bla ir</w>
when ever</w>
vi esti
tärke immät</w>
tuks ella</w>
tan o</w>
tammik uussa</w>
subsequ ent</w>
sija itse
sel viä</w>
re porting</w>
rau ho
ot si
os aan</w>
olisik in</w>
nope utta
nn ä</w>
myönte isen</w>
muu nnet
mi ta
menesty stä</w>
ma ap
lakka utta
la ivo
kokoon pan
kappal e
jä tetty</w>
j asta</w>
huomatta vaa</w>
hiu kan</w>
hir v
fr ustra
fo rec
etta isiin</w>
em alla</w>
ehdokasvaltio issa</w>
chem icals</w>
askel een</w>
approac hes</w>
Rand zio</w>
vastus tavat</w>
var usta
vaarall isten</w>
tuotan to</w>
toteutta misen</w>
todis taa</w>
til ta</w>
th ers</w>
terroris mi</w>
teh ostaa</w>
taso illa</w>
suojel uun</w>
sisäll ön</w>
ris ing</w>
rahas to</w>
radik aal
päätöslausel masta</w>
particip ating</w>
par asta</w>
muo toa</w>
köyh yyttä</w>
kiinnos tune
katastrof in</w>
järjesty ksen</w>
julkilausu man</w>
hu onom
hen k
head s</w>
demokra atit</w>
consisten tly</w>
c a</w>
bio technology</w>
An ne
vuo kra
tärkeim piä</w>
tunn in</w>
tra in</w>
toimi jat</w>
tehtävä ksi</w>
shi ft</w>
ryh mään</w>
rele ased</w>
perfec t</w>
may be</w>
la kien</w>
käyttä jien</w>
k ky
hava ita</w>
e tur
criteri on</w>
bor n</w>
big gest</w>
aiheutu vat</w>
Aug ust</w>
äänesty kset</w>
wher ever</w>
vu n</w>
ton nia</w>
toim imme</w>
ten tion</w>
t ina</w>
ri ä</w>
rec ord
proced ural</w>
monopol y</w>
maksu ja</w>
ma kro
ma ito
ma il</w>
ma hta
li io
käsitel tiin</w>
kke iden</w>
keh ittämään</w>
diplom aatt
dead lines</w>
clas s</w>
Pro secu
D e
8 .</w>
yhte yksiä</w>
tävä nä</w>
tur kki
tuh ann
ta vara
sovel tamisesta</w>
ro olin</w>
päät tä
pidet ty</w>
occu pation</w>
muun togeen
liber alis
li ghts</w>
laad itaan</w>
ke vat</w>
kalta isten</w>
investig ations</w>
inten si
inte gr
har ass
f it</w>
coordin ate</w>
P ir
K ati
yh ty
xenopho bia</w>
void aanko</w>
valko isessa</w>
vahin kojen</w>
va kiinn
ulottu vuuden</w>
tun utta</w>
tes ted</w>
te am</w>
ta tte</w>
sil ence</w>
selke ät</w>
rans kalais
päätel mät</w>
pääsy n</w>
pyrkim yks
nä yttävät</w>
ma ins
kulje tusten</w>
k is</w>
integr ity</w>
har m</w>
erinom aisen</w>
edistys askel</w>
demok ratiso
de par
character ised</w>
Eura tom</w>
Egyp t</w>
Coton oun</w>
varsin kaan</w>
touko kuussa</w>
tosi asiall
terro ri
ter inary</w>
tavoitteen amme</w>
strugg le</w>
sit äkin</w>
seuraa vista</w>
sall in
sallin ette</w>
s ly</w>
ryhmä ä</w>
päivä än</w>
pyyn tö</w>
osallistu misen</w>
o vatkin</w>
nor meja</w>
mon ille</w>
min uut
keskus telleet</w>
it tely
hedel mä
for est</w>
exc use</w>
con sci
ME P</w>
Kati for
E van
E sta
Afgh an</w>
yl ittää</w>
virka miesten</w>
ur i</w>
ty l
tosi aan</w>
tiu kem
sosiaalidemokra attisen</w>
pyyn ti
pyrkim yksiä</w>
pilar in</w>
pa h
oll enkaan</w>
määrä t</w>
kilpailukyky ä</w>
kannatta vat</w>
ir respective</w>
iit on</w>
hyö tyvät</w>
finan ces</w>
exper tise</w>
energi an
direktiive jä</w>
concent ration</w>
ch ers</w>
arri ved</w>
anta sa
aikan aan</w>
acc used</w>
Y outh</w>
S yy
S and
G is
Diamantop oulou</w>
8 6</w>
ves iv
van hen
tällais een</w>
tulo a</w>
toivo tan</w>
toim issa</w>
ti mely</w>
sel y</w>
s y</w>
ra han</w>
piir issä</w>
periaatte esta</w>
ole ville</w>
mili tar
matkailu valiokunnan</w>
kielte isiä</w>
ker ä
inevi tably</w>
huon on
huomatta van</w>
huom io</w>
huom ata</w>
huol issamme</w>
human ity</w>
gener ous</w>
fe ars</w>
di es
broad ly</w>
aste ittain</w>
adequ ately</w>
Frid ay</w>
Ä än
väli in
verta ilu
vara puheenjohtaja</w>
vaikka kin</w>
ur an
ulkopolitiik an</w>
tämän tyypp
toimielin asioiden</w>
taka amaan</w>
sol id</w>
regis ter</w>
re unification</w>
ra hal
practic ally</w>
nn än</w>
merk itse
mean ing
maap all
kunnio itetaan</w>
korva uksia</w>
kas vien</w>
jää nyt</w>
dra matic</w>
com mu
co ast</w>
b els</w>
avus tus
atten d</w>
alu ksen</w>
acknowled ged</w>
Bur ma</w>
8 4</w>
vaike udet</w>
tapahd u</w>
tais telua</w>
raa ka</w>
lu kea</w>
lis tening</w>
kr it
kierr äty
kaup asta</w>
katastrof i</w>
jyr kästi</w>
joill akin</w>
johta isi</w>
jo istakin</w>
hallitusten välisessä</w>
ha b
four thly</w>
fas hi
f yys
erä iden</w>
envis aged</w>
en tu
d y</w>
collec tion</w>
O EC
M ag
Li thu
Kre ikka</w>
viikko ina</w>
vig il
vahvis tettu</w>
vahvis taminen</w>
va ted</w>
ul f</w>
tyyp ill
tupa kka
toim een</w>
s ole</w>
rik osten</w>
resol ving</w>
pr o</w>
perussopimus -</w>
mahdot tom
läsnä ol
lingu istic</w>
jatku va</w>
found ations</w>
expres sly</w>
es itys</w>
enhan ced</w>
em man</w>
am es</w>
Tukhol man</w>
L eh
yllä pitä
väline enä</w>
vastu usta</w>
valtio ista</w>
vaarall isia</w>
tutkim ukset</w>
tre mend
tou ch</w>
taistel ussa</w>
surpris e</w>
sum ma</w>
su ms</w>
sov ittu</w>
schedul ed</w>
rang ing</w>
ques tion
o sien</w>
menettel ystä</w>
mar ks</w>
mand atory</w>
mal ti
luonte eltaan</w>
ku rj
kap italis
jec tive</w>
incid entally</w>
im port</w>
im per
hom os
heik ken
gh ly</w>
fall ing</w>
arvo inen</w>
answ ered</w>
a ys</w>
US D</w>
Tai wan</w>
Mc Car
M it
Koso vos
työjärjestys -</w>
twel ve</w>
ton ight</w>
to lle</w>
ten d</w>
teks ti
tekni ikka</w>
ta ipu
suunnitel tu</w>
stra ight</w>
sisälly tettävä</w>
sig ns</w>
sellais een</w>
s la
pursu ing</w>
puhta asti</w>
parad o
neuvosto lla</w>
necess ity</w>
na isiin</w>
myöh ään</w>
monopol ies</w>
mel ko
käsitell yt</w>
kyse istä</w>
kohtu uttom
kehittä miseksi</w>
kasvi huone
its essään</w>
ing ent</w>
gu il
gain ed</w>
epä määrä
div ide</w>
Portugal i</w>
Niger ia</w>
Har bour</w>
Anne x</w>
8 3</w>
to isesti</w>
ter ally</w>
tekst istä</w>
tarvitta via</w>
sähkö isen</w>
sovel tamisen</w>
sikä li</w>
privil eg
philos oph
oike an
nor mien</w>
maa mme</w>
luettel on</w>
käytä vän</w>
käy tämme</w>
kustann uksista</w>
järk yt
explic itly</w>
de pl
app alling</w>
ab uses</w>
Maastrich t</w>
Cas tr
yhtiö t</w>
ter n
ta hol
sy t</w>
prov en</w>
pien en</w>
petty my
perhe iden</w>
om ista</w>
o tetta
myönn yty
mat kan</w>
kka iden</w>
ket j
istu r
gre en
fi xed</w>
atta ch</w>
aja ksi</w>
W ar</w>
Tans ka</w>
S trate
Pe ter
Gis card</w>
ti gh
subsi dis
struc k</w>
sta tions</w>
refer ences</w>
pe ästi</w>
oso itettu</w>
olosuh teet</w>
mä nä</w>
meren kulku
man i</w>
maa taloutta</w>
keskity tään</w>
es te
em o
con fin
c lu
avoim ia</w>
ass ets</w>
abol ition</w>
9 .</w>
11 .30</w>
ympäris tö</w>
void akseen</w>
vastuun sa</w>
vakuuttu neita</w>
tiety issä</w>
ter ä
tamis elle</w>
su d
ste el</w>
se x</w>
ri gorous</w>
res or
prosenti lla</w>
näkem yksen</w>
mis sion
mis sing</w>
jokais ella</w>
huoles tune
gradu al</w>
essa kin</w>
esit in</w>
el em
el ek
conveni ence</w>
ca tastro
ase tukseen</w>
ar bit
Ti i
Si xth</w>
S IS</w>
P en
Mexic o</w>
6 00</w>
vihre än</w>
tutkim aan</w>
tuo te
tta minen</w>
tied e
suur ista</w>
suhtautu vat</w>
sop iv
sec tions</w>
pi enem
ph y</w>
mi hin
luok an</w>
los ses</w>
kyken e</w>
kalta iset</w>
inves tors</w>
ind ication</w>
h ost</w>
gg ing</w>
fac ility</w>
et u</w>
et kin</w>
elim en</w>
destro y</w>
b as
ac tors</w>
Kre ikassa</w>
é s</w>
var maan</w>
valmis te
tutus tu
toivo ttaa</w>
ti kaan</w>
terveyd elle</w>
tel usta</w>
t í
sisäl tävät</w>
safegu ards</w>
päätö ksiin</w>
od e</w>
objec tions</w>
naapu ri
määri tell
mel u
luet tuna</w>
lu van</w>
kunnioitta minen</w>
kom it
kiel tä</w>
kertom uksesta</w>
it sel
huoles tuneita</w>
hallitusten välinen</w>
e vien</w>
draf t
des tin
avoid ed</w>
alu kset</w>
aid s</w>
a tically</w>
Ser bian</w>
R oth</w>
työllis yys</w>
tun tia</w>
tu lleet</w>
totu us</w>
ten d
ten ance</w>
ta kseen</w>
siir tyä</w>
ri c</w>
recommend ed</w>
pää tetään</w>
perustamis sopimuksessa</w>
per pet
pa ir</w>
occu pi
la ying</w>
julkilausu ma</w>
is tö</w>
infrastruktu urin</w>
in her
h ur
disas trous</w>
ci ally</w>
can cell
be it</w>
armei jan</w>
al beit</w>
Mc K
Ma es</w>
yksittä isiä</w>
varm uuden</w>
valio kuntien</w>
tärkeä ssä</w>
tal ity</w>
taho jen</w>
säily tettävä</w>
standar dis
sopi i</w>
sc ep
re conciliation</w>
oikeuden muka
mol empia</w>
lo ans</w>
l erin</w>
kärsi my
kon a</w>
katso taan</w>
järke ä</w>
ilma issu
heik kou
hankke isiin</w>
fran kly</w>
esittä mistä</w>
ell iset</w>
elek tron
edusta jana</w>
dev asta
co w</w>
blo ck</w>
arvon lisä
a ma
a ike
V el
E A
vähen tämiseksi</w>
viime isten</w>
tuot teen</w>
tukem inen</w>
tor i</w>
toimin tansa</w>
tie teen</w>
sop us
sisä markkinat</w>
pass ing</w>
paho ittelen</w>
kunn alle</w>
kansala isilla</w>
jäl kim
it ty</w>
ilmaissu t</w>
ide al</w>
hyvinvo innin</w>
hoito a</w>
h s</w>
es tämiseksi</w>
ensisijais ena</w>
en ci
av usta</w>
a z
M é
Johannesburg in</w>
ymmärr ämme</w>
sta ting</w>
siir ry
secon d
s ch</w>
ratkaise vaa</w>
raken teiden</w>
paino kkaasti</w>
out break</w>
nau ta
jur id
junc tion</w>
hor j
hil j
hallin ta
fall en</w>
erä stä</w>
di ffer</w>
des ired</w>
consisten cy</w>
acc us
Euroop alla</w>
A S</w>
viras tojen</w>
työ ttö
ter most</w>
ra tional</w>
pysty ttävä</w>
osta maan</w>
origin ally</w>
m n</w>
lähituleva isuudessa</w>
lento asem
kiire ellisesti</w>
kiel toa</w>
isem paa</w>
inte rim</w>
ili ö
em istä</w>
edu ista</w>
demokraatt isia</w>
b et</w>
as pi
anal yy
Val enci
Prosecu tor</w>
M ai
Ber g</w>
väl tä</w>
vasta uksesta</w>
valtu uksia</w>
valtio ihin</w>
vakaus sopimuksen</w>
vahing oll
va ino
urhe ilun</w>
tämä t</w>
tutk ittava</w>
tore ita</w>
sens iti
riippuva isia</w>
riippu maton</w>
rea ff
reaff ir
rahoituks esta</w>
pöytäkirj aan</w>
päätöks estä</w>
pyyn töä</w>
puh een</w>
pois tettava</w>
pila antu
parlament timme</w>
p elä
noudatta minen</w>
nou see</w>
muut tunut</w>
kuningas kunta</w>
koh tal
j illa</w>
interpre ted</w>
inqu iry</w>
in kiel
es tetään</w>
cy cle</w>
c ast</w>
automaatt isesti</w>
asiantunti joiden</w>
ard ous</w>
aloitte iden</w>
Res olution</w>
Li ban
K ong
Irlan ti</w>
Colom bia</w>
B end
äy tel
yksiselitte isesti</w>
work place</w>
väki valta</w>
velvollisuu temme</w>
ved ota</w>
vam paa</w>
tön i</w>
täyd ellisesti</w>
tekni ikkaa</w>
tekem ästä</w>
tar j
suunnitel mien</w>
päätöslauselmaes ityksen</w>
pää se
ou termost</w>
no tic
ne lla</w>
mit ting</w>
merk itä</w>
lu ku</w>
liberaal ir
ka usi</w>
jä än</w>
hyväksy misen</w>
humanitaar ista</w>
haz ardous</w>
fulfill ed</w>
explan atory</w>
ette ikö</w>
budjetti vallan</w>
arri ve</w>
R ad
ulkominister i</w>
työ markkinoiden</w>
tta essa</w>
taloudell isesta</w>
t täisiin</w>
reven ue</w>
prior iteet
paikall iset</w>
määritel mä</w>
mur hen
murhen äytel
man if
low est</w>
li t</w>
kalas tusta</w>
interoper ability</w>
iken ne
fle ets</w>
f ate</w>
et onta</w>
edus tus
do ors</w>
dec line</w>
ar ities</w>
T R
Mar tí
äänes ti</w>
välin että</w>
val iko
uud en
teh tyjä</w>
taistel u</w>
sa ivat</w>
s kandaal
raj all
r yö
qu alities</w>
päätöksente koon</w>
pysy ä</w>
peruste lla</w>
läh es
kulttuuri en</w>
kokem usta</w>
isuu ksien</w>
inc idents</w>
im ista</w>
evalu ate</w>
esit ämme</w>
esit telem
eläim iä</w>
ap pointed</w>
W ed
Del l</w>
Coh n</w>
Bal tic</w>
y issä</w>
viik koa</w>
vastaan ot
valmista utu
uu sille</w>
u ista</w>
työvoim an</w>
työttömy yden</w>
tuom ita</w>
todell iset</w>
tied os
tekn ologi
tarv ita</w>
tan kin</w>
sear ch</w>
reinfor ce</w>
reac hes</w>
pet ition</w>
osoitta maan</w>
muuta kin</w>
ma ati
kulttuur i</w>
ity ö
il taan</w>
green house</w>
ga me</w>
compon ent</w>
c ot
bac king</w>
asianom aisten</w>
arkk ino
Yhdisty nyt</w>
H un
Ca ud
CF P</w>
Angol an</w>
viime aik
vel ka
uh ra
työskentele vät</w>
tutus tua</w>
teki vät</w>
suhtaud uttava</w>
str ingent</w>
radio aktiiv
provid ers</w>
per inn
neuvo tella</w>
muuttu u</w>
mon enla
minister ik
mi in
löyty y</w>
lää kin
laati mista</w>
kommun ist
koheesi opolitiik
kertom usta</w>
is min</w>
in ko</w>
ik enne</w>
fe ed
epä virall
de ad</w>
d ated</w>
as ente
as enne</w>
Wed nes
W eg
T a
Mai j</w>
Galic ian</w>
E l
B eh
yhte yksissä</w>
vi ittaa</w>
vastuu lla</w>
use ammin</w>
tunnus tusta</w>
toiv eita</w>
ta ak
suures sa</w>
sur plus</w>
su k
otta minen</w>
open ly</w>
näkemyks et</w>
morator ium</w>
mahdot on</w>
laaja mitta
kunnioitta mista</w>
kiell et
istunto jaks
is ite</w>
inc ident</w>
i aa</w>
ha it
ensisij aisen</w>
eiv ed</w>
dictator ship</w>
cor responding</w>
byrokra att
ati iv
aikataulu n</w>
S ve
Le ban
In ves
7 6</w>
viha miel
vehic le</w>
var maa</w>
tw ice</w>
th i
tavar ali
ris ty
päätöks eksi</w>
partici pan
os issa</w>
ohjel mis
markkino ista</w>
lopu llista</w>
ks ellä</w>
ita tive</w>
foot ball</w>
esityslista lle</w>
decid ing</w>
d ura
critic ise</w>
cos me
bad ly</w>
anta malla</w>
Kar as</w>
yhteen toimiv
ve ge
täytäntöönpan ossa</w>
tou gh</w>
tab les</w>
sääntely ä</w>
sää nnön</w>
sul kea</w>
ris kit</w>
res u
remar kable</w>
reg ularly</w>
ra w</w>
pharmaceu tical</w>
näkö kohdista</w>
muu tetaan</w>
mu ussa</w>
min ds</w>
mihin kään</w>
laill isesti</w>
ku ole
kid u
ki vat</w>
ker toi</w>
j ne</w>
ite ty
intellig ence</w>
ins ec
inn os
fail s</w>
es ion</w>
ent h</w>
asian mukaisen</w>
al t
abol ish</w>
B re
B ag
with draw
wa ke</w>
w ars</w>
volu me</w>
tu vat</w>
syy tö
sc ri
re pu
rajo ite
puheenjohtaj alle</w>
or in</w>
metsä pal
keske ytti</w>
kann assa</w>
huom aa
dyna amis
differ enti
crimin als</w>
Wednes day</w>
Sol bes</w>
R oth
Geor gia</w>
Fi f
yh mä</w>
tu neet</w>
trans fers</w>
teh tävistä</w>
tarpe eseen</w>
tarkoituks een</w>
remin ded</w>
re per
os to
organis o
ksi lta</w>
krit iso
kor jat
kiinnos tunut</w>
keskey tettiin</w>
julistu ksen</w>
is ilta</w>
inhabi tants</w>
ilma isem
hal usi</w>
esittelijä lle</w>
epä suotu
edisty tty</w>
assa olo
ais i</w>
ad her
accura te</w>
Washing ton</w>
Du isen
C orm
Bus qu
Beh rend
äänesty kseen</w>
vähin täänkin</w>
vi i
utta vaa</w>
u ms</w>
po istamaan</w>
pla ys</w>
oikeusperus tan</w>
nu o</w>
my yd
kirj een</w>
kiire esti</w>
jul ki</w>
isuu tensa</w>
in on</w>
highli ghts</w>
h it</w>
f em
enshrin ed</w>
eir a</w>
di ver
arvi o</w>
al ko
Tun isia</w>
G rö
ään sä</w>
ymmär tänyt</w>
vuoropuhel uun</w>
vuod elta</w>
viis a
var au
tä kään</w>
ty nä</w>
tunte vat</w>
toiminta ansa</w>
tekn istä</w>
tapa usten</w>
tapa ukset</w>
tahol ta</w>
tackl ing</w>
systema tically</w>
syrjä isim
re ver
onnistu u</w>
od otetaan</w>
noudatta vat</w>
lausun to</w>
ks eenkin</w>
koulutus -</w>
kor rup
ko ista</w>
keskustel imme</w>
hi er
henkilö ä</w>
h ö
fi able</w>
esityslis tan</w>
d ras
comprehen sible</w>
ASE M</w>
vi ite
vi enn
valmi iksi</w>
uran ium</w>
tel in</w>
tarv itsem
tari ans</w>
soveltamis alan</w>
sev ere</w>
reper cus
remo val</w>
raken teita</w>
puoles tani</w>
prer equ
pre jud
on y</w>
oleskel u
oc curr
no tion</w>
ne eseen</w>
mas saan</w>
main tenance</w>
luku ja</w>
ks en
jou kon</w>
huumaus aineiden</w>
huom autta
hu oli</w>
fin ish</w>
ensimmä iseen</w>
con junction</w>
arvo isen</w>
ann in</w>
W H
Strate gy</w>
Saks a</w>
S ella
Kes ki-</w>
B a
2 50</w>
äänes tämästä</w>
äl käämme</w>
y lis
wh el
vähen tämään</w>
viid en
tettu ina</w>
ta pana</w>
sov ittaa</w>
simpli fication</w>
set sen
sen tence</w>
se iz
parti al</w>
nä ke
mot or
min a</w>
mattom ia</w>
li en
lear ned</w>
kuor ma</w>
kuole e</w>
kun han</w>
kre ik
ki us
katastro fi
k yt
joka päivä
ir a</w>
integra ting</w>
inno cent</w>
hyvä än</w>
flo w</w>
f ought</w>
en nä
e al</w>
democrat isation</w>
democra tically</w>
d istur
d ar
achiev ements</w>
M alta</w>
I M
Gonzá lez</w>
198 9</w>
ystä kään</w>
vir tually</w>
val id
vaat i</w>
tutkim usten</w>
toteutta misessa</w>
tonn ik
tekn isesti</w>
tas alla</w>
tab ling</w>
sy västi</w>
substan tially</w>
se ihin</w>
rinna kkais
rikos tuomioistuimen</w>
repercus sions</w>
par ents</w>
over whel
opol tto
ne ille</w>
mp iä</w>
moun tain</w>
ma ante
lisä arvoa</w>
liitty viin</w>
la bel</w>
käynn isty
keskisuur ten</w>
kala varojen</w>
jo kseenkin</w>
jatket tiin</w>
is s
ihmis oikeuksista</w>
hylä tä</w>
erityis piir
energia valiokunnan</w>
dro p</w>
drama att
democra cies</w>
con ve
an tamista</w>
amb itions</w>
alue esta</w>
a pa
Vietna m</w>
Evan s</w>
äänes täneet</w>
yhteenkuulu vuutta</w>
us ly</w>
tule vassa</w>
tul ossa</w>
seuraamu ksia</w>
sala kulje
resear chers</w>
puhu neet</w>
po ista
parlamen tilta</w>
paik alle</w>
oll essa</w>
mains tre
la ivan
käyt tämättä</w>
kansala isiin</w>
joka ista</w>
in side</w>
experi ences</w>
eu v
es sanne</w>
epäil ystäkään</w>
e vää</w>
dama ging</w>
con temp
autu mn</w>
alueell isia</w>
ad mi
S ö
M ill
Lanno ye</w>
C han
y an
van ce</w>
ulkor ajo
tu ossa</w>
terve ys</w>
sov ittel
sc ar
politiikka mme</w>
pidet yn</w>
on to</w>
ohjel ma
occupi ed</w>
hyväksy n</w>
exclu de</w>
es cap
emer ged</w>
edisty mistä</w>
di ag
defin itions</w>
dang ers</w>
cut ting</w>
contradic tion</w>
com mend</w>
bi opoltto
as ser
ar gue</w>
PV C</w>
Mad rid</w>
Lon don</w>
3 .
vauh tia</w>
vapa us
val ittu</w>
tö r
tyyd yttä
tur vaa</w>
tiet tyä</w>
tekn isten</w>
second ary</w>
rela tive</w>
r yo
pääs syt</w>
pann ut</w>
pan kki
p raise</w>
onnis tu</w>
onnettom uus</w>
näkemyks een</w>
lab or
l es
kun taan</w>
kristillis demokraatit</w>
kos ken
konkre ettis
kehittä mis
inno kkaasti</w>
exclu sive</w>
ette ko</w>
en kään</w>
dri ven</w>
dri ve</w>
Strasbour gin</w>
Kaliningra d</w>
ul kos
tyyd yttävä</w>
tarkas tuksia</w>
sy ks
sustain ed</w>
seur an
pääs emään</w>
pää miesten</w>
puutu ttava</w>
oso itetaan</w>
neu tra
na ure
määr ään</w>
main itun</w>
liikku vuus</w>
l er
kustann us
kus tan
joh ti</w>
im man</w>
hyödy llinen</w>
exha us
every where</w>
esit tämää</w>
edis tämistä</w>
contr ast</w>
cond itional</w>
attemp ting</w>
ain es
T setsen
T er
Slova ki
M ilos
H ul
CF SP</w>
B ang
wholehear tedly</w>
väes tö</w>
visi ble</w>
vastaa via</w>
vaka vaa</w>
uhre ille</w>
työllis yyteen</w>
tukem iseksi</w>
tu ina</w>
tois ena</w>
tety t</w>
tapo jen</w>
ta lla</w>
sopi va</w>
si emen
seura usta</w>
s qu
ryo s</w>
res ource</w>
päätöks en
pyynnö stä</w>
puhu ttu</w>
pres sed</w>
on ed</w>
occ up
menetel män</w>
la ys</w>
kä rj
kirj asta</w>
hyväksyt tävää</w>
gene tic</w>
ess ence</w>
emb ryos</w>
ehdotuks issa</w>
ehdotuks ensa</w>
don or</w>
che ap</w>
c laus
b ul
ava ta</w>
autom atically</w>
ass embly</w>
appreci ation</w>
aloitte et</w>
Bus hin</w>
äl kää</w>
void essani</w>
vaihtoeh toa</w>
uni t</w>
tuhann et</w>
todell isuutta</w>
tiedotus väline
tarkistu ks
tarjo taan</w>
suunnitel maa</w>
str an
smo king</w>
simplif y</w>
si do
she ep</w>
pal aa
osallistu neet</w>
os uutta</w>
oll isuuden</w>
olev asta</w>
oike is
näy tä</w>
man o
maailmanlaaju inen</w>
käsiteltävä nämme</w>
konferens sia</w>
isuu temme</w>
im iseksi</w>
hyl käsi</w>
hi taasti</w>
fi res</w>
experienc ing</w>
em ista</w>
eläkelä isten</w>
do g
contribu ting</w>
consolid ate</w>
clari fied</w>
autta maan</w>
asu in
T sa
Doh an</w>
7 2</w>
äänes tänyt</w>
x es</w>
vähen tämistä</w>
voima kas</w>
viljelijö iden</w>
vi er
ve täyty
vapa uksia</w>
toteutta mis
to ck</w>
the tic</w>
tais telu
ris kien</w>
pu n</w>
min ent</w>
lin ja</w>
kollegoj eni</w>
kansalais temme</w>
jänn itte
jälkim mä
itta isiin</w>
is u
ir regul
im mista</w>
hall ituksia</w>
h o</w>
glob aal
gi in</w>
fundamen tally</w>
ess or</w>
dem ogra
dec ade</w>
autonom y</w>
arvos ta</w>
am ing</w>
ajattel en</w>
U EN</w>
S ri</w>
L ag
Go eb
: lle</w>
yhtenä istä</w>
withdraw al</w>
vähen täminen</w>
vi ip
verkos ton</w>
u jen</w>
tote a
terro r</w>
show ed</w>
sata mien</w>
sa isimme</w>
pää tettävä</w>
pra g
parlamenti t</w>
m osp
luo ki
koh telua</w>
kaikk emme</w>
ilta päivällä</w>
igno red</w>
he ks
harass ment</w>
fe els</w>
f lights</w>
de ple
claus es</w>
cho col
au ti
at mosp
aid osti</w>
W i
Tai wan
Sevill an</w>
Mac Corm
7 3</w>
ver on</w>
va ta</w>
unn an</w>
työttömy ys</w>
tiedon väl
tel tiin</w>
te o
sus pic
raja tyl
positi iv
politiik alle</w>
n is
leik ka
las ku
köyh yys</w>
käsitte en</w>
käs ittää</w>
kä v
infring ement</w>
imperi alis
imp ris
ihmis kaupan</w>
huhti kuussa</w>
goro usly</w>
explo it</w>
es illä</w>
elämä ssä</w>
ase et</w>
ar ticles</w>
Ruot sissa</w>
EI B</w>
Democ ratic</w>
yrity ksistä</w>
yrity ksiin</w>
viime inkin</w>
vapa uttaa</w>
un sa</w>
ulottu vuutta</w>
ulkos uh
tyh jää</w>
tas ta</w>
sisällyttä mistä</w>
ryhmä ssä</w>
re act</w>
puh unut</w>
prov es</w>
pois tamiseksi</w>
pl as
per heen</w>
ow ners</w>
osoitta utunut</w>
organ ic</w>
oll y</w>
no tably</w>
maan antaina</w>
ma ture</w>
lu c
kulutta jia</w>
kkää sti</w>
kannan ot
kaik essa</w>
isuu tta
ilma tilan</w>
edelly tetään</w>
co inc
Gi br
yksity isten</w>
voimakka ita</w>
varmuu s</w>
valiokun taan</w>
tuken ut</w>
tremend ous</w>
sof tw
raho ja</w>
päätel missä</w>
poikke us</w>
paragrap hs</w>
näh nyt</w>
muu hun</w>
mano euv
ma r</w>
luop ua</w>
lin ing</w>
käs ityksen</w>
kutsu taan</w>
iti ves</w>
isku jen</w>
il meistä</w>
hyvinvo intia</w>
endor sed</w>
emb ry
ell isten</w>
deliver ed</w>
compet e</w>
ansa itsevat</w>
alt istu
al tti
a ani</w>
Ro oman</w>
Hu gh
Feder ation</w>
Direc torate</w>
C u
yhdenty mis
y outh</w>
välis issä</w>
vo ittaa</w>
vo isiko</w>
un employed</w>
trav elling</w>
tra tion</w>
toteutta misesta</w>
tiet yn
thir ty</w>
teoll isuutta</w>
t isten</w>
suhte issa</w>
sitou musten</w>
pää ll
puolu eet</w>
paket ti</w>
osallistu mis
olo ja</w>
muukalais vi
mielipite itä</w>
lu paa</w>
lo og
laati miseen</w>
kalasta jien</w>
järjestel yn</w>
juu r
irtis anom
ill eg
ill ance</w>
er a</w>
e ast</w>
demokrati aan</w>
critic isms</w>
ar ma
ac commod
S ac
L uc
G AT
y ti
w estern</w>
vä nsä</w>
vuor isto
ves tock</w>
velvoitte ita</w>
turva utu
tuon ut</w>
ti le</w>
säil yttäminen</w>
solidaar isuutta</w>
softw are</w>
s ky</w>
ri ta
re productive</w>
päätel mien</w>
po ik
our ing</w>
nn en</w>
mahdoll isista</w>
m itte
li vestock</w>
laati minen</w>
koti ma
keskustel tiin</w>
johdon mukainen</w>
jatku vaa</w>
ikenn että</w>
fea tures</w>
esit tämän</w>
eh tojen</w>
e enne</w>
believ ed</w>
audiovis uaal
ag eing</w>
aa mu
S port</w>
Na pol
N euvos
2 1
äl y
yleis sopimus</w>
witn essed</w>
voim at</w>
tukem iseen</w>
tet tyjen</w>
tan ces</w>
sään tö</w>
surve illance</w>
sop ivat</w>
so on
sivis ty
sa isivat</w>
rapor tin</w>
pres ents</w>
per j
mon op
mitte dly</w>
los ing</w>
loppu tulos</w>
käyt tämällä</w>
ker too</w>
keino teko
kahd ella</w>
itetta isiin</w>
in toler
huomau tuksia</w>
g ers</w>
de voted</w>
charac ter</w>
brit tilä
asian tunte
ad mittedly</w>
Op portun
Kööpenhamin assa</w>
Inves tment</w>
In tian</w>
Ac t</w>
00 0
yle isiä</w>
u ja</w>
täys istun
tärke ät</w>
tou ris
til asta</w>
tietok one
tiet ty</w>
sä te
sosiaal isesta</w>
se es</w>
riittä vät</w>
puhu vat</w>
prosess ista</w>
n en</w>
mielipite en</w>
merk itse</w>
kää nnö
kuljetta jien</w>
ke v
im mat</w>
id ioksi
hin toja</w>
hiil idioksi
guil ty</w>
gra titude</w>
form ally</w>
feasi ble</w>
ent inen</w>
eas tern</w>
deman ded</w>
classi fication</w>
chocol ate</w>
ch ann
c ros
bro ken</w>
benefic i
bac ks</w>
arvos tan</w>
ambigu ous</w>
Su u</w>
N is
Kosovos sa</w>
F lor
C ash
valti olle</w>
vahvis ti</w>
vahin koja</w>
uu ksien</w>
tä isivät</w>
tule va</w>
tu keen</w>
trans ferred</w>
sub jec
su t</w>
s ton
renew ed</w>
paten ts</w>
ous ness</w>
organis ms</w>
om alta</w>
mot e</w>
mieli valta
komit ologi
its eva</w>
horiz on
es tamme</w>
e ensa</w>
dossi er</w>
constra ints</w>
concep ts</w>
bo o
af rik
advan ced</w>
administra tions</w>
R ap
Opportun ities</w>
Nis tic
Mad rid
with drawn</w>
wea ken
vält tämiseksi</w>
vo iv
tulo jen</w>
toimielim issä</w>
tehokkuu s</w>
ta ite
sopimuks ella</w>
re mote</w>
qu i
päätty i</w>
produc tivity</w>
neg lec
muo tojen</w>
man n</w>
maks ettava</w>
liitty minen</w>
kansalais ista</w>
i ik
gre en</w>
g ir
euro s</w>
detr iment</w>
defic i
contin uation</w>
compu ter</w>
chann els</w>
as surance</w>
arres ted</w>
analys e</w>
Helsing in</w>
Gar c
A ung</w>
7 9</w>
wonder ful</w>
väliaik aisen</w>
vaatimu ksista</w>
tervetulle eksi</w>
suu llisen</w>
ser ves</w>
scen ar
sa as
reli ef</w>
päätöks istä</w>
puol illa</w>
perustu ttava</w>
perus sopimusten</w>
parem mat</w>
os taan</w>
norm ally</w>
menetel mien</w>
maail malle</w>
luo tan</w>
lu kien</w>
is yys
found ation</w>
epä selv
enab led</w>
edis tämiseen</w>
du mping</w>
claim ed</w>
appe ar
ap pointment</w>
a ansa</w>
Proc ess</w>
Med ina</w>
Lithu ania</w>
Li ettu
H IV</w>
Gal e
ö iden</w>
y iel
viip y
valvonn assa</w>
va a
utu ksen</w>
tä yttämään</w>
tit le</w>
tettu ihin</w>
ten ne</w>
ta ne
t tien</w>
suures ta</w>
suur en
s ysä
re v
rauhan turva
päät teeksi</w>
participan ts</w>
os i</w>
nouda ta</w>
nim ittä
määrä enemmistö
mietinnö istä</w>
maailmanlaaju ista</w>
liikenn että</w>
laittom asti</w>
käsittelevä ssä</w>
jäsenvalti osta</w>
ehdot on</w>
blin d</w>
arv opa
adver se</w>
I z
D o
: h
z u</w>
yle iseen</w>
vero tus
vapautta mis
valvo ttava</w>
tärke istä</w>
tur ha
thorou ghly</w>
tapa uksesta</w>
tackl ed</w>
speci fied</w>
se ikan</w>
sa masta</w>
pet tynyt</w>
obsta cle</w>
nyky iseen</w>
nyky aik
mur ha
mu si
m usta
lisäänty mis
le vottom
kk ol
ivä es
ilma isi</w>
h ers</w>
g ies</w>
ez u
euro alueen</w>
dis advanta
conf ident</w>
ci gar
assess ing</w>
arvo isia</w>
air port</w>
add itives</w>
accoun tability</w>
T hor
Maa ilman
Husse inin</w>
Du pu
valv om
vaatimu ksen</w>
under p
täyden täv
tukem ista</w>
torju maan</w>
threa tening</w>
tell ing</w>
suojel usta</w>
re turned</w>
rajo itukset</w>
poli isin</w>
o ik
merkitse vät</w>
maks etaan</w>
lo y
käsi tettä</w>
kokou ksissa</w>
kansall isiin</w>
kansall iseen</w>
ik aan</w>
haas teita</w>
e go
dre am</w>
alueell iset</w>
alo ille</w>
air space</w>
Wh ite
Venäjä llä</w>
Slo ven
M ü
M at
Gu a
F rass
wr ite</w>
veronmaks ajien</w>
ut tu</w>
u lla</w>
työ lä
tr y
s ale</w>
rinna kka
re mit</w>
päätöksen tekop
pop ul
plan et</w>
pil ot</w>
organis ing</w>
nä stä</w>
li ike
kos me
kiinnos tuneita</w>
ka ava
ka as
internation ally</w>
ih insa</w>
ed era
diplom aat
differ ently</w>
dec reas
a it
Wog au</w>
Ob jective</w>
L om
Dupu is</w>
Ar men
A t
yksikö t</w>
vari ety</w>
valtio varain
tu ella</w>
tekem än</w>
teho ttom
tan s
ta ppa
suos ituksen</w>
su b</w>
st one</w>
so ike
selv ityksen</w>
sel l</w>
reci tal</w>
rannik on</w>
päätöslausel mia</w>
pää oma
pet osten</w>
pan tu</w>
pako tta
myönn än</w>
kärsi i</w>
kuulu van</w>
konkreett ista</w>
kans at</w>
järjestö ille</w>
järjestel yt</w>
jonkin lainen</w>
ir s</w>
henkilös töä</w>
gra ve</w>
g ement</w>
foot ing</w>
ell istä</w>
elintarvikke ita</w>
dikta at
defin itive</w>
benefic ial</w>
at in</w>
P ur
O omen</w>
Migu é
G ros
Dub lin</w>
B i
2 .
välttämä ttömy
to issa</w>
tal in
sov ittiin</w>
sa am
rejec ting</w>
reduc tions</w>
re viewed</w>
radi o</w>
os uuden</w>
mil tä</w>
meet s</w>
mar gin</w>
main itsin</w>
ma g
lausun toja</w>
lam pa
l enn
kuuka usi</w>
jul ka
itta vissa</w>
ing dor
inevi table</w>
in appropriate</w>
huomi onne</w>
ev än</w>
elä vät</w>
elä mä</w>
ef e</w>
edel tä
e ge</w>
comple tion</w>
com position</w>
char ter</w>
bir th</w>
asiakirj aa</w>
a us
Turk issa</w>
Slova kia</w>
Gra efe</w>
Bar ingdor
ylik ansall
vakuuttu ne
transa ctions</w>
sil mä
quant ity</w>
qu ier
qu al
pää lle
pill ars</w>
pet os
pen ding</w>
mod els</w>
leg iti
kulttuuri -</w>
kriitt isesti</w>
kans sani</w>
k ill</w>
jää neet</w>
istunto kauden</w>
interven tions</w>
inter mod
ih me
ex tradition</w>
ettom asti</w>
estima te</w>
ensimmä isestä</w>
embar go</w>
e västi</w>
consis ts</w>
alkoh ol
ala kohta
al ing</w>
ad ding</w>
Ven ezu
In formation</w>
Garc ía</w>
Coun cils</w>
Afganis ta
ympäristö ystävä
wis hed</w>
uud istaa</w>
tällais esta</w>
tuomioistuim essa</w>
tiet tyihin</w>
tari at</w>
tar jon
tapa amis
stric ter</w>
soci ally</w>
sall i
ryhdy tään</w>
public ly</w>
poten tially</w>
pop ular</w>
paino tta
ot tu</w>
moni puol
me al</w>
matkusta jien</w>
luom iseen</w>
käyttä neet</w>
kriis in
kong res
kau he
i asta</w>
he l</w>
fif th</w>
fea ture</w>
er oa</w>
ensimmä iset</w>
el py
drin king</w>
compar able</w>
brea king</w>
bo ok</w>
arvois an</w>
arrang ement</w>
am man</w>
aiot te</w>
R ed
Pu tin</w>
Iz quier
C oll
20 .</w>
yste m</w>
viik ko</w>
ty r
tun nel</w>
tied ossa</w>
tehtävä än</w>
tapahtu vaa</w>
seka ann
s l
realis ed</w>
pp i</w>
parliamen tarians</w>
parlament ista</w>
pa him
p tion</w>
ob taining</w>
liitt outu
laaj emmin</w>
la des
kunnio ituks
ks eksi</w>
kasv uun</w>
in ess</w>
ill amme</w>
hä mmen
esitet tyihin</w>
collap se</w>
asiakirjo ihin</w>
arvio i</w>
arvi on</w>
alo ihin</w>
abor tion</w>
Ira k</w>
A cc
vuo tu
ulkopuol isten</w>
tieteell isen</w>
tais telun</w>
suhtaudu taan</w>
selven tää</w>
palvelu ihin</w>
ou lu
organis mien</w>
onnistu ne
mis sions</w>
maa per
lle kin</w>
laito ksen</w>
lainsäädännö stä</w>
la tes</w>
käytän töjen</w>
käy mme</w>
kunnianhimo inen</w>
kol mas
kes tävään</w>
jö ste
jät tänyt</w>
järke vä
horizon tal</w>
hirv ittä
hall itsem
foc using</w>
eu vo
del icate</w>
d im
c ope</w>
b ases</w>
autta vat</w>
at z
assess ed</w>
anne ta</w>
Thessalon ik
S jöste
F är
Can ada</w>
C un
Ar ticles</w>
yrity ksissä</w>
yd in</w>
wor ried</w>
vat tom
täytäntöönpan oon</w>
työ ryhmä</w>
tuom ion</w>
tu ani</w>
toim eksi
taloudell isiin</w>
strik es</w>
siirtol ais
san omme</w>
sall itaan</w>
s tory</w>
reflec tion</w>
proc ure
pat ri
osapuol en</w>
mit ä
ministerineuvos ton</w>
miljoon aan</w>
mas sa
lem ents</w>
laajen tamista</w>
koro stan
koos tuu</w>
kollego ja</w>
koh telun</w>
ko e
jäsen eltä</w>
is tani</w>
investig ate</w>
indic ates</w>
in put</w>
hyödy llis
hark itsemaan</w>
erää ssä</w>
b ound
ad em
V ig
T em
Pro tection</w>
Gua tem
Bro kin</w>
war m</w>
vaihe eseen</w>
va gue</w>
un i</w>
työttömy ys
tu ksi</w>
toim ineet</w>
tekn iset</w>
teh täisiin</w>
standar deja</w>
si ä</w>
si ep
sellais enaan</w>
sanot tiin</w>
ro ot</w>
raho itetaan</w>
päätöslausel maan</w>
päälle kkä
painos tusta</w>
packa ging</w>
ni iltä</w>
kilpail uun</w>
kalatalous valiokunnan</w>
join ed</w>
imper ative</w>
il m
hä iri
heik om
fa ult</w>
as ing</w>
ag ents</w>
aff ir
S ar
Portugal issa</w>
Lam ass
H ag
vähen netään</w>
varmista akseen</w>
ud u</w>
tää ksemme</w>
tutkin ta
take ita</w>
suor ittaa</w>
shoul der</w>
remain ed</w>
päätöksentekop ros
pää osin</w>
procure ment</w>
oli itt
ohja us
näkö kohtaa</w>
nä inä</w>
no issa</w>
ni tel
luonno ksen</w>
la j
käyttööno ton</w>
kuolemanrangais tuksen</w>
kirjall isesti</w>
kasvan ut</w>
kar jan
insääd ä
initi ated</w>
ik kaan</w>
id s</w>
id ak
heij as
h ia</w>
gener ated</w>
f e</w>
esitet tyjen</w>
erimiel isyy
entrepren eur
char ged</w>
assu red</w>
asi ain
arti fic
ar ises</w>
aloitte eseen</w>
al us
aik u
Y UT
La w</w>
I I
H o
yhdenmukais taminen</w>
wor th
w on</w>
vat pa</w>
vaka asti</w>
tävä llä</w>
tärke ään</w>
tul tava</w>
takais in
siv uuttaa</w>
rul ing</w>
rec our
raken teen</w>
quic k</w>
pysy vä</w>
prof ound</w>
pim e
perusoikeus kirja</w>
persu ade</w>
pa hem
osoituks ena</w>
myöhä ssä</w>
ministerik ok
mer it</w>
lisään tynyt</w>
käy tävää</w>
kirj aan</w>
kansalais en</w>
kans alle</w>
ir responsible</w>
ic ul
haja u
f light</w>
elv yttä
ed un
dre w</w>
controll ing</w>
civil ians</w>
aj ia</w>
a h</w>
Feder al</w>
Berli inin</w>
3 1.</w>
vaarall ista</w>
vaad in</w>
va illa</w>
un ta
tekem ällä</w>
teh tyä</w>
tarkis tettava</w>
säh kön</w>
suojel tava</w>
sol d</w>
ser ved</w>
resurs sien</w>
recour se</w>
rec eption</w>
re plied</w>
rakenn e</w>
quant ities</w>
politiik at</w>
perustusla ki
perus oikeuksia</w>
periaat teell
perhe en
palvelu ista</w>
oma in</w>
na mes</w>
lu pa</w>
lisää mällä</w>
ku kin</w>
kes kus</w>
ja ettu</w>
it il
i ha
huolestu ttaa</w>
ga ther
ear ning</w>
coun try
c attle</w>
audiovis ual</w>
T or
Ru ij
P eij
Jac ks
G od</w>
öljy ä</w>
é n</w>
ylipää nsä</w>
viime istään</w>
van hu
val inta</w>
tunn is
tta vaa</w>
to tali
t iset</w>
suure lla</w>
san c
pyrk ineet</w>
persecu tion</w>
ne y</w>
mer ili
llis ista</w>
la tions</w>
kum mall
kohd issa</w>
katso en</w>
johta jan</w>
johdon mukaista</w>
ir o</w>
han ded</w>
estima tes</w>
energi aa</w>
descri be</w>
dela yed</w>
cel eb
ce ase</w>
bot tom</w>
ben ch
ar t</w>
P atten
Niger ian</w>
Mé ndez</w>
Migué lez</w>
Bang lades
wh olly</w>
val ppa
vaih toa</w>
up hold</w>
työsken tel
tuom itsem
tun e</w>
ta ku
siirty mään</w>
siirre tään</w>
seuraa via</w>
ro man
re ak
rajo itetaan</w>
rajo issa</w>
puhu maan</w>
määri en</w>
mis sible</w>
ministeri al</w>
mietin tönsä</w>
m os
lah jo
kat sa
k kom
joukko ja</w>
ins truc
hoito on</w>
govern ed</w>
for th</w>
etel än</w>
availa bility</w>
Ti bet</w>
Skot lannin</w>
Milos evi
McK enna</w>
Egyp tin</w>
Buitenwe g</w>
Bel gia</w>
B our
15 .</w>
väl tettävä</w>
tois ensa</w>
tiedotta mista</w>
tarkka ava
tarkis tamista</w>
tarjo amaan</w>
tapa uksista</w>
säilyttä mistä</w>
sup plies</w>
solidaar isuuden</w>
sisä inen</w>
sellais esta</w>
sano tun</w>
ref us
prote in</w>
otta va</w>
naapu re
monimuoto isuutta</w>
m iddle</w>
liikennem uo
lentoyhtiö iden</w>
las kem
kysely tun
kuulu a</w>
ken en</w>
kauppa järjestön</w>
impor ted</w>
identi fication</w>
ic ing</w>
hyök kä
gras s</w>
exper t</w>
coordin ating</w>
conc essions</w>
ammat in
alu ksia</w>
adjus tment</w>
ab and
Sy ria</w>
S ten
O os
Maastrich tin</w>
L in
Ira kiin</w>
7 8</w>
z ero</w>
ymmär tämään</w>
var aan</w>
vahvis tettiin</w>
tu sohjel
thin ks</w>
tekijö iden</w>
suoj ellaan</w>
sub scri
stitu te</w>
sisä istä</w>
sinc ere</w>
simpli fied</w>
sensiti vity</w>
selke ä
san kti
respon ses</w>
respon ds</w>
reg imes</w>
r ar
proportion ate</w>
prior it
peruste in</w>
om i
näkö kohtiin</w>
n an
maks ut</w>
m ic
liitty västä</w>
kohd en</w>
kielte inen</w>
i or</w>
hävi ä
huume iden</w>
gro s
fla gs</w>
disadvanta ged</w>
atz idak
ase tarkasta
arvo asioiden</w>
ansi o
addres ses</w>
abol ished</w>
a ka
S ala
Mic hel</w>
H atzidak
G M</w>
vuod elle</w>
voit toa</w>
vai vaa</w>
täy nnä</w>
tällais essa</w>
tilante ita</w>
tasapaino on</w>
sum mits</w>
sul j
su la
s mu
rinn alla</w>
puite ohjelman</w>
profes sions</w>
periaatte ista</w>
oikeu tettu</w>
määrätieto isesti</w>
muka vuus
mielipite ensä</w>
menetel mää</w>
maks avat</w>
ll isestä</w>
liit on</w>
kyvyt tömy
kke ita</w>
kil u
kemi all
kalta inen</w>
kalas tusla
investoin nit</w>
in direct</w>
ih minen</w>
hah mo
explic it</w>
derog ation</w>
depend ence</w>
ava aminen</w>
amerikkalais ten</w>
all ies</w>
Mercos ur</w>
Indones ia</w>
CO 2</w>
Bour lan
ään töjen</w>
yksikö iden</w>
yhdeks än</w>
vero ja</w>
vas ten</w>
vall itse
ur t
u tilis
tor it</w>
sup ran
strategi asta</w>
recogn ising</w>
puut teet</w>
por tation</w>
pollu ter</w>
pan emaan</w>
onnistu a</w>
olem mekin</w>
men ot</w>
maatalous politiikkaa</w>
luottamu ksell
lausun n
käyt tänyt</w>
kos ta</w>
korostan ut</w>
kokonais uutena</w>
kes tä
kautta kulku
kansalais järjestöt</w>
huomio ita</w>
fal se</w>
euro sta</w>
eläkke iden</w>
ar ki
ap s</w>
any where</w>
Sahar an</w>
Kansain välisen</w>
K o
C us
ymmär tävät</w>
vasta taan</w>
vaikutta nut</w>
uusiutu vien</w>
tä än
tion ally</w>
ter v
ter ly</w>
tarko ituksessa</w>
survi ve</w>
sa vu
s co
ris ke
repres sion</w>
remo ving</w>
ratkais tu</w>
prosecu tion</w>
pol t
per im
oikeu tettua</w>
nä e</w>
mon essa</w>
minuut tia</w>
mi gra
lou kkau
kri isistä</w>
kein ona</w>
kaks ois
järjestel miin</w>
joka isessa</w>
jatku vat</w>
io iden</w>
huomau tus</w>
h innan</w>
h arvo
feder alis
ek onom
doll aria</w>
atten ded</w>
asian aja
arvio imaan</w>
a misessa</w>
W urt
yksi kön</w>
va kaa</w>
tärke iden</w>
tällais issa</w>
tur ns</w>
sään töihin</w>
swi f
sisä markkinoita</w>
regis tration</w>
r é
pö yd
pyy täneet</w>
puuttu minen</w>
problem atic</w>
pohti maan</w>
osallistu misesta</w>
ob ject</w>
news paper</w>
määräraho ista</w>
merkityks estä</w>
mar king</w>
lop pu</w>
laa joja</w>
käyttä en</w>
ker taan</w>
ing redi
in dis
et tujen</w>
esitet tyä</w>
elä mme</w>
elä ker
deple ted</w>
demonstra tions</w>
alue elta</w>
alka vat</w>
M au
Kuu b
Ira kia</w>
Cong o</w>
w o
välis sä</w>
voim aa</w>
vastuun tun
vasta uksena</w>
van ha</w>
tull i
tuleva isuuden
tro u
toimin talin
tieteell istä</w>
tekem ät</w>
tain s</w>
taaks e</w>
soveltamis alaa</w>
slau ghter</w>
progres sive</w>
princip al</w>
prefer red</w>
pan os</w>
osallistu nut</w>
multin ation
men tation</w>
l a</w>
kehittä misessä</w>
jäsen eksi</w>
it än</w>
irregul arities</w>
fo od
een kään</w>
cle an
bi ological</w>
ban aan
arm ing</w>
YM P:n</w>
Y K</w>
U gan
Ri o</w>
Or teg
For um</w>
8 00</w>
viime isenä</w>
vasta isessa</w>
valtio on</w>
tuot e</w>
tuhan sien</w>
tuh la
tapahtu neen</w>
pö y
pää ministerin</w>
pu re
mur der</w>
multination als</w>
lopetta maan</w>
lis ted</w>
koheesi or
kalasta jat</w>
jäsen yyttä</w>
ition ally</w>
intoler able</w>
imp lies</w>
ih imme</w>
hämmästy t
haki ja
foor umi</w>
fer ences</w>
fav oured</w>
fashi on</w>
exer t</w>
c amp
accep ts</w>
Pla th</w>
Oos tlan
Mal m
Izquier do</w>
vih oll
vaale ihin</w>
utta vat</w>
to wn</w>
tavoitte eksi</w>
smu gg
sisäll yttäminen</w>
rikoll isuutta</w>
riittä viä</w>
rahoituks een</w>
puheenvuoros sani</w>
puh u</w>
pu het
pel kää
ni u
min ulta</w>
koordino innin</w>
kokem uksia</w>
kieli ä</w>
keskustelu ihin</w>
keh ystä</w>
integra l</w>
indus tri
incin eration</w>
in sul
ihmis istä</w>
henkilö ille</w>
gros s</w>
fla g</w>
esittä miin</w>
enterpris e</w>
elim et</w>
e tenkään</w>
ar isen</w>
alueell ista</w>
alo itettava</w>
al em
aine ista</w>
aband on</w>
Un kar
S ci
Hau tal
2 1.</w>
yhteisö ä</w>
voimak asta</w>
voima varojen</w>
viljel yn</w>
vil y</w>
vastan nut</w>
vas tin
valmi it</w>
valko isen</w>
val it
ur ged</w>
työsken nell
tus -</w>
ti li
terroris tien</w>
sä v
suure mpia</w>
statis tical</w>
resurs sit</w>
rahoitta miseen</w>
radio active</w>
paran tamisen</w>
op pon
mur der
mietin töjen</w>
mielipid että</w>
ma illa</w>
kuulu via</w>
kriteere jä</w>
koh telu</w>
inter ference</w>
ik e</w>
gra de</w>
enthusias m</w>
enab les</w>
R ec
Mul der</w>
x 017
x017 E</w>
valvonta valiokunnan</w>
useim missa</w>
tin sa</w>
suunta isia</w>
s essions</w>
reh ellisesti</w>
pääse vät</w>
philosoph y</w>
per he</w>
on y
ol ettaa</w>
muutta minen</w>
mo ther</w>
lo ck</w>
li ittää</w>
lev ittä
lap s
käsittel ystä</w>
kiit tämällä</w>
kalastusla i
haluais inkin</w>
feed ing
ex posed</w>
e emme</w>
d omain</w>
ca tes</w>
b un
ais esta</w>
Tunisi an</w>
Por to</w>
Patten in</w>
P ri
K ir
I T
Duisen berg</w>
B SE
ä id
viol ated</w>
uud istaminen</w>
tom en
suuren mo
sa ving</w>
ryh tyy</w>
refus al</w>
päivä stä</w>
pyrkim ykset</w>
prerequ isite</w>
pitkä aik
pakol aisia</w>
muistu tti</w>
merk itsem
lin jaa</w>
kompromis siin</w>
ken enkään</w>
is eltä</w>
integro itu
hyvä nsä</w>
hea vily</w>
ff ers</w>
e ille</w>
di verse</w>
compon ents</w>
avi er</w>
ammatin harjoitta
Pakistan in</w>
M as
Lamass our
Bur und
7 4</w>
vää ren
viipy mättä</w>
velvo ittaa</w>
vasta av
toim ille</w>
to x
tel ep
tarpe ellinen</w>
suhte isiin</w>
sosiaali valiokunnan</w>
si mis
perus tettu</w>
os saan</w>
occu pa
mo tor</w>
laajen netaan</w>
koti maani</w>
komite a
keh itetään</w>
jatku van</w>
ite lla</w>
im alla</w>
hon es
ha ku
gu ard</w>
expen ses</w>
ete nee</w>
eri arvo
e x</w>
comb ine</w>
asu vat</w>
as enn
ala isille</w>
adap ted</w>
a kti
Var ela</w>
Turk kia</w>
J ean</w>
D is
Bos ni
Bend it</w>
B ow
ä ivä
valtion a</w>
vahvis tamiseksi</w>
uu tensa</w>
tiiv istä</w>
thou ghts</w>
syn tyä</w>
survi val</w>
sotilaall isen</w>
sill o
sellais ista</w>
ryhd ytty</w>
rac ist</w>
pää dy
pl ing</w>
perin pohj
part ner
pa kko
mis takes</w>
mahdoll isuudesta</w>
ll ises
lisää vät</w>
laaj empaa</w>
laad itta
kok en
kehittä misestä</w>
kaupan käynnin</w>
ja ko</w>
itsell emme</w>
incredi bly</w>
guid ance</w>
epä toivo
e gu
dis placed</w>
cre d
an tamiseksi</w>
acqu ire</w>
Sch ro
Ol ymp
EU: lla</w>
Bas kim
0 20
vienti ä</w>
us er</w>
työjärjestys puheenvuoron</w>
trans lation</w>
toim en</w>
tiu kkoja</w>
suos ittelen</w>
sosiaali -</w>
renew al</w>
redund an
rau haan</w>
pää ssä</w>
pes simis
perustamis sopimusten</w>
per uu
ope tuksen</w>
off ence</w>
n ö
n yt
mul a</w>
mod est</w>
mis sed</w>
min es</w>
maas saan</w>
laati i</w>
kulutta jan</w>
ku ll
järjet öntä</w>
jälleen rakennus
eriko is
en di
eläker ahas
condem nation</w>
bann ing</w>
alle vi
aja tellaan</w>
Y R
OS CE</w>
F YR
EU: ta</w>
ä pä</w>
w ood</w>
ver kon</w>
työ tään</w>
ty neitä</w>
taloud essa</w>
säte il
stra i
sisä markkinoilla</w>
re vi
re r</w>
r is</w>
r het
rhet or
puh ke
noudat tamisen</w>
n á
messa ges</w>
mainit sitte</w>
luj asti</w>
käytö ssään</w>
käytä nn
kulttuuri a</w>
koskemattom uuden</w>
kollego jen</w>
kilpailu lle</w>
keski pitkällä</w>
kansall isissa</w>
ka un
ite ta</w>
ide ological</w>
f sta
enjo yed</w>
end ang
con sent</w>
asia an
aino ana</w>
aikaan saamiseksi</w>
advo cates</w>
a vien</w>
W yn
Tii bet
Ste ven
Schro ed
Mon te
C ode</w>
A F
19 .</w>
yksi l
vyö hy
vuot is
vir us</w>
vir allinen</w>
vaik ut
va mpia</w>
ultima te</w>
tunn en</w>
tis ista</w>
tarv itsisi</w>
tar mo
take et</w>
sp lit</w>
selvästi kään</w>
rup t</w>
rec ru
rajatyl ittä
ra c</w>
pää tetty</w>
preced ent</w>
p reg
or ds</w>
nes ty</w>
ne istä</w>
määritel mää</w>
mietin töni</w>
mi ks
mat ch</w>
mahdollista vat</w>
luku isat</w>
liik enne</w>
korke a
kolman sista</w>
koheesior ahas
kehitys maat</w>
kau sia</w>
istu a</w>
is sään</w>
inter n
im men
ihmisoikeus toimik
ier ra</w>
huu to
ho fsta
fos si
fem ale</w>
exac erb
energialähte iden</w>
ell in</w>
dec ou
de em
d or</w>
bio fuels</w>
alkan ut</w>
ag ing</w>
Ver hofsta
Napoli tano</w>
G il</w>
Cancú n</w>
A leg
vetoomus valiokunnan</w>
varmaan kin</w>
valvo taan</w>
vaike ita</w>
va kiin
tuomioistuim een</w>
tunn emme</w>
te idät</w>
tarvitta vaa</w>
tarkoite ttujen</w>
tarkas tusten</w>
sään nell
sy iden</w>
suunnitel mat</w>
sis sä</w>
se hän</w>
ra jat
ra dic
pien ille</w>
perustamis en</w>
perus tetaan</w>
op pi
oikeudell iset</w>
nope u
ne essa</w>
laivas ton</w>
korja amiseksi</w>
kohta lo
ko et
ker in</w>
kehitty neiden</w>
kal ainen</w>
jäsenvaltio ilta</w>
järjesty kseen</w>
jä i</w>
joukko on</w>
interven ti
il jel
het ken</w>
es teiden</w>
el po
direktiivi ehdotuksen</w>
des ign</w>
commun icate</w>
comb ination</w>
camp s</w>
b aan
V all
Sing le</w>
Puol an</w>
Ludfor d</w>
Castr o</w>
13 .</w>
vuoti a
voimak kaan</w>
vis as</w>
ves illä</w>
ven ture</w>
vastaa vaa</w>
unequ ivo
train ed</w>
ten sion</w>
te ra
tah to</w>
stran ge</w>
satis fy</w>
riippumattom ien</w>
re verse</w>
pysy vän</w>
puol elle</w>
poten ti
pec ted</w>
pe u
myyn ti
mer ellä</w>
mahdoll isten</w>
maail maan</w>
lääkin tä
lait on</w>
kä stä</w>
kustan nu
kulu n</w>
kul jet
kl and</w>
kka at</w>
kau ksia</w>
kansan äänestyksen</w>
kanna tusta</w>
kamp pail
joulu kuun</w>
ittelu n</w>
it imme</w>
ir ro
inn a</w>
hyödy llisiä</w>
histor ia</w>
har taasti</w>
halu ankin</w>
h re
g n</w>
epäsuor asti</w>
ehkä istä</w>
clos ing</w>
balan ces</w>
annetta isiin</w>
Weg gen</w>
Washing ton
S ud
I m
z er
ve terinary</w>
ur ities</w>
ur ch</w>
töön sä</w>
turvapaikka -</w>
tta van</w>
tiedonan toa</w>
ther to</w>
terrori te
te tussa</w>
tau ti</w>
seuraa vaan</w>
sano ista</w>
rä ike
priva cy</w>
pla t
palk innon</w>
pain ostaa</w>
oll een</w>
ol etteko</w>
notic ed</w>
ni lla</w>
muuta mien</w>
muodos tuu</w>
mu ksen</w>
mu ill
mis el
maks us
lä p
lykä tä</w>
kyseenalais taa</w>
kuu hun</w>
kiinn ittämään</w>
kielte isesti</w>
in issä</w>
ili joiden</w>
hi therto</w>
guid ed</w>
ehdokasvaltio ita</w>
bre ast</w>
b in</w>
auth or</w>
at tien</w>
ammatti yhdisty
alli ance</w>
alko i</w>
alais ena</w>
aikataul u</w>
acqu ired</w>
ab road</w>
a join</w>
T ob
Sch rö
Ques tions</w>
Morill on</w>
M en
J e
EM U</w>
Dec ision</w>
Bulgar ian</w>
yhteiskunnall isen</w>
w ages</w>
vero tusta</w>
vastaa van
vaikutu ksen</w>
tä en</w>
tupa kan
tarkistu ksilla</w>
tar tun
ta val
t telu
synn yttää</w>
suor astaan</w>
soverei gn</w>
sol m
sito via</w>
shar eh
ryö s
reconc ile</w>
pys tyä</w>
pyrkim ys</w>
punis hment</w>
politiik alla</w>
pitää kö</w>
partner ships</w>
parha at</w>
paikka ansa</w>
oikeusasia mies</w>
o inn
neuv on
määr ittää</w>
mill aista</w>
miljoon asta</w>
miel een</w>
mean while</w>
maan viljelijät</w>
m p</w>
lähi aikoina</w>
luet tuina</w>
lor ries</w>
kunn asta</w>
kerr alla</w>
katso vat</w>
jälj elle</w>
itse ämme</w>
in taa</w>
il misel
her rat</w>
fores try</w>
et tuja</w>
ent in</w>
der egu
consolid ation</w>
asianos aisten</w>
alo itan</w>
S peci
Mau rita
Man n</w>
Lan gen
Blo kland</w>
An der
11 .00</w>
yleis sopimusta</w>
vi re
vallankum ou
un its</w>
täyd ellisen</w>
tärke imp
tyytyvä isenä</w>
tunnus tamista</w>
tos opim
toimintasuunnitel ma</w>
tarjo ttava</w>
surpris ing</w>
sub sid
sisä isiä</w>
riippumattom an</w>
ri ito
re forming</w>
ra is
r ase</w>
pres sive</w>
poliitik kojen</w>
poli is
pid en
ná ndez</w>
nor mit</w>
mieles tään</w>
menet tää</w>
mal aria</w>
luonn e</w>
li fer
ket s</w>
kau as
kann alla</w>
järjestel y</w>
[...]
