the 949006
, 677425
. 480319
of 444506
to 425682
and 347282
in 299124
that 227547
a 215430
is 213543
we 148458
this 141571
for 141115
I 138500
on 131056
it 117030
be 115917
are 96308
as 91925
have 90483
not 86520
which 86128
with 81694
@-@ 68630
by 68162
European 65932
will 65591
has 58817
Mr 54115
at 48398
Commission 46698
an 44155
would 43774
all 42130
also 40914
&apos; 40618
- 40546
but 39425
should 38528
our 38378
President 38002
from 37978
must 37918
there 34720
been 34472
you 32207
Parliament 30546
or 29732
can 29642
Union 29389
these 29228
Council 28474
was 28142
&apos;s 27959
do 27679
they 27612
more 27599
its 27049
report 26495
what 26348
like 26345
if 25913
States 25419
their 25270
one 24318
Member 24307
s 24024
very 23948
so 23798
countries 22180
my 21887
other 20652
us 20541
Europe 20445
about 20000
who 19586
only 19232
no 19055
need 18283
up 18193
time 17740
people 17738
now 17673
because 17534
) 17476
policy 17423
( 17347
? 17219
therefore 17036
: 17033
important 16619
out 16426
am 16302
new 16240
such 15609
take 15605
when 15598
however 15493
make 15463
work 15288
EU 14989
those 14855
any 14744
some 14739
into 14493
between 14482
being 14428
way 14309
support 14305
Commissioner 13927
first 13483
made 13323
them 13197
proposal 13125
were 12969
than 12949
ing 12938
political 12870
believe 12454
say 12346
point 12109
many 12092
fact 11854
issue 11819
rights 11811
ed 11801
debate 11592
Committee 11517
/ 11510
able 11426
just 11346
against 11250
re@@ 11211
even 11159
does 10754
question 10688
two 10601
well 10528
right 10507
order 10251
economic 10236
had 10191
here 10079
; 10037
want 9995
public 9991
years 9985
es 9955
ted 9909
how 9888
development 9869
could 9848
social 9824
Mrs 9814
think 9811
cannot 9799
me 9790
situation 9695
same 9627
possible 9616
said 9579
part 9572
within 9558
where 9552
future 9538
un@@ 9463
too 9446
country 9435
human 9427
year 9421
already 9410
today 9300
Community 9262
most 9251
clear 9224
measures 9186
much 9176
t 9123
still 9061
over 9048
view 9002
directive 8942
market 8927
national 8822
use 8820
he 8816
course 8806
why 8799
both 8647
under 8626
then 8621
vote 8592
taken 8564
know 8527
common 8449
his 8400
hope 8369
good 8295
case 8288
last 8125
e 8118
in@@ 8102
your 8094
own 8043
citizens 8009
see 8006
may 7918
ting 7898
b@@ 7892
world 7886
particular 7870
agreement 7830
amendments 7748
system 7741
place 7730
process 7728
thank 7723
rapporteur 7639
number 7623
before 7607
cooperation 7592
information 7517
international 7469
means 7467
without 7405
given 7376
example 7375
position 7277
area 7274
issues 7250
put 7240
level 7186
United 7179
great 7156
end 7149
ensure 7137
action 7116
&quot; 7088
problem 7074
far 7018
House 7000
give 6941
s@@ 6934
dis@@ 6887
financial 6848
since 6810
regard 6791
ts 6772
gentlemen 6742
ladies 6691
problems 6652
proposals 6640
matter 6633
through 6580
long 6550
% 6505
set 6477
legal 6463
again 6456
c@@ 6440
whether 6346
necessary 6321
decision 6302
aid 6265
particularly 6226
Members 6223
law 6210
after 6181
areas 6175
certain 6163
y 6121
basis 6075
adopted 6049
further 6003
er 5991
present 5982
d@@ 5962
women 5905
respect 5900
budget 5874
legislation 5816
next 5780
done 5773
resolution 5769
programme 5754
terms 5694
security 5676
different 5656
behalf 5632
concerned 5596
ation 5564
protection 5551
rules 5496
S@@ 5470
making 5459
wish 5434
subject 5422
opinion 5416
ask 5406
group 5394
services 5339
role 5339
framework 5332
let 5320
safety 5289
come 5266
something 5261
State 5247
going 5223
quite 5206
Group 5185
proposed 5157
few 5142
g@@ 5136
used 5121
three 5114
sector 5106
second 5105
whole 5092
shall 5083
principle 5079
working 5068
health 5040
progress 5038
clearly 5035
enlargement 5005
go 5002
specific 4983
agree 4980
another 4975
down 4923
f@@ 4912
institutions 4862
2001 4855
better 4854
continue 4848
forward 4833
result 4761
e@@ 4753
Convention 4744
Presidency 4721
No 4714
every 4703
once 4701
approach 4691
rather 4687
together 4647
favour 4591
general 4591
regulation 4589
did 4585
welcome 4577
environmental 4561
employment 4543
current 4542
transport 4536
during 4531
o 4514
state 4507
towards 4497
Treaty 4478
million 4468
C@@ 4460
tion 4446
needs 4427
committee 4424
Madam 4410
based 4397
especially 4381
account 4349
itself 4347
greater 4343
importance 4338
finally 4338
conditions 4330
points 4329
help 4321
Affairs 4310
al 4304
least 4294
each 4293
trade 4293
ated 4289
yet 4280
2000 4273
responsibility 4266
third 4264
less 4262
really 4257
deal 4248
having 4238
although 4216
ate 4191
provide 4190
resources 4144
authorities 4139
m 4136
taking 4105
find 4100
peace 4096
industry 4095
serious 4093
become 4079
indeed 4076
fully 4074
opportunity 4062
increase 4055
products 4051
ent 4034
including 4028
always 4003
various 3999
government 3996
EUR 3982
amendment 3978
a@@ 3976
t@@ 3955
A@@ 3954
achieve 3946
regions 3939
allow 3929
control 3929
research 3916
reform 3909
policies 3908
procedure 3901
ers 3887
words 3884
ro@@ 3877
l 3874
call 3872
w@@ 3868
large 3858
2002 3850
high 3841
society 3840
difficult 3834
competition 3829
term 3822
interests 3808
1 3798
hand 3797
negotiations 3794
reason 3789
involved 3784
concerns 3782
access 3777
fundamental 3766
form 3748
consider 3748
her 3742
money 3741
major 3734
back 3730
things 3728
essential 3722
change 3706
P@@ 3700
certainly 3699
following 3699
get 3696
small 3695
decisions 3691
ating 3687
environment 3686
field 3683
real 3679
extremely 3670
accept 3666
an@@ 3659
companies 3649
D@@ 3643
while 3636
p@@ 3632
concern 3627
initiative 3621
R@@ 3616
positive 3607
aware 3605
democratic 3591
look 3576
attention 3572
ity 3557
implementation 3557
democracy 3552
objectives 3531
tions 3525
M@@ 3518
Article 3516
full 3497
al@@ 3495
quality 3490
im@@ 3485
Office 3464
effective 3452
food 3441
majority 3434
objective 3423
simply 3410
internal 3395
efforts 3395
ar@@ 3388
might 3387
step 3384
day 3370
F@@ 3368
energy 3362
freedom 3348
free 3335
open 3323
T@@ 3312
te 3312
often 3307
voted 3305
upon 3294
k 3293
interest 3291
strategy 3287
feel 3285
agreements 3275
text 3268
solution 3266
mentioned 3265
line 3258
force 3250
called 3241
as@@ 3229
perhaps 3229
B@@ 3218
i@@ 3216
others 3216
terrorism 3213
ad@@ 3210
questions 3210
economy 3210
Government 3203
developing 3187
recent 3178
meeting 3173
risk 3155
en@@ 3148
best 3144
ago 3141
war 3139
programmes 3138
groups 3129
start 3110
actually 3105
d 3104
dialogue 3095
power 3093
bring 3091
available 3088
2003 3064
de@@ 3062
life 3060
secondly 3057
ex@@ 3054
management 3048
workers 3045
Amendment 3038
ab@@ 3032
responsible 3029
G@@ 3023
thing 3022
themselves 3019
understand 3005
appropriate 3002
funds 2999
agricultural 2996
matters 2993
2 2992
concerning 2988
i 2986
Rights 2983
fight 2975
members 2975
cases 2969
currently 2963
region 2953
reports 2952
doing 2951
relations 2951
create 2947
parties 2938
single 2917
h@@ 2910
ti@@ 2906
context 2905
L@@ 2905
firstly 2896
o@@ 2895
ic@@ 2893
regional 2888
th@@ 2882
li@@ 2880
Court 2873
months 2863
ly 2854
draft 2837
improve 2816
standards 2798
reasons 2790
nothing 2789
trans@@ 2787
E@@ 2783
ous 2772
on@@ 2770
tive 2766
states 2764
systems 2763
ge 2762
production 2757
main 2753
due 2752
kind 2749
final 2748
comes 2745
children 2745
period 2731
longer 2730
mis@@ 2725
non 2724
! 2723
over@@ 2707
ta@@ 2706
education 2702
mean 2699
though 2693
y@@ 2691
legislative 2683
local 2678
achieved 2676
co@@ 2673
compromise 2669
principles 2668
governments 2668
regarding 2661
moment 2660
results 2658
er@@ 2654
prevent 2650
little 2649
r@@ 2648
ally 2647
organisations 2642
congratulate 2632
joint 2615
agenda 2612
sustainable 2605
3 2604
military 2601
communication 2601
tomorrow 2597
ter 2595
lead 2588
aspects 2585
enough 2579
relation 2579
past 2576
above 2576
effect 2575
tabled 2571
candidate 2568
crisis 2565
true 2558
growth 2555
red 2551
ra@@ 2538
ri@@ 2535
for@@ 2531
regards 2527
makes 2525
apply 2524
needed 2522
agreed 2518
idea 2514
priority 2512
sure 2509
N@@ 2505
p 2502
m@@ 2497
individual 2494
commitment 2493
lack 2484
es@@ 2483
off 2477
key 2476
ten 2475
costs 2472
furthermore 2466
Turkey 2465
Iraq 2464
excellent 2462
ourselves 2455
n@@ 2453
activities 2452
ic 2446
discussion 2445
water 2441
ch@@ 2438
play 2437
she 2435
until 2435
everyone 2434
guarantee 2433
act 2431
special 2428
Conference 2406
fishing 2401
provided 2399
despite 2398
funding 2394
unfortunately 2392
Party 2390
accession 2389
seen 2387
projects 2374
him 2365
several 2363
service 2362
el@@ 2361
balance 2357
practice 2354
contribution 2353
technical 2352
plan 2350
include 2350
presented 2349
adopt 2349
old 2346
con@@ 2337
held 2334
crucial 2333
sense 2330
short 2327
share 2316
civil 2310
impact 2304
addition 2299
provisions 2297
aim 2297
conflict 2295
express 2290
or@@ 2289
le 2288
ying 2287
carried 2286
ds 2280
u@@ 2279
immigration 2273
stage 2271
I@@ 2265
consumers 2263
promote 2261
led 2257
significant 2257
statement 2255
nor 2255
population 2252
soon 2251
1999 2250
procedures 2249
either 2245
UN 2245
euro 2241
never 2239
transparency 2237
according 2234
integration 2226
4 2222
try 2216
item 2215
fisheries 2209
everything 2207
foreign 2206
age 2198
Summit 2197
nature 2194
seems 2188
asked 2188
markets 2180
remain 2178
response 2171
border 2170
saying 2169
colleagues 2166
reading 2165
la@@ 2164
mind 2164
move 2164
Minister 2164
benefit 2163
H@@ 2159
consumer 2159
coming 2156
ma@@ 2152
ies 2149
budgetary 2147
answer 2143
per@@ 2136
11 2135
r 2131
5 2128
expressed 2126
A5 2126
actions 2126
required 2123
using 2122
basic 2119
h 2115
raised 2112
voting 2110
rec@@ 2110
existing 2109
ol@@ 2109
global 2106
request 2104
thus 2104
speak 2103
ding 2100
O@@ 2094
n 2086
throughout 2086
K@@ 2083
light 2082
pay 2076
farmers 2076
training 2068
task 2068
establish 2062
success 2059
000 2058
instead 2054
poverty 2054
ary 2054
als 2053
Policy 2051
ise 2047
closed 2047
increasing 2046
established 2044
pleased 2040
data 2033
list 2033
de 2027
prepared 2022
is@@ 2022
res@@ 2021
cultural 2021
l@@ 2020
labour 2017
ever 2012
15 2010
previous 2008
young 2002
re 2002
effort 2002
five 2001
business 2000
road 1999
reached 1998
table 1998
tax 1994
criteria 1993
be@@ 1991
application 1990
res 1989
Lisbon 1986
ges 1984
changes 1983
namely 1982
initiatives 1981
6 1979
10 1979
equal 1976
z@@ 1976
requirements 1972
asylum 1972
among 1965
close 1964
12 1962
approved 1959
waste 1959
decided 1955
doubt 1954
justice 1954
project 1952
consequences 1948
regulations 1945
ble 1942
values 1942
representatives 1940
presidency 1940
stability 1939
around 1936
implemented 1935
under@@ 1933
included 1931
pre@@ 1931
tes 1928
whose 1928
moreover 1927
op@@ 1926
ac@@ 1923
relating 1922
four 1919
Russia 1917
week 1917
rule 1916
g 1915
French 1911
lo@@ 1910
monitoring 1909
recently 1907
note 1905
draw 1903
ir@@ 1902
ec@@ 1902
illegal 1901
mention 1900
te@@ 1898
Nations 1897
coordination 1897
face 1894
ings 1891
honourable 1891
September 1888
Mediterranean 1885
external 1885
cost 1884
keep 1884
id@@ 1883
community 1880
ence 1877
extent 1877
ve 1874
amount 1865
private 1865
completely 1865
nevertheless 1864
defence 1863
thanks 1860
si@@ 1857
East 1857
develop 1855
violence 1855
ations 1854
times 1851
address 1851
est 1851
assistance 1850
cause 1847
ters 1847
priorities 1845
practical 1843
ability 1843
elections 1843
guidelines 1841
ful 1840
crime 1839
di@@ 1838
solidarity 1834
powers 1831
France 1830
conclusion 1826
side 1825
precisely 1823
absolutely 1823
strong 1823
up@@ 1822
pressure 1819
20 1817
en 1814
took 1812
protect 1811
talking 1809
live 1808
almost 1806
nuclear 1806
giving 1804
fellow 1802
Spanish 1800
connection 1800
investment 1799
jobs 1797
meet 1793
follow 1789
creation 1786
takes 1782
across 1782
received 1777
value 1775
considered 1775
2004 1773
7 1771
levels 1770
air 1768
capacity 1768
reduce 1764
tell 1763
vi@@ 1763
show 1761
bo@@ 1760
demand 1759
x@@ 1758
experience 1756
turn 1756
su@@ 1756
men 1755
scope 1751
quickly 1750
focus 1750
left 1749
discussed 1747
specifically 1746
increased 1744
ha@@ 1742
ap@@ 1736
direction 1736
ded 1735
reality 1735
rate 1734
date 1733
found 1733
talk 1726
applied 1723
to@@ 1723
behind 1723
Nos 1721
document 1720
self 1720
reference 1719
liberalisation 1718
gu@@ 1716
ten@@ 1713
W@@ 1713
implement 1710
accordance 1707
em@@ 1707
reach 1706
borders 1705
away 1705
unacceptable 1695
victims 1694
movement 1692
job 1690
instruments 1690
days 1689
per 1687
knowledge 1686
conclusions 1685
brought 1684
add 1678
parliamentary 1675
stated 1672
proper 1671
discussions 1671
developed 1668
assessment 1665
oil 1660
x 1659
opportunities 1657
effects 1656
relevant 1654
Brussels 1651
Nice 1651
animal 1650
direct 1648
criminal 1647
ment 1647
sectors 1647
enable 1647
December 1646
forms 1646
American 1643
known 1641
events 1640
8 1640
discuss 1633
propose 1630
comments 1629
instrument 1629
considerable 1624
possibility 1620
WTO 1619
it@@ 1617
along 1617
type 1616
heard 1614
overall 1612
reforms 1610
outside 1608
ates 1608
review 1606
agriculture 1606
9 1601
treatment 1599
pi@@ 1597
additional 1594
price 1594
V@@ 1593
supported 1591
circumstances 1589
tic 1588
tors 1587
Directive 1587
authority 1583
participation 1581
creating 1581
carry 1580
Mar@@ 1577
ans 1573
family 1573
motion 1572
referred 1571
consideration 1571
General 1568
ents 1565
myself 1559
yesterday 1559
Israel 1559
k@@ 1558
trying 1558
affected 1557
model 1557
institutional 1556
land 1555
le@@ 1553
no@@ 1553
avoid 1553
speaking 1552
sta@@ 1550
provision 1548
Justice 1548
accepted 1546
fair 1544
ness 1543
v@@ 1542
World 1540
content 1538
animals 1536
US 1533
stand 1531
tri@@ 1530
ty 1529
ine 1528
difficulties 1528
half 1525
wanted 1525
huge 1522
complete 1521
et 1521
total 1520
Palestinian 1520
encourage 1516
cohesion 1514
purpose 1513
obviously 1513
Charter 1509
views 1507
goes 1506
inter@@ 1504
25 1503
active 1503
humanitarian 1500
confidence 1499
hard 1499
party 1499
genuine 1498
documents 1498
ban 1497
ways 1493
begin 1493
allowed 1491
administrative 1490
plans 1489
ks 1487
poor 1485
urgent 1481
potential 1481
care 1481
structural 1480
00@@ 1479
discrimination 1478
six 1477
qu@@ 1477
Africa 1477
Security 1474
anything 1473
us@@ 1470
tor 1469
car@@ 1467
rightly 1467
death 1466
ture 1466
billion 1466
sufficient 1464
Italian 1464
partners 1463
building 1462
event 1461
looking 1461
offer 1461
Ireland 1460
intended 1457
und@@ 1457
beginning 1457
sort 1455
damage 1452
method 1452
30 1451
sh@@ 1450
forces 1448
setting 1446
session 1445
demands 1445
dealing 1444
limited 1443
organisation 1442
Regulation 1442
status 1441
vital 1440
B5 1440
implementing 1439
America 1438
scientific 1436
remind 1435
paid 1435
regime 1434
refer 1433
broad 1428
remains 1428
ality 1427
stress 1420
lot 1419
Republic 1419
combat 1418
receive 1418
expect 1416
minimum 1413
mission 1413
Germany 1412
gh@@ 1412
king 1411
return 1411
Bank 1411
om@@ 1410
police 1410
comment 1409
A 1408
definition 1407
committed 1405
commitments 1405
50 1403
risks 1400
coun@@ 1398
sion 1398
summit 1398
measure 1395
ia 1395
lines 1394
cross 1394
speech 1391
seriously 1391
medium 1391
directives 1388
J@@ 1388
establishing 1387
ance 1387
effectively 1387
dec@@ 1386
Paper 1386
ag@@ 1385
prevention 1384
Amendments 1383
ical 1383
sitting 1382
acceptable 1382
ant 1381
reduction 1380
Middle 1380
pointed 1379
ins@@ 1378
il@@ 1371
pl@@ 1371
sometimes 1370
Environment 1370
man 1369
strengthen 1368
directly 1368
package 1368
living 1366
beyond 1365
staff 1364
decide 1363
personal 1362
Agreement 1362
ising 1359
created 1358
technology 1356
message 1355
highly 1354
stop 1353
late 1353
Irish 1352
improving 1351
pa@@ 1350
inc@@ 1348
British 1347
contribute 1346
organised 1346
der 1345
Prodi 1344
happen 1343
providing 1343
requires 1343
applies 1341
respond 1340
ism 1340
related 1338
hold 1335
alone 1334
recognise 1332
limit 1331
activity 1330
MEPs 1330
maintain 1330
min@@ 1329
traffic 1328
provides 1328
balanced 1328
ce 1327
developments 1326
Development 1324
aspect 1322
word 1320
discussing 1320
gra@@ 1320
vo@@ 1320
annual 1319
ensuring 1319
delegation 1318
fish 1317
pro@@ 1315
el 1315
Human 1314
shown 1313
ter@@ 1312
expenditure 1312
outcome 1309
June 1309
businesses 1309
parliaments 1308
Ministers 1307
earlier 1306
sa@@ 1306
emphasise 1306
weapons 1306
produced 1305
Spain 1305
alised 1304
contrary 1304
language 1304
regret 1303
produce 1303
bodies 1301
later 1299
concept 1299
lastly 1298
successful 1296
tr@@ 1295
ling 1294
analysis 1292
calls 1292
independent 1292
urge 1291
caused 1291
China 1291
13 1290
ed@@ 1289
closely 1288
2@@ 1287
Democrats 1287
Rules 1286
leave 1286
require 1286
exist 1286
cor@@ 1284
International 1284
ver@@ 1281
se@@ 1281
fa@@ 1281
par@@ 1281
positions 1279
early 1278
similar 1278
body 1277
entire 1277
natural 1276
culture 1275
tra@@ 1275
C5 1271
laid 1271
war@@ 1270
increasingly 1270
study 1269
whom 1268
naturally 1265
networks 1264
consultation 1264
reply 1264
lives 1263
ou@@ 1261
useful 1258
rural 1258
adoption 1258
join 1257
happened 1257
challenge 1256
sensitive 1254
fall 1252
Swedish 1252
probably 1250
Central 1248
Foreign 1248
appear 1247
press 1246
product 1246
solutions 1246
history 1245
scale 1244
responsibilities 1243
parts 1240
colleague 1240
person 1239
.@@ 1236
Greece 1236
properly 1235
capital 1232
sanctions 1231
thought 1230
steps 1228
morning 1228
paragraph 1227
dangerous 1227
flexibility 1227
gives 1227
thinking 1227
dealt 1222
co 1220
resolutions 1219
attempt 1219
um 1217
wrong 1217
company 1217
ged 1217
board 1217
achieving 1216
prices 1216
partnership 1215
goods 1214
calling 1214
am@@ 1213
home 1212
wants 1212
compl@@ 1211
thirdly 1211
acc@@ 1209
low 1209
drawn 1208
sub@@ 1207
manner 1207
at@@ 1206
ised 1206
In@@ 1206
rest 1204
disease 1204
Fund 1203
od@@ 1203
network 1203
cover 1202
ur@@ 1202
ill@@ 1200
convinced 1199
na@@ 1198
pension 1198
May 1197
ci@@ 1197
ground 1196
ch 1194
consensus 1194
elements 1193
critical 1193
Afghanistan 1192
actual 1190
he@@ 1190
benefits 1189
C 1187
higher 1187
b 1186
South 1186
name 1186
met 1184
Social 1183
O 1182
spirit 1182
becoming 1182
administration 1181
promoting 1181
weeks 1181
rapporteurs 1178
neither 1178
improved 1177
conclude 1177
else 1177
Procedure 1176
duty 1176
mar@@ 1176
equality 1175
addressed 1174
introduced 1172
tly 1171
cut 1171
tan@@ 1166
laws 1166
failure 1165
Health 1164
combating 1164
represent 1163
ess 1163
submitted 1162
introduction 1162
relationship 1162
terrorist 1162
whilst 1160
introduce 1158
fin@@ 1158
iting 1158
hear 1157
sive 1154
tu@@ 1154
ked 1150
desire 1150
seek 1149
involving 1148
alisation 1147
har@@ 1147
January 1146
ins 1146
recognition 1146
judicial 1146
central 1145
rail 1144
sound 1144
informed 1144
methods 1142
run 1140
The 1140
says 1138
ently 1138
evidence 1137
supply 1135
ul@@ 1134
opening 1133
understanding 1132
se 1131
competitive 1131
efficient 1130
refugees 1130
ide 1128
Italy 1126
UK 1126
ho@@ 1126
happy 1124
raise 1124
fication 1124
wide 1124
otherwise 1124
media 1123
et@@ 1122
alternative 1122
intervention 1120
substantial 1120
ep@@ 1120
nonetheless 1119
unable 1118
bear 1117
industrial 1116
entirely 1115
asking 1115
ll@@ 1115
differences 1114
Pact 1114
sea 1113
comp@@ 1113
exactly 1113
shows 1112
threat 1112
disaster 1111
supporting 1111
financing 1110
intention 1110
c 1109
va@@ 1108
enormous 1107
fe@@ 1107
operation 1106
os@@ 1106
Constitution 1105
mainly 1104
big 1104
ought 1103
Economic 1102
lu@@ 1102
14 1101
ously 1100
Internet 1100
degree 1099
substances 1099
wa@@ 1098
recognised 1098
remember 1097
sc@@ 1097
th 1095
trafficking 1095
totally 1094
Public 1094
fied 1093
ge@@ 1092
establishment 1092
rates 1091
commercial 1091
ish 1089
repeat 1088
signed 1088
02@@ 1088
leaders 1087
debates 1086
01@@ 1084
March 1084
closer 1083
danger 1083
rise 1082
exc@@ 1082
statements 1082
anyone 1081
speakers 1080
getting 1080
anti 1080
choice 1079
Intergovernmental 1078
plenary 1077
reject 1077
conference 1075
worked 1074
Funds 1073
influence 1070
ments 1070
cha@@ 1069
ahead 1069
fying 1068
mon@@ 1068
opposition 1068
structure 1067
seem 1067
People 1066
member 1065
reducing 1065
ran@@ 1065
safe 1064
her@@ 1064
ving 1063
ports 1062
unemployment 1062
adopting 1061
meetings 1060
COM 1059
Structural 1059
added 1058
former 1058
pollution 1058
contains 1057
immediately 1057
conf@@ 1056
works 1055
trust 1055
extend 1055
November 1054
ke 1054
read 1054
simple 1052
discharge 1052
ms 1050
told 1050
subsidies 1050
emissions 1050
out@@ 1047
climate 1046
Kingdom 1046
appears 1046
correct 1045
fund 1045
po@@ 1043
putting 1043
send 1042
wishes 1042
40 1042
tation 1041
ship 1040
ig@@ 1040
strategic 1039
reasonable 1039
seeking 1038
merely 1037
les 1037
advantage 1037
subsidiarity 1036
Greek 1036
criticism 1036
exchange 1035
origin 1035
managed 1034
me@@ 1033
liber@@ 1033
elected 1030
Austria 1030
conc@@ 1030
recommendation 1029
rejected 1026
pe@@ 1026
ist 1025
exercise 1024
ar 1024
ideas 1023
ambitious 1023
resolve 1021
pen@@ 1020
consequently 1019
improvement 1019
leading 1019
fy 1018
attitude 1017
chance 1017
pos@@ 1017
ships 1014
enterprises 1014
German 1012
EC 1011
constitutional 1010
acts 1009
evaluation 1009
recommendations 1008
impossible 1008
yes 1007
covered 1007
speed 1006
amongst 1005
thousands 1005
Legal 1005
port 1005
integrated 1000
alist 999
fear 999
harmonisation 998
proposing 998
Treaties 996
03@@ 996
build 994
ved 994
situations 993
opposed 993
intend 992
Trade 991
constructive 991
forget 991
reduced 991
conciliation 991
comply 990
peoples 990
P 990
complex 988
figures 988
ones 988
aimed 988
ative 986
dimension 986
Kosovo 986
range 986
fraud 985
transparent 984
institution 983
arms 982
sent 981
greatest 981
affairs 981
granted 980
mer@@ 980
3@@ 979
controls 977
guarantees 974
fi@@ 974
obligations 974
2006 972
constitution 972
represents 971
Europeans 971
easy 970
compensation 970
Prime 968
Christian 967
grounds 966
arrangements 966
October 966
mandate 966
came 966
starting 965
&apos;@@ 964
Barcelona 964
ious 963
series 962
applause 962
challenges 961
competence 960
practices 959
cing 958
defined 958
aims 958
ck 958
continuing 957
bringing 957
appeal 956
declaration 955
ass@@ 954
supports 954
comprehensive 954
1998 953
mutual 953
efficiency 952
com@@ 952
sho@@ 951
il 951
sized 951
ad 950
Portugal 949
changed 949
strongly 948
temporary 948
drugs 947
immigrants 946
votes 944
structures 944
involve 943
office 943
July 942
infrastructure 942
official 942
initial 942
North 940
attacks 940
detailed 939
payments 939
hu@@ 938
employees 938
ically 936
wor@@ 936
original 935
Danish 935
ev@@ 934
ca@@ 933
child 932
5@@ 931
sur@@ 930
18 929
cr@@ 927
diversity 927
appropriations 927
approval 927
designed 927
16 926
languages 925
whatever 924
speci@@ 924
export 924
globalisation 923
Stability 923
targets 922
territory 922
ita@@ 922
Green 922
Portuguese 921
competitiveness 920
failed 919
representative 919
hing 918
ors 917
highlight 917
month 916
likely 916
lies 915
Turkish 915
carefully 914
lost 914
agencies 913
bly 912
pensions 912
explain 911
grateful 911
med 911
unless 910
presence 910
adequate 909
den 909
proposes 909
ian 909
negative 908
Sweden 907
facing 907
des@@ 905
19@@ 905
Cyprus 905
producers 904
mi@@ 904
du@@ 904
Chamber 904
ely 904
ys 904
apart 902
justified 902
detail 902
do@@ 902
Israeli 902
limits 901
delay 900
Russian 900
Patten 900
involvement 899
é@@ 899
enter 898
tasks 898
ry 897
ens 897
personally 896
consistent 894
Strasbourg 893
generally 893
round 892
willing 892
sup@@ 892
contributions 891
ial 891
suffering 891
persons 890
faced 890
mp@@ 890
resolved 889
happening 888
mechanisms 888
beings 888
strengthening 887
please 886
interesting 886
j@@ 884
spent 884
floor 883
followed 881
bad 881
element 881
income 880
bu@@ 879
inform 877
concrete 877
def@@ 877
alism 877
fail 875
insurance 875
ell@@ 874
ni@@ 874
Belgian 874
growing 873
immediate 873
sides 872
tor@@ 871
obvious 871
keeping 870
includes 870
serve 869
stocks 869
NATO 869
binding 867
perspective 866
bi@@ 866
distribution 864
operations 864
gave 864
occasions 862
Chechnya 862
ities 861
currency 859
ming 859
Programme 859
ow@@ 857
causes 856
vis@@ 856
ACP 856
man@@ 855
forced 854
fine 854
Rule 853
bur@@ 852
attack 852
letter 851
tional 851
compliance 851
linked 849
au@@ 848
communities 848
ste@@ 847
Al@@ 847
wing 846
F 846
standard 844
existence 844
maritime 844
H 843
tobacco 843
ven@@ 842
Consumer 842
maximum 839
participate 839
expression 839
types 837
Monetary 837
u 837
fishermen 837
noise 837
equally 836
pla@@ 836
committees 836
sp@@ 835
read@@ 834
affect 834
heart 833
Copenhagen 833
tical 832
ws 832
ire 831
difference 830
USA 830
flexible 829
Research 829
ering 829
factor 829
obtain 828
destruction 828
grant 827
via 827
started 827
impose 826
p.m. 826
secure 826
Agency 826
goal 825
realise 824
forthcoming 824
ite 824
test 822
rapid 821
planning 820
end@@ 820
families 820
drawing 819
sign 819
zone 819
promotion 817
hor@@ 817
April 817
ver 817
respected 815
Fundamental 815
visit 813
obligation 812
ably 811
ned 810
White 810
factors 808
expected 807
han@@ 807
travel 806
protecting 805
numerous 805
um@@ 804
played 804
mu@@ 804
17 803
worse 803
interested 803
6@@ 803
campaign 803
endorse 802
link 802
moving 802
shared 801
tic@@ 800
Euro 800
defend 800
Agriculture 798
nations 798
farming 797
purposes 796
Auditors 796
D 796
politics 795
lower 794
worth 794
taxation 794
4@@ 793
briefly 793
requirement 793
knows 792
experts 792
thereby 792
Budgets 791
finance 791
cre@@ 790
space 790
truly 789
fighting 789
ultimately 789
wards 787
ru@@ 787
professional 786
officials 785
conduct 785
U@@ 785
20@@ 784
demonstrated 784
ready 783
ps 783
tory 783
reaching 783
Commissioners 783
accidents 781
improvements 781
Market 781
PPE 780
burden 780
contained 779
surely 778
tried 778
tically 777
instance 776
pres@@ 775
ements 775
ons 775
timetable 774
source 774
entitled 774
diseases 774
represented 773
material 773
continued 772
historic 772
conflicts 772
continues 771
Internal 771
continent 771
Balkans 771
reflect 770
monitor 770
holding 770
cl@@ 770
sions 769
oc@@ 769
imposed 769
ition 769
treated 769
extended 768
citizen 768
qualified 767
passed 767
legitimate 766
Protocol 765
legisla@@ 764
electronic 763
opinions 762
&#93; 762
mass 762
DE 761
genuinely 761
Liberal 761
separate 761
guaranteed 760
&#91; 759
talks 759
bility 758
confirm 757
ministers 757
suggest 756
ban@@ 756
Amsterdam 755
van 754
precise 753
peaceful 751
sources 751
traditional 751
ered 750
ches 750
Organisation 750
tar@@ 750
fer@@ 749
21 749
FR 749
mo@@ 748
pu@@ 748
penalty 748
hed 747
demonstrate 746
brief 746
realistic 745
voluntary 745
NGOs 745
considering 744
ear@@ 744
emergency 744
ties 743
crimes 743
delighted 743
Budget 743
meat 743
emphasis 742
z 742
nation 742
ud@@ 742
concluded 741
gener@@ 741
dignity 741
pass 740
hence 740
evening 740
encies 740
examine 739
eding 739
amounts 739
credibility 739
option 739
R 739
manage 738
lic@@ 738
monetary 737
operators 737
ency 737
tics 737
dependent 736
restrictions 736
60 736
labelling 734
clarify 733
operate 733
allowing 733
politicians 733
codecision 733
we@@ 733
intends 732
Kyoto 732
vessels 731
African 731
permanent 730
24 729
Laeken 729
regulatory 728
gender 728
stands 727
ses 727
impression 726
involves 726
isation 725
noted 725
ob@@ 725
placed 724
phase 724
Common 724
somewhat 723
tal 723
happens 722
sed 722
vehicles 721
technologies 721
modern 721
election 721
perfectly 720
night 720
applying 720
determination 720
written 720
19 719
tant 719
undertaken 719
ft 719
occasion 718
waters 718
gen@@ 717
Denmark 717
Netherlands 716
tered 716
centre 716
examples 716
requested 715
fleet 715
assure 715
payment 715
hands 715
capable 714
emb@@ 713
ind@@ 713
minority 713
agency 712
tragic 712
ves 712
association 712
os 711
oral 710
Transport 710
liability 710
felt 710
ard 709
define 709
voice 709
hes 708
lan@@ 708
23 708
ching 708
ne@@ 708
proceed 707
bilateral 707
religious 707
eg@@ 706
encouraging 706
places 706
Con@@ 706
resid@@ 706
approve 705
exists 705
top 705
ants 705
men@@ 704
nationals 704
revision 703
gone 703
insist 703
sing 702
latter 702
post 701
hours 701
pre 701
II 701
facilitate 699
bit 698
strict 698
pillar 697
operating 697
awareness 697
solve 697
ay 697
tackle 696
BSE 696
ese 695
entry 694
ging 694
signal 694
fra@@ 693
innovation 693
welcomed 692
negotiating 692
Latin 692
ker 691
i.e. 690
22 690
membership 690
freedoms 690
spending 689
safeguard 689
Home 689
mechanism 689
easier 688
bar@@ 688
welfare 688
proceedings 688
fac@@ 688
target 688
head@@ 688
courage 688
primary 687
iti@@ 686
base 686
individuals 686
ys@@ 686
ession 685
pr@@ 684
learn 684
processes 683
head 683
scheme 683
ily 682
proc@@ 682
sor@@ 682
protected 682
court 681
debt 681
ines 680
04@@ 680
80 679
preparing 679
ces 678
Car@@ 678
Zimbabwe 678
foot 677
contracts 676
Authority 676
operational 676
reconstruction 676
condemn 676
room 675
tourism 675
tives 675
ately 674
gain 674
rich 673
Energy 673
considers 673
convention 673
ot@@ 673
wonder 672
hol@@ 672
1@@ 671
oun@@ 670
lim@@ 670
ill 669
believes 669
February 669
firm 669
inf@@ 669
IGC 669
described 668
independence 666
ure 666
implications 666
politically 666
Z@@ 666
Assembly 666
id 665
confirmed 665
100 665
century 664
ics 664
Heads 664
urgency 663
lose 663
explanation 662
Employment 662
users 662
planned 662
Fisheries 662
maintaining 661
spoken 661
Industry 660
sensible 660
the@@ 660
union 659
Saddam 658
preventing 657
allocated 657
consumption 657
details 656
satisfied 656
stu@@ 656
extension 655
decisive 655
substance 654
referring 654
cy 654
kept 653
wait 653
27 653
og@@ 652
glad 652
alise 650
got 650
E 650
ages 649
changing 649
studies 649
turning 649
medicines 649
texts 648
recovery 648
pursue 648
transfer 648
condition 647
tin@@ 647
ethnic 647
relates 646
average 646
published 646
Europol 646
Schengen 646
introducing 645
exclusion 645
valuable 645
normal 645
sexual 645
governance 645
tively 644
prove 642
dra@@ 642
contain 642
70 642
clause 641
compulsory 641
effectiveness 641
learning 641
associated 640
considerations 640
remarks 639
accident 638
afternoon 638
seeks 638
bom@@ 637
competences 637
spec@@ 637
tur@@ 636
friends 636
so@@ 635
che@@ 635
satisfactory 635
OLAF 635
equipment 635
mobility 635
speaker 634
compared 634
requests 633
elsewhere 633
essentially 633
paper 633
eng@@ 633
Socialists 632
... 631
feed 631
Iran 630
disasters 629
suggested 629
ours 629
overcome 629
electricity 629
seeing 629
shor@@ 628
goals 628
Greens 628
coherent 627
announced 627
tw@@ 625
gi@@ 625
der@@ 625
legally 624
highest 624
contact 624
PT 624
sufficiently 623
maintained 623
opposite 623
acy 623
gas 623
prepare 622
understood 622
submit 622
twenty 622
itation 622
supplementary 622
behaviour 621
careful 621
category 621
facts 620
amended 620
excessive 620
racism 620
possibly 619
competent 619
stre@@ 619
sport 619
standing 619
daily 619
argument 619
minorities 619
allows 618
investments 618
generation 618
noon 618
posed 617
proof 617
determined 617
statistics 617
sus@@ 617
finding 616
domestic 616
arguments 616
31 616
abuse 616
thanking 615
atta@@ 615
obstacles 615
ak@@ 615
rac@@ 614
exploitation 614
constitu@@ 614
vision 614
ton@@ 613
latest 613
Solana 613
Iraqi 613
Regional 612
Sch@@ 612
all@@ 611
largely 611
running 610
referendum 610
spoke 609
reiterate 609
fulfil 609
ets 609
double 609
basically 607
constantly 607
firmly 606
conver@@ 606
helping 606
expectations 606
collective 606
Presidents 605
ric@@ 605
28 605
mid 604
millions 604
assume 603
enc@@ 603
advantages 603
S 603
counter 602
construction 602
advice 601
ists 601
waiting 601
record 600
heading 600
cement 600
function 600
mark 600
GMOs 600
producing 599
succeed 599
modified 599
Macedonia 599
chairman 598
ess@@ 598
sen 598
taxes 598
ff@@ 598
bre@@ 598
ory 597
cooperate 597
obliged 597
constitute 597
saw 597
sha@@ 596
por@@ 596
indicated 595
purely 595
southern 595
truth 594
blood 594
ential 593
ren@@ 592
acknowledge 592
claim 591
playing 591
disposal 591
ile 590
yer 590
mouth 590
choose 589
fla@@ 589
ders 589
partly 588
teen 588
fields 588
Fischler 588
primarily 588
ences 588
selec@@ 588
Ombudsman 587
formal 586
equ@@ 586
figure 586
ke@@ 585
cu@@ 585
imagine 584
etc 584
technological 584
treaty 584
armed 584
chan@@ 583
communications 583
ase 583
seven 583
actively 583
CAP 583
highlighted 582
united 582
concentrate 581
ght 581
inadequate 580
ends 580
lation 580
becomes 580
ery 580
inclusion 580
profit 579
appreciate 579
super@@ 579
poorest 579
cap@@ 579
ust 579
functioning 579
An@@ 579
difficulty 579
formed 579
absolute 578
universal 578
den@@ 577
ka@@ 577
assess 577
brings 577
passengers 577
pe 576
built 576
Per@@ 576
carrying 575
Morocco 575
debating 574
External 574
our@@ 574
foremost 574
quotas 574
advis@@ 573
amending 573
bs 573
lated 572
trading 572
suffer 572
uses 572
ats 572
television 571
necessarily 571
Geneva 571
species 571
parliament 570
leads 570
meant 569
relatively 569
economies 569
tragedy 569
exception 568
Socialist 568
undoubtedly 568
Citizens 568
Asia 568
fuel 568
ils 567
1997 567
minutes 567
willingness 567
extensive 567
societies 567
options 567
aside 567
ple@@ 566
path 566
issued 566
ice 566
26 566
ei@@ 566
arrest 566
Johannesburg 566
acting 565
refers 565
car 565
industries 564
Gu@@ 564
Britain 564
sets 564
reaction 564
elled 564
ph@@ 564
oper@@ 563
pas@@ 563
cro@@ 563
attempts 563
processing 563
uni@@ 562
employed 562
illustra@@ 562
Thursday 561
Ma@@ 561
ang@@ 561
urgently 561
New 561
proved 560
Secretary 560
stressed 560
lay 560
Freedoms 560
accounts 560
ber@@ 559
remove 559
Framework 559
Western 558
Constitutional 558
strategies 557
ward 557
hopes 557
nobody 557
SMEs 556
follows 556
greatly 555
railways 555
sec@@ 555
stock 555
core 554
answers 554
Hussein 554
unanimously 553
stable 553
himself 553
aircraft 553
went 552
advance 552
tool 552
liberal 552
tro@@ 552
inten@@ 551
ethical 551
preparation 550
bro@@ 550
fo@@ 550
offers 550
absence 550
eight 550
proportion 549
ries 549
High 549
Defence 549
violations 548
transitional 548
manufac@@ 548
prof@@ 548
materials 547
emphasised 547
mil@@ 546
negotiation 546
succ@@ 546
ECB 546
identified 546
dly 545
Erika 545
delays 545
governing 545
openness 545
35 544
wider 544
lin@@ 544
minister 544
Belgium 543
regular 543
offered 543
imports 543
elderly 543
resulting 542
multi@@ 542
1.@@ 542
pul@@ 542
charges 542
exports 542
incorporated 541
version 540
uniform 540
ices 540
preparations 540
railway 540
significance 539
ration 539
sight 539
completed 539
ther 539
ology 539
airlines 539
ger 538
bloc@@ 538
terrorists 538
stance 538
solely 537
died 537
Control 537
budgets 537
0.@@ 537
declared 536
Eastern 536
pose 536
ator 536
loss 536
Vice 535
restructuring 535
ite@@ 535
patent 535
Bush 535
ongoing 534
migration 534
opened 534
deals 534
Euro@@ 534
ene 533
Qu@@ 532
prosperity 532
friendly 532
duties 532
release 532
renewable 531
schemes 531
extending 531
ances 531
2005 530
vation 530
deserves 530
Luxembourg 530
near 530
falls 530
author@@ 530
code 528
less@@ 528
founded 528
honour 528
sovereignty 528
Pro@@ 528
prefer@@ 528
subjects 527
gs 527
cies 527
complicated 526
ement 526
extra 526
leg@@ 525
f 525
news 524
acquis 524
back@@ 524
sustainability 524
7@@ 524
unfair 524
protocol 524
listen 523
looked 523
alising 523
Ber@@ 522
debated 522
moral 522
wh@@ 522
neighbours 522
background 521
ars 521
remaining 521
Minutes 520
emplo@@ 520
none 520
ine@@ 520
off@@ 520
ced 519
speeches 519
Financial 519
considerably 518
perc@@ 518
distor@@ 518
profits 518
legitimacy 518
massive 518
eye 518
fire 517
importantly 517
guaranteeing 517
dem@@ 517
citizenship 517
partner 517
Statute 517
links 516
justify 516
Association 516
suffered 515
commun@@ 515
heavy 515
someone 514
presenting 514
concent@@ 514
restricted 514
ann@@ 513
prior 513
aring 513
employers 513
Korea 513
Palestinians 513
drug 513
depth 512
ore 512
fore@@ 512
Dutch 511
sorry 511
credit 511
marketing 510
fifteen 510
Cuba 510
granting 509
ining 509
coherence 509
iled 509
quote 509
identity 509
previously 508
Ar@@ 508
ler 508
arise 508
0@@ 507
intentions 507
respects 507
regulated 507
front 507
dynamic 507
medical 507
mod@@ 506
spend 506
representation 506
preser@@ 505
satisfaction 505
enlarged 505
launched 505
pet@@ 505
familiar 504
piece 504
wording 503
Tourism 503
interpretation 503
property 503
collec@@ 503
spread 503
undertakings 503
stake 503
COD 502
bearing 502
whereas 502
investigation 502
dev@@ 502
Budgetary 502
sis 502
pointing 501
fewer 501
90 501
29 501
deficit 501
ris@@ 501
ards 500
Americans 500
atory 500
coordinated 500
reservations 499
enjoy 499
them@@ 499
barriers 499
outstanding 499
fairly 499
trac@@ 499
facilities 499
postal 499
possibilities 498
size 498
sum 498
Gothenburg 498
addressing 498
organise 497
bra@@ 497
bing 497
plants 497
topic 497
numbers 497
courts 496
usual 496
tre@@ 496
gap 496
drafting 496
affects 496
accordingly 496
plant 496
welcomes 496
br@@ 496
Finland 495
loc@@ 495
stipu@@ 495
deplo@@ 495
feeling 494
roads 494
powerful 494
Stockholm 494
easily 494
ne 494
arch@@ 494
break 494
que 494
cal@@ 494
win@@ 494
multilateral 494
Parliamentary 494
worst 493
innovative 493
ali@@ 493
hundreds 493
shortcomings 492
federal 492
Tampere 491
law@@ 491
ula@@ 491
ratified 491
Austrian 490
favourable 490
forum 490
evident 490
compar@@ 490
diplomatic 490
milk 490
drivers 489
condemned 489
ner 489
mistake 489
form@@ 489
prisoners 489
trial 489
ishing 488
summer 488
ser@@ 488
neighbouring 488
pleasure 487
ited 487
da 487
crops 487
cells 487
mun@@ 486
tures 486
elimin@@ 486
oppose 486
bound 486
couple 486
chosen 486
Van 486
intervene 486
cars 486
dicta@@ 484
imp@@ 484
Re@@ 484
trans 484
pensioners 484
examined 483
Berlin 483
helped 483
strengthened 483
interpre@@ 483
beef 483
penalties 482
9@@ 482
wealth 482
raising 482
West 482
terrible 481
removed 481
cour@@ 481
Criminal 481
45 481
Doha 481
schools 480
iling 480
applications 480
suitable 480
deeply 479
identify 479
Report 479
interinstitutional 479
explo@@ 478
Sea 478
south 478
historical 478
correctly 477
unnecessary 477
isi@@ 477
thorough 477
excluded 477
vers@@ 477
vulnerable 477
confron@@ 477
AIDS 477
add@@ 476
school 476
smo@@ 476
launch 476
ring 476
Growth 476
clarity 475
ns 475
feder@@ 475
tent 475
fies 475
prospects 475
students 475
rapidly 474
ratification 474
ut@@ 473
8@@ 473
supposed 473
funded 472
deep 472
centres 471
G 471
applicant 471
entered 470
controlled 470
Democrat 470
precautionary 470
minute 469
hearing 469
depends 469
conducted 469
ga@@ 469
Bo@@ 469
ished 468
ched 468
applicable 468
meaning 468
financed 468
ide@@ 468
ingly 468
testing 468
appe@@ 467
recall 467
12@@ 467
indicators 467
domin@@ 467
500 467
ended 467
sen@@ 467
ma 466
Rural 466
players 466
utmost 466
objec@@ 465
drafted 465
hear@@ 465
formu@@ 464
37 464
ecological 464
driving 464
alcohol 464
Palacio 463
unanimous 463
convergence 463
uc@@ 463
manufacturers 463
constant 463
Left 463
promised 462
oll@@ 462
ck@@ 461
alities 461
tal@@ 461
whereby 461
UN@@ 461
1996 460
residence 460
handling 459
demanding 459
Li@@ 459
significantly 459
Lan@@ 458
reflected 458
obtained 458
healthy 458
prosecu@@ 457
ose 457
article 457
promp@@ 457
harmful 456
ication 456
banks 456
Food 456
replace 456
Arab 456
aviation 455
analys@@ 455
ress 455
modi@@ 455
determine 455
Czech 455
recommend 454
holds 454
Ch@@ 454
geographical 453
paying 453
reser@@ 453
ue 453
Question 453
freight 453
agrees 452
disabled 452
warmly 452
Northern 452
airports 452
ale 452
tests 451
check 450
largest 450
hardly 450
everybody 450
Ro@@ 450
Mus@@ 450
198@@ 449
01 449
extreme 449
sto@@ 449
genetically 449
oli@@ 449
distinction 449
Cooperation 449
reas@@ 448
jud@@ 448
aries 448
unanimity 448
focused 447
succeeded 447
rated 447
contributed 447
mes 447
supervision 446
enti@@ 446
suspended 446
tonnes 446
rian 446
elec@@ 446
leadership 446
insufficient 445
ce@@ 445
observation 445
worldwide 445
undertaking 445
kinds 444
depend 444
dro@@ 444
exp@@ 444
division 444
prospect 444
pollu@@ 444
shares 444
yed 443
threats 443
outset 443
od 443
itions 442
telecommunications 442
widely 442
undermin@@ 442
Action 442
violation 442
Mon@@ 442
pped 441
inspectors 441
repeatedly 441
congratulations 441
Women 441
smaller 440
certainty 440
justi@@ 440
regarded 440
separ@@ 440
bed 440
worthy 440
ff 440
surprised 440
settlement 440
stem 440
2010 440
relate 439
vely 439
army 439
fast 439
ght@@ 439
restore 439
sid@@ 439
Romania 439
explained 438
ological 438
deserve 438
pun@@ 438
deliver 438
jointly 438
fu@@ 438
Alliance 438
prov@@ 437
stri@@ 437
flo@@ 437
divided 437
appeared 436
reg@@ 436
persis@@ 436
moved 435
corruption 435
go@@ 435
IC@@ 435
admit 434
ared 434
harmonised 434
section 434
ning 434
stay 434
expressing 433
subsequently 432
heritage 432
constitutes 432
consequence 432
Declaration 432
treaties 431
logical 431
friend 431
deep@@ 431
experienced 431
doubts 431
ners 431
coastal 431
suggestion 431
observed 430
vast 430
ship@@ 430
sought 430
turned 430
sett@@ 430
combined 430
warrant 430
unfortunate 429
tis@@ 429
pursuant 428
ual 428
track 428
tely 428
clarification 428
withdraw 428
tac@@ 428
cod 428
territorial 427
roots 427
vir@@ 427
delegations 427
engage 427
Representative 427
increases 427
Rome 427
reserve 426
Chairman 426
Vitorino 426
afraid 426
identi@@ 426
northern 425
transition 425
leaving 425
undertake 425
proud 425
environmentally 425
statute 425
ve@@ 425
congratulating 425
intergovernmental 425
picture 425
worrying 424
categories 424
pping 424
compatible 424
periods 424
announ@@ 424
contrac@@ 424
st 423
writing 423
rela@@ 423
itors 423
amend 422
atten@@ 422
associations 422
tage 422
bus@@ 422
Brok 422
causing 421
enabling 421
shortly 421
sake 421
Bureau 421
incorpor@@ 421
destroyed 420
suppl@@ 420
é 420
engaged 420
ken 420
correc@@ 420
governmental 420
English 420
regrettable 420
spite 420
tual 420
religion 420
vari@@ 419
urban 419
ore@@ 419
obser@@ 419
undermine 419
prevented 419
Helsinki 419
reac@@ 419
cul@@ 419
stor@@ 418
GDP 418
phenomenon 418
alongside 418
continu@@ 418
crises 418
fic@@ 417
.5 417
receiving 417
spo@@ 417
75 417
val@@ 416
permit 416
demonstrates 416
incentives 416
radical 416
stronger 416
consulted 416
Atlantic 416
sal@@ 416
reflects 416
negotiated 416
sin@@ 415
refuse 415
els 415
ordin@@ 415
successfully 415
racy 415
intensive 415
Ca@@ 415
cancer 415
0s 415
inflation 415
son 414
skills 414
shape 414
with@@ 414
deadline 413
assist 413
ir 413
frag@@ 413
whatsoever 412
reliable 412
claims 412
confusion 412
personnel 412
bla@@ 411
charge 411
dic@@ 410
ze 410
encouraged 410
chain 410
conventions 410
achievement 410
ref@@ 409
assis@@ 409
weight 409
collaboration 409
territories 409
Poland 409
til@@ 409
advertising 408
north 408
tals 408
hopefully 408
adapt 408
observations 408
minim@@ 408
medi@@ 408
200 408
similarly 408
14@@ 407
ati@@ 407
enta@@ 407
shi@@ 407
del@@ 407
alleg@@ 407
bank 406
exceptions 406
restrict 406
embar@@ 406
defining 406
Agenda 406
tants 406
ises 405
ba@@ 405
slightly 405
count 405
cau@@ 405
Seville 405
creates 404
belong 404
fiscal 404
motions 404
India 404
lif@@ 404
movements 404
erad@@ 404
chemical 404
Petitions 404
rou@@ 403
eyes 403
ing@@ 403
invest 403
bureaucratic 403
tering 403
ined 403
marine 403
resumed 402
dispute 402
pan@@ 402
Co@@ 402
porting 402
papers 401
wea@@ 401
impl@@ 401
fil@@ 401
infec@@ 401
definitely 401
Par@@ 401
origin@@ 400
authorisation 400
surrounding 400
ong 400
eds 400
enhance 399
lasting 399
affecting 399
preserve 399
door 399
trend 399
expense 398
below 398
performance 398
exceptional 398
faith 398
some@@ 398
mobil@@ 398
pace 398
allocation 397
parallel 397
argu@@ 397
van@@ 397
descri@@ 396
wn 396
productive 396
wi@@ 396
Yugoslavia 396
32 396
ators 396
secret 396
tolerance 396
Cor@@ 396
ur 395
threshold 395
warning 395
prohib@@ 395
complaints 395
doub@@ 394
cent 394
Com@@ 394
puts 394
banned 394
vic@@ 394
T 394
judgment 394
adap@@ 393
broad@@ 393
compensa@@ 393
direc@@ 393
exerc@@ 393
Reform 393
prefer 393
vis 393
fresh 393
refugee 393
controversial 392
avoid@@ 392
hoped 392
Sa@@ 392
map 392
ot 392
presentation 391
mat@@ 391
viable 391
estimated 391
tens 391
dian 391
accounting 391
strength 391
Joint 391
justification 390
slow 390
pur@@ 390
shadow 390
inspection 390
seekers 390
assa@@ 390
da@@ 389
weak 389
cities 389
strike 389
island 389
suggestions 389
cur@@ 389
broader 389
arising 389
retain 389
tangible 389
ases 389
Bolkestein 389
promoted 389
ides 389
Pa@@ 389
tless 388
w 388
modernisation 388
reli@@ 388
gradually 388
eva@@ 388
blo@@ 388
honest 388
educational 388
treat 387
ord 387
regulate 387
showing 387
passenger 387
notes 387
covers 387
counter@@ 386
mor@@ 386
National 386
rations 386
strictly 385
hes@@ 385
permitted 385
underlying 385
noti@@ 385
older 385
torture 385
larger 385
battle 385
sites 385
pain@@ 384
populations 384
var@@ 384
ty@@ 384
tion@@ 384
ord@@ 384
prec@@ 384
compla@@ 384
Ukraine 384
Islamic 384
topical 383
veri@@ 383
infrastructures 383
clearer 383
authorised 383
site 383
apparent 383
hour 383
Y@@ 383
soci@@ 383
sively 383
city 382
10@@ 382
mul@@ 382
forests 382
Pakistan 382
placing 382
donors 382
Na@@ 382
ton 381
ignore 381
eth@@ 381
wage 380
preliminary 380
jeopardis@@ 380
U 380
Palestine 380
declare 379
eigh@@ 379
mach@@ 379
hal@@ 379
ambition 379
conten@@ 379
gn@@ 379
decades 379
nation@@ 379
customs 379
preventive 379
sending 379
retirement 379
Sta@@ 379
incorporate 378
15@@ 378
uncertainty 378
calcula@@ 378
lie 378
ky 378
covering 378
hi@@ 378
ju@@ 378
contract 378
fortunately 377
contacts 377
duc@@ 377
alternatives 377
tious 377
ron@@ 377
Pol@@ 377
commen@@ 376
repeated 376
CNS 376
science 376
candidates 376
EEC 376
05@@ 376
medicinal 376
valid 375
apparently 375
work@@ 375
viol@@ 375
nearly 375
contradic@@ 375
kers 375
construc@@ 374
san@@ 374
extraordinary 374
mere 374
civilian 374
gg@@ 374
conservation 373
yourself 373
ges@@ 373
commit 373
monitored 373
cy@@ 373
sch@@ 373
physical 373
buy 373
expensive 373
transatlantic 373
leader 372
raises 372
hundred 372
ented 372
became 372
deterior@@ 372
belief 371
rejection 371
ens@@ 371
hos@@ 371
pursued 371
regardless 371
Le@@ 371
underline 371
negotiate 371
cru@@ 371
star@@ 371
olders 370
ECHO 370
unity 370
NL 370
ening 369
functions 369
compromises 369
widespread 369
disagree 369
deaths 368
Monday 368
Poettering 368
endeavour 368
tribute 368
Ex@@ 368
sol@@ 368
revised 368
immunity 368
ley 368
lists 368
sugar 368
sphere 367
reason@@ 367
solved 367
edly 367
checks 367
killed 367
black 367
esses 367
meantime 366
indic@@ 366
appropri@@ 366
posts 366
indicate 366
brid@@ 365
containing 365
alists 365
sympathy 365
disappointed 365
declarations 365
ber 365
bureaucracy 364
tools 364
sion@@ 364
ena 364
refused 364
inspections 364
fre@@ 364
perspectives 364
reci@@ 363
resistance 363
syn@@ 363
fores@@ 363
eable 363
accompanied 363
unlike 363
directed 363
ger@@ 363
desirable 363
11@@ 363
items 363
patients 363
observe 362
approximately 362
thousand 362
Culture 362
quar@@ 361
ped 361
invite 361
sincerely 361
failing 361
cuts 361
race 361
rely 360
stra@@ 360
taxpayers 360
poses 360
B 360
cer@@ 360
48 360
Japan 359
acted 359
Basque 359
concludes 359
Chinese 359
ques@@ 359
usually 359
colon@@ 359
extremis@@ 359
electoral 359
lacking 358
boost 358
respecting 358
fourth 358
SA@@ 358
predic@@ 358
tary 358
talked 358
freely 358
observers 358
occurred 357
ener@@ 357
equivalent 357
33 357
enforcement 356
lessons 356
distributed 356
informal 356
Verheugen 356
cas@@ 356
pretext 356
don@@ 356
Belarus 356
keen 355
55 355
promise 355
kes@@ 355
president 355
fronti@@ 355
He@@ 355
explanations 354
consul@@ 354
ulation 354
hon@@ 354
Scotland 354
land@@ 354
sit 354
digital 354
attrac@@ 353
spar@@ 353
comparison 353
1995 353
demonstra@@ 353
rig@@ 353
gan@@ 353
Free 353
helpful 353
Prestige 353
exclusively 352
certi@@ 352
atic 352
tric@@ 352
intellectual 352
VAT 352
tom@@ 352
stick 352
opt 352
soldiers 352
ians 352
economically 352
offices 351
hind@@ 351
systematic 351
N 351
42 351
cked 351
denied 351
Ser@@ 351
premi@@ 351
lis@@ 350
lating 350
modern@@ 350
purch@@ 350
lying 350
pays 350
farms 350
pled@@ 350
leaves 350
impetus 349
fruit 349
02 349
TE@@ 349
cop@@ 349
unique 349
mine 349
Centre 349
Lamy 349
initially 348
suggests 348
ta 348
notice 348
save 348
om 348
occur 348
ordinary 348
sharing 348
ent@@ 348
choices 348
commerce 347
resulted 347
Th@@ 347
preced@@ 347
Time 347
Nielson 347
Plan 347
looks 346
classi@@ 346
advocate 346
promises 346
scientists 346
integrate 346
mid@@ 346
preparatory 346
dates 345
elin@@ 345
nine 345
listened 345
clean 345
stages 345
journalists 345
transit 344
coll@@ 344
programming 344
marked 344
frequ@@ 344
restrictive 344
except 344
begun 344
recognises 344
complied 344
discrimin@@ 344
ital 344
a.m 344
eventually 343
spring 343
tone 343
savings 343
socio 343
mom@@ 343
.30 343
moun@@ 343
Serbia 343
examination 342
pati@@ 342
coas@@ 342
executive 342
len@@ 342
offering 342
die 342
shipping 342
traceability 342
secre@@ 342
38 342
multi 341
efficiently 341
mental 341
accepting 341
olog@@ 341
95 340
breach 340
down@@ 340
remin@@ 340
credible 340
joining 340
harmonise 340
fav@@ 339
was@@ 339
ech@@ 339
unilateral 339
tari@@ 339
prime 338
targeted 338
closure 338
firms 338
borne 338
gri@@ 338
encoura@@ 338
lob@@ 338
sson 338
hom@@ 338
protest 338
percentage 337
acknowled@@ 337
dismant@@ 337
tradition 337
toler@@ 337
ina 337
push 337
diplom@@ 337
Great 337
vil 337
sil@@ 337
Safety 336
attached 336
minor 336
las@@ 336
representing 336
eliminate 336
began 336
image 336
ro 336
aw@@ 336
one@@ 336
cou@@ 335
reported 335
tas@@ 335
length 335
alia 335
frequently 334
liked 334
cultures 334
00 334
Algeria 334
tations 334
imposing 334
revis@@ 334
visited 333
judge 333
pol@@ 333
expec@@ 333
cloning 333
Is@@ 332
break@@ 332
Su@@ 332
buildings 331
route 331
tioning 331
distance 331
197@@ 331
Communist 331
ELDR 330
pated 330
inter 330
outlined 330
deb@@ 330
pat@@ 330
sit@@ 330
iv@@ 330
Cotonou 330
connected 329
ili@@ 329
Conserva@@ 329
thro@@ 329
criticised 329
ading 329
lined 329
offences 329
characteristics 329
unions 329
Year 329
mas@@ 329
ounds 329
lling 329
error 329
p.m 328
farm 328
blame 328
chi@@ 328
ip@@ 328
jurisdiction 328
assum@@ 328
hunger 328
34 327
acceptance 327
alloc@@ 327
replaced 327
disputes 327
qualifications 327
41 327
sacrific@@ 327
recycling 327
ratify 326
44 326
assessments 326
house 326
prison 326
abstained 326
incentive 326
Nordic 326
ala@@ 326
conviction 326
flows 326
lifelong 326
quota 325
critic@@ 325
fif@@ 325
quarters 325
safeguarding 325
convince 325
forgotten 325
sw@@ 325
mobile 325
mption 324
violent 324
sadly 324
scrutiny 324
pic@@ 324
fuels 324
hap@@ 324
36 324
by@@ 324
victim 324
afford 323
anne@@ 323
biodiversity 323
location 323
ety 323
respective 323
V 323
woman 323
cle@@ 323
visa 323
Education 323
vaccination 323
eption 323
Berlusconi 323
chapter 322
accessible 322
rid@@ 322
Barnier 322
invited 322
laundering 322
absurd 322
ceiling 322
traditions 322
catch 322
pressing 322
gro@@ 322
hem@@ 322
rating 321
ell 321
arm 321
privatisation 321
gain@@ 321
Fer@@ 321
threatened 321
emission 321
mem@@ 320
universities 320
manag@@ 320
grow 320
exemption 320
neg@@ 320
We 320
ED@@ 320
generations 320
ana 320
disabilities 320
desig@@ 320
campaigns 320
troops 320
Feira 320
Conciliation 320
Bar@@ 319
desper@@ 319
managing 319
influ@@ 319
defending 319
exchanges 319
coalition 319
moti@@ 318
entering 318
seas 318
ner@@ 318
examining 318
investig@@ 318
arity 318
sad 318
sales 318
prescri@@ 318
signing 318
deny 318
str@@ 318
prud@@ 318
PSE 317
comitology 317
Ann@@ 317
istic 317
06@@ 317
flu@@ 317
Angola 317
kill@@ 316
whenever 316
proceed@@ 316
subsequent 316
bri@@ 316
frustra@@ 316
icate 316
Bulgaria 316
approaches 316
reporting 316
chemicals 316
Tur@@ 316
consistently 315
gre@@ 315
ast 315
semin@@ 315
ES@@ 315
rising 315
circ@@ 315
heads 315
comb@@ 315
participating 315
thers 315
biotechnology 315
Sharon 315
vers 314
criterion 314
perfect 314
shift 314
fications 314
released 314
train 314
maybe 314
biggest 314
trad@@ 314
monopoly 313
procedural 313
deadlines 313
tain 313
gue 313
born 313
compet@@ 313
wherever 313
York 313
tention 313
August 313
affor@@ 312
plan@@ 312
investigations 312
coordinate 312
Arafat 312
silence 311
ported 311
log@@ 311
tested 311
class 311
div@@ 311
harm 311
occupation 311
integrity 311
Egypt 311
wise 311
xenophobia 311
ES 311
ths 310
excuse 310
characterised 310
train@@ 310
team 310
forest 310
consci@@ 310
struggle 310
accused 309
rs 309
1994 309
public@@ 309
ori@@ 309
ration@@ 309
ert 309
concentration 309
arrived 309
expertise 309
MEP 309
forming 309
finances 309
irrespective 309
300 309
vacc@@ 309
ghter 308
fit 308
broadly 308
timely 308
adequately 308
inevitably 308
rup@@ 308
humanity 308
hy@@ 308
mail 308
fears 308
thir@@ 308
sely 308
generous 308
ori 308
Friday 307
attend 307
practically 307
arily 307
acknowledged 307
solid 307
dramatic 307
coast 307
reunification 307
Afghan 307
listening 306
envisaged 306
optimis@@ 306
fourthly 306
register 306
collection 306
Youth 306
acqu@@ 305
nel 305
vated 305
sole 305
vigil@@ 305
vie@@ 305
weak@@ 305
expressly 305
enhanced 305
win 305
resolving 305
Watson 305
foundations 305
linguistic 305
Mugabe 305
answered 304
ral 304
question@@ 304
sums 304
ays 304
scheduled 304
incidentally 304
infor@@ 304
ranging 304
mandatory 304
consolid@@ 304
Direc@@ 304
falling 304
touch 304
inv@@ 304
surprise 304
import 304
tonight 303
signs 303
marks 303
pursuing 303
straight 303
monopolies 303
inspi@@ 303
For@@ 303
USD 303
gained 303
39 303
Annex 303
necessity 303
twelve 303
explicitly 302
tained 302
terally 302
tend 302
io 302
intensi@@ 302
abuses 302
exemp@@ 302
depl@@ 302
divide 302
time@@ 302
cking 302
appalling 302
evalu@@ 302
attach 301
EC@@ 301
fixed 301
ping 301
Kinnock 301
proven 301
War 301
COS 300
struck 300
99 300
pus@@ 300
tigh@@ 300
abolition 300
references 300
mation 300
assets 300
facilita@@ 300
stations 300
subsidis@@ 300
commu@@ 299
gradual 299
steel 299
convenience 299
missing 299
rigorous 299
Sixth 299
hab@@ 299
65 299
prac@@ 299
ful@@ 298
sections 298
app@@ 298
indication 298
gging 298
losses 298
repe@@ 298
investors 298
mission@@ 298
host 298
clu@@ 298
destroy 298
actors 298
sex 298
gar@@ 297
avoided 297
presid@@ 297
publis@@ 297
reve@@ 297
Eurojust 297
Del@@ 297
Galicia 297
cond@@ 297
safeguards 297
and@@ 297
objections 297
cel@@ 297
destin@@ 297
recommended 296
cially 296
lands 296
scand@@ 296
cho@@ 296
perpet@@ 296
facility 296
disastrous 296
laying 296
Maastricht 296
albeit 296
cancell@@ 296
ques 296
paten@@ 296
ator@@ 296
progres@@ 296
51 296
Labour 296
reconciliation 295
scep@@ 295
pair 295
inher@@ 295
frankly 295
block 295
pri@@ 295
tou@@ 295
Inter@@ 295
promo@@ 295
loans 295
tured 295
protes@@ 295
tality 295
passing 294
ideal 294
Mexico 294
tern@@ 294
initi@@ 294
Her@@ 294
cow 294
lab@@ 294
dt 294
af@@ 293
differ 293
consistency 293
ric 293
desired 293
fallen 293
essed 293
stating 293
eed@@ 293
outbreak 293
pass@@ 292
originally 292
interim 292
preva@@ 292
43 292
Prosecutor 292
chec@@ 292
rational 292
execu@@ 291
interpreted 291
moder@@ 291
inquiry 291
accus@@ 291
EP@@ 291
reaffir@@ 291
Resolution 291
sla@@ 291
cast 291
outermost 290
deli@@ 290
explanatory 290
mitting 290
fulfilled 290
oured 290
arri@@ 290
cycle 290
workplace 290
arrive 290
hazardous 290
yn@@ 290
ulf 289
revenue 289
lowest 289
fate 289
doors 289
decline 289
Byrne 289
fleets 289
interoperability 289
termin@@ 288
pro 288
incidents 288
appointed 288
consis@@ 288
evaluate 288
gh 288
provo@@ 288
reinforce 287
game 287
ion 287
prohi@@ 287
L 287
greenhouse 287
component 287
search 287
reaches 287
backing 287
stringent 286
temp@@ 286
une@@ 286
petition 286
dated 286
recom@@ 286
xi@@ 286
inn@@ 286
dead 286
pec@@ 286
CFP 286
providers 286
Colombia 286
corresponding 285
openly 285
isions 285
incident 285
imag@@ 285
eived 285
à 285
dictatorship 285
MEDA 285
surplus 285
Baltic 285
badly 284
lea@@ 284
distribu@@ 284
v 284
criticise 284
dom 284
Can@@ 284
football 284
dri@@ 284
vehicle 284
twice 284
sign@@ 284
deciding 284
Ne@@ 284
cosme@@ 284
resu@@ 283
minds 283
enth 283
á@@ 283
fails 283
abolish 283
tough 283
Pe@@ 283
remarkable 283
regularly 283
tables 283
intelligence 283
pharmaceutical 283
raw 283
moratorium 283
vege@@ 283
Wednesday 282
volume 282
inves@@ 282
contin@@ 282
rele@@ 282
tened 282
wake 282
formation 282
doc@@ 282
ee 282
criminals 282
Minis@@ 282
Man@@ 282
wars 282
Bosnia 282
Taliban 282
ka 281
reminded 281
accurate 281
inhabitants 281
transfers 281
pow@@ 281
adher@@ 281
respon@@ 281
enhan@@ 281
Bö@@ 281
jo@@ 281
Fif@@ 281
plays 280
differenti@@ 280
wid@@ 280
envis@@ 280
highlights 280
repu@@ 280
ach 280
enshrined 280
rul@@ 280
dio@@ 280
pression 280
peace@@ 280
Hun@@ 280
ums 280
margin@@ 279
rever@@ 279
tackling 279
hit 279
comprehensible 279
systematically 279
teac@@ 279
poin@@ 279
Govern@@ 279
fiable 278
Liber@@ 278
finish 278
occurr@@ 278
gall@@ 278
maintenance 278
conjunction 278
uranium 278
Strategy 278
enem@@ 278
Bon@@ 278
notion 278
innocent 277
diver@@ 277
nu@@ 277
extra@@ 277
integrating 277
ilo@@ 277
democratically 277
distur@@ 277
fought 277
partial 277
learned 277
eal 277
lor@@ 277
achievements 277
flow 277
seiz@@ 277
sentence 277
Fin@@ 277
simplification 277
severe 277
removal 277
Aznar 277
democratisation 277
Swoboda 276
expan@@ 276
simp@@ 276
conve@@ 276
ambitions 276
repercussions 276
tabling 276
io@@ 276
Equal 276
virtually 276
drop 276
substantially 276
democracies 276
label 276
mountain 276
parents 276
admi@@ 275
damaging 275
Eurostat 275
ard@@ 275
contemp@@ 275
scru@@ 275
inside 275
experiences 275
insis@@ 275
autumn 275
commend 274
escap@@ 274
definitions 274
ghting 274
contradiction 274
asser@@ 274
scar@@ 274
aggres@@ 274
aff@@ 274
argue 274
cutting 274
exclude 274
emerged 274
dangers 274
occupied 274
researchers 274
49 274
teri@@ 274
Guinea 274
relative 273
drive 273
exclusive 273
praise 273
entr@@ 273
secondary 273
emo@@ 273
Burma 273
establis@@ 272
vance 272
exhaus@@ 272
dras@@ 272
everywhere 272
contrast 272
Schreyer 272
sustained 272
tence 272
conditional 272
matic 272
aspi@@ 272
attempting 272
driven 272
Jarzembowski 272
after@@ 271
appreciation 271
lays 271
onto 271
oned 271
wholeheartedly 271
automatically 271
essence 271
resource 271
val 271
realis@@ 271
visible 271
pressed 271
occup@@ 271
cheap 271
assembly 271
motor@@ 271
genetic 271
embryos 271
smoking 270
pal@@ 270
educ@@ 270
cks 270
contributing 270
consolidate 270
experiencing 270
sli@@ 270
ez@@ 270
simplify 270
clarified 270
è@@ 270
ef@@ 270
CFSP 270
46 270
donor 270
sheep 270
fires 270
xes 269
vel@@ 269
decade 269
fundamentally 269
essor 269
ods 269
unit 269
thi@@ 269
autonomy 269
mal@@ 269
minent 269
appreci@@ 269
zen 269
thetic 269
13@@ 269
Barón 268
standardis@@ 268
von 268
terror 268
spon@@ 268
cen@@ 268
feels 268
showed 268
Sou@@ 268
ignored 268
Haarder 268
withdrawal 268
harassment 268
ementary 268
flights 268
ensu@@ 267
deleg@@ 267
exploit 267
squ@@ 267
gorously 267
impris@@ 267
infringement 267
articles 267
suspic@@ 267
EIB 267
dura@@ 267
net 266
react 266
clauses 266
proves 266
tell@@ 266
owners 266
mature 266
Madrid 266
coinc@@ 266
Ha@@ 266
Nigeria 266
endorsed 265
delivered 265
guid@@ 265
advan@@ 265
Directorate 265
compete 265
tremendous 265
En@@ 265
lining 265
notably 265
paragraphs 265
Pen@@ 265
imperi@@ 265
organic 265
London 264
unemployed 264
criticisms 264
antici@@ 264
accommod@@ 264
east 264
travelling 264
exis@@ 264
thirty 264
El 264
tile 263
youth 263
features 263
believed 263
Democratic 263
elling 263
ageing 263
western 263
reproductive 263
livestock 263
Crespo 262
losing 262
thy 262
witnessed 262
presents 262
tances 262
character 262
tening 262
admittedly 262
devoted 262
hypo@@ 262
surveillance 262
92 262
mer 262
Sport 262
software 262
tionary 262
classification 261
feasible 261
ambiguous 261
ouring 261
formally 261
turing 261
awar@@ 261
ket 261
guilty 261
demanded 261
gratitude 261
touris@@ 261
chocolate 261
eastern 261
cus@@ 261
sees 261
card 260
advanced 260
administrations 260
Sec@@ 260
cros@@ 260
constraints 260
rend@@ 260
concepts 260
transferred 260
dossier 260
endor@@ 260
embry@@ 260
backs 260
renewed 260
ino@@ 260
ousness 260
Opportunities 260
organisms 260
ition@@ 260
Posselt 260
patents 260
Bur@@ 260
channels 259
withdrawn 259
remote 259
productivity 259
analyse 259
continuation 259
detriment 259
weaken@@ 259
iry 259
suspen@@ 259
euros 259
neglec@@ 259
assurance 259
allow@@ 259
computer 259
arrested 259
Chan@@ 259
cal 259
broken 259
ames 259
scenar@@ 258
respec@@ 258
foundation 258
serves 258
enabled 258
normally 258
appointment 258
relief 258
Lithuania 258
claimed 258
jour@@ 258
Process 258
Fatuzzo 258
defici@@ 257
Taiwan 257
yiel@@ 257
participants 257
blind 257
Investment 257
title 257
confident 256
obstacle 256
gies 256
assessing 256
accountability 256
thoroughly 256
adverse 256
dumping 256
hur@@ 256
clari@@ 256
disap@@ 256
additives 256
airport 256
bio@@ 256
tackled 256
specified 256
Washington 256
wonderful 256
speed@@ 256
cigar@@ 256
iment 255
telling 255
bels 255
ending 255
dream 255
dle 255
returned 255
threatening 255
Federation 255
airspace 255
underp@@ 255
mitted 255
Fran@@ 255
write 254
ignor@@ 254
internationally 254
Objective 254
differently 254
dama@@ 254
decreas@@ 254
ston@@ 254
surve@@ 254
No@@ 254
osp@@ 254
organising 254
Q@@ 254
era 254
pilot 254
sale 254
rat@@ 253
beneficial 253
onal 253
remit 253
gement 253
Monti 253
stone 253
met@@ 253
eting 253
recital 253
variety 253
char@@ 253
wit@@ 253
67 253
grave 253
sub 253
irs 253
definitive 253
footing 253
profession@@ 253
oppos@@ 253
hil@@ 253
planet 253
hel@@ 252
completion 252
inevitable 252
discipl@@ 252
resolu@@ 252
birth 252
ege 252
margin 252
reviewed 252
ther@@ 252
approac@@ 252
green 252
inappropriate 252
meets 252
Wallström 252
emp@@ 252
composition 252
rejecting 252
reductions 252
tuna 252
interventions 251
pillars 251
stimu@@ 251
models 251
tane@@ 251
pending 251
Lu@@ 251
adding 251
Councils 251
consists 251
estimate 251
71 251
quantity 251
enjo@@ 251
Herz@@ 251
transactions 251
extradition 251
Vietnam 251
aling 250
embargo 250
arrangement 250
book 250
fifth 250
publicly 250
socially 250
feature 250
57 250
comparable 250
stricter 250
breaking 250
charter 250
drinking 250
popular 250
47 250
tariat 250
meal 250
potentially 250
Kaliningrad 250
obtaining 249
exclu@@ 249
wished 249
realised 249
guar@@ 249
1992 249
collapse 249
ried 249
parliamentarians 249
sell 249
Pac@@ 249
epidem@@ 249
kill 249
Galileo 249
abortion 249
horizontal 248
lates 248
cos@@ 248
assessed 248
Articles 248
M 248
focusing 248
delicate 248
tance 248
bases 248
rati@@ 248
Wor@@ 248
ption 248
Canada 248
missions 248
lou@@ 248
pra@@ 248
ba 248
tunnel 247
indicates 247
story 247
worried 247
reflection 247
cles 247
ions 247
investigate 247
bound@@ 247
strikes 247
inti@@ 247
ambi@@ 247
La@@ 247
ov 247
Nor@@ 246
fault 246
valid@@ 246
packaging 246
vague 246
imperative 246
ased 246
affir@@ 246
preven@@ 246
joined 246
input 246
Acc@@ 246
wis@@ 246
warm 246
cope 246
vice 246
vol@@ 245
generated 245
charged 245
entrepreneur@@ 245
root 245
initiated 245
procurement 245
artific@@ 245
remained 245
Fi@@ 245
lev@@ 245
ol 245
agents 245
shoulder 245
Bal@@ 245
lap@@ 245
assured 245
arises 245
irresponsible 244
ruling 244
asing 244
civilians 244
symbol@@ 244
won 244
profound 244
controlling 244
connec@@ 244
persuade 244
flight 244
bru@@ 244
quantities 243
hid@@ 243
tative 243
reinfor@@ 243
served 243
recourse 243
400 243
gather@@ 243
country@@ 243
names 243
replied 243
San@@ 243
reception 243
expla@@ 243
sold 243
Dan@@ 243
cattle 243
audiovisual 243
Se@@ 242
imin@@ 242
describe 242
cease 242
dy 242
alis@@ 242
persecution 242
di 242
handed 242
ystem 242
52 242
celeb@@ 242
AR@@ 242
confir@@ 242
lations 242
God 242
estimates 242
Law 242
missible 241
instruc@@ 241
distingu@@ 241
exten@@ 241
delayed 241
ender 241
pon@@ 241
governed 241
forth 241
tes@@ 241
uphold 241
gets 241
availability 241
ministerial 241
wholly 241
sanc@@ 241
Georgia 241
quick 240
regre@@ 240
1993 240
grass 240
concessions 240
ker@@ 240
adjustment 240
coordinating 240
grants 240
glob@@ 240
identification 240
Tibet 240
iness 240
supplies 240
expert 240
Syria 240
tra 240
Es@@ 240
civil@@ 240
Or@@ 240
imported 240
osta@@ 240
protein 240
icing 240
priorit@@ 239
disadvantaged 239
simplified 239
2007 239
sti@@ 239
thinks 239
essing 239
addresses 239
mic@@ 239
clos@@ 239
flags 239
sensitivity 239
sincere 239
abolished 239
refu@@ 239
middle 239
bud@@ 239
subscri@@ 239
responses 239
proportionate 239
bul@@ 239
Information 239
responds 239
polic@@ 239
quo@@ 238
explicit 238
indirect 238
professions 238
regimes 238
ids 238
Am@@ 238
wat@@ 238
derogation 238
allies 238
summits 238
portation 237
utilis@@ 237
Hol@@ 237
Mor@@ 237
polluter 237
anywhere 237
fan@@ 237
false 237
recognising 237
De@@ 237
lik@@ 237
tionally 236
zero 236
thly 236
removing 236
attended 236
terly 236
survive 236
prosecution 236
bottom 236
ude 236
aps 236
bel 236
merit 236
53 236
produc@@ 236
newspaper 235
object 235
fran@@ 235
tioned 235
ound 235
iden@@ 235
As@@ 235
vill@@ 235
depleted 235
problematic 235
repression 235
demonstrations 235
dependence 235
turns 235
Congo 235
obli@@ 234
preferred 234
principal 234
tains 234
hun@@ 234
Protection 234
clean@@ 234
tune 234
registration 234
Liikanen 234
docu@@ 234
mentation 234
sig@@ 234
arming 234
progressive 234
biological 234
slaughter 234
accepts 233
intolerable 233
fashion 233
Rob@@ 233
favoured 233
irregularities 233
implies 233
multinationals 233
qui@@ 233
Gre@@ 233
ive 233
listed 233
exert 233
fle@@ 233
assu@@ 233
murder 233
Ecofin 233
itionally 233
ete 233
lem@@ 233
gross 232
Federal 232
integral 232
industri@@ 232
ications 232
flag 232
town 232
abandon 232
enterprise 232
incineration 232
restric@@ 232
radio 232
depar@@ 232
Tunisia 232
urged 231
human@@ 231
grade 231
ere 231
sco@@ 231
interference 231
vig@@ 231
Dublin 231
statistical 231
enables 231
dre@@ 231
murder@@ 231
56 231
enthusiasm 231
Media 231
smugg@@ 231
radioactive 231
ney 231
INI 231
aud@@ 230
philosophy 230
exposed 230
rid 230
eve 230
sessions 230
mother 230
bench@@ 230
responding 230
EA@@ 229
fel@@ 229
saving 229
Po@@ 229
judic@@ 229
heavily 229
ffers 229
components 229
prerequisite 229
wed 229
radi@@ 229
refusal 229
ination 229
­ 229
DE@@ 229
violated 229
part@@ 229
Corbett 229
diverse 229
adapted 228
Regi@@ 228
persu@@ 228
66 228
oth 228
hones@@ 228
ols 228
ace 228
Act 228
guard 228
motor 228
kis 228
deal@@ 228
ama@@ 228
ambigu@@ 228
invo@@ 228
De 228
expenses 228
tox@@ 228
137 228
sible 228
occupa@@ 228
guidance 227
ult 227
infring@@ 227
survival 227
thoughts 227
lock 227
protec@@ 227
kes 227
insul@@ 227
mistakes 227
acquire 227
racist 227
des 227
combine 227
incredibly 227
displaced 227
modest 226
eless 226
missed 226
renewal 226
substan@@ 226
2.@@ 226
vity 226
banning 226
stud@@ 226
pects 226
marking 226
telep@@ 226
cred@@ 226
entu@@ 226
condemnation 226
tally 226
translation 226
OSCE 226
ai@@ 226
mines 226
offence 226
enjoyed 225
strai@@ 225
advocates 225
rhetor@@ 225
endang@@ 225
ideological 225
Malta 225
stabil@@ 225
messages 225
migra@@ 225
arma@@ 225
cra@@ 225
consent 225
Forum 225
pling 225
ya 225
ords 224
exacerb@@ 224
ultimate 224
Code 224
distinc@@ 224
user 224
recru@@ 224
contra@@ 224
aging 224
ain@@ 224
intern@@ 224
fis@@ 224
match 224
rupt 224
precedent 224
biofuels 224
parti@@ 223
drew 223
ular 223
deem@@ 223
pursu@@ 223
immen@@ 223
fas@@ 223
volun@@ 223
communicate 223
combination 223
camps 223
split 223
female 223
preg@@ 223
allevi@@ 222
satisfy 222
closing 222
bel@@ 222
stitute 222
unequivo@@ 222
centr@@ 222
tension 222
reverse 222
radic@@ 222
absta@@ 222
design 222
pect 222
ghts 222
strange 222
appla@@ 222
lla 222
visas 222
pli@@ 222
ez 221
trained 221
mag@@ 221
Decision 221
balances 221
hitherto 221
author 221
abroad 221
noticed 221
1990 221
issu@@ 221
veterinary 221
Questions 221
acquired 221
54 221
dings 221
Albanian 221
alliance 221
DA 221
guided 221
tries 221
Tit@@ 221
privacy 221
breast 221
decou@@ 221
lorries 220
ster@@ 220
consolidation 220
punishment 220
partnerships 220
sovereign 220
art 220
forestry 220
Sci@@ 220
venture 220
meanwhile 220
wages 220
plat@@ 220
reconcile 220
domain 220
16@@ 219
units 219
heal@@ 219
ca 219
reforming 219
pected 219
pressive 219
58 219
earmarked 219
dedicated 219
asi@@ 219
arbitr@@ 219
Single 219
deser@@ 219
small@@ 219
prag@@ 219
surprising 219
carriers 219
mill@@ 218
ensured 218
centralised 218
arisen 218
shareh@@ 218
sun@@ 218
Rec@@ 218
deriv@@ 218
consultations 218
installations 218
contamination 218
mp 218
Mos@@ 218
rats 218
adjustments 218
sell@@ 218
subjected 218
deregu@@ 218
Congress 218
Harbour 218
rez 218
Cancún 218
í@@ 217
pity 217
wns 217
profile 217
decentralised 217
meaningful 217
ental 217
Vi@@ 217
inde@@ 217
famous 217
frame 217
seemed 217
kets 217
determining 217
patri@@ 217
Israelis 217
conscience 217
eag@@ 217
caught 217
otti 217
experim@@ 217
update 217
Da@@ 217
HIV 217
sch 216
harmonising 216
generate 216
emphasises 216
mergers 216
recorded 216
econom@@ 216
discipline 216
comfor@@ 216
witness 216
acceler@@ 216
consult 216
divid@@ 216
courageous 216
optimistic 216
Sen@@ 216
techni@@ 216
needless 215
sooner 215
reactions 215
manoeuvre 215
discre@@ 215
discovered 215
Go@@ 215
stopped 215
GUE 215
reinforced 215
contributes 215
Du@@ 215
wall 215
Genoa 215
conventional 215
urities 215
Pri@@ 215
Cox 214
character@@ 214
revi@@ 214
anyway 214
quali@@ 214
itable 214
endeavours 214
Kar@@ 214
exact 214
onic 214
structured 214
inary 214
foun@@ 214
Switzerland 214
mixed 214
challeng@@ 214
sem@@ 214
forecas@@ 214
separation 214
manifes@@ 214
civilisation 214
Uni@@ 214
runs 214
empha@@ 214
ut 214
tin 214
air@@ 214
Cuban 214
disgra@@ 213
safer 213
unila@@ 213
harmon@@ 213
isations 213
Cohesion 213
loud 213
method@@ 213
sever@@ 213
detec@@ 213
throw 213
remedy 213
advocated 213
bir@@ 213
iring 213
handled 213
requiring 213
beg@@ 213
Special 213
voters 213
prevail 213
laun@@ 213
dating 213
depending 213
humane 213
producer 213
artis@@ 213
wee@@ 213
Democ@@ 213
enforced 212
distortions 212
lar@@ 212
subsidy 212
lawyers 212
62 212
transposition 212
grown 212
ffs 212
Paris 212
floods 212
ingredients 212
affair 212
attractive 212
summary 212
complex@@ 212
dor 212
organis@@ 212
bia 212
idence 212
seats 212
Soviet 212
sioners 212
sul@@ 212
supervisory 211
indispensable 211
exemptions 211
dollar 211
wishing 211
regulating 211
likewise 211
engine@@ 211
rigid 211
Lebanon 211
ony 211
ase@@ 211
girls 211
bal 211
ika 211
IL@@ 211
broadcas@@ 211
ouse 211
prin@@ 211
pluralism 211
faces 210
demographic 210
islands 210
plen@@ 210
sm@@ 210
K 210
there@@ 210
foodstuffs 210
institu@@ 210
technically 210
feedingstuffs 210
Slovakia 210
invi@@ 210
geting 210
Dis@@ 210
houses 210
ron 210
bun@@ 210
psych@@ 210
expresses 210
amb@@ 210
Administra@@ 210
urch 210
GM 210
obstruc@@ 209
reluc@@ 209
sixth 209
85 209
confirms 209
bears 209
derogations 209
lun@@ 209
swiftly 209
formulated 209
03 209
loy@@ 209
breaks 209
overwhelming 209
udes 209
seat 209
commod@@ 209
63 209
soil 209
typical 209
teachers 209
multiannual 208
adhere 208
logic 208
peripher@@ 208
interac@@ 208
nez 208
concluding 208
faster 208
cation 208
indirectly 208
Communities 208
loading 208
denoun@@ 208
storage 208
hec@@ 208
complement 208
registered 208
positively 208
rap@@ 208
fur@@ 208
Costa 208
exploited 208
resort 208
shar@@ 208
emerging 208
reserves 207
ex 207
slowly 207
ko@@ 207
legitim@@ 207
differing 207
invested 207
ub@@ 207
doctors 207
tural 207
hau@@ 207
ond 207
disappointment 207
qualitative 207
antly 207
convic@@ 207
destroying 207
west 207
seed 207
white 207
sibility 206
worthwhile 206
routes 206
nor@@ 206
stream@@ 206
ham@@ 206
cotton 206
nationality 206
foster 206
negoti@@ 206
continuity 206
icated 206
supplement 206
Diamantopoulou 206
tini 206
Indonesia 205
finan@@ 205
definite 205
phic 205
relationships 205
eb@@ 205
CO2 205
demonstration 205
ues 205
atives 205
dog@@ 205
trouble 205
airline 205
tariff 205
Ab@@ 205
96 204
lengthy 204
invitation 204
isolation 204
quantitative 204
gr@@ 204
auth@@ 204
rer 204
stresses 204
complaint 204
revolution 204
crimin@@ 204
web@@ 204
shame 204
NGL 204
empty 204
limiting 204
fruit@@ 204
introduc@@ 204
ede 204
abol@@ 204
officers 204
repres@@ 204
contradictory 204
suppor@@ 204
distinguish 204
Wal@@ 203
ih@@ 203
deliber@@ 203
understandable 203
Karas 203
hypocrisy 203
convincing 203
chapters 203
cover@@ 203
rier 203
belongs 203
punished 203
corporate 203
ef 203
col@@ 203
supranational 203
stimulate 203
helps 203
Cambo@@ 203
isolated 203
electorate 203
veto 203
Yugoslav 203
Moz@@ 203
knowing 202
ole 202
responded 202
Hague 202
capabilities 202
everyday 202
new@@ 202
Bra@@ 202
imental 202
Euratom 202
revealed 202
devastating 202
finished 202
postponed 202
blu@@ 202
asks 202
journ@@ 202
acti@@ 202
oted 202
pornography 202
intelligent 202
remark 202
can@@ 202
oma 202
phrase 202
illegally 202
inva@@ 202
Blair 202
enni@@ 201
execution 201
refusing 201
pac@@ 201
tila@@ 201
enforce 201
solving 201
circulation 201
accountable 201
1991 201
tendency 201
Olymp@@ 201
wood 201
licences 201
yr@@ 201
victory 201
ensive 201
insisted 201
manipu@@ 201
fundamentalism 201
Evans 200
postpon@@ 200
disparities 200
backed 200
mann 200
wave 200
unsatisfactory 200
aiming 200
bill@@ 200
wanting 200
zones 200
partici@@ 200
prejudice 200
signals 200
settlements 200
topics 200
disregard 200
Cypri@@ 200
Chechen 200
asant 199
use@@ 199
theory 199
academ@@ 199
ign 199
expl@@ 199
pact 199
Ad@@ 199
touched 199
whe@@ 199
68 199
dual 199
discriminatory 199
formula 199
condemning 199
GMO 199
Scot@@ 199
Bou@@ 199
agement 199
ple 198
long@@ 198
approving 198
inequalities 198
insecurity 198
anticip@@ 198
acu@@ 198
film 198
judg@@ 198
98 198
spea@@ 198
apologise 198
satellite 198
senior 198
chair 198
audit 198
outline 198
scandal 198
nomin@@ 198
Je@@ 198
weekend 198
wel@@ 198
coexistence 198
agreeing 198
canc@@ 198
deliberate 198
suic@@ 198
Buitenweg 198
individu@@ 197
prolifer@@ 197
defin@@ 197
summar@@ 197
lesson 197
Rap@@ 197
ineffec@@ 197
hoping 197
sex@@ 197
un 197
focuses 197
deliberately 197
exper@@ 197
apa@@ 197
stand@@ 197
ier@@ 197
Area 197
sentences 197
IS@@ 196
has@@ 196
profitable 196
departments 196
expansion 196
excessively 196
preference 196
eligible 196
feelings 196
Davi@@ 196
rar@@ 196
conven@@ 196
catches 196
premis@@ 196
suddenly 196
cin@@ 196
Mo@@ 196
sports 196
bes 195
person@@ 195
measured 195
custom@@ 195
dominant 195
weaknesses 195
Ri@@ 195
publication 195
ath 195
07@@ 195
wrec@@ 195
makers 195
Christmas 195
bill 195
postpone 195
neutral 195
emerge 195
aged 195
perform 195
spectr@@ 195
cultivation 195
regula@@ 195
Ger@@ 195
pestic@@ 195
mented 195
university 195
deficits 195
mas 195
good@@ 195
banking 195
senten@@ 194
findings 194
itionality 194
inequality 194
minis@@ 194
sectoral 194
ownership 194
interven@@ 194
protection@@ 194
threaten 194
books 194
cooperative 194
career 194
securing 194
ational 194
migrants 194
eni@@ 194
draftsman 194
entities 194
scrap@@ 194
inven@@ 194
counterfe@@ 194
automatic 194
narrow 194
spa@@ 194
Paragraph 194
Argent@@ 194
Finn@@ 193
decid@@ 193
tran@@ 193
emphas@@ 193
rin@@ 193
fill 193
italis@@ 193
unprecedented 193
abandoned 193
vessel 193
III 193
sh 193
proactive 193
orientation 193
copyright 193
belonging 193
ision 193
datab@@ 193
Communication 193
Lannoye 193
news@@ 193
advisory 193
prisons 193
adjour@@ 192
ceful 192
jects 192
functional 192
customers 192
discrepan@@ 192
euro@@ 192
hand@@ 192
conferences 192
compatibility 192
In 192
oth@@ 192
fe 192
incompatible 192
nings 192
intermedi@@ 192
erro@@ 192
restriction 192
recipi@@ 192
halt 192
ego@@ 192
malaria 192
Iran@@ 192
Isla@@ 192
refunds 192
moves 191
cally 191
located 191
dear 191
spre@@ 191
orders 191
nit@@ 191
redundancies 191
dead@@ 191
hide 191
appearance 191
nutr@@ 191
cards 191
stitu@@ 191
officially 191
atmosphere 191
dimensions 191
instability 191
ow 191
autonomous 191
interc@@ 191
slau@@ 191
modes 191
asbestos 191
beneficiaries 190
reiterated 190
catastrop@@ 190
entails 190
kil@@ 190
reassure 190
bene@@ 190
simplif@@ 190
ki@@ 190
speedy 190
Caucasus 190
holid@@ 190
eed 190
permits 190
mes@@ 190
screening 190
tiny 190
parame@@ 190
tually 190
inner 190
destabil@@ 190
charging 190
Part@@ 190
medic@@ 190
indigenous 190
mili@@ 190
Ac@@ 190
ferred 189
tankers 189
evol@@ 189
eas@@ 189
rememb@@ 189
commend@@ 189
89 189
insofar 189
Coun@@ 189
await 189
confined 189
restoring 189
ridiculous 189
pick 189
swift 189
hone 189
privileged 189
ony@@ 189
entirety 189
ounded 189
besides 189
61 189
presidential 189
Bus@@ 189
dele@@ 188
omin@@ 188
deprived 188
page 188
wrong@@ 188
constituency 188
multinational 188
ation@@ 188
itations 188
ava@@ 188
capitalist 188
hygi@@ 188
ams 188
habil@@ 188
barbar@@ 188
adver@@ 188
PVC 188
opponents 188
militar@@ 188
visi@@ 188
stabilisation 188
Kurdis@@ 188
G8 188
escal@@ 188
Pi@@ 188
intense 188
workable 187
uri@@ 187
talis@@ 187
gran@@ 187
anybody 187
classes 187
awaiting 187
tan 187
fill@@ 187
mends 187
inning 187
homes 187
returning 187
cial 187
genocide 187
knew 187
wei@@ 187
ratic 187
salaries 187
FYROM 187
supporters 187
therapeutic 187
Tu@@ 186
versi@@ 186
attemp@@ 186
69 186
abor@@ 186
phas@@ 186
Rad@@ 186
judgement 186
incor@@ 186
stead@@ 186
farm@@ 186
Asian 186
tability 186
tex@@ 186
take@@ 186
Som@@ 186
Bu@@ 186
reques@@ 185
aus@@ 185
Wogau 185
watch 185
teams 185
és 185
proportion@@ 185
bot@@ 185
Putin 185
ront 184
enting 184
endeav@@ 184
stakeh@@ 184
equip@@ 184
prer@@ 184
77 184
plas@@ 184
adjus@@ 184
curr@@ 184
impor@@ 184
IP@@ 184
regretta@@ 184
jec@@ 183
witn@@ 183
plied 183
Bi@@ 183
Di@@ 183
ALE 183
lear@@ 182
his@@ 182
sis@@ 182
wo@@ 182
eeded 182
oms 182
concer@@ 182
CO@@ 182
mending 182
Echelon 182
Ta@@ 182
Monterrey 182
enfor@@ 181
viewed 181
promis@@ 181
uring 181
IN@@ 181
spe@@ 181
ded@@ 181
secu@@ 181
democ@@ 181
enty 181
port@@ 181
Catal@@ 181
González 180
81 180
itu@@ 180
150 180
ffici@@ 180
coordin@@ 180
ball@@ 180
strik@@ 180
Rio 180
refer@@ 180
cil 180
England 180
Bas@@ 180
lau@@ 179
Az@@ 179
17@@ 179
bour 179
sympa@@ 179
ous@@ 179
sky 179
cils 179
diag@@ 179
volu@@ 179
Pas@@ 179
nauta@@ 178
ja@@ 178
retro@@ 178
93 178
yment 178
entific 178
ium 178
aqu@@ 178
ita 177
ilu@@ 177
parado@@ 177
itime 177
vention 177
mber 177
edu@@ 177
Thessalonik@@ 177
ho 177
nant 177
neu@@ 177
massa@@ 177
Maes 177
comm@@ 177
Verts 177
fisher@@ 177
Mercosur 177
ha 176
capac@@ 176
supervis@@ 176
propor@@ 176
97 176
tus 176
sym@@ 176
enorm@@ 176
Albania 176
ör@@ 176
persecu@@ 176
Chile 176
+ 176
antibio@@ 176
nership 176
Milosevi@@ 176
Sterckx 176
decentr@@ 175
phasing 175
EMU 175
tel@@ 175
tig@@ 175
unification 175
auti@@ 175
excell@@ 175
pan 175
tribu@@ 175
ks@@ 175
roati@@ 175
labor@@ 175
va 175
hou@@ 175
ceil@@ 175
2008 175
AS 175
3.@@ 174
87 174
highli@@ 174
privil@@ 174
aled 174
plus 174
clas@@ 174
mainstreaming 174
accura@@ 174
AL@@ 174
short@@ 174
thres@@ 174
let@@ 174
vina 174
Ludford 174
eira 173
wonder@@ 173
Ps 173
sy@@ 173
lobb@@ 173
plies 173
ually 172
receiv@@ 172
ong@@ 172
rus@@ 172
sibly 172
bon 172
dar@@ 171
umu@@ 171
sl@@ 171
pros@@ 171
Cha@@ 171
tian 171
dist@@ 171
ures 171
cod@@ 171
eli@@ 171
attit@@ 171
weap@@ 170
pers@@ 170
tab@@ 170
dia 170
Beij@@ 170
seri@@ 170
tru@@ 170
ICA@@ 170
Lamfalussy 170
ire@@ 169
rea@@ 169
tue 169
ette 169
120 169
ou 169
ired 169
SIS 169
Napolitano 169
anti@@ 169
los@@ 169
sa 169
64 169
iz@@ 169
Erasmus 169
Austr@@ 169
pring 169
än@@ 168
Mad@@ 168
88 168
ti 168
Mulder 168
Berg 168
Ara@@ 168
Jerusalem 168
Solbes 168
ij@@ 168
kan 167
sugges@@ 167
bour@@ 167
82 167
foc@@ 167
xed 167
dig@@ 167
regis@@ 167
warm@@ 167
compu@@ 167
Cam@@ 167
Regu@@ 167
Res@@ 167
stood 167
kilomet@@ 167
Sol@@ 167
dies@@ 167
94 166
ike 166
91 166
Rü@@ 166
amp@@ 166
gl@@ 166
exer@@ 166
advoc@@ 165
consum@@ 165
approxim@@ 165
enthusias@@ 165
08@@ 165
nan@@ 165
m. 165
Mill@@ 165
fic 165
Tra@@ 165
X@@ 164
alli@@ 164
cir@@ 164
Lam@@ 164
TAC@@ 164
les@@ 164
ud 164
alta@@ 164
a.@@ 164
aper 164
propagan@@ 164
than@@ 164
59 164
safeguar@@ 164
Moldova 164
taining 163
dyna@@ 163
vary 163
contamin@@ 163
saf@@ 163
applic@@ 163
condem@@ 163
eration 163
Latvia 163
San 162
oblig@@ 162
ais@@ 162
install@@ 162
phen@@ 162
prostitu@@ 162
ilities 162
mar 161
need@@ 161
rich@@ 161
adop@@ 161
ghted 161
even@@ 161
alu@@ 161
gras@@ 161
beli@@ 161
Ti@@ 161
reflec@@ 161
IV 161
sty@@ 161
mit@@ 161
tter 161
deliver@@ 161
sci@@ 161
Kab@@ 161
sel 160
bor@@ 160
abs@@ 160
Castro 160
employe@@ 160
aids 160
kl@@ 160
lec@@ 160
reconc@@ 160
Mc@@ 160
ME@@ 160
haz@@ 160
incredi@@ 160
yste@@ 159
DA@@ 159
sum@@ 159
occur@@ 159
adequ@@ 158
ü@@ 158
corpor@@ 158
Randzio 158
Plath 158
eseen 158
Soci@@ 158
popul@@ 158
campaig@@ 158
IM@@ 158
govern@@ 158
ah 158
Morillon 158
improv@@ 157
itive 157
compromis@@ 157
fulfill@@ 157
politic@@ 157
power@@ 157
ira 157
Blokland 157
Christi@@ 157
opti@@ 156
occasi@@ 156
olution 156
ots 156
hous@@ 156
nell@@ 156
associ@@ 156
84 156
Tim@@ 156
orm@@ 156
ô@@ 156
tol@@ 156
commit@@ 156
specific@@ 155
subsidi@@ 155
proving 155
concep@@ 155
independ@@ 155
Fir@@ 155
AN 155
hoc 154
86 154
EU@@ 154
nte@@ 154
gence 154
prim@@ 154
univers@@ 154
drin@@ 154
priva@@ 154
Katiforis 154
urg@@ 153
excep@@ 153
ood 153
packa@@ 153
understand@@ 153
Korean 153
hat@@ 153
Chil@@ 153
Mol@@ 153
itoring 153
Pirker 153
ASEM 153
attle 152
McCar@@ 152
taxpay@@ 152
sev@@ 152
resis@@ 152
serva@@ 152
cell@@ 152
emer@@ 152
pel@@ 152
11.30 152
virus 152
berg 152
fron@@ 152
Tem@@ 152
83 151
struc@@ 151
asses 151
posing 151
To@@ 151
mus@@ 151
600 151
Flor@@ 151
IS 151
SV 151
Mit@@ 151
Giscard 151
compe@@ 150
dispu@@ 150
Roth 150
benef@@ 150
popula@@ 150
commer@@ 150
And@@ 150
Mann 150
Savary 149
fri@@ 149
hment 149
trav@@ 149
ben@@ 149
med@@ 149
pid 149
thern 149
Rus@@ 149
McKenna 149
Lehne 149
hd@@ 149
itte@@ 148
laim@@ 148
Ra@@ 148
OEC@@ 148
conflic@@ 148
conduc@@ 148
homos@@ 148
tuber@@ 148
Equ@@ 148
imension 148
-@@ 147
strong@@ 147
restruc@@ 147
sel@@ 147
representa@@ 147
controll@@ 147
RE@@ 147
inen 147
geous 147
alo@@ 147
ra 147
Estaing 147
impe@@ 146
gorous 146
innova@@ 146
preci@@ 146
Ter@@ 146
El@@ 146
Armen@@ 146
treat@@ 146
DP 146
gy 145
contro@@ 145
big@@ 145
ump@@ 145
regi@@ 145
depend@@ 145
Er@@ 145
culti@@ 145
Valenci@@ 145
Kor@@ 145
zz@@ 144
iri@@ 144
certain@@ 144
ras@@ 144
eing 144
maintain@@ 144
ened 144
Im@@ 144
Vel@@ 144
Dell 144
Maij 144
Weggen 144
accoun@@ 144
18@@ 144
Cohn 144
Bendit 144
ulture 144
nesses 144
Ste@@ 143
stres@@ 143
Duisenberg 143
detr@@ 143
thin@@ 143
hier@@ 143
tun@@ 143
restor@@ 143
ón 143
musi@@ 143
76 143
Caud@@ 143
Bag@@ 143
tem@@ 142
congratula@@ 142
inspec@@ 142
ick 142
MO 142
Shar@@ 142
Cus@@ 142
dictator@@ 142
far@@ 142
ö@@ 142
WH@@ 142
sia 142
Pos@@ 142
Martí@@ 142
opportun@@ 141
rought 141
ken@@ 141
Busquin 141
enna 141
abandon@@ 141
plu@@ 141
dow 141
199@@ 141
aver@@ 141
drama@@ 141
ero@@ 141
Ramo@@ 141
1989 140
deta@@ 140
emerg@@ 140
depri@@ 140
spi@@ 140
rea 140
valu@@ 140
surance 140
Moro@@ 140
hen@@ 140
fundamen@@ 140
prosper@@ 139
prob@@ 139
bas@@ 139
Har@@ 139
Behrendt 139
claim@@ 139
nal 139
practic@@ 139
anta@@ 139
ECO@@ 139
EM@@ 139
ensi@@ 139
hard@@ 139
Varela 139
Chirac 139
Sella@@ 139
reite@@ 138
youn@@ 138
alogue 138
Michel 138
Roth@@ 138
uh@@ 137
threa@@ 137
Hul@@ 137
red@@ 137
neighbour@@ 137
30@@ 137
Ban@@ 137
ri 137
slow@@ 137
Kauppi 137
intermod@@ 137
ew 136
bil@@ 136
hul@@ 136
cri@@ 136
reti@@ 136
ever@@ 136
gic 136
ean 136
250 136
Medina 136
IT@@ 136
Schmidt 136
Sri 135
olle@@ 135
73 135
Goeb@@ 135
jur@@ 135
earli@@ 135
yl@@ 135
aul 135
Fontain@@ 135
lli@@ 135
Staes 135
Gibr@@ 135
Mac@@ 135
MacCormick 135
72 135
Mas@@ 135
Egyp@@ 135
low@@ 134
omis@@ 134
decisi@@ 134
junc@@ 134
accord@@ 134
FIF@@ 134
Izquierdo 134
sou@@ 134
nesty 134
ross 134
mos@@ 134
nur@@ 134
dop@@ 134
tia 133
lam@@ 133
apolog@@ 133
Reding 133
Un@@ 133
anno@@ 133
cooper@@ 133
tise 133
punis@@ 133
nar@@ 133
García 133
At@@ 133
burg 132
equi@@ 132
Pur@@ 132
nia 132
iver 132
Sloven@@ 132
kid@@ 132
Alp@@ 132
mits 132
79 132
oles@@ 132
GAT@@ 132
poor@@ 132
Hughes 132
wan@@ 132
Vig@@ 132
loo@@ 131
alling 131
Wh@@ 131
traged@@ 131
hill 131
kno@@ 131
eder@@ 131
Sahar@@ 131
Cash@@ 131
Perry 131
Wyn@@ 130
Mat@@ 130
ris 130
fal@@ 130
itor 130
ug@@ 130
Hautal@@ 130
Dupuis 130
scre@@ 130
ade 130
Maa@@ 130
vement 130
ò 130
terri@@ 129
tunn@@ 129
ven 129
SE@@ 129
tau@@ 129
Thea@@ 129
opol@@ 129
bian 129
cla@@ 129
doll@@ 129
Frassoni 129
Gar@@ 129
fos@@ 129
zu 129
Do@@ 129
precau@@ 129
categor@@ 129
Indonesian 129
asu@@ 129
White@@ 129
Tou@@ 129
Miguélez 129
Nistic@@ 129
cent@@ 128
Val@@ 128
comprehen@@ 128
eping 128
amoun@@ 128
strugg@@ 128
lement 128
ash@@ 128
fair@@ 128
Thor@@ 128
Lom@@ 128
develop@@ 128
ye@@ 128
Ky@@ 128
ETA 128
Oomen 128
Schroed@@ 127
entity 127
capa@@ 127
Ru@@ 127
Galeote 127
Sjöstedt 127
bert 127
collabor@@ 127
Belder 127
ples 127
traffic@@ 127
remar@@ 126
feasi@@ 126
Peij@@ 126
jun@@ 126
coura@@ 126
peri@@ 126
friend@@ 126
perman@@ 126
Graefe 126
Baringdor@@ 126
ved@@ 126
Kur@@ 126
ound@@ 126
Algerian 126
Coll@@ 126
Sac@@ 126
Götebor@@ 126
Cun@@ 125
unequ@@ 125
ves@@ 125
oph@@ 125
ala 125
Be@@ 125
illi@@ 125
Suu 125
enlarg@@ 124
Bre@@ 124
Venezu@@ 124
quanti@@ 124
Sy@@ 124
remed@@ 124
inclu@@ 124
Aung 124
brea@@ 124
22@@ 124
circum@@ 124
Joh@@ 124
Banglades@@ 124
eive 123
Hatzidak@@ 123
of@@ 123
depart@@ 123
Guatem@@ 123
dign@@ 123
Presid@@ 123
ré@@ 123
immi@@ 123
tain@@ 123
onian 123
arres@@ 123
Peters@@ 123
deter@@ 123
Lamassour@@ 123
Sud@@ 122
row 122
gan 122
Jacks@@ 122
totali@@ 122
group@@ 122
ran 122
nos@@ 122
Lucas 122
Á@@ 122
na 122
tonn@@ 122
Burund@@ 122
Tob@@ 121
stic@@ 121
entit@@ 121
ich 121
bac@@ 121
rass@@ 121
chet 121
oh@@ 121
Maced@@ 121
Ruij@@ 121
Learning 121
21@@ 120
syner@@ 120
uro 120
ody 120
susta@@ 120
plur@@ 120
800 120
Orteg@@ 120
Bel@@ 120
Sar@@ 120
ström 120
Méndez 120
consu@@ 120
ecu@@ 120
Fär@@ 120
Bourlan@@ 119
78 119
irable 119
happ@@ 119
Sten@@ 119
isol@@ 119
Tsa@@ 119
mel@@ 119
isla@@ 119
Ugan@@ 119
Nev@@ 119
dispar@@ 118
calc@@ 118
Tor@@ 118
AF@@ 118
ball 118
la 118
yp@@ 118
CA@@ 118
Bos 118
omet@@ 118
gla@@ 117
nific@@ 117
itor@@ 117
Gil 117
xin 117
aj@@ 117
emen@@ 117
ope 117
acces@@ 117
Malm@@ 117
bers 117
ilem@@ 116
Wurtz 116
uations 116
isen 116
Mic@@ 116
Eurodac 116
ov@@ 116
sad@@ 116
Lin@@ 116
pain 115
vel 115
declar@@ 115
pation 115
Environ@@ 115
reduc@@ 115
gen 115
ep 115
Oostlan@@ 115
Verhofsta@@ 115
remo@@ 114
je@@ 114
max@@ 114
fossi@@ 114
stan@@ 114
tments 114
xenopho@@ 114
rene@@ 114
UEN 114
arly 114
religi@@ 114
Colom@@ 114
Tun@@ 113
au 113
prehen@@ 113
Papayanna@@ 113
privileg@@ 113
emit@@ 113
princip@@ 113
clear@@ 113
74 113
Maghreb 113
Porto 113
j 112
020@@ 112
Ka@@ 112
NG@@ 112
contribu@@ 112
exha@@ 112
believ@@ 112
han 112
Monte@@ 112
Lagendij@@ 112
Steven@@ 112
cam@@ 112
multila@@ 112
Maurita@@ 112
confin@@ 111
perio@@ 111
fru@@ 111
porte@@ 111
ino 111
tunate 111
bes@@ 111
dela@@ 111
200@@ 111
elines 111
Ander@@ 111
LIFE 111
017@@ 111
nández 111
ura@@ 111
Hau@@ 111
Aleg@@ 111
efly 110
accompan@@ 110
craft 110
hin@@ 110
pessimis@@ 110
Freed@@ 110
eet 110
cle 110
uli@@ 110
ko 110
2015 110
tempor@@ 110
Gor@@ 109
uu@@ 109
tably 109
catastro@@ 109
700 109
hull@@ 109
OP@@ 109
Mal@@ 109
geograph@@ 109
reven@@ 109
Ver@@ 109
survi@@ 109
IT 109
jo 109
Bla@@ 109
oura@@ 109
Secre@@ 109
she@@ 109
neigh@@ 109
019@@ 109
teral 109
Nichol@@ 109
Sw@@ 109
expres@@ 109
oul@@ 109
Seveso 109
oning 108
mo 108
int 108
redund@@ 108
itely 108
ela 108
det@@ 108
Salafran@@ 108
Haid@@ 108
Gra@@ 108
Tr@@ 108
scho@@ 108
Sierra 108
Jean 108
Saudi 108
Nic@@ 108
iva@@ 108
05 107
Bud@@ 107
Vall@@ 107
tiveness 107
ain 107
Casac@@ 107
mur@@ 107
answ@@ 107
achi@@ 107
hop@@ 107
vian 107
Ba@@ 107
ok 107
Paul@@ 107
fro@@ 106
ject 106
ility 106
ros@@ 106
histor@@ 106
fare 106
tras@@ 106
Schul@@ 106
kop@@ 106
pois@@ 106
ome 106
child@@ 106
atte@@ 106
teg@@ 106
onom@@ 106
Ly@@ 105
terr@@ 105
Le 105
etting 105
xim@@ 105
tty 105
ini 105
Andalu@@ 105
Men@@ 105
Sanders 105
opp@@ 104
ffice 104
suring 104
emi@@ 104
norm@@ 104
ld 104
ST@@ 104
horiz@@ 104
isi 104
Ribeiro 103
eval@@ 103
Hu@@ 103
Alavan@@ 103
four@@ 103
draft@@ 103
opa@@ 103
Karaman@@ 103
José 103
Sil@@ 103
Sep@@ 102
kar@@ 102
inqu@@ 102
physi@@ 102
Agre@@ 102
secon@@ 102
Schrö@@ 102
forec@@ 102
1408 102
ki 102
Ku@@ 101
giv@@ 101
Söder@@ 101
vil@@ 101
ere@@ 101
Gaz@@ 101
Ortuon@@ 101
Ari@@ 101
uation 101
ruption 101
AC@@ 101
George 101
Gah@@ 101
torate 100
entrepren@@ 100
st@@ 100
Howit@@ 100
stric@@ 100
eu@@ 100
mechan@@ 100
func@@ 100
balan@@ 100
levi@@ 100
ari@@ 100
Staun@@ 100
.000 100
satisfac@@ 99
provid@@ 99
sop@@ 99
tax@@ 99
Grossetê@@ 99
olu@@ 99
yh@@ 99
X 99
my@@ 99
nec@@ 99
ria 99
ight 99
lamen@@ 99
amon@@ 99
ik@@ 98
talo@@ 98
ï@@ 98
Jacques 98
Romanian 98
enter@@ 98
pit@@ 98
emoc@@ 98
eir@@ 98
sud@@ 98
onia 98
referendu@@ 98
tment 97
pay@@ 97
record@@ 97
Jord@@ 97
eties 97
ç@@ 97
incin@@ 97
igno@@ 97
autom@@ 97
fir@@ 97
Galician 97
Mü@@ 97
Vietna@@ 97
Red@@ 96
kable 96
istan 96
.00 96
Serbian 96
tam@@ 96
mal 96
im 96
Brenn@@ 96
Å@@ 96
contain@@ 95
tall@@ 95
unfor@@ 95
oli 95
uclear 95
bet@@ 95
cand@@ 95
jan 95
dies 95
Wall@@ 95
tising 95
jus@@ 95
institution@@ 95
Kofi 95
mi 95
Cas@@ 94
imit@@ 94
tiet@@ 94
olem@@ 94
inging 94
versity 94
sand 94
aller@@ 94
Ob@@ 93
destruc@@ 93
siz@@ 93
quic@@ 93
devasta@@ 93
tivity 93
don 93
Ang@@ 93
AT@@ 93
fusion 93
siv@@ 93
Ni@@ 93
FA@@ 93
olum@@ 93
Romano 92
satis@@ 92
350 92
pover@@ 92
27@@ 92
telec@@ 92
Kir@@ 92
prote@@ 92
Canc@@ 92
skill@@ 91
Koso@@ 91
Trans@@ 91
tamin@@ 91
surpris@@ 91
avo@@ 91
privatis@@ 91
Sing@@ 91
Med@@ 91
ida 91
nne 90
08 90
resor@@ 90
qualities 90
sy 90
ffic@@ 90
meaning@@ 90
run@@ 90
usta@@ 90
blin@@ 90
apor@@ 90
inna 90
UC@@ 89
verse 89
surround@@ 89
kin 89
foot@@ 89
Mir@@ 89
Sal@@ 89
ops 89
Mexic@@ 89
terinary 89
ls 89
juris@@ 88
yll@@ 88
iel@@ 88
vain 88
tom 88
measu@@ 88
æ@@ 88
rais@@ 87
wan 87
Br@@ 87
wer 87
will@@ 87
bureauc@@ 87
Bow@@ 87
dor@@ 87
sing@@ 87
und 87
transpar@@ 87
koh@@ 87
suffici@@ 87
110 86
credi@@ 86
att@@ 86
enn@@ 86
ghtly 86
gration 86
oulo@@ 86
tend@@ 86
pris@@ 86
tech@@ 86
TRIPS 86
turally 85
ago@@ 85
insec@@ 85
success@@ 85
tos 85
jar@@ 85
sian 85
lop@@ 85
gres@@ 85
ata@@ 85
egal 85
Migu@@ 85
,@@ 84
ossa 84
Wat@@ 84
tie 84
ads 84
oin@@ 84
Sc@@ 84
busin@@ 83
mping 83
phy 83
eh@@ 83
uro@@ 83
mat 83
draw@@ 83
Hel@@ 83
EL@@ 83
pin@@ 82
may@@ 82
ans@@ 82
Alban@@ 82
MO@@ 82
gene@@ 82
ASE@@ 82
rad@@ 81
av@@ 81
Langen@@ 81
ply 81
strength@@ 81
enda 81
ren 81
Char@@ 81
ok@@ 81
Morgan@@ 81
suffer@@ 81
Hans 81
titude 80
bin@@ 80
hagen 80
cot@@ 80
consequ@@ 80
yt@@ 80
itious 80
round@@ 80
cut@@ 80
elo@@ 80
enin 80
materi@@ 79
determin@@ 79
avi@@ 79
rah@@ 79
recycl@@ 79
plo@@ 79
arbit@@ 79
truc@@ 79
mina 79
yo@@ 78
pil@@ 78
0 78
Fra@@ 78
prejud@@ 78
sear@@ 78
net@@ 78
SE 78
unds 78
ani 78
Pat@@ 78
advanta@@ 78
set@@ 78
signa@@ 78
Zimbab@@ 78
conveni@@ 77
examin@@ 77
thre@@ 77
itative 77
aan 77
nis@@ 77
tera@@ 77
Gi@@ 77
ó 77
Angolan 77
atmosp@@ 77
Slova@@ 77
offic@@ 76
dic 76
ante@@ 76
aton 76
collap@@ 76
Gal@@ 76
orities 76
imes 76
ò@@ 76
tarv@@ 76
ace@@ 76
eva 76
fore 75
constra@@ 75
una 75
candid@@ 75
Parlia@@ 75
eni 75
top@@ 75
tilis@@ 75
Nigerian 75
del 75
numer@@ 75
Ol@@ 75
fficient 74
dossi@@ 74
Leban@@ 74
onn@@ 74
Saharan 74
ky@@ 74
ã@@ 74
Conc@@ 74
000@@ 73
inis@@ 73
fashi@@ 73
ingu@@ 73
mainstre@@ 73
dom@@ 73
í 73
eness 73
Javier 73
elf 73
ava 73
ella 73
agu@@ 73
philosoph@@ 72
teem@@ 72
shoul@@ 72
tern 72
ternal 72
cat@@ 72
ECH@@ 72
parliamen@@ 72
alle@@ 72
kas 72
entation 72
eEurope 72
accep@@ 71
benefici@@ 71
ø@@ 71
Japan@@ 71
alter@@ 71
dea@@ 71
quot@@ 71
Gen@@ 71
scen@@ 71
ja 71
hope@@ 71
ua 71
CE 71
gradu@@ 71
pill@@ 70
manif@@ 70
Grö@@ 70
sustain@@ 70
Wi@@ 70
hea@@ 70
imate 70
itional 70
isely 70
tection 70
veness 70
Afric@@ 70
beha@@ 70
administra@@ 70
entin 70
Kre@@ 70
Napol@@ 70
gible 70
grow@@ 70
sequ@@ 70
dos@@ 70
monella 70
appar@@ 69
notic@@ 69
valent 69
tod@@ 69
nes@@ 69
kin@@ 69
draf@@ 68
yd@@ 68
ode 68
On 68
tit@@ 68
harm@@ 68
kell@@ 68
ira@@ 68
nou@@ 68
Vir@@ 68
aid@@ 67
typ@@ 67
won@@ 67
ket@@ 67
mot@@ 67
ison 67
mentary 67
mly 67
asin 67
ona 67
conclu@@ 67
ada 67
fil 67
overwhel@@ 67
ideolog@@ 67
appear@@ 67
tano 67
fundamentalis@@ 67
ints 67
iden 66
requ@@ 66
eler@@ 66
vulner@@ 66
este@@ 66
boo@@ 66
Bro@@ 66
ó@@ 66
tali@@ 66
goti@@ 66
Frid@@ 66
Tunisian 66
Brit@@ 65
degre@@ 65
anom@@ 65
Commun@@ 65
cohes@@ 65
cc@@ 65
trag@@ 65
alco@@ 65
ah@@ 65
lle 65
Itali@@ 65
inal 65
Iraq@@ 65
aming 64
ority 64
Agricul@@ 64
oulou 64
partic@@ 64
avar@@ 64
á 64
esti@@ 63
thou@@ 63
ama 63
J 63
propos@@ 63
imen@@ 63
Ag@@ 63
ap 63
kel@@ 63
ía 63
NS 63
lent@@ 63
Turk@@ 62
transa@@ 62
instru@@ 62
lum 62
illeg@@ 62
nut 62
Col@@ 62
maj@@ 62
Swed@@ 62
parall@@ 62
Bri@@ 62
DS 62
Ko@@ 61
mand@@ 61
alla@@ 61
lly 61
Cour@@ 61
buil@@ 61
rish 61
arm@@ 61
ung 61
asy@@ 61
een 61
ganis@@ 61
Ki@@ 61
ost 60
lai@@ 60
hall@@ 60
tso@@ 60
fail@@ 60
dispos@@ 60
ñ@@ 60
vall@@ 60
Geor@@ 60
kly 60
differ@@ 60
agre@@ 60
yan@@ 60
streng@@ 59
where@@ 59
Comm@@ 59
rat 59
rann@@ 59
contac@@ 59
consisten@@ 59
parad@@ 59
unc@@ 59
gian 59
sof@@ 59
figu@@ 59
gentlem@@ 59
Ir@@ 59
techn@@ 59
appro@@ 58
ogra@@ 58
Cr@@ 58
Mi@@ 58
tta@@ 58
az@@ 58
esi@@ 58
bin 58
flexi@@ 57
achiev@@ 57
Chi@@ 57
care@@ 57
mit 57
regul@@ 57
heav@@ 57
recy@@ 57
Dec@@ 57
OS@@ 57
luc@@ 57
Sö@@ 57
rant 57
Afgh@@ 57
isite 56
monopol@@ 56
ett@@ 56
ist@@ 56
ek 56
budsman 56
famili@@ 56
Austri@@ 56
percenta@@ 56
dow@@ 56
remain@@ 56
erb@@ 56
internation@@ 56
Econom@@ 56
pp@@ 56
yers 55
inhabi@@ 55
ades 55
Peter@@ 55
Europe@@ 55
olen 55
itly 55
pian 55
tedly 55
Oc@@ 55
vas@@ 55
arities 55
ania 55
feed@@ 55
absur@@ 55
Hi@@ 55
endu@@ 55
Sum@@ 55
Ju@@ 55
aph@@ 55
urs 54
Ech@@ 54
sincer@@ 54
ime 54
pa 54
ú@@ 54
min 54
essions 54
gun 54
25@@ 54
rement 54
din 54
Cong@@ 54
ei 54
main@@ 53
LA@@ 53
phy@@ 53
ittees 53
auto@@ 53
oon 53
ê@@ 53
pid@@ 53
Myan@@ 53
inte@@ 53
fers 53
iss@@ 53
Tre@@ 53
Jos@@ 53
&amp; 53
dus@@ 53
wholehear@@ 52
oni 52
Pal@@ 52
Leon@@ 52
Os 52
imper@@ 52
statis@@ 52
prison@@ 52
tial 52
lish 52
mies 52
Mer@@ 52
Sand@@ 52
electron@@ 51
ules 51
further@@ 51
mic 51
diction 51
Cz@@ 51
intellec@@ 51
sensiti@@ 51
Lat@@ 51
Min@@ 51
Americ@@ 51
ero 51
satell@@ 51
nim@@ 51
pull@@ 50
spen@@ 50
mm@@ 50
essa@@ 50
teet@@ 50
prepar@@ 50
Blo@@ 50
UT@@ 50
jective 50
join@@ 50
Span@@ 50
esty@@ 50
manoeuv@@ 50
turers 50
Bulgarian 50
prerequ@@ 49
Aud@@ 49
ear 49
environ@@ 49
symb@@ 49
high@@ 49
shrin@@ 49
olin 49
undering 49
OM 49
odo@@ 49
facil@@ 49
ghly 48
arti@@ 48
Ur@@ 48
stran@@ 48
op 48
mys@@ 48
bit@@ 48
itt@@ 48
vin@@ 48
eil@@ 48
program@@ 48
Ass@@ 48
sens@@ 48
sman 48
raha@@ 48
Lithu@@ 48
DR 47
hers 47
Pla@@ 47
So@@ 47
anu@@ 47
pharmaceu@@ 47
lements 47
vit@@ 47
etta 47
duce 47
ss@@ 47
enshrin@@ 47
SP 47
appli@@ 47
gir@@ 47
call@@ 47
Bos@@ 47
incid@@ 46
..@@ 46
sin 46
asta@@ 46
discus@@ 46
Representa@@ 46
bann@@ 46
dou@@ 46
urs@@ 46
democrat@@ 46
if@@ 46
Jun@@ 46
servic@@ 46
titu@@ 46
dang@@ 46
inst 46
abo@@ 46
1980 46
Stock@@ 46
ois@@ 46
oint 46
renew@@ 45
strateg@@ 45
gers 45
worl@@ 45
tus@@ 45
inno@@ 45
ET@@ 45
én 45
progra@@ 45
affec@@ 44
resear@@ 44
monia 44
stru@@ 44
si 44
sched@@ 44
issa@@ 44
harass@@ 44
ata 44
comple@@ 43
erous 43
qual@@ 43
lights 43
oppon@@ 43
post@@ 43
coher@@ 43
scri@@ 43
Den@@ 43
kon@@ 43
lin 43
Mag@@ 43
py@@ 43
Ven@@ 43
kas@@ 43
Jac@@ 42
guil@@ 42
analy@@ 42
subjec@@ 42
Mu@@ 42
terroris@@ 42
Ε@@ 42
alterna@@ 41
destro@@ 41
ollu@@ 41
edes 41
ferences 41
geogra@@ 41
atu@@ 41
proper@@ 41
intellig@@ 41
nau@@ 41
propa@@ 41
jen@@ 41
apua 41
raud 40
Län@@ 40
Pl@@ 40
Kau@@ 40
asi 40
pub@@ 40
seem@@ 40
consensu@@ 40
uno@@ 40
Pak@@ 40
istani 40
burea@@ 40
Si@@ 40
aste 40
II@@ 39
tremend@@ 39
market@@ 39
thorou@@ 39
pol 39
gal@@ 39
forth@@ 39
derog@@ 39
till 39
Kal@@ 39
are@@ 39
TR@@ 39
kor@@ 39
Fre@@ 39
paper@@ 39
fem@@ 39
AT 39
scient@@ 39
geted 39
koski 39
Develop@@ 39
union@@ 39
vani 39
ote 39
ior 38
num@@ 38
W 38
arrang@@ 38
simil@@ 38
Progra@@ 38
Cub@@ 38
nic 38
istics 38
ith 38
Fis@@ 38
extre@@ 38
perfec@@ 38
enopho@@ 38
polit@@ 38
Saf@@ 38
ali 38
atte 38
circumstan@@ 37
oman 37
unti@@ 37
anim@@ 37
isms 37
icals 37
pes@@ 37
redi@@ 37
recogn@@ 37
rist@@ 37
Au@@ 37
gin 37
radio@@ 37
Mé@@ 37
Op@@ 37
solid@@ 36
EL 36
integra@@ 36
mains@@ 36
imb@@ 36
vana 36
estima@@ 36
aste@@ 36
É@@ 36
Gro@@ 36
demon@@ 36
rita@@ 36
Gö@@ 36
ffer 36
pharma@@ 36
irregul@@ 35
het@@ 35
tos@@ 35
resul@@ 35
ame 35
ied 35
redundan@@ 35
oked 35
bila@@ 35
veto@@ 35
dim@@ 35
leng@@ 35
ring@@ 35
bilities 35
Pr@@ 35
state@@ 35
kim@@ 35
adem@@ 35
worth@@ 35
territor@@ 35
elin 35
Ukra@@ 35
sama 35
effec@@ 34
chers 34
rang@@ 34
esta 34
supran@@ 34
minister@@ 34
ä@@ 34
era@@ 34
dep@@ 34
yn 34
pite 34
psy@@ 34
asia 34
ant@@ 34
Gener@@ 33
mend@@ 33
iliation 33
astu@@ 33
especi@@ 33
tele@@ 33
deple@@ 33
alun 33
tackl@@ 33
Sto@@ 33
tista 33
show@@ 33
technolog@@ 33
philos@@ 33
mia 33
Pres@@ 33
follow@@ 33
elle 33
Fisch@@ 33
oin 33
olos@@ 32
compli@@ 32
sula@@ 32
Por@@ 32
lic 32
rau@@ 32
earning 32
eman 32
conser@@ 32
syste@@ 32
icul@@ 32
kit@@ 32
tlantic 32
mol@@ 32
EN 31
utu@@ 31
Emp@@ 31
belong@@ 31
poli@@ 31
mone@@ 31
gest 31
rev@@ 31
Bol@@ 31
ila@@ 31
particip@@ 31
ester@@ 31
princi@@ 31
ler@@ 31
Finan@@ 31
viel@@ 31
q 31
organ@@ 31
dy@@ 31
infrastruc@@ 30
Poh@@ 30
ole@@ 30
PP@@ 30
pop@@ 30
alan 30
eij@@ 30
kle 30
interoper@@ 30
itta@@ 30
him@@ 30
rke@@ 30
sie@@ 29
tration 29
environmen@@ 29
Ö 29
Ö@@ 29
US@@ 29
easi@@ 29
disas@@ 29
vels 29
usti@@ 29
ulti@@ 29
eiv@@ 29
intoler@@ 29
biolog@@ 29
alle 29
essenti@@ 29
intell@@ 29
Í@@ 29
Diaman@@ 29
oples 29
Gros@@ 29
prior@@ 28
tury 28
heik@@ 28
ould 28
open@@ 28
teen@@ 28
amis@@ 28
soldi@@ 28
larg@@ 28
pren@@ 28
toral 28
echan@@ 28
pom@@ 28
anan 28
hs 28
Pu@@ 27
swi@@ 27
tarians 27
ye 27
£ 27
Belgi@@ 27
iture 27
mus 27
participan@@ 27
Ge@@ 27
its@@ 27
rete 27
avia 27
know@@ 27
Taiwan@@ 27
osa@@ 27
Auth@@ 27
see@@ 27
Guine@@ 27
Ô@@ 27
pharmac@@ 27
EI@@ 27
bal@@ 26
dless 26
Mul@@ 26
teful 26
itan 26
ivo@@ 26
Ho@@ 26
tta 26
Y 26
vul@@ 26
atically 26
gin@@ 26
basi@@ 26
itiveness 26
tu 26
som@@ 26
convinc@@ 26
moni@@ 26
eto@@ 26
ellow 25
kir@@ 25
dez 25
any@@ 25
Cu@@ 25
Organis@@ 25
led@@ 25
schedul@@ 25
lem 25
ille 25
tak@@ 25
demogra@@ 25
ularly 25
swif@@ 25
rim 25
telev@@ 25
dru@@ 25
Indus@@ 25
0,@@ 25
ista 25
resum@@ 24
lain 24
ette@@ 24
deni@@ 24
foll@@ 24
lip@@ 24
food@@ 24
Fren@@ 24
victi@@ 24
vet@@ 24
ry@@ 24
olly 24
ollen 24
eri@@ 24
undoub@@ 24
isa 24
Kore@@ 24
Kan@@ 24
AI@@ 24
nn@@ 23
ingredi@@ 23
akin 23
mely 23
yri@@ 23
antu@@ 23
expen@@ 23
11.00 23
1,@@ 23
explic@@ 23
outh 23
raid 23
hill@@ 23
ference 23
prog@@ 23
tili@@ 23
liberalis@@ 23
fall@@ 23
yli@@ 23
atedly 22
fer 22
olo@@ 22
Bosni@@ 22
stuffs 22
rying 22
aman@@ 22
Strate@@ 22
orrow 22
resol@@ 22
avier 22
atly 22
occupi@@ 22
Moldo@@ 22
ure@@ 22
ridicul@@ 22
lifer@@ 22
charac@@ 22
.e@@ 22
Galic@@ 22
telecommun@@ 21
ppa@@ 21
pensa@@ 21
trou@@ 21
exac@@ 21
hir@@ 21
à@@ 21
fec@@ 21
roman@@ 21
trous 21
ien 21
Yugosla@@ 21
oso@@ 21
Eg@@ 21
nee 21
Buiten@@ 21
dikta@@ 21
Italia 21
acco 21
iku@@ 21
osa 21
estic 21
Prosecu@@ 21
burg@@ 20
feeding@@ 20
second@@ 20
fund@@ 20
knowled@@ 20
bet 20
apu@@ 20
Suom@@ 20
ucle@@ 20
profess@@ 20
humanita@@ 20
vious 20
orin 20
imer@@ 20
tere@@ 19
inha@@ 19
IF@@ 19
fea@@ 19
ultima@@ 19
unn@@ 19
teur@@ 19
trate@@ 19
ots@@ 19
compul@@ 19
Constitu@@ 19
Citiz@@ 19
tas 19
taka@@ 19
kit 19
rav@@ 19
ß 19
emis@@ 19
ji@@ 19
kan@@ 19
Ï 19
autonom@@ 19
limin@@ 19
sill@@ 19
viour 19
osta 19
omme 19
pend@@ 19
aka@@ 19
rj@@ 19
12.00 18
lle@@ 18
tenance 18
conv@@ 18
Yor@@ 18
lead@@ 18
twel@@ 18
firs@@ 18
ly@@ 18
ources 18
wr@@ 18
q@@ 18
Alger@@ 18
gar 18
fr@@ 18
resh 17
enne 17
Pet@@ 17
performan@@ 17
opho@@ 17
Roman@@ 17
oman@@ 17
problem@@ 17
disadvanta@@ 17
genous 17
Niel@@ 17
ommun@@ 17
lare 17
entally 17
2,@@ 17
Polic@@ 17
ndez 17
ingent 17
risti@@ 17
ingdom 17
perus@@ 17
pornogra@@ 17
Inves@@ 17
depen@@ 17
mn 17
Hus@@ 17
anne 17
indis@@ 17
Lag@@ 17
kon 17
Commis@@ 17
teo@@ 17
paran@@ 17
through@@ 17
tron@@ 17
alition 17
Medi@@ 17
alta 17
interes@@ 17
amin@@ 17
syr@@ 17
rase 17
ark@@ 17
amma@@ 17
hta@@ 17
maiden 16
OLA@@ 16
sovereign@@ 16
Proc@@ 16
Eas@@ 16
ku@@ 16
sar@@ 16
manu@@ 16
minu@@ 16
then@@ 16
IG@@ 16
compan@@ 16
controversi@@ 16
Af@@ 16
bad@@ 16
teho@@ 16
rac 16
Paragrap@@ 16
solu@@ 16
actu@@ 16
tto@@ 16
Slovaki@@ 16
arin 16
polog@@ 15
simila@@ 15
implem@@ 15
ident 15
Bang@@ 15
udan@@ 15
eft 15
Cauc@@ 15
unda@@ 15
· 15
Tam@@ 15
gratu@@ 15
ough 15
Nov@@ 15
vied@@ 15
rit 15
chem@@ 15
aria 15
occu@@ 15
vie 15
found@@ 15
1. 15
ente@@ 15
weeken@@ 15
Ó 15
ussa 15
ni 14
Atlan@@ 14
junction 14
green@@ 14
hdo@@ 14
NAT@@ 14
$ 14
osia 14
kia 14
zin 14
Cy@@ 14
morator@@ 14
testa@@ 14
ende@@ 14
itage 14
effici@@ 14
iddle 14
vi 14
eli 14
Esta@@ 14
pis@@ 14
pir@@ 14
ß@@ 14
plom@@ 14
zio 14
withdraw@@ 14
fig@@ 13
omen 13
nel@@ 13
Q 13
lingu@@ 13
lais@@ 13
kr@@ 13
Lab@@ 13
sav@@ 13
llis@@ 13
etta@@ 13
gent@@ 13
congratu@@ 13
bec@@ 13
jne 13
aar@@ 13
Ì@@ 13
Om@@ 13
alth 13
aa@@ 13
Fisher@@ 13
necess@@ 13
telem@@ 13
tit 13
omain 13
Angol@@ 13
rism 13
entre@@ 12
help@@ 12
horizon@@ 12
Luxembour@@ 12
tois@@ 12
ilo 12
ima@@ 12
contr@@ 12
dise@@ 12
mula 12
phenomen@@ 12
citizen@@ 12
rail@@ 12
Cres@@ 12
illa 12
gia 12
onne 12
thousan@@ 12
Tai@@ 12
äl@@ 12
ä 12
thu@@ 12
ville 12
ittle 12
Var@@ 12
Morocc@@ 12
jan@@ 12
annan 12
reak@@ 12
ö 12
invol@@ 12
itta 12
offer@@ 12
luo@@ 12
Α@@ 12
enterpris@@ 11
Contro@@ 11
Associ@@ 11
incenti@@ 11
historian 11
intro@@ 11
nit 11
Anne@@ 11
harma@@ 11
kis@@ 11
anto 11
hol 11
kus 11
ymp@@ 11
Z 11
ffec@@ 11
ctions 11
Eco@@ 11
tie@@ 11
ito@@ 11
aga@@ 11
refus@@ 11
° 11
Belar@@ 11
cipl@@ 10
sory 10
Sala@@ 10
reds 10
lit 10
tark@@ 10
proced@@ 10
Thurs@@ 10
langu@@ 10
expend@@ 10
other@@ 10
dit 10
Hag@@ 10
camp@@ 10
å@@ 10
tee 10
istu@@ 10
vations 10
istur@@ 10
ises@@ 10
kal@@ 10
elle@@ 10
hin 10
hic 10
tut@@ 10
occ@@ 10
ership 10
ourable 10
Eura@@ 10
asian 10
ale@@ 10
Dub@@ 10
hun 10
anna 10
tec@@ 10
Dut@@ 10
eur@@ 10
sian@@ 10
sensu@@ 10
Ü@@ 9
itten 9
kki 9
codec@@ 9
forman@@ 9
hel 9
jurid@@ 9
û@@ 9
ampi 9
Eng@@ 9
nille 9
po 9
inevi@@ 9
li 9
iro 9
simpli@@ 9
tyr@@ 9
ú 9
genoc@@ 9
oa 9
ek@@ 9
meth@@ 9
É 9
hia 9
eton 9
ret 9
ku 9
rik@@ 9
dik@@ 9
onta@@ 9
roh@@ 9
º@@ 8
topic@@ 8
itus 8
Emplo@@ 8
imperialis@@ 8
ttom@@ 8
Consum@@ 8
Nig@@ 8
arz@@ 8
aband@@ 8
Ê@@ 8
evel@@ 8
iko@@ 8
usly 8
kul@@ 8
fam@@ 8
alais@@ 8
isto@@ 8
opi@@ 8
ë@@ 8
toon 8
ause 8
Geno@@ 8
cris@@ 8
jet@@ 8
3. 8
jana 8
ffic 8
Mau@@ 8
comit@@ 8
elta 8
itin 7
Feder@@ 7
seis@@ 7
mis 7
wha@@ 7
itives 7
consider@@ 7
yright 7
oton@@ 7
Vitor@@ 7
plann@@ 7
º 7
Luc@@ 7
ny@@ 7
Lud@@ 7
poten@@ 7
gotten 7
iota 7
absolu@@ 7
tien 7
haps 7
assa 7
Eurosta@@ 7
roper@@ 7
enthusi@@ 7
unta@@ 7
mme 7
Def@@ 7
Aug@@ 7
PV@@ 7
oni@@ 7
aban@@ 7
län@@ 7
potenti@@ 7
meri@@ 7
mend 7
nolle 7
mant@@ 7
Repres@@ 7
mean@@ 7
ista@@ 7
Lis@@ 7
onz@@ 7
kka 7
tap@@ 7
subsid@@ 7
ensions 7
Struc@@ 7
aja@@ 7
try@@ 7
rs@@ 7
Husse@@ 7
heu@@ 7
agricul@@ 7
alon@@ 7
munity 7
evelop@@ 6
incen@@ 6
rapporte@@ 6
ksen 6
tock 6
Commission@@ 6
mut@@ 6
kenn@@ 6
tho@@ 6
appl@@ 6
Pub@@ 6
rapid@@ 6
hund@@ 6
diovis@@ 6
ffer@@ 6
vin 6
tila 6
therapeu@@ 6
ivan 6
Ø@@ 6
å 6
tricity 6
tte 6
schem@@ 6
CF@@ 6
vern@@ 6
Corm@@ 6
chil@@ 6
ech 6
sten 6
usi 6
geri@@ 6
transi@@ 6
put@@ 6
ippu@@ 6
kö@@ 6
Ener@@ 6
entre 6
pun 6
mitta@@ 6
vu@@ 6
Europol@@ 6
Jer@@ 6
ussels 6
arab@@ 6
disab@@ 6
uri 6
Alli@@ 6
ural 6
Thessalon@@ 6
rejec@@ 5
perim@@ 5
enness 5
rety 5
Aus@@ 5
â@@ 5
viously 5
p.@@ 5
cates 5
inne 5
ete@@ 5
lann@@ 5
mall@@ 5
chocol@@ 5
tice 5
inti 5
tein 5
asta 5
recog@@ 5
gros@@ 5
omen@@ 5
ilies 5
etu@@ 5
speec@@ 5
memb@@ 5
nais@@ 5
ebru@@ 5
indispensa@@ 5
aat@@ 5
itte 5
iso@@ 5
Amster@@ 5
Mone@@ 5
ota 5
zer@@ 5
aty 5
aim@@ 5
kro@@ 5
Luxemburg@@ 5
esterday 5
sly 5
kra@@ 5
how@@ 5
osi 5
oun 5
Pakistan@@ 5
fin 5
jel@@ 5
Afghan@@ 5
ï 5
Proced@@ 5
htu@@ 5
aks@@ 5
Gonz@@ 5
ipu@@ 5
kri@@ 5
ù@@ 5
Erik@@ 4
lien@@ 4
smu@@ 4
wher@@ 4
ece 4
omi@@ 4
mille 4
osto@@ 4
eris@@ 4
avan 4
ü 4
itut 4
utta@@ 4
Wednes@@ 4
compati@@ 4
Speci@@ 4
tences 4
asbes@@ 4
tosi@@ 4
constan@@ 4
ù 4
eability 4
ksi@@ 4
kom@@ 4
Memb@@ 4
usko 4
Iz@@ 4
pure@@ 4
Tali@@ 4
prelimin@@ 4
inste@@ 4
â 4
istan@@ 4
kun@@ 4
digenous 4
oda 4
ile@@ 4
issa 4
eri 4
onna 4
ierra 4
tuna@@ 4
Helsing@@ 4
offici@@ 4
ì@@ 4
tí@@ 4
opin@@ 4
tob@@ 4
kou@@ 4
topi@@ 4
messa@@ 4
imi@@ 4
Niger@@ 4
@ 4
Jacqu@@ 4
ajo@@ 4
eti@@ 4
AK@@ 4
atz@@ 4
Ν@@ 4
Τ@@ 4
laimin@@ 4
kku@@ 3
itali@@ 3
usta 3
vements 3
goro@@ 3
î@@ 3
µ@@ 3
egu@@ 3
æ 3
okra@@ 3
Coh@@ 3
½ 3
pite@@ 3
Å 3
yy@@ 3
amend@@ 3
Rep@@ 3
happen@@ 3
apeu@@ 3
sani 3
jos@@ 3
EK@@ 3
estin@@ 3
Mai@@ 3
asure 3
vista 3
reh@@ 3
ako 3
i- 3
Ï@@ 3
positi@@ 3
tote@@ 3
alla 3
idents 3
Educ@@ 3
= 3
Ire@@ 3
,5 3
Indones@@ 3
void@@ 3
lah@@ 3
digita@@ 3
thusi@@ 3
iten@@ 3
Coton@@ 3
umi 3
elon 3
tona 3
mä@@ 3
addres@@ 3
Declar@@ 3
panos@@ 3
anal@@ 3
Pir@@ 3
urity 3
airs 3
itty 3
ingness 3
Bulgar@@ 3
vat@@ 3
unpreced@@ 3
Gua@@ 3
evan 3
osen 3
immedi@@ 3
kata 3
iha@@ 3
tiu@@ 3
Gis@@ 3
standar@@ 3
enab@@ 3
iminal 3
Presti@@ 3
olla 3
vero 3
Chechny@@ 3
riski@@ 3
è 3
Ο 3
sels 3
kre@@ 3
annes@@ 2
öö@@ 2
Portugu@@ 2
etty 2
¾ 2
alem 2
iten 2
äh@@ 2
nen 2
uo@@ 2
kk@@ 2
Bour@@ 2
onte@@ 2
vince 2
lavan@@ 2
isu@@ 2
ople 2
pim@@ 2
ennet@@ 2
ilma@@ 2
sky@@ 2
gn 2
Lamfalus@@ 2
isen@@ 2
sovi@@ 2
ryo@@ 2
Lon@@ 2
öl@@ 2
orig@@ 2
Tunisi@@ 2
vily 2
oub@@ 2
mien 2
int@@ 2
isten 2
vang@@ 2
riers 2
tul@@ 2
clar@@ 2
tially 2
terran@@ 2
repercus@@ 2
pointment 2
Ý@@ 2
jö@@ 2
aa 2
ource 2
reco@@ 2
genu@@ 2
kot 2
rans@@ 2
isin 2
takings 2
tai@@ 2
terro@@ 2
Á 2
genuin@@ 2
toge@@ 2
nar 2
assess@@ 2
ows@@ 2
alue 2
Â@@ 2
evi@@ 2
terranean 2
chann@@ 2
oton 2
tann@@ 2
ipa 2
maid@@ 2
_ 2
tot 2
Beh@@ 2
kys@@ 2
pyr@@ 2
ksell@@ 2
tti 2
anen 2
raha 2
Liik@@ 2
aan@@ 2
pari 2
riske@@ 2
inin 2
eta 2
procure@@ 2
Minu@@ 2
tana 2
tori 2
termost 2
sai@@ 2
world@@ 2
saa@@ 2
vos@@ 2
ope@@ 2
anna@@ 2
reper@@ 2
kus@@ 2
lia@@ 2
itella 2
rin 2
hre@@ 2
ologi@@ 2
tai 2
keh@@ 2
Berl@@ 2
ween 2
summa 2
tti@@ 2
genti@@ 2
irro@@ 2
alt@@ 2
Bend@@ 2
õ@@ 2
mik@@ 2
Sadd@@ 2
heng@@ 2
tever 2
oma@@ 2
\ 2
audiovis@@ 2
toim@@ 2
haki@@ 2
illance 2
ofi 2
elv@@ 2
suu@@ 2
sod@@ 2
Wed@@ 2
lä@@ 2
federalis@@ 2
Ι@@ 2
kull@@ 2
asus 2
systema@@ 1
hän@@ 1
raj@@ 1
wides@@ 1
9. 1
recour@@ 1
examp@@ 1
tulis@@ 1
isem@@ 1
quier@@ 1
tlan@@ 1
peu@@ 1
elong 1
elem@@ 1
prev@@ 1
varti@@ 1
vier@@ 1
hengen 1
conom@@ 1
perip@@ 1
vam@@ 1
ologian 1
kti@@ 1
ticles 1
ät 1
äid@@ 1
ella@@ 1
majo@@ 1
¼ 1
vies@@ 1
itty@@ 1
aties 1
Ù@@ 1
isra@@ 1
derly 1
villa 1
Byr@@ 1
ember 1
sall@@ 1
elek@@ 1
Ira@@ 1
Jarzembows@@ 1
alin 1
activ@@ 1
vien@@ 1
erill@@ 1
À@@ 1
tani 1
osten 1
ansa 1
Leh@@ 1
vii@@ 1
moot@@ 1
ysten 1
pall@@ 1
klo@@ 1
teli@@ 1
väl@@ 1
itur@@ 1
2000@@ 1
opa 1
kos@@ 1
tei 1
etu 1
istu 1
subsi@@ 1
fsta@@ 1
ardous 1
4. 1
eten@@ 1
like@@ 1
kala@@ 1
Amsterd@@ 1
ç 1
utta 1
ajan@@ 1
ike@@ 1
Saks@@ 1
ittel@@ 1
Ñ@@ 1
pia 1
innan 1
Washington@@ 1
WT@@ 1
pys@@ 1
haas@@ 1
kiel@@ 1
arv@@ 1
Fore@@ 1
Sovi@@ 1
lause@@ 1
sata@@ 1
teh@@ 1
ensi 1
urt@@ 1
capita@@ 1
kun 1
earch 1
SME@@ 1
Rand@@ 1
Indon@@ 1
tena 1
õ 1
÷ 1
þ 1
kiitos 1
euv@@ 1
kland 1
Monter@@ 1
erin 1
Gothen@@ 1
ë 1
sivis@@ 1
udu 1
Ì 1
ý 1
ý@@ 1
ð@@ 1
ikin 1
olette 1
Portugal@@ 1
pi 1
Mugab@@ 1
Ster@@ 1
anin 1
onin 1
jen 1
atuzz@@ 1
multination@@ 1
yö@@ 1
sti 1
reau 1
unta 1
otten 1
onnea 1
Luxemb@@ 1
lö@@ 1
ettu@@ 1
amin 1
mote 1
whel@@ 1
mila@@ 1
tet@@ 1
more@@ 1
Christ@@ 1
etten 1
entral 1
edes@@ 1
eik@@ 1
selves 1
inta 1
ait@@ 1
Milos@@ 1
jon@@ 1
aio 1
laat@@ 1
when@@ 1
kev@@ 1
Haar@@ 1
pread 1
campa@@ 1
pime@@ 1
kko 1
antaa 1
tenne 1
vasta@@ 1
Tans@@ 1
kall@@ 1
ikan 1
osin 1
osal@@ 1
tina 1
xt 1
Oos@@ 1
Araf@@ 1
inta@@ 1
oja 1
Balkan@@ 1
kansa@@ 1
onkin 1
kut@@ 1
ittee 1
ì 1
timme 1
mitte@@ 1
är@@ 1
vä@@ 1
lain@@ 1
uun@@ 1
yday 1
tut 1
obsta@@ 1
uol@@ 1
Diamantop@@ 1
esti 1
Euroop@@ 1
tö 1
individ@@ 1
GU@@ 1
korkean 1
hyöty@@ 1
suhteen 1
Kes@@ 1
ê 1
Jap@@ 1
estab@@ 1
joh@@ 1
aut@@ 1
ã 1
colleag@@ 1
Opportun@@ 1
kalas@@ 1
partner@@ 1
kot@@ 1
destab@@ 1
mani 1
Gale@@ 1
ktu@@ 1
uscon@@ 1
Kati@@ 1
ø 1
Wash@@ 1
laa 1
ministeri@@ 1
itu 1
gid 1
Sterck@@ 1
kea 1
Fatuzz@@ 1
Α 1
onger 1
mita@@ 1
ity@@ 1
kem@@ 1
tella 1
yt 1
opar@@ 1
OLAF@@ 1
Amend@@ 1
alko@@ 1
requi@@ 1
Eras@@ 1
indus@@ 1
een@@ 1
Κ@@ 1
Κ 1
urin 1
bile 1
laus@@ 1
irman 1
ă@@ 1
¡ 1
onta 1
Behrend@@ 1
ο 1
tute 1
Fon@@ 1
chap@@ 1
aal@@ 1
Ι 1
hah@@ 1
udi 1
edel@@ 1
