, 712481
. 498136
ja 321411
on 278516
että 166121
ei 68771
Euroopan 60159
@-@ 55942
myös 47803
se 46433
- 43071
ovat 42128
arvoisa 37914
sen 37846
ole 37767
komission 37054
joka 32987
tämä 31891
puhemies 30623
jotka 30207
siitä 28332
meidän 27099
jäsen 26677
mutta 26379
sitä 26354
ista 25712
in 24796
parlamentin 24752
tämän 23919
kuin 23149
tai 22774
) 21843
olisi 21840
nyt 21761
( 21742
sekä 20914
kun 20704
unionin 20275
en 19845
kuitenkin 19511
: 19309
komissio 19292
jos 19277
? 19152
&quot; 18455
voi 17949
kuten 17920
kanssa 17853
ne 17344
olemme 17289
koska 17157
inen 17088
olen 17023
tässä 16757
emme 16641
niin 15985
jo 15822
i 15440
neuvoston 15407
isen 15306
hyvin 15272
vain 15210
jonka 15020
sillä 14236
a 13911
kaikki 13677
oli 13615
tätä 13453
is@@ 13346
olla 13308
vielä 13280
eivät 13166
mitä 12727
jotta 12584
haluan 12480
siihen 12337
erittäin 12322
me 12318
niiden 12261
haluaisin 12154
vaan 12057
mielestäni 12002
issa 11877
an 11872
jossa 11774
istä 11760
voidaan 11526
joita 11351
näin 11298
isiin 11267
/ 11089
tästä 11026
isten 10965
lisäksi 10891
vuoksi 10708
maan 10601
ille 10481
erityisesti 10388
tällä 10382
ta@@ 10287
mukaan 10132
neet 9997
parlamentti 9961
isi 9961
i@@ 9900
siksi 9865
eikä 9811
isia 9805
hän 9780
ennen 9702
o@@ 9679
vat 9638
vuoden 9638
yhteisön 9607
tähän 9522
mieltä 9460
jota 9322
iset 9288
EU:n 9202
asta 9201
jäsenvaltioiden 9180
paljon 9163
pitäisi 9121
minen 9112
nämä 8911
a@@ 8871
huomioon 8802
vaikka 8797
assa 8621
ollut 8546
tärkeää 8530
niitä 8417
puolesta 8346
an@@ 8280
ti@@ 8265
tehdä 8227
to@@ 8219
ta 8202
in@@ 8139
joiden 8115
ettei 8109
siinä 8076
iden 8060
pitää 8026
neuvosto 8006
taan 7981
jälkeen 7939
aan 7934
siis 7926
e@@ 7895
iseen 7878
vien 7864
van 7753
mme 7692
täysin 7681
isesti 7636
mikä 7586
te@@ 7579
ita 7569
at 7481
illa 7478
u@@ 7464
k@@ 7446
ä 7425
he 7424
koko 7362
tu@@ 7358
ia 7318
pää@@ 7307
hyvät 7255
sitten 7234
hänen 7224
et 7206
vuonna 7173
ko@@ 7171
mista 7153
kyse 7064
ihin 7051
es@@ 7034
juuri 7033
yhteydessä 7026
miten 7024
asia 7007
itse 6980
vastaan 6962
ksi 6943
misen 6934
voimme 6931
jäsenet 6871
en@@ 6869
viime 6831
meillä 6814
Eurooppa 6814
saa 6773
näiden 6760
asiassa 6686
esimerkiksi 6655
eri 6603
kin 6592
perus@@ 6578
lle 6562
toimia 6556
alla 6555
o 6553
työ@@ 6524
y@@ 6403
ti 6328
osalta 6255
antaa 6248
aivan 6229
epä@@ 6224
kaikkien 6207
isesta 6191
la@@ 6178
koskevan 6148
u 6134
ka@@ 6133
enemmän 6094
yksi 6090
lopuksi 6077
heidän 6065
t 6058
maiden 6035
im@@ 6000
ki@@ 5945
esittelijä 5941
via 5933
elle 5906
mietinnön 5885
puheenjohtaja 5884
ku@@ 5879
joilla 5815
al@@ 5774
aa 5767
miseen 5762
edelleen 5751
alalla 5722
ainoastaan 5722
koskee 5721
avulla 5710
kysymys 5700
alle 5681
uuden 5664
essa 5649
kannalta 5632
val@@ 5590
aikana 5587
tänään 5536
jolla 5535
mitään 5515
s 5509
s@@ 5505
j@@ 5498
us@@ 5486
unioni 5468
; 5465
jen 5462
koskevat 5454
sanoa 5428
ina 5422
minun 5417
ma@@ 5415
si@@ 5409
usta 5390
hyvä 5359
ien 5351
it@@ 5329
toivon 5319
asiasta 5277
mis@@ 5267
oltava 5264
osa 5243
tulee 5239
amme 5237
voivat 5222
osta 5211
te 5194
tä 5174
tapauksessa 5153
ottaa 5151
kuitenkaan 5149
een 5131
imme 5114
t@@ 5105
samaa 5076
hyväksyä 5073
mistä 5055
as@@ 5047
mietinnössä 5023
aina 5012
ä@@ 4990
tärkeä 4984
meille 4979
saada 4974
ne@@ 4954
ik@@ 4929
ympäristö@@ 4919
-@@ 4912
h@@ 4911
vaa 4890
ke@@ 4867
tetaan 4855
joissa 4852
ilman 4850
mietintö 4834
2001 4823
alan 4802
valiokunnan 4791
eli 4789
issä 4784
kiittää 4766
tehtävä 4761
aikaan 4746
os@@ 4723
lisä@@ 4710
ella 4702
samalla 4687
asiaa 4675
näitä 4655
asti 4654
täällä 4642
ja@@ 4642
on@@ 4638
siten 4629
kaikkia 4627
kansalaisten 4621
toinen 4603
haluamme 4595
mukaisesti 4588
kaksi 4582
n 4559
politiikan 4552
sopimuksen 4529
tä@@ 4509
vasta 4496
n@@ 4483
sa@@ 4453
llä 4440
essä 4439
vä@@ 4429
tukea 4425
isin 4421
niistä 4417
todella 4414
yhä 4374
kaikkea 4369
kuinka 4325
hetkellä 4323
! 4312
il@@ 4303
ollen 4294
jäsenvaltiot 4291
direktiivin 4287
2000 4279
taa 4268
vät 4266
prosenttia 4263
esittää 4262
teille 4252
uutta 4248
isiä 4240
teitä 4237
itä 4237
ar@@ 4234
yhtä 4233
tiin 4232
ajan 4226
lu@@ 4221
kollegat 4217
v@@ 4211
käyttää 4210
muiden 4182
tamme 4180
parlamentissa 4178
tietenkin 4169
täytyy 4150
tilanne 4147
pa@@ 4144
ty@@ 4139
koskeva 4136
jopa 4131
malla 4109
li@@ 4093
välillä 4082
va@@ 4079
liian 4077
er@@ 4064
el@@ 4053
e 4042
asian 4038
enää 4037
voida 4023
otetaan 4021
ol@@ 4021
varten 4018
vasta@@ 4001
em@@ 3998
iin 3992
Euroopassa 3982
et@@ 3957
tavalla 3942
kaan 3940
to 3937
om@@ 3936
vi@@ 3935
esta 3928
mahdollisimman 3923
tettava 3893
tojen 3885
isessa 3881
käyttöön 3854
2002 3850
joista 3849
ena 3848
P@@ 3845
us 3834
lla 3827
misesta 3820
olemassa 3811
tää 3809
yhdessä 3802
ään 3788
kerran 3781
pal@@ 3778
re@@ 3775
olevan 3767
T@@ 3748
ksen 3745
yhteisen 3742
oikeus@@ 3737
onko 3733
voitaisiin 3720
maa 3720
S@@ 3716
josta 3716
ehdotuksen 3694
ha@@ 3690
politiikkaa 3665
var@@ 3657
toja 3638
m@@ 3637
määrä@@ 3637
todellakin 3633
K@@ 3628
eksi 3626
jien 3623
eni 3622
ot@@ 3620
ryhmän 3610
miksi 3597
miseksi 3575
ossa 3564
va 3557
ase@@ 3556
mahdollista 3543
ilta 3542
vuotta 3539
man 3536
anta@@ 3528
massa 3511
monet 3506
voisi 3504
asioita 3503
selvästi 3489
perusteella 3488
uudelleen 3483
estä 3477
A@@ 3464
tettu 3463
ehdotus 3454
johon 3427
jat 3424
järjestelmän 3420
silloin 3417
ra@@ 3394
pan@@ 3390
ell@@ 3378
d@@ 3377
minusta 3370
unionissa 3359
usein 3342
mien 3332
nimittäin 3319
l@@ 3310
än 3308
asioiden 3308
tavoin 3292
valtioiden 3291
oikeus 3288
yhteistyötä 3288
kiel@@ 3273
naisten 3272
toiseksi 3266
ensinnäkin 3261
tarvitaan 3256
toa 3255
men@@ 3254
tettiin 3251
ksiin 3236
keskustelu 3223
mi@@ 3205
jälleen 3202
Arvoisa 3201
alueella 3201
huolimatta 3200
työtä 3177
jä@@ 3175
ongelmia 3172
tään 3163
kaa 3161
suuri 3160
uskon 3151
toimiin 3150
aikaa 3138
puheenjohtajavaltio 3138
uusia 3136
tus@@ 3131
istu@@ 3130
vän 3121
ten 3119
rahoitus@@ 3118
pel@@ 3113
yleis@@ 3112
selvää 3106
alueen 3105
määrä 3104
ut 3103
teen 3100
kohtaan 3098
tasolla 3091
otettava 3085
stä 3080
toim@@ 3077
isille 3075
2003 3073
ll@@ 3072
maailman 3071
erityisen 3062
E@@ 3050
valitettavasti 3041
toiminta@@ 3041
etenkin 3025
mia 3019
r@@ 3019
kan@@ 3014
illä 3012
alueiden 3003
yli 2998
ansa 2990
esiin 2988
korostaa 2981
syystä 2979
meitä 2978
yritysten 2976
komissiota 2964
se@@ 2963
puol@@ 2961
ongelma 2957
itta@@ 2956
un@@ 2956
huomiota 2955
ihmis@@ 2954
vo@@ 2947
sille 2946
tin 2944
kseen 2941
ver@@ 2939
näistä 2937
toon 2934
ys@@ 2927
mu@@ 2926
per@@ 2915
iksi 2906
turvallisuus@@ 2904
hyväksy@@ 2884
liittyvät 2883
id@@ 2874
ensimmäinen 2867
liittyy 2866
toisin 2855
tusta 2854
tarkistuksia 2851
M@@ 2851
toisaalta 2850
viin 2844
tuom@@ 2841
pidä 2828
it 2827
muita 2824
saa@@ 2816
voin 2813
all@@ 2812
tiedämme 2804
uksen 2802
tieto@@ 2801
vaike@@ 2801
un 2801
isista 2788
erityis@@ 2788
koskevia 2786
mennessä 2784
ihmisten 2783
missä 2783
käy@@ 2781
ö@@ 2779
muu@@ 2768
ehkä 2767
ri@@ 2764
osoittaa 2762
valmis@@ 2762
mietintöä 2761
osin 2755
vaikuttaa 2754
� 2753
min 2751
entistä 2748
varmasti 2745
2 2738
mielestämme 2736
parlamentille 2734
onkin 2725
tava 2724
kä@@ 2723
llis@@ 2721
myöskään 2719
tta@@ 2718
B@@ 2714
kuuluu 2714
p@@ 2710
au@@ 2708
valiokunta 2708
ehdotuksia 2705
pelkästään 2698
jan 2697
Yhdysvaltojen 2693
neen 2690
joihin 2679
niihin 2678
tua 2677
D@@ 2676
tänä 2673
tus 2672
1 2670
ks@@ 2666
ehdotusta 2662
mat 2654
op@@ 2651
joitakin 2649
tö@@ 2649
mahdollisuus 2645
keskustelun 2643
ellä 2641
R@@ 2640
tu 2638
syytä 2635
nä@@ 2634
miljoonaa 2631
artiklan 2629
jä 2625
y 2625
toimi@@ 2617
edis@@ 2615
koskevaa 2608
teidän 2599
asiaan 2596
isestä 2595
nopeasti 2593
jäsenvaltioissa 2589
uudesta 2587
ais@@ 2585
puhu@@ 2578
ystä 2573
masta 2568
valtion 2567
valta@@ 2561
jäsenten 2560
tarkoituksena 2560
muun 2559
EU 2559
tois@@ 2558
talous@@ 2557
iseksi 2554
kuulu@@ 2553
aja@@ 2549
paitsi 2546
kautta 2541
esille 2541
tulevaisuudessa 2540
arvos@@ 2532
kehitys@@ 2530
oikein 2521
maissa 2520
euroa 2514
järjestelmä 2513
utu@@ 2511
le@@ 2506
minä 2502
muut 2502
turva@@ 2502
ensa 2500
isuus 2500
nim@@ 2498
tia 2497
ksia 2497
kes@@ 2495
kansalais@@ 2495
ma 2493
tel@@ 2491
H@@ 2488
koskevien 2480
at@@ 2478
tavoitteena 2473
itu@@ 2471
isuutta 2466
misestä 2464
tehnyt 2452
johta@@ 2442
minkä 2442
kalastus@@ 2442
miin 2441
halua 2440
uusi 2438
yn 2438
isessä 2437
toimielinten 2435
ro@@ 2434
maatalous@@ 2433
F@@ 2425
tävät 2423
tien 2422
miel@@ 2418
kehityksen 2410
ksi@@ 2408
tyä 2407
kysymyksiä 2406
ul@@ 2399
las@@ 2398
edistää 2397
pu@@ 2396
tamiseen 2390
politiikka 2390
tuksen 2382
pyritään 2376
kaikille 2376
keskustelua 2375
toiminnan 2374
tar@@ 2374
uu@@ 2373
mä@@ 2368
sopimus 2365
isivat 2365
samoin 2363
jolloin 2363
oikeuden 2357
lainsäädännön 2356
vaka@@ 2353
kiitän 2353
L@@ 2344
sisä@@ 2343
taas 2341
saavu@@ 2340
ssä 2340
talouden 2340
saattaa 2340
ehdo@@ 2332
jäsen@@ 2328
kansalaiset 2328
ee 2326
ite@@ 2323
C@@ 2321
mään 2321
useita 2316
:n 2316
main@@ 2306
tämistä 2304
täminen 2304
essaan 2303
vir@@ 2302
mietinnöstä 2299
olivat 2298
hallituksen 2297
toimien 2297
ana 2296
hieman 2294
hu@@ 2291
suor@@ 2289
kansainvälisen 2289
eurooppalaisen 2287
aika 2279
san@@ 2276
ani 2274
tamisesta 2273
myön@@ 2270
yhteis@@ 2268
jät@@ 2264
1999 2263
yl@@ 2256
YK:n 2253
tämään 2246
sel@@ 2244
uksia 2244
pian 2243
valiokunnassa 2243
tanut 2242
muuta 2242
tarkoittaa 2240
takia 2236
uh@@ 2235
he@@ 2234
ill@@ 2233
ussa 2232
tamista 2231
ko 2222
voim@@ 2220
etu@@ 2219
johtaa 2214
or@@ 2214
paremmin 2213
jaa 2212
tapahtu@@ 2209
vastuu@@ 2208
tuen 2208
hallitus 2208
kysymyksen 2205
kset 2204
nyky@@ 2203
laati@@ 2200
poliittinen 2197
kaiken 2197
ttava 2197
sa 2196
koskaan 2195
2@@ 2195
toimet 2194
klo 2193
pyydän 2192
ivat 2190
joten 2189
tarkistukset 2189
sanoen 2188
neuvostossa 2188
vähen@@ 2187
elin@@ 2184
tur@@ 2179
ihmiset 2179
etta 2176
ainakin 2172
oll@@ 2171
haluaa 2170
lainsäädäntö@@ 2169
turvallisuuden 2169
järjes@@ 2168
ryhmäni 2167
vaiheessa 2167
viä 2165
arvo@@ 2163
ihmisoikeuksien 2162
am@@ 2161
J@@ 2159
kolme 2158
ämme 2152
toteuttaa 2151
tärkeitä 2150
enn@@ 2150
nut 2144
no@@ 2144
tapa@@ 2143
alueilla 2143
monia 2143
ky@@ 2139
minulla 2137
llinen 2137
tarkistusta 2134
hyväksi 2134
varmistaa 2131
todeta 2129
tämme 2127
ansiosta 2126
3 2123
A5 2123
ville 2121
hallinno@@ 2120
tarkoitus 2118
jia 2117
15 2116
ensä 2115
arvio@@ 2115
sanoi 2112
pe@@ 2112
talousarvion 2108
ilma@@ 2107
män 2105
akseen 2105
isuuden 2104
palvelujen 2097
toimintaa 2097
käsitellä 2095
asiat 2093
ohjelman 2093
olette 2092
alta 2085
tehdään 2082
tapahtuu 2076
ann@@ 2075
komissiolle 2074
lisää 2073
tilannetta 2072
usten 2072
kyllä 2070
tunn@@ 2069
noin 2067
tehty 2066
tuho@@ 2066
tarvitsemme 2064
so@@ 2063
keske@@ 2062
ker@@ 2061
tilanteen 2061
000 2061
kohd@@ 2058
yhteistyö@@ 2058
tasa 2056
kas@@ 2054
kö 2053
pien@@ 2051
kaikissa 2051
ää@@ 2051
korva@@ 2049
suur@@ 2048
kansallisten 2047
ton 2046
inä 2045
su@@ 2040
rajo@@ 2040
maan@@ 2039
merkitsee 2038
ihmisoikeus@@ 2038
siellä 2032
tekee 2032
kantaa 2031
välttämätöntä 2031
liitty@@ 2031
tuotta@@ 2029
ukset 2026
asetuksen 2025
täytäntöön 2024
yksityis@@ 2024
matta 2022
teiden 2021
korke@@ 2019
olleet 2018
tunut 2017
uusien 2008
minulle 2006
edes 2005
sano@@ 2004
ää 2002
tarkistuksen 2001
tyytyväinen 2001
yhteinen 1999
huomenna 1997
edellyttää 1997
lo@@ 1996
jäsenen 1995
kar@@ 1993
poliittisen 1992
muassa 1992
kehitystä 1991
halu@@ 1990
uus 1987
oikeutta 1987
tällainen 1985
niille 1982
kyseessä 1980
varsin 1979
V@@ 1979
henkilö@@ 1978
asioista 1977
käsitellään 1970
raken@@ 1970
ava@@ 1968
kahden 1966
O@@ 1966
4 1964
toista 1964
kohta 1963
oike@@ 1963
kulu@@ 1960
tul@@ 1959
tekemään 1955
sijaan 1950
mer@@ 1950
han 1949
kohdalla 1948
kansan@@ 1945
oman 1943
maat 1943
miä 1942
vai 1941
me@@ 1938
van@@ 1935
itte 1934
vista 1934
mielessä 1932
yt@@ 1930
selv@@ 1928
yhteistyön 1923
kysymystä 1920
lisätä 1918
kul@@ 1917
viranomaisten 1916
tettävä 1914
N@@ 1913
peruste@@ 1912
valvonta@@ 1912
tietoja 1912
alu@@ 1911
eh@@ 1910
mikäli 1909
markkinoiden 1909
ensi 1908
ur@@ 1907
kertaa 1905
Venäjän 1905
tarpeen 1898
terrorismin 1898
iselle 1897
liittyviä 1892
poliittista 1890
seuraavana 1889
yhden 1888
saman@@ 1887
aloilla 1887
otta@@ 1886
tetään 1883
isistä 1881
ka 1880
aihe 1878
euron 1877
toisen 1876
kään 1873
olevien 1871
kaikkein 1866
jää 1866
oikeuksia 1866
yhteisö@@ 1865
I@@ 1863
oikeuksien 1862
direktiivi 1860
mahdollisuuksia 1858
työntekijöiden 1858
sellaisen 1856
tark@@ 1855
avat 1854
varoja 1854
ryhmä 1853
aisen 1852
kysymykseen 1850
tietää 1848
enä 1848
vasti 1848
g@@ 1848
ou@@ 1846
ih@@ 1841
ita@@ 1840
onnistu@@ 1840
toivo@@ 1836
sopimukseen 1834
iloinen 1833
hyväksyi 1832
vähän 1832
G@@ 1832
haluavat 1831
vahvistaa 1830
eseen 1828
ole@@ 1828
pidän 1825
Irakin 1824
use@@ 1822
aa@@ 1818
kau@@ 1816
käytännössä 1815
huom@@ 1812
isena 1811
jatkaa 1810
siltä 1806
aista 1805
järjestelmää 1804
unioniin 1803
ette 1802
tamisen 1802
selväksi 1801
jatkuvasti 1801
vero@@ 1800
koulu@@ 1799
äänestys 1798
ni@@ 1796
jille 1789
esityslistalla 1788
iä 1787
lainsäädäntöä 1787
uun 1787
kk@@ 1787
Turkin 1787
presidentti 1787
10 1786
myönteisesti 1784
eet 1782
suoraan 1782
aj@@ 1781
heitä 1781
neiden 1779
tuksesta 1776
eurooppalaisten 1775
ota 1775
aiemmin 1774
her@@ 1773
selkeästi 1772
päästä 1772
2004 1771
kannatta@@ 1769
lähes 1768
työn 1767
isilla 1763
oista 1763
loppu@@ 1763
suurin 1762
elintarvike@@ 1760
ot 1758
mo@@ 1758
vapa@@ 1757
ksiä 1750
sellaisten 1750
ään@@ 1748
esittelijän 1748
b@@ 1747
varo@@ 1745
od@@ 1744
kutsu@@ 1743
asioissa 1742
käyttä@@ 1740
uuteen 1740
saanut 1739
alo@@ 1739
jäsenvaltion 1738
turvall@@ 1737
avoim@@ 1733
maks@@ 1733
esit@@ 1731
parantaa 1731
Ranskan 1730
isimme 1729
hallitusten 1729
aminen 1726
näihin 1725
pien 1725
nimenomaan 1723
tämällä 1722
ken@@ 1719
osallistu@@ 1719
ten@@ 1718
niissä 1718
esittä@@ 1717
tävää 1716
ed@@ 1714
kannatan 1711
puhua 1710
vähemmän 1709
vaar@@ 1708
alue@@ 1706
myötä 1704
kohdan 1703
ittä@@ 1702
tietoa 1701
koskevasta 1700
pitä@@ 1698
välisen 1698
syistä 1698
vuosina 1697
siir@@ 1697
6 1695
tävä 1695
ainoa 1695
har@@ 1694
20 1693
na@@ 1692
käytetään 1691
apua 1690
huomattavasti 1689
vassa 1689
jo@@ 1686
tehneet 1686
yhteen 1686
sääntöjä 1683
annetaan 1683
yhdis@@ 1679
hal@@ 1679
ottaen 1678
päätökseen 1677
tehokka@@ 1677
tarjo@@ 1677
julk@@ 1676
maailmassa 1675
aal@@ 1673
nä 1673
alais@@ 1672
luoda 1671
yhteistä 1669
tekem@@ 1669
osan 1668
näyttää 1666
valmistelukunnan 1666
uudet 1664
jaan 1664
än@@ 1663
kokonais@@ 1663
saavat 1663
tila@@ 1663
rauhan@@ 1663
ratkaisu 1662
aikoo 1662
tun@@ 1659
tis@@ 1659
työstä 1659
aisia 1657
edisty@@ 1656
ihmisiä 1653
tävän 1652
anne 1651
demokratian 1651
tilanteessa 1650
iltä 1648
tänyt 1647
luonnollisesti 1647
neuvottelu@@ 1646
tietysti 1643
päätös 1642
näissä 1642
puite@@ 1642
vall@@ 1639
sy@@ 1639
tavoite 1638
aiheutta@@ 1638
mukana 1636
pi@@ 1636
perustuu 1636
ehdotta@@ 1634
harjoitta@@ 1634
kohti 1634
huol@@ 1634
parhaillaan 1633
aluksi 1632
merkittävä 1632
keskustelussa 1632
tilanteesta 1632
eteenpäin 1632
kollego@@ 1630
ydin@@ 1628
totta 1627
ittaa 1625
enne 1624
sellaisia 1624
onnitella 1620
ksista 1619
Espanjan 1619
voisimme 1618
laajentumisen 1617
kokouksessa 1616
parlamenttia 1616
utta@@ 1615
5 1614
välistä 1613
muistuttaa 1613
tapa 1612
synty@@ 1612
kon@@ 1609
sopimusta 1609
varsinkin 1608
vuoteen 1608
Israelin 1608
päättää 1607
saadaan 1606
sall@@ 1605
kaupan 1598
kka@@ 1597
toiminta 1596
mielestä 1595
prosessin 1594
kollega 1591
päivän 1591
laaj@@ 1591
aksi 1591
ista@@ 1590
todell@@ 1587
kor@@ 1586
aiset 1585
mät 1582
paik@@ 1581
puhe@@ 1581
minua 1581
elta 1580
po@@ 1579
tied@@ 1579
tarkas@@ 1579
Mar@@ 1578
yritykset 1578
toimenpiteitä 1577
poliittisten 1576
00@@ 1574
7 1572
ainen 1571
tetty 1571
tta 1570
ir@@ 1569
tason 1567
FR 1566
inti@@ 1565
ala@@ 1565
köyh@@ 1564
ua 1563
energia@@ 1563
kansalaisille 1562
tulisi 1561
koskevassa 1561
tuotteiden 1557
tietojen 1554
ympäristön 1554
edusta@@ 1553
sellaista 1549
vähä@@ 1549
määrin 1549
isi@@ 1548
llisen 1548
budjetti@@ 1548
päätöksen 1546
kauan 1546
saaneet 1545
käy 1544
vaikea 1544
tavoitteet 1544
turvallisuutta 1542
itse@@ 1542
tie@@ 1541
isissa 1539
kannattaa 1539
tutkimus@@ 1539
töä 1539
osallistua 1538
jäseniä 1537
asu@@ 1537
kymmenen 1537
neuvostolle 1535
olevat 1535
rikos@@ 1535
suuria 1533
vastaa 1533
rik@@ 1532
tullut 1530
kehitty@@ 1529
tensa 1528
tamiseksi 1527
pako@@ 1525
ongelmat 1525
iv@@ 1525
kal@@ 1522
jotkut 1521
auttaa 1521
totesi 1520
tivat 1517
istaan 1516
mieh@@ 1516
sellainen 1515
toivomme 1515
ilmo@@ 1514
uus@@ 1514
tan 1513
uks@@ 1511
isella 1509
tämisestä 1508
epäil@@ 1508
menettely@@ 1508
kysy@@ 1508
vastus@@ 1508
yleisesti 1506
tuu 1505
välinen 1505
vahvis@@ 1505
kanta 1504
lähtien 1502
yttä@@ 1502
ve@@ 1500
mahdollisuuden 1499
pyytää 1498
oh@@ 1496
käytön 1496
kilpailu@@ 1494
pääs@@ 1493
niillä 1492
päätöksiä 1491
vastata 1491
ilmi 1490
työllisyys@@ 1490
paino@@ 1489
tuks@@ 1488
vaati@@ 1487
amaan 1487
teet 1487
aineiden 1486
oleva 1484
menettelyn 1484
näky@@ 1483
kollegani 1482
pois@@ 1481
vaikutuksia 1481
muuten 1480
laatima 1479
8 1479
ras@@ 1479
yt 1479
oikeastaan 1477
mukaista 1476
voimakkaasti 1476
Lissabonin 1475
isuuteen 1474
luku@@ 1473
tukset 1472
sähkö@@ 1471
ensimmäisen 1469
valta 1469
si 1468
akin 1468
tamaan 1467
uksista 1466
mon@@ 1466
Yhdysvallat 1466
tunnus@@ 1465
kasva@@ 1464
puitteissa 1464
ensin 1464
ehdotuksesta 1463
päättynyt 1461
attom@@ 1460
käyttöä 1459
saatava 1459
teemme 1457
olisivat 1457
saavuttaa 1457
luo@@ 1456
tapauksissa 1456
tällaista 1455
vakavasti 1455
teh@@ 1454
50 1453
kannan 1451
tan@@ 1451
pit@@ 1451
tote@@ 1451
kuul@@ 1450
missään 1448
tiedän 1447
ad@@ 1445
B5 1445
tynyt 1444
oma 1443
ön 1443
päätöslauselman 1442
ys 1442
meistä 1442
tavat 1442
estää 1442
vuosi 1441
parha@@ 1440
suunn@@ 1440
oikeu@@ 1439
maita 1437
ehdottomasti 1437
palvel@@ 1436
aiheuttaa 1435
jää@@ 1435
käynnis@@ 1435
maatalouden 1434
kirj@@ 1432
jousta@@ 1432
tet@@ 1432
eurooppalainen 1431
kat@@ 1430
jäsenvaltioita 1430
tin@@ 1430
esittelijää 1429
toteutu@@ 1429
pikemminkin 1428
perustamissopimuksen 1428
toiv@@ 1427
teollisuuden 1427
tältä 1426
inn@@ 1426
maassa 1425
ksille 1424
tell@@ 1423
hyötyä 1423
eläinten 1423
toihin 1422
perinte@@ 1420
vel@@ 1420
pidet@@ 1419
eurooppalaista 1417
tapahtunut 1417
tukseen 1415
lyhyesti 1415
kuuluvat 1414
vaih@@ 1412
pohjalta 1412
12 1412
käyt@@ 1411
puolus@@ 1410
tarkastel@@ 1410
asetta@@ 1410
ettava 1409
sosiaali@@ 1407
pidetään 1406
puheenjohtaja@@ 1405
parempi 1405
ottamaan 1405
ehdottaa 1405
myöhemmin 1404
ehdotukset 1404
valmistelu@@ 1404
kuu@@ 1402
tiedätte 1402
ida 1402
kumppan@@ 1401
sisäl@@ 1400
ryhtyä 1398
tavoitteita 1398
tehokkaasti 1397
torju@@ 1397
tukee 1396
käytännön 1396
kokouksen 1395
koskevaan 1394
ttiin 1391
talous- 1391
tiä 1390
maailman@@ 1390
eivätkä 1389
mainita 1388
tutkimuksen 1388
tulla 1388
mihin 1388
muuttaa 1387
Lähi 1387
käsittelyssä 1386
ryhmien 1385
heti 1382
toimitetaan 1381
is 1381
sama 1381
pysty@@ 1380
yyden 1380
oikeudet 1380
ilmais@@ 1379
esitetään 1379
ho@@ 1379
säännö@@ 1378
valtiot 1378
30 1377
kaikista 1375
kaikilla 1374
aloittaa 1374
aine@@ 1374
sääntöjen 1373
merkitys 1373
llisesti 1372
markkina@@ 1372
sin 1371
yhteen@@ 1371
johto@@ 1370
kaupun@@ 1370
kansalaisia 1369
ala 1369
jäsentä 1367
aik@@ 1366
tarkistus 1365
taloudellisen 1364
llista 1361
Eurooppaa 1360
kaikkiin 1360
asema 1359
täneet 1358
kysymyksiin 1358
ili@@ 1357
rangais@@ 1355
vara@@ 1354
itte@@ 1354
elä@@ 1354
merk@@ 1351
pois 1351
suunta@@ 1350
voisivat 1349
poliittisia 1349
kuun 1348
merkitystä 1347
saavutta@@ 1347
Irlannin 1345
ksesta 1344
viranomaiset 1344
9 1344
keskustella 1342
sopimusten 1342
yyttä 1340
valmis 1340
25 1340
tahansa 1340
uttaa 1339
saamme 1338
de 1336
yh@@ 1334
miselle 1334
annettava 1334
lupa@@ 1334
aihe@@ 1333
sosiaalisen 1333
toiseen 1333
vää 1332
epäonnistu@@ 1331
ohjelma 1330
essään 1329
lin@@ 1329
yhtenäis@@ 1327
olevia 1326
kukaan 1325
tavoitteiden 1324
oiden 1324
ongelman 1320
ellinen 1320
hallinnon 1320
isiksi 1320
katta@@ 1319
koti@@ 1317
misessa 1316
euro@@ 1316
laad@@ 1315
tämisen 1315
myönnet@@ 1314
emaan 1312
ter@@ 1311
suojel@@ 1311
voimassa 1310
vaatimuksia 1308
direktiiviä 1308
nykyään 1308
liikenne@@ 1307
vastuussa 1307
rajat 1307
osoitta@@ 1306
kauppa@@ 1306
toimii 1303
joidenkin 1303
suuntaan 1302
ent@@ 1301
hava@@ 1301
par@@ 1301
yttää 1301
toteu@@ 1300
neuvottelujen 1300
vaaditaan 1300
C5 1297
lisäänty@@ 1296
tella 1296
tuo@@ 1296
oli@@ 1295
suos@@ 1294
samaan 1293
häntä 1293
ulko@@ 1293
usko@@ 1292
toimitta@@ 1292
ratifio@@ 1292
mattom@@ 1291
sovittelu@@ 1290
aloitte@@ 1290
hd@@ 1289
tor@@ 1287
temme 1286
kohta@@ 1285
Välimeren 1285
kuluttajien 1285
poikke@@ 1284
ät@@ 1284
tuki@@ 1284
kirjo@@ 1283
maa@@ 1282
käsittel@@ 1282
ratkaista 1282
kysymykset 1280
alueita 1278
ito@@ 1276
Nizzan 1276
viikolla 1275
ud@@ 1274
sopimuksia 1273
jotakin 1270
jäsenvaltioille 1270
Afrikan 1270
kun@@ 1269
suhte@@ 1269
lähtö@@ 1268
valtion@@ 1268
saan 1267
alkuperä@@ 1264
vastuu 1264
soveltaa 1264
laill@@ 1264
tit 1264
ksemme 1263
kolmanneksi 1261
melko 1261
monien 1261
&apos; 1260
asettaa 1259
kohdistu@@ 1258
äänestää 1257
valvontaa 1257
lähe@@ 1256
säännöt 1256
Yhdysvaltain 1256
taloudellista 1255
sija@@ 1255
lopulta 1254
aiheesta 1253
markkinoille 1253
hyvää 1252
ki 1250
lähet@@ 1249
näkö@@ 1249
muka@@ 1248
hallinto@@ 1248
suunnitel@@ 1247
esitetty 1244
heille 1244
kaamme 1243
liikku@@ 1243
isem@@ 1243
ven@@ 1242
tilanteeseen 1240
keski@@ 1239
rakenn@@ 1239
äänes@@ 1239
itti 1239
empi 1239
vana 1236
emmekä 1235
alis@@ 1235
koskevista 1234
ymmärtää 1234
z@@ 1231
pidettävä 1231
tuo 1231
eläin@@ 1231
hall@@ 1230
kuningaskunnan 1230
mikään 1230
rauhan 1230
mahdollisuutta 1229
tele@@ 1229
hyödyn@@ 1229
kulttuuri@@ 1227
sää@@ 1227
politiik@@ 1226
täisiin 1223
yksinkertaisesti 1223
iko@@ 1223
ehdotuksessa 1222
etujen 1222
kertom@@ 1221
ukseen 1220
varma 1220
yhdenmukais@@ 1220
itamme 1219
telem@@ 1219
ikä@@ 1217
timme 1217
isuudesta 1216
loppuun 1216
ero@@ 1215
osta@@ 1215
etteivät 1213
yhteisöjen 1212
lainkaan 1211
ilmaista 1211
äärimmäisen 1209
askel 1209
menet@@ 1207
välit@@ 1207
kol@@ 1206
jonkin 1206
itsenä@@ 1204
ttu 1202
riittävästi 1202
sil@@ 1202
paran@@ 1202
tun 1201
nykyistä 1201
väl@@ 1199
tettua 1199
ihmisoikeuksia 1199
:@@ 1198
itus@@ 1198
lis@@ 1197
oa 1197
tettaisiin 1196
mahdollisesti 1196
W@@ 1195
päivänä 1194
itettu 1194
jättää 1194
valtio 1194
rajoitta@@ 1194
omaa 1192
isim@@ 1191
aisten 1191
teta 1190
tarvitse 1189
tah@@ 1189
esittänyt 1189
kohtaa 1188
tunte@@ 1188
edus@@ 1187
tekevät 1187
neuvostoa 1187
mainitsem@@ 1187
puolueen 1186
mietintöön 1186
Italian 1186
Yhdistyneiden 1185
terveys@@ 1185
keskus@@ 1183
kke@@ 1183
muutaman 1183
3@@ 1182
kolmansien 1182
ali@@ 1181
ettu 1181
mahdollisuudet 1179
sov@@ 1179
politiikkaan 1179
as 1177
jatku@@ 1176
prosessi 1175
tut 1175
sisältyy 1174
kuva@@ 1174
tuki 1173
aikavälillä 1172
koja 1172
keskusteluun 1171
olle 1171
nn@@ 1171
ian 1171
uudelleen@@ 1170
muutoksia 1170
kesk@@ 1170
evat 1170
tuloksia 1170
aksemme 1169
ris@@ 1169
käyttö@@ 1169
aihetta 1169
hä@@ 1168
kertoa 1167
käyttö 1167
todellinen 1166
din 1165
mitta@@ 1165
kestävän 1164
19@@ 1164
menettelyä 1163
korja@@ 1162
periaatetta 1162
oita 1161
myönte@@ 1160
um@@ 1160
kolmen 1160
taata 1160
julkisen 1159
ttaa 1159
nro 1159
avun 1158
varojen 1158
syy@@ 1158
emmin 1156
järjestelmien 1155
puolustus@@ 1155
ensiksi 1154
Yhdistyneen 1154
ratkais@@ 1154
riko@@ 1153
puolusta@@ 1152
f@@ 1152
uudistu@@ 1152
uksiin 1152
maihin 1152
mille 1151
koa 1151
pitänyt 1150
missa 1149
epäilemättä 1148
maaseudun 1148
kannatamme 1148
seura@@ 1147
amista 1147
pain@@ 1146
henkilöiden 1145
väli@@ 1145
llisten 1145
isivät 1145
tällaisen 1144
muutta@@ 1144
päinvastoin 1144
tujen 1143
eilen 1143
aikais@@ 1142
lä@@ 1142
vaatimukset 1142
tänne 1141
täisi 1141
kokou@@ 1141
min@@ 1140
suu@@ 1139
alaa 1139
koon 1139
ttua 1139
välittömästi 1139
asioihin 1138
muihin 1138
kohdassa 1137
selke@@ 1137
ylittä@@ 1137
kiitos 1136
varmis@@ 1136
ammatti@@ 1136
kaikkialla 1136
korkea 1136
riitä 1135
pä@@ 1135
asemassa 1134
sia 1133
millä 1133
alue 1132
toteutta@@ 1132
Kansakuntien 1131
maksu@@ 1131
lain@@ 1130
keskustel@@ 1129
suurta 1129
toimista 1129
vakuu@@ 1129
lan@@ 1127
varat 1126
ty 1125
asianmukaisesti 1125
ohjelmien 1125
keskustelu@@ 1124
kehittää 1124
itaan 1124
nykyisen 1124
suoja@@ 1124
rikoll@@ 1123
otettu 1123
kien 1123
viime@@ 1122
omais@@ 1122
koh@@ 1122
poliittiset 1122
elin 1121
oikeudellisten 1121
telee 1120
tule@@ 1120
ves@@ 1119
kansainvälinen 1119
loukka@@ 1119
äkin 1118
Kreikan 1118
merkille 1118
neuvottelut 1118
pidämme 1117
pysy@@ 1117
kehitys 1117
yhteiskunnan 1117
erin 1117
hi@@ 1116
itsem@@ 1116
akseni 1115
ottanut 1115
nope@@ 1115
kunn@@ 1114
13 1114
syy 1114
talousarvio@@ 1114
vuosien 1113
aloitta@@ 1113
todis@@ 1113
osaa 1112
T 1112
säädö@@ 1111
huippukokouksessa 1111
eräs 1108
puuttu@@ 1108
osittain 1107
arvoisat 1107
tetta@@ 1107
kos@@ 1107
kiinnittää 1105
vansa 1105
politiikassa 1105
toimintaan 1105
ehkäis@@ 1105
läh@@ 1104
02@@ 1104
terroris@@ 1104
sodan 1104
saat@@ 1103
määrää 1102
uksesta 1102
eurooppalaiset 1101
ryhmä@@ 1100
yttä 1100
sten 1100
tais@@ 1100
juu@@ 1099
sovelletaan 1098
sen@@ 1098
periaatteen 1098
tot 1097
suosi@@ 1096
vaatii 1096
odottaa 1096
jotkin 1096
raha@@ 1095
laajentuminen 1095
joskus 1094
syö@@ 1094
kala@@ 1094
kaa@@ 1094
valtaa 1092
etuja 1092
suhtautu@@ 1092
tavan 1091
ulkopuolelle 1091
asemaa 1090
01@@ 1089
erilaisia 1089
vaksi 1089
osa@@ 1088
tulevat 1088
ittu 1087
määrän 1087
paan 1084
vä 1084
toimielim@@ 1083
mall@@ 1082
aset@@ 1081
töön 1080
talou@@ 1080
yrityksiä 1080
perä@@ 1079
40 1079
taloudellinen 1078
yhteistyö 1077
käytet@@ 1077
naiset 1077
tälle 1076
parissa 1076
vallan 1076
keh@@ 1076
kuulem@@ 1076
maista 1076
eiden 1075
tani 1075
huon@@ 1075
joissakin 1074
lausun@@ 1074
jaka@@ 1074
kiinni 1073
aloitteen 1073
ymmär@@ 1072
av@@ 1072
minäkin 1071
keskitty@@ 1071
vuodesta 1071
päätökset 1070
pid@@ 1070
johtuu 1070
markkinat 1069
keskeinen 1069
koske@@ 1069
eja 1069
tuksia 1068
joutu@@ 1068
tavoitteen 1068
kel@@ 1067
viitta@@ 1066
teoll@@ 1065
mässä 1064
kokonaan 1064
ministeri 1064
vähimmäis@@ 1063
ensimmäisessä 1063
PPE 1062
tärkeänä 1062
rahaa 1062
til@@ 1061
sisältää 1060
äänestin 1060
tti 1060
noudattaa 1059
yleensä 1059
ksien 1059
hallin@@ 1059
sijasta 1059
olin 1059
isellä 1058
sanottava 1058
järjestöjen 1057
taloudellisia 1057
sanon 1057
pääministeri 1057
näillä 1056
eikö 1055
tol@@ 1055
tettujen 1055
ev@@ 1055
tasapaino@@ 1055
eltä 1055
riippumattom@@ 1055
kenties 1055
nsä 1054
prosentin 1054
sanotaan 1053
kunnio@@ 1053
puolue@@ 1053
laaju@@ 1053
todetaan 1053
mill@@ 1052
palvelu@@ 1052
äskettäin 1051
strategian 1050
pitkään 1050
valla 1050
ohjel@@ 1048
politiikasta 1047
yty@@ 1047
pyrkim@@ 1047
ineet 1046
teita 1046
totean 1046
uudessa 1045
joille 1044
autta@@ 1044
täviä 1044
väline 1043
pitkän 1042
kysymyksistä 1041
mas@@ 1041
tetun 1041
vaikutta@@ 1041
lliset 1041
laatia 1040
inkin 1039
man@@ 1039
tiedot 1039
saatu 1038
omme 1038
ettemme 1038
halutaan 1038
vuosi@@ 1037
huomau@@ 1037
saira@@ 1037
odo@@ 1036
kim@@ 1036
periaate 1035
tulevaisuuden 1035
onin 1035
tuke@@ 1034
sijo@@ 1034
lasten 1033
11 1031
mel@@ 1031
aseman 1029
tuoda 1029
isissä 1029
aat@@ 1029
välineitä 1028
siin 1028
ju@@ 1027
gi@@ 1026
suuren 1026
itetaan 1025
ton@@ 1025
laaja 1025
tarkis@@ 1024
merkittä@@ 1024
yhteiskunnall@@ 1023
myönteisenä 1021
perhe@@ 1021
käydä 1020
Saksan 1020
aikaisemmin 1019
alueet 1019
llisia 1019
nos@@ 1018
uudis@@ 1018
takaisin 1016
tarkasti 1015
antamaan 1015
ittava 1015
läpi 1014
kann@@ 1014
toisessa 1014
EU:ssa 1014
kalas@@ 1014
kunnioitta@@ 1014
inti 1013
tällaisia 1013
lap@@ 1012
demokrati@@ 1012
tavoitte@@ 1011
olemaan 1011
perustu@@ 1011
vin 1011
komitean 1010
ittiin 1010
prosessia 1010
yritys@@ 1009
liittyvien 1009
tarkastella 1009
tämiseen 1009
tyjen 1008
varmistettava 1008
tävien 1007
03@@ 1007
kehitysyhteistyö@@ 1007
matka@@ 1006
kojen 1006
muutamia 1005
tiedä 1005
hoita@@ 1005
toki 1004
voimaan 1003
kanna@@ 1003
velvollisuu@@ 1003
alussa 1003
työjärjestyksen 1002
ksestä 1002
ikin 1002
luovu@@ 1001
istaa 1000
oikea 1000
yhteisö 1000
kovin 1000
kohtia 999
llisiä 999
aiomme 998
alusten 998
esimerkki 998
tyytyväisiä 998
tieteell@@ 998
arvioida 996
pyyd@@ 996
ehdotetaan 996
oso@@ 995
ehdokasvaltioiden 995
päivä@@ 994
luonno@@ 994
jana 994
huippukokouksen 994
ellisesti 994
miljoonan 994
tull@@ 993
Ruotsin 993
sanoin 993
ittel@@ 992
valvonnan 992
ak@@ 991
näkökulmasta 990
sosiaal@@ 990
sopimuksessa 990
rahoitusta 989
perustusla@@ 989
myöntää 988
tarpeell@@ 988
piir@@ 988
ongelmaa 988
oikeassa 987
utua 987
rahoitta@@ 987
vil@@ 986
yksinkertais@@ 986
tellaan 986
mukaisia 986
asi@@ 984
puu@@ 984
suhteessa 984
ittää 983
edustaja 983
eli@@ 982
ivät 982
kilpail@@ 982
luok@@ 982
muis@@ 981
seuraa@@ 981
ttom@@ 981
osuus 981
koordino@@ 980
eläke@@ 980
luonnon@@ 979
riittävän 979
sisällä 978
kymmen@@ 978
tilaisuus 976
allekirjo@@ 976
raja 976
esittämään 975
poliitt@@ 975
onsa 975
toimivat 975
11. 975
ehd@@ 974
tom@@ 974
heik@@ 974
vapauden 974
vuoropuhelua 974
tön 974
puheenvuoro@@ 973
tasa@@ 973
anne@@ 972
keinoja 972
konferenssin 972
aiheutu@@ 971
neuvotteluissa 971
puheenvuoron 970
tamisessa 970
todellista 970
issaan 969
ennalta 969
pysty 968
tettuja 968
2006 968
merkittävästi 968
teistä 968
jatka@@ 967
ltä 967
nähdä 967
kansalliset 966
sotilaall@@ 966
jan@@ 966
rakenne@@ 965
ettiin 965
uksien 964
valmi@@ 964
vastoin 964
Etelä 964
äänesty@@ 962
kilpailun 961
kum@@ 961
tietenkään 961
ohjelmaa 960
terve@@ 960
nuor@@ 959
ympäristöä 959
onn@@ 959
omien 959
pyr@@ 959
oon 959
tamis@@ 958
1998 958
hyvän 958
mekin 957
hark@@ 957
täsmä@@ 957
usta@@ 956
alueell@@ 956
tutkim@@ 956
kauppaa 955
meidät 954
ope@@ 954
alueelle 954
ratkaisun 954
mur@@ 954
14 954
päätöslausel@@ 953
koskeviin 953
yttävä 953
han@@ 953
yhden@@ 953
sitoumu@@ 953
sääs@@ 951
hyväksytään 950
tosi@@ 948
jälke@@ 948
ru@@ 948
joko 947
joutuvat 947
käytöstä 947
köyhyyden 947
kerro@@ 947
päätöslauselmassa 947
Kiinan 947
tarkoitan 946
puheenjohtajan 945
toimi 945
muutama 944
tarjoaa 944
iso@@ 943
ksilla 943
palveluja 943
unohtaa 942
mahdoll@@ 942
maahanmuutto@@ 942
väär@@ 941
loppujen 941
maksaa 941
mukainen 940
erila@@ 939
menettely 939
näkem@@ 939
yys 939
täyden@@ 938
määrittel@@ 938
mit@@ 938
muissa 938
ollaan 938
mä 938
saar@@ 938
osaksi 938
nykyisin 938
tuemme 938
tärke@@ 937
kysyä 937
toimin@@ 937
osoittavat 936
kansan 936
tusten 935
antanut 935
kiitoksia 935
ura@@ 935
kään@@ 934
yhte@@ 934
selkeä 934
ati@@ 934
innin 934
tulevaisuutta 934
monissa 933
virka@@ 933
asia@@ 933
sitou@@ 932
ap@@ 931
äni 931
ehdotukseen 931
nykyinen 931
suojelua 931
kulttuur@@ 931
ttu@@ 931
omasta 930
tal@@ 930
sop@@ 930
hyväksyttiin 929
.@@ 929
esti 929
muuttu@@ 929
periaatteessa 928
käsi@@ 928
tärkein 927
sä 926
turvallisuuteen 926
kehitysmaiden 926
suosionosoituksia 925
vastuuta 925
estaan 925
työ 924
vakuuttunut 924
markkinoilla 924
ö 924
säilyttää 924
periaatteita 924
ryh@@ 923
direktiivissä 923
ksissa 923
er 923
kustannukset 923
läsnä 922
koulutuksen 922
Pohjois 922
parann@@ 922
ilmen@@ 921
yksittä@@ 921
seurauksena 921
idän 921
käytännö@@ 920
painos@@ 920
vaikeaa 919
muodossa 918
vaad@@ 918
oma@@ 918
itettava 918
edellä 918
teki 917
valmista@@ 917
sitoutu@@ 917
määrärahoja 917
tuotteita 917
villa 916
arvoa 916
sit@@ 916
palautta@@ 916
monta 915
paten@@ 915
päätösten 914
ryhmämme 914
kansainvälistä 914
panna 913
määr@@ 913
uden 912
asem@@ 912
verrattuna 912
kansainvälisten 912
turvallisuus 911
alkaen 911
enemmistö 910
ensimmäistä 910
issamme 909
keskustelemme 909
kis@@ 909
hyödy@@ 908
kom@@ 908
vaihtoeh@@ 908
selvä 907
vapautta 907
muodos@@ 907
hänelle 907
jat@@ 906
esitti 904
inno@@ 904
nojalla 904
perusta@@ 904
kseni 903
lopu@@ 903
tyjä 903
määritel@@ 903
teli@@ 903
vah@@ 902
kahta 902
raha 902
kolman@@ 902
KOM 901
niinpä 900
tivät 900
tö 900
kaupall@@ 900
ulkopuol@@ 899
ystävä@@ 899
vähentää 899
yleissopimuksen 899
mästä 898
matkusta@@ 898
antoi 897
avoimuutta 897
ut@@ 896
pik@@ 896
keho@@ 896
Eurooppaan 896
hallitukset 896
jotain 896
ain@@ 896
sivat 895
itusta 895
yhteistyössä 895
raja@@ 894
tämis@@ 894
luom@@ 894
viras@@ 894
riippumatta 894
kyse@@ 893
intia 893
sosiaalista 893
työpaik@@ 893
tuja 892
koihin 892
kää 891
paikall@@ 891
voit@@ 891
sattu@@ 890
suhteen 890
tämän@@ 890
seurauksia 890
valmiita 889
rooli 889
myönteinen 889
ikään 889
mahdotonta 889
viraston 888
kansanterveyden 888
ehdotuks@@ 887
tarkistuksista 887
eri@@ 887
toistaiseksi 886
kea 886
neuvo@@ 886
poliittisesti 886
ympäristöasioiden 885
konflik@@ 885
ilu@@ 885
tista 885
löytää 884
lisää@@ 883
sanottuna 883
isillä 883
unionia 883
palestiinalais@@ 883
teollisuus@@ 882
edustajat 882
nne 881
aloitteita 881
yrityksille 880
vuus 880
tehtävä@@ 880
enkä 879
hätä@@ 879
katson 879
lääke@@ 879
eniten 878
tuomioistuimen 878
tapaan 878
kiis@@ 877
laito@@ 877
tapaa 877
ellei 877
tarpeeksi 876
kia 876
tulo@@ 876
aisesti 876
sor@@ 876
kan 875
noudatta@@ 875
arvon 875
yyn 875
omia 874
alueille 874
lainsäädäntö 874
todennäköisesti 874
tulokset 873
4@@ 873
yy@@ 873
itetta@@ 873
valtiota 873
mi 872
5@@ 872
kehittämisen 872
ongelmien 872
Amerikan 872
elämän 872
kansall@@ 871
oikeuden@@ 871
vissa 871
erity@@ 870
päätöstä 870
vastaus 869
kysymyks@@ 869
enkin 869
muista 869
kuluttua 867
essani 866
käsiteltäväksi 865
väline@@ 865
hyviä 864
änä 864
ohja@@ 864
taloudellisten 864
oissa 864
tavall@@ 864
edell@@ 863
ät 863
realis@@ 863
toivottavasti 863
jokainen 863
saan@@ 862
lainsäädännö@@ 862
essamme 862
mat@@ 861
julkisten 861
sin@@ 860
mielipite@@ 859
pääasiassa 859
alha@@ 859
pyrimme 859
tävä@@ 859
tarvetta 858
politiikkojen 858
vaikutukset 858
20@@ 858
sis@@ 858
jul@@ 858
kansojen 858
huomio@@ 857
silti 857
teista 856
ulkopuolella 855
tte 855
jokaisen 855
tau@@ 855
sovelletta@@ 855
ilmoittaa 855
ellista 854
Portugalin 854
seuraavan 853
idemme 853
tarv@@ 853
päivä 853
tämättä 852
omat 852
yhteistyöstä 852
järjestelmä@@ 852
jon@@ 851
kier@@ 851
hen@@ 851
perustamis@@ 851
johd@@ 850
tavo@@ 850
inhimill@@ 850
markkino@@ 850
isenä 849
oikeudell@@ 849
pa 849
järjestel@@ 849
vastusta@@ 849
tiet@@ 849
jät 848
puuttua 847
vastuun 847
itys@@ 847
turvapaikka@@ 847
voinut 846
pitkä@@ 846
edistystä 846
alojen 846
sopimukset 846
kuka 846
pidät@@ 845
historiall@@ 845
ellisen 845
tellut 844
väärin 843
strateg@@ 843
aktiivisesti 843
työllisyyden 842
imaan 842
pol@@ 842
sisälty@@ 841
hyö@@ 841
perustaa 841
nimissä 841
oikeus- 841
tiettyjä 840
entisestään 840
tietoinen 840
ved@@ 840
naisia 840
tehtävänä 839
tarjota 839
allinen 839
vapaaeh@@ 839
annettu 838
nouda@@ 838
väestön 838
käytössä 838
kesken 838
viera@@ 838
aloite 837
arvo 837
koskevissa 837
é@@ 837
tosin 837
pyrittävä 837
alaiset 836
merkittäviä 836
saisi 836
miljardia 836
alaisten 836
ajatus 835
pyy@@ 835
ny@@ 835
kokous 834
sien 834
päätöksente@@ 834
kansallisen 834
välttää 834
valle 834
allekirjoitta@@ 834
julkais@@ 833
painopiste@@ 833
sovel@@ 833
isyyttä 833
jou@@ 832
kilpailukyky@@ 832
c@@ 832
syyskuun 831
piin 831
ristiriidassa 831
eurooppalais@@ 831
pitkälle 831
astu@@ 830
lainen 830
sisämarkkinoiden 830
taka@@ 830
liittymis@@ 830
ässä 829
maille 829
ilun 829
H 829
liittyvistä 828
olevaa 828
odotamme 828
puhumme 828
yssä 828
rautatie@@ 827
tekstin 827
aineita 827
mällä 827
saapu@@ 827
usko 827
my@@ 826
voima@@ 826
viimeinen 826
asiantunti@@ 825
vaatia 825
WTO:n 825
tiedotus@@ 825
kais@@ 824
eten@@ 824
olisin 823
kaikenla@@ 823
miesten 823
henkilökohta@@ 823
ettävä 823
herät@@ 822
pano@@ 822
Al@@ 821
isuu@@ 821
täys@@ 821
1@@ 820
käytettävissä 820
valmistel@@ 820
päätöks@@ 819
empia 819
ituksen 819
katso@@ 819
peräisin 818
tukien 818
elintarvikkeiden 818
hyväksytty 817
omassa 817
haa 817
innan 817
paras 816
kokem@@ 816
erityistä 815
vaikutus 815
sala@@ 815
U@@ 815
tarkistuksessa 815
liikenteen 814
pyrkii 814
tietoisia 814
öljy@@ 813
päät@@ 813
uskotta@@ 813
heiken@@ 813
suuret 812
jen@@ 812
kuulu 812
perustamista 812
tty 812
tarkistusten 811
käsittelyn 810
elim@@ 810
annut 810
kuun@@ 809
kuukauden 809
vuo@@ 809
järjestelmään 809
puhun 808
tiedon 808
kuulla 808
käsiteltävänä 807
taloudelliset 807
uo@@ 807
toimittava 807
ongelmista 807
aikavälin 807
täysistunnossa 806
itettiin 806
valvo@@ 806
hankke@@ 805
ata 805
saamaan 805
tämänpäivä@@ 804
io@@ 804
lähestymis@@ 804
pitkällä 803
sivu@@ 803
60 803
jän 803
verkos@@ 803
hyökkäy@@ 803
kahden@@ 802
keino 801
yksityiskohta@@ 801
sai 801
valtio@@ 801
kolmas 800
oikeuteen 800
yleisen 799
lleen 799
telu@@ 799
avus@@ 799
erill@@ 799
neuvotteluja 799
lehd@@ 798
olisimme 798
pöytäkirjan 798
lyh@@ 798
pohd@@ 798
poistaa 797
rapor@@ 797
valvonta 797
alkaa 797
puolestaan 797
ulko- 797
d 797
todellakaan 796
ongel@@ 796
tyyn 795
toimenpiteet 795
nais@@ 795
vis@@ 794
komissiolla 794
äänestä@@ 794
kompromissi@@ 794
ästä 794
riis@@ 794
rikkom@@ 793
paa 793
l 793
yhteisestä 792
osoittanut 792
parlamentaar@@ 792
antavat 792
työhön 792
kkaa 792
kaik@@ 792
yli@@ 791
ante@@ 791
di@@ 790
rauta@@ 790
aluetta 790
atta 790
neljä 789
toimimaan 789
edustajien 789
vaadimme 788
noudatettava 788
asta@@ 788
demokratiaa 788
hallit@@ 788
lev@@ 788
komissiossa 787
äänestyksessä 787
vuoropuhelun 787
poliisi@@ 787
amisen 787
yksen 786
len@@ 786
tekemistä 786
kysymyksessä 786
ittu@@ 785
valvoa 785
kaup@@ 785
velvo@@ 784
siirtymä@@ 784
vakuuttaa 784
säilyttä@@ 784
suurten 784
osoitus 784
näkökohtia 784
varainhoito@@ 784
kalta@@ 784
utta 783
yle@@ 783
maata 783
mitkä 783
todellisuudessa 783
osapuol@@ 783
kin@@ 783
mus@@ 782
kuluessa 782
ekin 782
itu 782
kyseisen 782
simme 782
yhdisty@@ 782
0@@ 781
tärkeän 781
mamme 781
18 781
tutkimusta 781
tyh@@ 781
yksimielisesti 780
hyväksymään 779
kysymyksissä 779
seur@@ 779
virhe@@ 779
selvi@@ 777
konkreett@@ 777
miljoon@@ 777
erinomaisesta 776
yksinkerta@@ 776
tarvitsee 776
sata@@ 776
lähte@@ 775
eminen 775
jatkossakin 775
jatkossa 775
pk 775
järjestön 775
toteutetta@@ 775
eurooppalaisia 774
tehtävää 774
luon@@ 774
harjo@@ 774
kiireell@@ 774
ilu 773
rahaston 773
eläkke@@ 773
kehotan 772
laatua 772
välttämättö@@ 772
vapau@@ 772
hakem@@ 772
äsken 771
tyy 771
vihre@@ 771
puolella 771
sukupuol@@ 771
kulje@@ 770
hyväksyt@@ 770
televat 770
je@@ 769
koke@@ 769
maailmanlaaju@@ 769
kasvaa 768
varova@@ 768
vuosittain 768
syrj@@ 768
budjet@@ 768
mp@@ 767
Brysselissä 766
kysymyksestä 765
voitava 765
AKT 765
tulos 764
vastauks@@ 764
tunnusta@@ 764
välille 764
tärkeä@@ 764
laisia 763
esitän 762
tekn@@ 762
Itävallan 762
kehitykseen 762
ratkaisua 762
Palestiinan 762
do@@ 761
16 761
strategia 761
näkemyks@@ 760
paikalla 760
de@@ 760
lähestymistapa 760
ni 759
hyöd@@ 759
malle 759
hoid@@ 759
jäsenvaltiossa 759
enempää 759
virall@@ 759
laajentumis@@ 759
eita 758
raho@@ 758
vastaa@@ 757
tuotanto@@ 757
kiä 756
tasavallan 756
hyödyntää 756
lause@@ 755
artiklassa 755
piiriin 755
aks@@ 755
ilmoitta@@ 754
ongelmiin 754
rahoituksen 754
useat 754
koro@@ 754
Tanskan 754
humanitaar@@ 754
kaikesta 753
edu@@ 753
ponnis@@ 753
tarkasteltava 753
nykyisten 753
ymmärrän 753
iva@@ 753
ros@@ 753
kauden 752
ch@@ 752
väestö@@ 752
muuto@@ 752
ratkaisem@@ 752
tuon 752
ampi 751
DE 751
käydään 751
sum@@ 751
viestintä@@ 751
suhtaudun 751
kee 750
tarkoita 750
ratkaisuja 750
lento@@ 750
parem@@ 749
merkin@@ 749
valtioissa 749
toteutetaan 749
lähestymistapaa 749
täytäntöönpanoa 748
johtu@@ 748
laajentumista 748
ojen 748
ai@@ 748
käsittelyyn 748
suojelun 748
istunnon 747
hyväksyy 747
tehd@@ 747
hankal@@ 747
hyväksynyt 747
yrittä@@ 747
korosta@@ 747
ihmistä 747
1. 746
koros@@ 746
itusten 746
aktiiv@@ 746
liitto@@ 746
väärin@@ 746
talousarviosta 746
heidät 746
llistä 745
tukem@@ 745
huolenaihe@@ 745
iti@@ 745
komissiolta 744
ehdotusten 744
saavuttamiseksi 743
tarve 743
tilante@@ 743
toimenpiteiden 743
haita@@ 743
unionille 743
inta 742
tuotannon 742
tapaus 741
viisi 741
itty@@ 741
seikka 741
ke 741
maksi 740
laa@@ 740
Euroopasta 740
valtioita 740
hyvä@@ 739
sääntely@@ 739
saataisiin 739
torjumiseksi 739
aisiin 739
kilpailua 739
käsittelevän 739
parlamenttien 739
saatta@@ 738
yrity@@ 738
kommen@@ 738
perustuslain 738
verkko@@ 737
ettom@@ 737
aamuna 737
sijoitta@@ 736
otti 736
vieläkin 735
tarkistu@@ 735
nuorten 735
ino@@ 734
annan 734
sotilas@@ 733
mahdollinen 733
sanoisin 733
seuranta@@ 733
suhteita 733
kansa 733
ic@@ 732
ponnistelu@@ 732
millään 732
Barcelonan 732
tiettyjen 731
tekijä 731
jäsenelle 731
yhteisiä 731
hyväksyty@@ 731
tettäisiin 731
olem@@ 731
laittom@@ 730
jemme 730
kysymysten 730
tällaiset 729
minkäänlaista 729
määräyksiä 728
työpaikkoja 728
Y@@ 728
puhemieh@@ 728
lausunnon 728
mitenkään 727
yhteiskunn@@ 727
käs@@ 727
aseiden 726
Itä 726
pienten 726
sopim@@ 726
ku 726
todettava 726
teeseen 725
pas@@ 725
toimintasuunnitel@@ 725
nou@@ 725
ksiaan 725
terveyden@@ 725
huomauttaa 725
amalla 725
myönteistä 724
Belgian 724
rakennerahas@@ 724
vapaus 724
vapautta@@ 724
puhutaan 723
kaikkiaan 723
yhteispäätös@@ 723
unionilla 723
järjestelmiä 723
taloudell@@ 722
ip@@ 722
kasta 721
viid@@ 721
omista@@ 721
yrittää 719
yhdyn 718
itsee 718
uudestaan 718
vamma@@ 718
sopimuksesta 718
periaatteiden 717
Prodi 717
its@@ 717
ylimäärä@@ 717
rajojen 717
päätty@@ 716
lopussa 716
töjä 716
äänestämme 715
kansallisia 715
sisällyttää 715
vakuutus@@ 715
asetus 715
muuta@@ 715
siviil@@ 715
viksi 714
vakavia 714
tosiasiassa 714
teja 714
tietävät 714
70 714
uut@@ 713
aikoina 713
työs@@ 713
sal@@ 713
yö@@ 713
neuvot@@ 713
proses@@ 712
yys@@ 712
laisten 712
ryhdyttävä 711
12@@ 711
es 711
sana@@ 711
meko 711
vas@@ 711
puheenjohtajavaltion 711
tetu@@ 710
näyt@@ 710
julkisia 710
vakava 709
ilo@@ 709
ksessa 709
ag@@ 709
samanaikaisesti 708
palau@@ 708
väliaik@@ 708
viljel@@ 708
empaa 708
tanne 708
tehokas 708
lain 708
muille 707
edessä 707
yksity@@ 707
näh@@ 707
velvoitte@@ 707
demokraattisen 707
suostu@@ 707
hiljattain 707
tehdyn 706
kehittämistä 706
etelä@@ 706
vaihe@@ 706
liik@@ 706
milloin 705
toimivalta@@ 705
vaikuttavat 705
uksessa 705
tekniikan 705
kir@@ 705
kansallis@@ 705
6@@ 705
kustannuksia 704
yhtälä@@ 704
töjen 704
määrärahojen 703
kärsi@@ 703
osapuolten 703
sanottu 703
pitävät 703
järjestö@@ 703
kulutta@@ 703
ity@@ 702
utuu 702
sta 702
osallistumista 702
vastaamaan 702
itet@@ 701
muistu@@ 701
standar@@ 701
sovell@@ 701
kannus@@ 701
telua 701
pakolais@@ 701
bio@@ 701
järkevää 700
koulutus@@ 700
vaikeuksia 700
keskenään 700
vastaavat 699
pyydämme 699
laadu@@ 699
konkreettisia 699
konferenssissa 699
tarvittavat 699
ihmisille 698
päästö@@ 698
omaan 697
liikaa 697
sä@@ 697
ine@@ 697
kunnianhimo@@ 697
tuolloin 697
PT 697
tes@@ 696
maahan 696
pom@@ 695
aika@@ 695
ajan@@ 695
liit@@ 695
käytä@@ 695
itään 695
tetut 695
ksella 695
ryhmät 694
alusta 694
tulevan 694
vuuden 694
yhtenä@@ 694
neita 693
edellytykset 693
korostetaan 693
tarkemmin 693
tulosta 692
asetetaan 692
toisistaan 692
avoimuuden 692
enem@@ 692
valtuus@@ 692
mar@@ 692
80 691
avoimesti 691
isuudessa 691
jäsenille 691
unionista 691
vahingo@@ 691
ohjelmassa 690
luulen 689
hien@@ 689
perusteellisesti 689
itus 689
molemmat 689
tyvät 689
15@@ 688
ehkäisem@@ 688
toisia 688
aar@@ 688
talousarviota 688
tehtäviä 687
rahas@@ 687
tuntuu 687
kertomuksen 687
yksilö@@ 687
istamme 687
uudistuksia 687
toimielimet 687
ab@@ 686
kas 686
prosessiin 686
käyd@@ 686
pyyn@@ 685
etsi@@ 685
perusta 685
tavoitetta 685
hyväksy 685
katsoo 685
ilmeisesti 684
talousarvioon 684
käsitel@@ 683
isyyden 683
suojella 683
rikollisuuden 683
kolmannen 683
esittäneet 682
useiden 682
merkityks@@ 682
kestävää 682
sopimus@@ 682
tavasta 682
teillä 681
ohjelmia 681
lliseen 681
äänestystä 681
hankkeiden 681
parlamentilla 681
saakka 680
sosiaalinen 680
etta@@ 680
mahdollisuu@@ 680
innista 680
Kyproksen 680
04@@ 680
mahdollisuuksien 679
toimenpite@@ 679
suhteiden 679
seuraavaksi 679
keskusteluja 679
palvelut 678
tukia 678
seuraa 678
päätöslauselmaa 678
ess@@ 678
parantamiseksi 677
kovasti 677
valti@@ 677
suuresti 677
meri@@ 677
kriisin 677
mansa 676
viivästy@@ 676
työpaikkojen 676
maatalouspolitiikan 676
liittymistä 676
tarko@@ 676
edut 676
alainen 676
luu@@ 676
sota 676
kunnan 676
ansa@@ 676
14@@ 675
työllis@@ 675
aino@@ 675
käsittelyä 675
jokin 675
suhteet 675
tena 675
terveyden 675
ing@@ 674
vaatimusten 674
ajo@@ 674
kohtuu@@ 674
pyrkiä 673
vaarall@@ 673
syrjä@@ 673
kerta 673
tuk@@ 673
apu@@ 673
toukokuuta 673
saatavilla 673
sanot@@ 672
äär@@ 672
käytettävä 672
valitettavaa 672
luonte@@ 671
käsit@@ 671
työnanta@@ 671
oja 671
voitu 670
tämättö@@ 670
7@@ 670
joulukuuta 670
järke@@ 670
puheenvuoroni 669
piä 669
kasvua 669
saman 669
kirjan 669
isuus@@ 669
ok@@ 669
äänestyksen 668
aikom@@ 668
vastainen 668
suurempi 668
varmistamaan 668
koulutusta 667
kiinnos@@ 667
tuksista 666
elää 666
edistämiseksi 666
kelpo@@ 666
saad@@ 666
muo@@ 666
säännöksiä 666
suunnittel@@ 665
esittelijänä 665
eläim@@ 665
heillä 665
kuluttajapolitiikan 665
olo@@ 664
kiinn@@ 664
velvollisuus 664
ihmisen 664
vastauksen 664
itsestään 663
sääd@@ 663
tellä 663
hoitaa 663
siirty@@ 663
onnistunut 663
laajentu@@ 663
ituks@@ 663
vaatimu@@ 662
rakenteell@@ 662
ittanut 662
isemmin 662
syyllis@@ 662
hallinn@@ 662
vuosia 662
esiinty@@ 661
Amsterdamin 661
miet@@ 661
päätöslauselma 661
ristiriita@@ 661
tämiseksi 661
ongelmaan 661
tävissä 660
kuljetta@@ 660
ona 660
täni 660
P 660
väkivallan 660
ottamatta 659
vastustaa 659
toistan 659
hankkeen 659
tety@@ 659
kokonaisuudessaan 659
Kioton 659
vastaista 659
täytäntöönpanon 658
sellais@@ 658
jamme 658
tukemaan 658
yhteistyöhön 658
tutkimus 657
saattavat 657
sään@@ 657
välttämättä 657
joulukuussa 657
asiakirjan 656
talous 656
tarpe@@ 656
henkilöt 656
evät 655
tarkistuksesta 655
17 655
suo@@ 655
taloudellisesti 655
kansa@@ 655
tapahtumat 654
yydestä 654
parlamenttiin 654
monen@@ 654
onnittelen 653
netään 653
kuud@@ 653
tasapaino 653
ennus@@ 653
varmistamiseksi 653
tinen 653
vakauden 652
tilaisuuden 652
tuista 652
solidaar@@ 652
amisesta 652
pahoillani 651
tiu@@ 651
asian@@ 651
teksti 651
saavutettu 651
verran 651
aste@@ 650
tarvitsevat 650
ampaa 650
vapaa 650
hankkeita 650
oper@@ 650
tuloksena 650
prosessissa 649
mukau@@ 649
tuot@@ 649
vaativat 649
Yhdysvalloissa 648
tuntu@@ 648
paikallis@@ 648
käyttävät 647
tuli 647
liberaal@@ 647
ampia 647
vastaavan 646
riippu@@ 646
uudistuksen 646
strategiaa 646
vään 646
yden 645
teen@@ 645
yhteiseen 645
yttävät 645
ehdottoman 645
samat 645
otamme 644
suurim@@ 644
aloja 644
varsin@@ 644
kunkin 644
hta@@ 644
tavoitteista 643
toisinaan 643
suunni@@ 643
noudatetaan 643
täm@@ 643
toimenpiteisiin 643
w@@ 643
menettelyjä 642
yleistä 642
Maailman 642
laajen@@ 641
liikke@@ 641
isempi 641
hallitusta 641
välisten 640
kasvu 640
välisiä 640
ran@@ 640
samme 640
luovutta@@ 640
kasvun 639
mekanis@@ 639
jäl@@ 639
alku@@ 639
kampan@@ 639
veto@@ 639
misessä 637
voineet 637
enemmistön 637
ajat 637
taudin 637
käynyt 636
mielen@@ 636
katsomme 636
käynnissä 636
sellaiset 636
perustuvan 636
annamme 635
kiitollinen 635
yhd@@ 635
rin 635
askel@@ 635
tuomio@@ 635
hyväksyttävä 635
ohjelmaan 635
myönteisiä 635
ES 634
liittyvän 634
ensiksikin 634
laista 634
ohjelmasta 633
tule 633
täyttä@@ 633
täyttää 633
mainit@@ 633
painopis@@ 633
haluaisimme 633
ennet@@ 633
lämpimästi 633
laisen 633
roko@@ 633
isitte 632
perustuslaill@@ 632
mainitsi 632
laus@@ 631
menesty@@ 631
yleinen 630
amiseen 630
ha 630
toiminnasta 630
tyneet 630
uhkaa 630
elo@@ 630
näille 629
yksinomaan 629
oikeutetusti 629
vaali@@ 629
tas@@ 628
puheenjohtajana 628
suoritta@@ 628
yhteisessä 627
tuh@@ 627
esin 627
kem@@ 627
iselta 627
arvoja 627
työntekijöitä 626
A 626
löyd@@ 625
kieltäyty@@ 625
jal@@ 625
työstään 625
työskentely@@ 625
syntyy 625
ostaa 625
syyskuuta 625
osapuolet 625
Per@@ 625
enimmäis@@ 625
neitä 624
alalle 624
seuraukset 624
vaikutusta 624
tilaisuutta 624
markkinoita 624
velvoll@@ 624
are@@ 624
sul@@ 624
ilua 624
taistel@@ 624
attu 623
onnettom@@ 623
kansallista 623
vahvistetaan 623
yksi@@ 623
ila@@ 623
10@@ 622
liittyvä 622
uksissa 621
taminen 621
valtuuskunnan 621
osall@@ 621
edellyty@@ 621
oikeudenmukais@@ 620
sanonut 620
maahanmuuton 620
äänestys@@ 619
todellisen 619
torjua 619
muilla 619
esimerkkinä 619
Yhdistyneessä 619
vesi@@ 619
toistaa 618
oihin 618
kuningaskunnassa 618
tällöin 617
korkean 617
ensi@@ 617
taso@@ 617
viis@@ 617
iltana 617
henkilöstö@@ 617
edustaj@@ 616
myönnetään 616
viimeksi 616
viranomaisen 616
keskinä@@ 616
ituksia 615
uskoakseni 615
huomion 615
järjestää 615
tulevien 615
aiempaa 615
huolellisesti 614
täyty@@ 614
tuksessa 614
pä 614
aalis@@ 614
tehtiin 614
tehos@@ 614
tiedo@@ 614
gin 614
riippuu 614
Balkanin 614
joku 613
pieni 613
kuljetus@@ 613
tällaisten 613
elinten 613
vakau@@ 613
esi@@ 612
säily@@ 612
ensimmäiseksi 612
teke@@ 612
valin@@ 612
liittyvää 612
toi 612
omaksu@@ 612
ydinvoim@@ 612
pikaisesti 611
kompromis@@ 611
puuttuu 611
tos@@ 611
tarkoite@@ 611
inin 611
teiltä 610
tämänhetk@@ 610
mahdollistaa 610
ide@@ 610
milla 610
pis@@ 610
välis@@ 610
reago@@ 609
inut 609
puheenjohtaj@@ 609
mukaisen 609
täväksi 609
keino@@ 609
luotetta@@ 609
tävässä 609
ete@@ 608
varauks@@ 608
teihin 608
arviointi@@ 608
viiden 607
aio 607
,5 607
ensimmä@@ 607
vin@@ 607
mene@@ 607
etty 607
välttämätön 607
osana 607
sisämarkkina 607
vaihto@@ 607
suu- 607
perustelu@@ 606
ysten 606
den 606
ber@@ 606
met@@ 606
kyky@@ 606
johdosta 605
yhtiö@@ 605
vapaasti 605
etn@@ 605
12.00 604
vallitsee 604
toteutettava 604
rohke@@ 604
tune@@ 604
kehottaa 604
erään@@ 603
äänestyssel@@ 603
hylä@@ 603
tuettava 603
tiety@@ 602
ket@@ 602
yä 602
tävästä 602
illaan 602
edistetään 602
jäsenvaltiota 602
hallinto 602
tulokseen 602
piti 601
osassa 601
ongelmana 601
illeen 601
mukais@@ 601
sisäasioiden 601
vaalien 601
maton 601
rauhaa 601
voitte 600
annetun 600
taustalla 600
laadun 600
astaa 600
valmistelukunta 600
paho@@ 599
pito@@ 599
kuntaa 599
terveyttä 598
jänä 598
lailla 598
erään 598
elämään 598
tietyt 598
muodostaa 598
lou@@ 598
biolog@@ 598
periaatteet 598
tapahtui 598
avan 597
ennakko@@ 597
väitte@@ 597
mennä 597
tarkoituksen@@ 597
laatu@@ 597
laiset 597
kiintiö@@ 597
kuukautta 596
tarkastellaan 596
edelleenkin 596
myötä@@ 596
tapoja 596
ste@@ 596
ehdot 596
demokraatt@@ 596
terrorismia 596
puutteell@@ 595
ennako@@ 595
isyys 595
allaan 595
tav@@ 595
vapauteen 595
posti@@ 595
Tur@@ 595
uhrien 594
poh@@ 594
tammikuuta 594
edun 594
aseita 594
nähdäkseni 594
ksistä 594
edetä 593
nel@@ 593
eroja 593
äkseen 593
kon 593
pyynnön 592
ttavat 592
teltava 592
käsiteltävä 592
keskittyä 592
rohkais@@ 592
kasvu@@ 592
merkittävää 592
edistämään 592
rakenta@@ 592
painottaa 591
etaan 591
julkis@@ 591
toiminn@@ 591
mainittu 591
todistu@@ 591
tee 591
Afganistanin 591
vie@@ 590
etel@@ 590
osten 590
direktiiviin 590
fi@@ 590
hanke 589
tonsa 589
toimis@@ 589
histori@@ 589
verta@@ 589
väkivalta@@ 588
paranta@@ 588
oloissa 588
varmistetaan 588
kö@@ 588
isinä 588
uud@@ 588
vuodessa 588
puolueiden 588
suojelu@@ 587
viikon 587
vistä 587
kirjassa 587
oppim@@ 587
hyl@@ 586
yllä 586
mietinnöstään 586
:tä 586
tiedotta@@ 586
kahteen 586
kriitt@@ 586
tehtävän 586
ensisijaisesti 586
kiire@@ 586
kumo@@ 586
välineet 586
hyväksi@@ 586
ulottu@@ 585
tutk@@ 585
itä@@ 585
anin 585
laatimaan 585
kunni@@ 585
g 585
kkaita 585
menettelyssä 584
valiokunn@@ 584
pienen@@ 584
tuomioistuim@@ 584
jäsenvaltio@@ 584
täyd@@ 584
torjunta 584
ölj@@ 584
ponnistu@@ 584
ministeri@@ 584
aiheuttavat 583
käämme 583
ette@@ 582
sup@@ 582
seurata 582
ankar@@ 582
gen@@ 582
saastu@@ 582
tapahtumien 582
laittoman 582
Saddam 582
annetta@@ 581
kiin 581
pohja@@ 581
een@@ 581
ittävä 580
hylkää@@ 580
,@@ 580
keinoin 580
uttava 580
parlament@@ 579
toimivaltu@@ 579
keskustellaan 579
itys 579
järjestelmästä 579
eni@@ 579
esittämä@@ 578
hy@@ 578
tuomioistuin 578
yr@@ 578
telun 578
Euro 578
olennainen 577
vastustamme 577
ansi@@ 577
maantieteell@@ 577
taso 577
ep@@ 577
alaan 576
västä 576
innut 576
molem@@ 575
luomaan 575
siiv@@ 575
lukuisia 575
tuotte@@ 575
istunto 575
muitakin 575
jäsenenä 575
ikan 575
aloitetta 575
kuluttajille 575
organisaati@@ 575
udu@@ 574
pilar@@ 574
hyvästä 574
menetel@@ 574
takin 574
vähintään 574
uudistus 574
talousarvio 574
mäksi 574
ehdotuksista 574
valita 574
maahanmuutta@@ 574
välineiden 573
Britannian 573
yhteisten 573
hetki 573
jäsenvaltio 573
leik@@ 573
lyhyen 573
varaa 572
lisättävä 572
määritellä 572
kko 572
uskomme 571
saks@@ 571
järjestöt 571
Kosovon 571
huolissaan 571
17@@ 570
komitea 570
turvallisuudesta 570
tulk@@ 570
väliset 570
kehityksestä 570
telut 570
tisen 570
ymmärrä 570
uskon@@ 570
viesti 569
alun 569
äänestimme 569
muodoll@@ 569
maasta 569
tutkimus- 569
kuluttajat 569
kahdesta 569
Turkki 569
puolustuspolitiikan 569
lyhy@@ 568
urhe@@ 568
kehittämiseen 568
Ber@@ 568
selvittää 568
aseen 568
kertomus 568
ist@@ 568
atte@@ 568
tettyä 568
mpi 568
myy@@ 568
keskusteluissa 568
lukuun 567
puut@@ 567
jolle 567
lähem@@ 567
arkaluonte@@ 567
teks@@ 567
tällais@@ 567
vastaava 566
1997 566
kohdat 566
alaisia 566
poltto@@ 566
joukkojen 566
ammat@@ 566
tarkkaili@@ 566
puolustaa 566
ryhty@@ 565
lähen@@ 565
nille 565
kiitokset 565
vapaan 565
kustannusten 565
määrärahat 565
todellisia 565
nähden 564
ria 564
iassa 564
ottaneet 563
täessä 563
luvun 563
kapasiteet@@ 563
olta 563
oikeudellisen 563
käsittelemään 562
osallistuvat 562
vieläkään 562
siv@@ 562
ratkaiseva 561
muodosta@@ 561
eng@@ 561
komite@@ 561
kansainvälisiä 561
Jugoslavian 561
uskonno@@ 561
peto@@ 560
... 560
pakko 560
saanen 560
palauttaa 560
moottor@@ 560
taataan 560
paikan 560
kur@@ 560
koulutukseen 560
perusoikeuskirjan 560
aamme 559
laajentaa 559
kiih@@ 559
näkökohdat 559
nykyisessä 559
seuraavaa 559
meiltä 559
suhtaudumme 559
antu@@ 559
yllät@@ 559
toivoa 558
tuetaan 558
asiakirja 558
kiista@@ 558
synn@@ 558
huolta 558
enin 558
yn@@ 558
direktiivi@@ 557
perustuvat 557
soveltamista 557
ympäristöön 557
toiminut 557
tutkia 557
perusoikeus@@ 557
tekstiä 556
EY:n 556
näkökul@@ 556
kohdis@@ 556
sisäll@@ 556
itseään 556
m 555
myr@@ 554
käsittelemme 554
seikkaa 554
käytö@@ 554
suhteellisen 553
tävään 553
ammati@@ 553
avoin 553
eil@@ 553
kselle 553
suojelu 553
nin 553
tahtoa 553
päivää 553
mielelläni 552
Brysselin 552
monimutka@@ 552
suurem@@ 552
sosiaalisia 552
laajem@@ 552
edel@@ 551
k 551
eett@@ 551
demokratia 551
lääkkeiden 551
th@@ 550
ilme@@ 550
rajoja 550
I 550
esiintyy 550
seka@@ 549
sämme 549
idaan 549
muistettava 549
haluaisi 549
parhaiten 549
kansalaisvapauksien 549
ksessä 549
konferenssi 549
itselleen 549
sur@@ 548
sopimuksiin 548
menne@@ 548
vaatimus 548
II 548
vastausta 548
ityks@@ 547
kohdasta 547
tiedonannon 547
riski@@ 547
enta@@ 547
ike@@ 547
emään 547
tuksiin 547
ajatusta 547
ohella 547
ins@@ 547
vaikutusten 547
vam@@ 547
taisiin 546
muodostavat 546
syitä 546
huolestutta@@ 546
jatkettava 546
yhteisymmärr@@ 546
suunnitelman 545
purka@@ 545
kohdista 545
insa 545
joll@@ 545
opiskeli@@ 545
vakaus- 545
hyväksymme 544
18@@ 544
mättö@@ 544
käsittely 544
määrätään 544
joutuneet 544
rakennerahastojen 544
taloutta 544
mielenkiin@@ 544
amiseksi 544
Kan@@ 544
ajattel@@ 544
vahvista@@ 544
sol@@ 544
rajoittaa 544
oikeusvaltion 544
lisätään 543
osallistuminen 543
perin@@ 543
hyvinvo@@ 543
ttävä 543
por@@ 542
35 542
päin 542
impia 542
ittelu@@ 542
asianmukaista 542
hte@@ 542
erilaiset 542
lik@@ 542
ge@@ 542
emiseksi 542
Car@@ 542
kannasta 541
yhteensovitta@@ 541
päättävä@@ 541
isina 541
kki@@ 541
tiukasti 540
pysä@@ 540
kädessä 540
työllisyyttä 540
tilaa 540
teollisuus 540
luot@@ 540
hallitustenvälisen 540
eris@@ 540
ajankohta@@ 539
asemaan 539
viittaan 539
An@@ 539
aton 539
kattaa 539
metsä@@ 539
maailmaa 539
kauppa 539
palata 538
EY 537
vuutta 537
oilla 537
21 537
välisestä 537
muualla 537
vetoom@@ 537
myönnettävä 537
pystymme 537
kokonaisvalta@@ 537
Z@@ 537
aiem@@ 536
mää 536
viiv@@ 536
henkilöitä 536
matkailu@@ 536
lähestymistavan 536
hyväksyttä@@ 536
kokoontu@@ 536
vää@@ 536
vaik@@ 536
udet 536
tetyn 535
liitte@@ 535
ittua 535
parantamaan 535
astaan 535
os 535
00 535
syyt@@ 534
kyseinen 534
käyttämään 534
iaan 534
noudattamaan 534
muutos 534
ittämistä 534
kop@@ 534
palkka@@ 534
onneksi 534
itsensä 533
ratkaisu@@ 533
viranomaisille 533
ehtoja 533
monista 533
satama@@ 533
toteuttamaan 533
komissi@@ 533
päätti 533
yhdysvalta@@ 533
vang@@ 533
alen@@ 533
maahan@@ 533
yliopis@@ 533
alaisen 532
itava 532
tuesta 532
Ranska 532
viedä 532
kyken@@ 532
poliittisesta 532
not 531
arvois@@ 531
yksittäisten 531
talouteen 531
yksin 530
pieniä 530
uudistusta 530
sovellettava 530
tutki@@ 530
lähinnä 530
joutuu 530
toiset 530
Euro@@ 530
vapauttamista 530
C 529
yks@@ 529
intä 529
vaikutuksista 529
istaminen 529
mahdollisia 529
ineen 529
hyv@@ 529
kasvatta@@ 529
pystyy 528
päte@@ 528
pyydetään 528
vai@@ 528
itoim@@ 528
jiä 528
pätee 528
vaalit 527
tti@@ 527
tasapuol@@ 527
oikeuksiin 527
artikla 527
vastavuoro@@ 527
pohtia 526
yksimielisyyteen 526
ksensa 526
tetä 526
jälleen@@ 526
tely 525
2005 525
sopi@@ 525
tävästi 525
vauhd@@ 525
määrää@@ 525
käytetty 525
tapahtua 525
istamaan 525
24 525
keinot 525
vuodeksi 525
isuud@@ 525
vaarassa 525
Välimeri 525
tarvittaessa 524
riittä@@ 524
edustajia 524
suhtautuu 524
tensä 524
moraal@@ 524
leviä@@ 524
kieltää 524
paikkansa 523
uusiin 523
korostan 523
työntekijät 523
täyden 523
nykyiset 523
ulkopolitiik@@ 523
innovaati@@ 523
ulkom@@ 522
tehtävät 522
tärkeimmistä 522
huomi@@ 522
bi@@ 522
oni 522
laitte@@ 522
ttuja 521
liikenne- 521
olev@@ 521
prosenttiin 521
kah@@ 521
ylä@@ 521
asialis@@ 521
kus@@ 521
Ranskassa 521
laatinut 520
kielte@@ 520
lapsi@@ 520
torjuntaa 520
harjoittaa 520
yd@@ 520
aion 519
takaa 519
toteuttamista 519
pahen@@ 519
olevansa 519
koske 519
ikkaa 519
sallia 519
puoli 519
luottamusta 519
demokraattinen 519
saatav@@ 519
perin 518
valtava 518
yleisten 518
tarkistuksissa 518
jalle 518
äkään 518
itin 517
väliseen 517
kil@@ 517
löy@@ 517
edellisen 517
nte@@ 517
järjestelmät 517
100 517
suunnitelma 517
olimme 516
prote@@ 516
yhtäältä 516
päättänyt 516
alaista 515
äs@@ 515
perusteell@@ 515
voimakka@@ 515
perustuva 515
seuraava 515
tahd@@ 515
osaltaan 515
järjestö 515
omaks@@ 515
akaan 515
rool@@ 515
huippukokous 515
ruo@@ 515
NL 515
testa@@ 514
asukka@@ 514
tuskin 514
toimivaltaan 514
yhteyttä 514
käsitte@@ 514
aati@@ 514
Patten 514
seuraavat 514
22 513
valuutta@@ 513
kku@@ 513
jiin 513
90 513
edellytys 513
nia 513
teollisuus- 513
poliittiseen 513
Laekenin 513
vastaanotta@@ 512
att@@ 512
mainitaan 512
vähiten 512
tähtää@@ 512
tarkkaan 512
osoite@@ 512
luotava 512
nous@@ 511
edustaa 511
arvojen 511
jossain 511
yhteiset 511
sektor@@ 511
ens@@ 511
änkin 511
uudistus@@ 511
kerta@@ 511
kär@@ 511
yttämään 511
käsittely@@ 510
COD 510
muutokset 510
sisällyttä@@ 510
kaud@@ 510
suoj@@ 510
tossa 510
alusta@@ 510
da@@ 510
aation 510
sota@@ 510
ulkoasioiden 510
materiaal@@ 509
ydestä 509
puolet 509
toimielin@@ 509
ityksiä 509
yhteisössä 509
Länsi 509
kri@@ 509
ehdokas@@ 509
yhtään 509
taanko 509
ehdotettu 508
evä@@ 508
kestävä 508
tussa 508
lopet@@ 508
kalais@@ 508
kesäkuuta 508
odotta@@ 508
oikeaan 507
itsev@@ 507
ans@@ 507
luettel@@ 507
itteli@@ 507
teisiin 507
vakuutta@@ 507
ine 507
mal@@ 507
23 507
Kööpenhaminan 507
lle@@ 506
esitetyt 506
kein@@ 506
kollegamme 506
käsittelem@@ 506
ajat@@ 506
laajasti 506
puutteita 506
toive@@ 505
muutosta 505
helpotta@@ 505
udesta 505
ero 505
Euroopalle 505
jär@@ 505
opim@@ 504
kannata 504
erityinen 504
seksuaal@@ 504
tämisessä 503
lähellä 503
toisiinsa 503
oim@@ 503
essämme 503
ett@@ 503
tapauksia 503
sotaa 503
huomattava 503
turvallisuus- 503
union@@ 502
ittavat 502
määräysten 502
asetusta 502
asiakirj@@ 502
järjestet@@ 502
vissä 501
tosta 501
varoista 501
tehokkuutta 501
uudella 501
käytävä 501
tämä@@ 501
toisenla@@ 501
ittuja 501
siirtää 501
vuoropuhelu 501
väki@@ 501
kompromissi 501
meren 500
uudelle 500
luodaan 500
toimijoiden 500
johtanut 500
tek@@ 500
19 500
julistu@@ 500
kans@@ 500
itystä 499
huolehdittava 499
laiminlyö@@ 499
puhui 499
teri@@ 499
tilas@@ 499
tasapainon 499
ovatko 499
tarvitta@@ 499
institutionaal@@ 499
Sch@@ 499
istun@@ 499
Schengenin 499
onnistuneet 499
sanoitte 498
voita@@ 498
kehotetaan 498
sanan@@ 498
veden 498
määritellään 498
kierro@@ 498
kalastuksen 498
aisilla 497
9@@ 497
päättäväisesti 497
esityks@@ 497
kilpailu 497
etukäteen 497
tuna 497
rehu@@ 497
edustaja@@ 497
välittä@@ 496
kuolem@@ 496
yksin@@ 496
asianmukainen 496
vihdoinkin 496
isty@@ 496
tosiasia 496
taa@@ 496
8@@ 496
vierail@@ 495
maaliskuuta 495
suuntaviivat 495
yhteiskunta 495
kumppanuus@@ 495
menettelyjen 495
odotan 495
ratkaisemiseksi 495
jar@@ 495
tona 495
rannik@@ 494
olennaisen 494
sektorin 494
lähenty@@ 494
muod@@ 494
kaikin 494
korostettava 494
Kar@@ 494
merkittävä@@ 494
ajien 494
vakautta 494
kuusi 493
pitkä 493
telev@@ 493
ominais@@ 493
tuet 493
vakaus@@ 493
vastaisen 493
kannat@@ 492
ser@@ 492
tenkin 492
ite 492
vaura@@ 492
suuntaviivo@@ 492
osuu@@ 492
johdonmukais@@ 492
sitoutunut 492
jäljellä 492
vähemmis@@ 492
jakaa 491
tehokasta 491
yrityksen 491
ssämme 491
ymmärret@@ 491
vaihtoehtoja 491
ekolog@@ 491
pakot@@ 491
vastuuvapauden 491
vatko 490
kesäkuussa 490
neljä@@ 490
suojaa 490
syyt 490
olosuh@@ 490
halusin 490
kansalaisjärjestöjen 490
ennaltaehkäis@@ 489
todennut 489
vaihtoehto 489
Itä@@ 489
hyväksyminen 489
palj@@ 489
koitu@@ 489
olevista 489
Li@@ 489
hid@@ 489
illemme 488
työllisyys- 488
Ma@@ 488
oille 488
tavoitteisiin 488
tärkeintä 488
pidetyssä 488
vuoropuhel@@ 488
raska@@ 488
pil@@ 488
keskustelujen 488
valtuu@@ 487
teknisiä 487
yyteen 487
syynä 487
integro@@ 487
lisäämistä 487
lopettaa 487
jälj@@ 487
anna 487
telleet 487
utunut 487
du@@ 487
etä 487
puhd@@ 487
kantansa 487
direktiiviksi 486
itsevat 486
määri@@ 486
osoittaneet 485
luottaa 485
uusi@@ 485
hyväksymistä 485
yhtenä 485
energian 485
sanan 485
tilintarkastustuomioistuimen 485
rekisterö@@ 485
tääkseen 485
arab@@ 485
urheilu@@ 485
sisältöä 484
tämätöntä 484
päätös@@ 484
27 484
vaal@@ 484
vält@@ 484
geneettisesti 484
oikeudellinen 483
tiuk@@ 483
nosta@@ 483
onnittel@@ 483
seikkoja 483
instituuti@@ 483
ikke@@ 483
varha@@ 483
itan 482
monilla 482
nostaa 482
muuttamisesta 482
edessämme 482
häv@@ 482
ikenteen 481
viitataan 481
investointeja 481
joudumme 481
kävi 481
gu@@ 481
hallitusten@@ 481
kulttuurin 481
päässeet 481
alleen 481
omalla 481
arvioinnin 481
ratkaisevan 481
operaati@@ 481
sisältyvät 480
asetettava 480
laadittu 480
haas@@ 480
päätel@@ 480
herättää 480
talouspolitiikan 480
järjestäyty@@ 480
koulutus 480
45 480
kuoleman@@ 479
jäsenistä 479
täytäntöönpano 479
deksi 479
teissa 479
oitu@@ 479
käsitelty 479
takana 479
iit@@ 479
ääri@@ 479
tyt@@ 479
lakeja 478
määriä 478
kehitettävä 478
kiinnitettävä 478
jista 478
kriisi 478
liittyä 478
työjärjesty@@ 478
toisella 478
yhdenty@@ 478
Saksassa 477
yksipuol@@ 477
etusijalle 477
väittää 477
lainsäädännössä 477
hintojen 477
viitata 477
lainsäädäntöön 477
muun@@ 477
BSE 477
helppo 477
joukossa 476
noudat@@ 476
sope@@ 476
saimme 476
työnteki@@ 476
tuleva@@ 476
etten 476
lapsia 476
P:n 476
koski 475
osas@@ 475
ikka 475
tehtävien 475
väh@@ 475
helposti 475
puheenjohtajakauden 475
tuotteet 475
ikäänty@@ 475
Ar@@ 474
vuudesta 474
kää@@ 474
rannikko@@ 474
vapauttaminen 474
häir@@ 474
puolue 474
työsken@@ 474
lähi@@ 473
kko@@ 473
välineen 473
kansainvälis@@ 473
kyl@@ 473
immä@@ 473
amp@@ 473
uudistusten 473
pyrkivät 473
anneet 473
luotta@@ 472
lop@@ 472
kannustaa 472
minut 472
tarkastus@@ 472
miljar@@ 472
kaukana 472
meriturvall@@ 472
het@@ 472
ly@@ 472
kille 472
pää 472
maahanmuuttajien 472
töitä 472
Marokon 472
inne 471
kehotta@@ 471
löydettävä 471
hoit@@ 471
perustellusti 471
perustamisesta 471
vahvistettava 471
toistu@@ 471
päästöjen 471
yksimiel@@ 471
nämme 471
sod@@ 471
kansalaisyhteiskunnan 471
esite@@ 470
Yhdysvall@@ 470
täysimääräisesti 470
periaatte@@ 470
puhujat 470
keskuspankin 470
luonn@@ 470
In@@ 470
demokraattista 470
käyttäyty@@ 470
lem@@ 470
kysymykseni 469
pyytänyt 469
puheenjohtajaa 469
vaiku@@ 469
parempaa 469
kesku@@ 469
suuntautu@@ 469
jäävät 469
oikeudellista 469
oikeudenkäyn@@ 469
tarkka@@ 469
hallintoa 469
kantoja 469
oin 468
syven@@ 468
suuntaviivoja 468
tiedonannossa 468
osallistuu 468
toimivaltaa 468
yleishyödy@@ 468
ttujen 468
aiko@@ 468
verkkojen 468
pari 467
viestin 467
rakentaa 467
ttaisiin 467
samoja 467
muoto@@ 467
järjestelmässä 467
viittasi 467
rahoitus 467
maansa 467
pankin 467
kustannuksella 466
arvioidaan 466
sanne 466
yhdistää 466
välttämättömiä 466
versi@@ 466
vapauttamisen 466
vanhem@@ 466
kyseenalais@@ 466
täydellinen 466
ehdottanut 465
roh@@ 465
kiinte@@ 465
jos@@ 465
valtaan 465
sukupol@@ 465
intiin 465
yhtyä 465
Van 465
aid@@ 465
tosiaankin 464
monin@@ 464
toteuttaminen 464
valko@@ 464
päin@@ 464
aluepolitiikka- 463
käsittelee 463
analyso@@ 463
haan 463
kuulemis@@ 463
ympäristön@@ 463
ratkaisemaan 463
investointi@@ 463
siviili@@ 463
ikente@@ 462
keskisuu@@ 462
yhtä@@ 462
ittujen 462
artiklaa 462
iteet@@ 462
useissa 462
tekstissä 462
vill@@ 462
kalastuspolitiikan 461
alka@@ 461
luominen 461
poliittisista 461
erot 461
arviointia 461
37 461
joutua 461
häpeä@@ 461
-oikeuksien 461
tetta 461
pääsy 461
rautateiden 461
kiinnittä@@ 460
pannaan 460
teni 460
töihin 460
sosiaalitur@@ 460
hin@@ 460
tunne@@ 460
täsmen@@ 460
katastrof@@ 459
vuositta@@ 459
soveltamis@@ 459
tarpeettom@@ 459
ensisijais@@ 459
kannusta@@ 459
tilin@@ 459
rille 459
suhd@@ 459
tiivis@@ 459
aikataul@@ 459
idensa 459
arvoista 459
jälleenraken@@ 459
rinta@@ 459
isku@@ 458
siirre@@ 458
rikko@@ 458
virasto 458
aiheen 458
uhreja 458
500 458
tukevat 458
sta@@ 458
GMO:@@ 458
yksimielisiä 457
huolehtia 457
uskom@@ 457
SV 457
rahoittaa 457
unohd@@ 457
edistettävä 457
konfliktien 457
ajoissa 456
apu 456
jätetään 456
voitta@@ 456
hti@@ 456
ennen@@ 456
täysi@@ 456
eläkelä@@ 456
pelkkä 455
seko@@ 455
kolleg@@ 455
tulevaisuudesta 455
konfliktin 455
tehtä@@ 454
erinomainen 454
mantere@@ 454
viestin@@ 454
1996 454
mahdollis@@ 454
jäsenvaltioilla 454
perustana 454
mallin 454
toisten 454
vammaisten 454
organis@@ 454
nor@@ 454
kasvusopim@@ 454
ingin 453
taessa 453
kolmea 453
kanta@@ 453
jäsenvaltioista 453
tarkoituks@@ 453
tilasto@@ 453
entisen 453
asetukseksi 453
neuvos@@ 453
viljely@@ 453
nopeammin 452
jäte@@ 452
erinomais@@ 452
pyrki@@ 452
epäoikeuden@@ 452
kertomuksessa 452
nykyaikais@@ 452
ulkoma@@ 452
sulkem@@ 452
vahvasti 452
pos@@ 452
vaara 452
01 452
kyseisten 452
isla@@ 452
kaasu@@ 452
Na@@ 452
mil@@ 452
hor@@ 451
tämänkalta@@ 451
tro@@ 451
marraskuuta 451
täll@@ 451
ymmärrettävä 451
arviointi 451
attava 451
asiakirjojen 451
heistä 451
lokakuuta 451
sekin 451
euroon 451
näl@@ 451
potila@@ 451
kkeen 450
alueellisten 450
tasolle 450
helpo@@ 450
anno@@ 450
ettua 450
ire@@ 450
S 450
turvapaik@@ 450
imin@@ 450
istön 449
tähd@@ 449
pyytäisin 449
villä 449
päivittäin 449
sosiaaliset 449
unohta@@ 449
tiedon@@ 449
äl@@ 449
aloitteesta 449
muutoksen 449
totesin 449
lentoyhtiö@@ 449
kkojen 448
johtavat 448
sani 448
netaan 448
sito@@ 448
puhta@@ 448
lähettää 448
tunnustaa 448
otettiin 448
turvallisuusneuvoston 448
tärkeämpää 447
inte@@ 447
itsevan 447
säännös@@ 447
Irlannissa 447
raj@@ 447
aito@@ 447
tavanom@@ 447
sinänsä 446
kunnes 446
suuntaviivojen 446
paikallisten 446
taito@@ 446
yyd@@ 446
lähesty@@ 446
yrit@@ 446
hil@@ 446
oteta 445
yhteisymmärrykseen 445
joudu@@ 445
inneet 445
pätev@@ 445
täv@@ 445
alueeseen 445
yritys 445
kkiä 445
poikkeuks@@ 445
ongelmall@@ 445
seik@@ 444
tärkeästä 444
samo@@ 444
Amer@@ 444
menee 444
asin 444
itsi 444
ulkomaankauppa- 444
täkin 444
selkeän 443
säännösten 443
pen@@ 443
aiden 443
etä@@ 443
välityksellä 443
täytäntöönpano@@ 443
kuluttajan@@ 443
laitosten 443
kalasta@@ 443
Lissabonissa 443
julis@@ 442
käsittelevä 442
Ison 442
ajatellen 442
useimmat 442
pohdittava 442
avusta@@ 442
attomia 442
PSE 441
sasi@@ 441
olu@@ 441
erotta@@ 441
hin 441
laajan 441
antaneet 441
joukko@@ 441
pakolaisten 441
itun 440
yhteiskeskustelu 440
keskustelut 440
heikentää 440
vim@@ 440
kärsivät 440
länsi@@ 440
sanoo 440
kka 440
pakol@@ 440
La@@ 440
tutkimukseen 440
osallistumaan 440
ratkaisuun 440
jun@@ 439
saattaisi 439
laadittava 439
edellyttä@@ 439
pitäen 439
ation 439
halunnut 439
julkista 439
tilapä@@ 439
määrätä 439
tulevaisuus 439
2010 439
työntekijöille 438
aikoja 438
rakennus@@ 438
pon@@ 438
energia 438
vahvistu@@ 438
menettelyyn 438
kuuden 438
sij@@ 438
terveyteen 438
syrjinnän 438
tarjoa@@ 438
direktiivistä 438
tilo@@ 437
ilmas@@ 437
muu 437
perustaminen 437
luultavasti 437
essäni 437
riskejä 436
ansaitsee 436
sit 436
ällä 436
vähitellen 436
tömä@@ 436
hän@@ 436
yleisön 436
edistysaskel@@ 436
tutkin@@ 435
indikaat@@ 435
kanssaan 435
vaiheen 435
tehokkaita 435
tehokkuuden 435
elämä@@ 435
tunnustetaan 435
jossakin 435
selvittä@@ 435
saata@@ 435
kurs@@ 435
keskuudessa 435
YK@@ 435
perustel@@ 434
vahv@@ 434
tiellä 434
sosialis@@ 434
tekijöitä 434
asianmukais@@ 434
tehokkaan 434
eroon 434
anteeksi 434
jalla 434
jensa 434
hinta 434
todettu 434
sopimuksissa 434
viisu@@ 434
neljän 433
olevassa 433
malli 433
harkita 433
luo 433
ELDR 433
28 433
sakin 433
ETY 433
traag@@ 433
valmistelukunnassa 433
voiko 432
ini 432
kkaan 432
pana 432
kehittäminen 432
kehy@@ 432
syvä@@ 432
perusteltua 432
valiokuntaa 432
määräykset 432
julkilausum@@ 432
olekaan 431
lujitta@@ 431
ohjelmat 431
tarpeet 431
pp@@ 431
koko@@ 431
televisi@@ 431
kkaasti 431
mallia 431
työssä 430
teknolog@@ 430
millaisia 430
pane@@ 430
muutettava 430
varmoja 430
kahd@@ 430
romu@@ 430
valtuudet 430
ajatuksia 430
enemmistöllä 430
tietosuo@@ 430
oikeuksista 430
uha@@ 430
Her@@ 430
erää@@ 429
tarkistaa 429
yhtenäinen 429
tehokkaammin 429
huomatta@@ 429
esittelijöitä 429
Is@@ 429
rah@@ 429
Kiin@@ 429
humanitaarisen 429
esteitä 429
lisäämään 429
sosialisti@@ 428
ryhmiä 428
ilmoittanut 428
haaste 428
energi@@ 428
ätte 428
huono 428
eurooppalaisesta 428
z 428
johdanto 428
itteko 427
asteen 427
säännöllisesti 427
assamme 427
vuoro@@ 427
vaadittava 427
työvoim@@ 427
N:o 427
yhteensä 427
selkeitä 427
kehys 427
juurikaan 427
istö@@ 427
liittyvissä 427
hyväkseen 427
ban@@ 427
tiiviim@@ 427
ästi 427
26 427
tiiv@@ 427
kehittä@@ 427
helppoa 427
alin 427
tetusta 426
ji@@ 426
ennettävä 426
kuntien 426
välisessä 426
roolia 426
pidä@@ 426
huume@@ 426
menojen 426
hänet 425
tieli@@ 425
rikka@@ 425
oin@@ 425
strategio@@ 425
tuottaa 425
mainitsen 425
tulevina 425
säännöistä 425
viranomais@@ 425
jäädä 425
leh@@ 425
toimivallan 425
säännökset 425
75 425
lääkä@@ 425
iku@@ 425
vähemmistö@@ 425
aiheutuu 424
maaseutu@@ 424
ov@@ 424
työntekijö@@ 424
järjestöjä 424
löytämään 424
tietä 423
näyttä@@ 423
huomattavia 423
kyv@@ 423
sallikaa 423
avoimuus 423
kkä@@ 423
llemme 423
Aasian 423
puitteet 423
nyttä 423
kehyksen 422
joud@@ 422
monikansall@@ 422
tansa 422
kahdeksan 422
oleviin 422
sotila@@ 422
pohj@@ 422
tarkoitettu 422
uduttava 422
sijoitus@@ 422
telemaan 422
rauha 422
vapaata 422
kirjan@@ 422
O 421
sanotta@@ 421
lopultakin 421
ittivat 421
ah@@ 421
ehdokasvaltiot 421
julkinen 421
tulevaisuuteen 421
kansanpuolueen 421
mietinnössään 420
kaudella 420
asen@@ 420
sosiaalis@@ 420
ensimmäisenä 420
vamme 420
vuosis@@ 420
Ro@@ 420
juh@@ 420
käsittelen 420
selittää 419
käytän@@ 419
ensisijainen 419
ehdotamme 419
esimerkkejä 419
johtaja 419
ittäminen 419
keskustelusta 419
ongelmasta 419
ron 419
ministerit 419
kell@@ 419
jonkin@@ 419
isuudet 419
isuuksia 419
terveydenhuol@@ 419
laitonta 419
poistamista 418
tuhansia 418
varmuutta 418
jatkuu 418
pitemmälle 418
kaksinkerta@@ 418
muista@@ 417
molempien 417
innovatiiv@@ 417
helpottaa 417
luomista 417
kovinkaan 417
toimielimiä 417
marraskuussa 417
direktiivien 417
palvelun 417
liikkuvuuden 417
sanoneet 416
kuull@@ 416
unut 416
noudattamista 416
huonosti 416
toimivan 416
luottamuksen 416
miehiä 416
puolueettom@@ 416
siirto@@ 416
vastaan@@ 416
r 415
esitet@@ 415
kannat 415
sisällytetään 415
heinäkuuta 415
elämän@@ 415
kansainväliset 415
runsaasti 415
mukautta@@ 415
palk@@ 415
ri 415
tejä 415
aikaista 415
ilmaston@@ 415
ilmenee 415
tiiviisti 415
lausu@@ 415
Afrik@@ 415
korjata 414
so 414
olot 414
avain@@ 414
tilä@@ 414
kesä@@ 414
liikkuvuutta 414
tukemme 414
tuon@@ 414
ehdotan 413
lykkää@@ 413
säädetään 413
aikaisem@@ 413
henkilökohtaisesti 413
telu 413
silmällä 413
olipa 413
maataloud@@ 413
Iranin 413
muistutta@@ 412
yhteys 412
toisiaan 412
tiedetään 412
erikseen 412
reakti@@ 412
keen 412
pankki 412
200 412
sään 412
eista 412
tietoon 412
vih@@ 412
Italia 412
ittain 412
rasis@@ 412
työskennellä 412
todenneet 411
laajaa 411
johtajat 411
tömiä 411
hyväkseni 411
Mon@@ 411
muistutan 411
kanssanne 411
kaltais@@ 411
syyttäjä@@ 411
koostu@@ 411
vastattava 411
Ruotsi 411
saavuttamaan 411
ehdotti 410
toiminnassa 410
pienet 410
kolm@@ 410
kall@@ 410
una 410
amattom@@ 410
naudanli@@ 410
isien 410
lopullinen 410
henkilö 410
Keski 410
politiikkoja 410
fooru@@ 410
Zimbabwen 410
karko@@ 409
vääristy@@ 409
yksiin 409
yksistä 409
meren@@ 409
analyys@@ 409
Internet 409
kiell@@ 409
esittämät 409
Korean 409
otteeseen 409
kriis@@ 409
tehdyt 408
uusista 408
tetuista 408
intres@@ 408
markkin@@ 408
suojan 408
oikeudellisia 408
tie 408
itukset 408
atta@@ 408
järjestely@@ 408
kuukausina 408
el 408
Suom@@ 408
laatu 408
kehitysmaissa 408
Latinalaisen 408
eeni 407
riittävä 407
puute 407
maksetta@@ 407
vilpittömästi 407
poikkeus@@ 407
tämästä 407
empää 407
lukem@@ 407
yhteiskunta@@ 407
rav@@ 407
asetuksessa 407
ima@@ 407
maahanmuuttoa 407
kantojen 407
Venäjä 407
vuod@@ 406
aan@@ 406
ityksen 406
moni@@ 406
ajatella 406
myöntämistä 406
ensisija@@ 406
sosiaalidemokra@@ 406
teki@@ 406
yhmän 406
itali@@ 406
esiin@@ 406
melkein 406
Inter@@ 406
otsakke@@ 406
käytän 405
eg@@ 405
yteen 405
ata@@ 405
suinkaan 405
hill@@ 405
sosiaalisten 405
hyöty@@ 405
iel@@ 405
edellyttävät 405
valtu@@ 405
laajenta@@ 405
toisesta 405
0,@@ 405
Makedonian 405
assaan 404
olemassaol@@ 404
valiokun@@ 404
elämää 404
hank@@ 404
sosiaaliturva@@ 404
täytäntöönpanosta 404
käsite 404
merkittävän 404
itsekin 404
kone@@ 404
joukko 404
asiakirjassa 404
aineet 404
näkemyksiä 404
tunnustettava 404
Makedon@@ 404
hinno@@ 404
palkki@@ 404
luopu@@ 403
monimuotoisuuden 403
kiinnosta@@ 403
täydell@@ 403
henkilöstön 403
pidemmälle 403
vaikutus@@ 403
Afrikassa 403
näkemys 403
perustan 402
vuuteen 402
paper@@ 402
puheenvuoro 402
kerto@@ 402
lisääminen 402
änne 402
kuulleet 402
esitettiin 402
selven@@ 402
päi@@ 402
ajoneuvo@@ 402
lai@@ 401
avaa 401
haaste@@ 401
valitsem@@ 401
puheenvuoros@@ 401
aiheena 401
edistäminen 401
nähneet 401
yri@@ 401
uhka@@ 401
osoitettava 401
mättä 401
run@@ 401
turvapaikanhaki@@ 401
koskemaan 401
noista 401
yhtiöiden 401
johdonmukaisesti 400
poistetaan 400
seja 400
todennäkö@@ 400
useim@@ 400
Sa@@ 400
erä@@ 400
parantaminen 400
parlamentaarisen 400
hoito@@ 400
pelas@@ 400
seurauksista 400
tehtyjen 400
kunno@@ 400
.00 400
julkilausu@@ 400
län@@ 400
artiklaan 400
järjestetään 400
Espanja 400
toistuvasti 399
ajatuks@@ 399
mietinnö@@ 399
kuvitella 399
tekstiin 399
sana 399
tarkoituksiin 399
globalis@@ 399
iston 399
järk@@ 399
joh@@ 399
taattava 399
tilanteissa 399
kalli@@ 399
Yhdistyne@@ 399
näy@@ 399
ssään 398
itykset 398
eteen 398
yksityiskohtaisesti 398
vääris@@ 398
selviyty@@ 398
ivan 398
sitoumuksia 398
israeli@@ 398
talousarviomen@@ 398
lau@@ 397
tuloksista 397
tikin 397
menetelmiä 397
seitsemän 397
kansallinen 397
tavoittel@@ 397
eton 397
EK@@ 397
odottavat 397
maksamaan 397
täy@@ 397
ilmiö@@ 397
yllä@@ 397
yritetään 397
huomiotta 397
ilmapiir@@ 397
yhteiskunnassa 397
rauhanom@@ 396
tavoitteeseen 396
äm@@ 396
impien 396
tasoa 396
kuvan 396
pöytäkirja 396
asiakirjoja 396
avoimen 396
valvonnasta 396
vankil@@ 396
sisälly@@ 396
lähtökohtana 396
tisesti 396
Espanjassa 396
vähemmistöjen 396
monivuot@@ 395
tarkoitta@@ 395
Nor@@ 395
emiseen 395
tavaroiden 395
myöhä@@ 395
tekijät 395
antaisi 395
dien 395
uuksia 395
tekniik@@ 395
puhel@@ 395
mahdolliset 395
heng@@ 395
tavoitteemme 395
go@@ 395
rann@@ 394
puolen 394
ilo 394
Internetin 394
soveltaminen 394
oikeudesta 394
tuota 394
kyseiset 394
johtajien 394
kokousta 394
otan 393
asiana 393
edustavat 393
käsittääkseni 393
sie@@ 393
pitkälti 393
opp@@ 393
saatetaan 393
tessaan 393
miell@@ 393
arvot 393
jätteen 393
lähetys@@ 393
vallan@@ 392
tämässä 392
ehkäpä 392
kielto 392
hinta@@ 392
maailma 392
doll@@ 392
muuttamista 392
samassa 392
sinne 392
tunne 392
valtioille 392
vanh@@ 392
32 392
osoitti 392
eräät 392
huippukokou@@ 392
demokraattis@@ 392
tarjoavat 392
kok@@ 392
toivoisin 391
kaksi@@ 391
puhemi@@ 391
ehdotu@@ 391
vuosikymmen@@ 391
jäsenvalti@@ 391
suhtautua 391
mus 391
minkäänlaisia 391
hänellä 391
onno@@ 391
tut@@ 391
menettelyt 391
Kuuban 391
muuttamaan 390
uun@@ 390
neuvoa 390
1990 390
erilaisten 390
aiheita 390
llisiin 390
transatlant@@ 390
pohjo@@ 389
pantava 389
peruutta@@ 389
päätöslauselmaesityks@@ 389
29 389
paket@@ 389
Naton 389
rat@@ 389
jalkapall@@ 389
tuli@@ 388
kunnolla 388
keskuksen 388
kkuu@@ 388
mietintö@@ 388
perustuvaa 388
päällä 388
pet@@ 388
alla@@ 388
haavoittu@@ 388
direktiivillä 387
tarkastelemme 387
sovi@@ 387
muut@@ 387
perusteita 387
mieluummin 387
tomme 387
joukot 387
soker@@ 387
Göteborgin 387
ajoneuvojen 386
syntynyt 386
kai@@ 386
alueisiin 386
pystyvät 386
yksikö@@ 386
esitettävä 386
estanne 386
:stä 386
kuullut 386
rajan 386
tely@@ 386
kansalaisi@@ 386
paketin 386
kokoukseen 386
ainutlaatu@@ 386
islamila@@ 386
pöytäkirj@@ 385
sellaisena 385
kantaan 385
neista 385
puoli@@ 385
näkökohta 385
hanketta 385
alat 385
Kre@@ 385
nopean 385
onta@@ 385
maaliskuussa 385
malta 385
CNS 385
autojen 385
parannettava 385
kansallisella 385
enian 385
keutu@@ 385
toimik@@ 384
riittämättö@@ 384
suosituksia 384
keskeisiä 384
tutkimuksia 384
selkeää 384
muoto 384
rit 384
käynnistää 384
tisia 384
terroristi@@ 384
tieliikenteen 384
ksillä 383
uudistamista 383
ratkaistava 383
öljyn 383
resursseja 383
musta 383
kenut 383
kritiik@@ 383
palestiinalaisten 383
pitämään 383
yhtenäisen 383
hengessä 382
pääoman 382
nähd@@ 382
kyky 382
strategi@@ 382
valtiossa 382
sh@@ 382
nykyisiä 382
paikka 382
muotoja 382
budjettivaliokunnan 382
huhtikuuta 382
kansainväl@@ 382
käsityks@@ 381
ajanjaks@@ 381
taid@@ 381
pyö@@ 381
ellemme 381
emisen 381
tusti 381
kriteerit 381
tiedonan@@ 381
itsemme 381
laajenn@@ 381
konferens@@ 381
äänestämään 381
vaihe 381
teko 381
käyty 381
rehell@@ 381
kumppane@@ 381
merkki 381
vastakka@@ 381
työnsä 380
luvut 380
avointa 380
syrjäyty@@ 380
miemme 380
do 380
taho@@ 380
muistaa 380
Kau@@ 380
ahd@@ 380
tuloksiin 380
kuussa 379
io 379
kirjaa 379
aiheista 379
suositus 379
saatiin 379
ainakaan 379
amis@@ 379
toteutettu 379
tuottajien 379
aiotaan 379
elinikä@@ 379
Valko 379
kokoon@@ 378
esittämä 378
erityisiä 378
tasapainoa 378
neesta 378
kohdistuu 378
uudistukset 378
kata 378
vaihd@@ 378
tuotantoa 378
luottamus 378
lah@@ 378
ittävät 378
tarjou@@ 378
kattava 378
uhka 378
tuloksen 378
jätteiden 378
05@@ 378
ff@@ 378
tupako@@ 377
laat@@ 377
puheenjohta@@ 377
päätö@@ 377
liiken@@ 377
198@@ 377
päästään 377
myyn@@ 377
väestöstä 377
useaan 377
matonta 377
talousarviossa 377
identiteet@@ 377
toimenpiteistä 377
valtavasti 376
ohje@@ 376
avia 376
ilmoitti 376
tuodaan 376
arv@@ 376
oleskel@@ 376
rahat 376
diktatu@@ 376
kompromissin 376
Italiassa 375
sääntelyn 375
suru@@ 375
tyyd@@ 375
lähd@@ 375
hel@@ 375
käytettävis@@ 375
keskusteltu 375
esimerkkiä 375
tekijänoike@@ 375
kunnat 375
säännöstön 375
tiedotusvälineiden 375
valtuuskunta 375
naapur@@ 375
Ne@@ 375
edellytyksiä 374
valiokunnalle 374
Euroop@@ 374
varmista@@ 374
väistämättä 374
henkeä 374
yritämme 374
viranomaisia 374
vahva 374
poistaminen 374
yksikään 374
rankais@@ 374
ako 374
issakin 374
totu@@ 374
New 374
opetta@@ 374
ehdokasvaltio@@ 374
keskusteltava 373
tieto 373
ttia 373
joihinkin 373
suunnittelu@@ 373
ennetty 373
puhemiehen 373
hinnat 373
pitäisikö 373
kielletään 373
D 373
Mos@@ 373
ministerien 373
ksenä 373
teuras@@ 373
loista@@ 372
rien 372
tapahtuvan 372
immin 372
nkin 372
prosent@@ 372
sisällöstä 372
kohtiin 372
pelkään 372
sukupuolten 372
tarpeisiin 372
Israel@@ 372
osaa@@ 372
hyväksyneet 371
vienti@@ 371
Erika 371
vaatimuksiin 371
kestäv@@ 371
haittaa 371
tulosten 371
huomautuks@@ 371
olosuhteissa 371
itykseen 371
maanviljelijöiden 371
sonin 371
kuuluvien 371
etua 371
laki@@ 370
Prodin 370
tyypp@@ 370
tekemästään 370
rohkeutta 370
täten 370
tyydyt@@ 370
äännö@@ 370
tteja 370
suojelemiseksi 370
muutkin 370
assa@@ 370
rahoitusnäky@@ 370
seuraavien 369
nnyt 369
mielipide 369
lope@@ 369
lehdistö@@ 369
väärinkäytö@@ 369
onta 369
vastaisia 369
jakel@@ 369
näkökohtien 369
13@@ 369
turvallisuuspolitiikan 369
pääsyä 369
syrjintää 369
aisuuden 368
telemme 368
myönnetty 368
tulevaa 368
kilpailukyvyn 368
väis@@ 368
minkä@@ 368
terveyd@@ 368
kurin@@ 368
tasaverta@@ 368
rajoituksia 368
esimerkin 368
vaaleissa 368
sair@@ 368
toivoo 367
valossa 367
valiokuntamme 367
tila 367
laajentumiseen 367
teltu 367
korvata 367
viranom@@ 367
vuor@@ 367
asetusehdo@@ 367
Europolin 367
kaikilta 367
vien@@ 367
neuvotteluihin 367
sanat 367
itämme 367
annettiin 366
syyskuussa 366
lainsäätä@@ 366
ottamalla 366
olenkin 366
torjuntaan 366
yksiä 366
maksujen 366
ottavat 366
Geneven 366
kohteena 365
valtavia 365
moni 365
ymmärr@@ 365
vahinkoa 365
ponnisteluja 365
pääosas@@ 365
toivom@@ 365
von 365
kolmeen 365
edustajan 365
investo@@ 365
kerää@@ 365
kemikaal@@ 365
ari@@ 365
inflaati@@ 365
tyyty@@ 364
voimaan@@ 364
alueista 364
uusiutu@@ 364
outu@@ 364
luettelo 364
valitetta@@ 364
jalos@@ 364
tulkin@@ 364
alijää@@ 364
tömän 363
valmisteli@@ 363
järkevä 363
julkiset 363
onnettomuuksien 363
näkemystä 363
poikkeuksia 363
toteuttamiseksi 363
järjesty@@ 363
42 363
kärsimään 363
tiedonanto 363
työmarkkina@@ 363
kappal@@ 363
virallisesti 363
joukkotuho@@ 363
torjunnassa 363
päätettiin 362
Belgi@@ 362
kotoisin 362
infrastruktuuri@@ 362
toteaisin 362
jäsenvaltioihin 362
nu@@ 362
poli@@ 362
varautumisen 362
huolestunut 362
31 362
toimintasuunnitelman 362
Irakissa 362
pidätysmäärä@@ 362
ellään 361
parantamista 361
insä 361
tasapainoinen 361
ryhtymään 361
lopullisesti 361
taantu@@ 361
yhteiskuntaa 361
varti@@ 361
käyttöönottoa 361
ilmi@@ 361
tiivi@@ 361
toimenpide 361
määritelty 361
lääkkeitä 361
parlamentti@@ 361
pitämä@@ 360
ittämään 360
köyhien 360
nimen@@ 360
kunnia 360
ettel@@ 360
kaltaisia 360
ratkaisev@@ 360
tavaa 360
4. 360
ET@@ 360
vientitu@@ 360
välin 359
55 359
olennaista 359
vässä 359
niinkään 359
pidettiin 359
pur@@ 359
irlantila@@ 359
oikeudellisesti 359
yhdellä 359
ministerineuvos@@ 359
kauhistu@@ 359
kaista 359
vastauksia 359
vallasta 359
Ha@@ 359
sorkkatau@@ 359
kaikkensa 358
onnettomuuden 358
espanj@@ 358
näemme 358
tuun 358
virhe 358
torjunta@@ 358
kaupankäyn@@ 358
ihmisoikeudet 358
harha@@ 358
UN@@ 358
leim@@ 358
huippukokousta 358
objektiiv@@ 358
enti@@ 357
pohjimmiltaan 357
huolehti@@ 357
sisältö 357
ilem@@ 357
puoleen 357
myynn@@ 357
telen 357
elintarvikke@@ 357
yksikkö@@ 357
48 357
kanso@@ 357
assosiaatiosopim@@ 357
päättäneet 357
torstaina 356
vaarana 356
asianmuka@@ 356
suju@@ 356
evan 356
iminen 356
enna@@ 356
kirja 356
vaarantaa 356
eiksi 356
mmin 356
lisäämiseksi 356
korvaus@@ 356
talousarvi@@ 356
pro@@ 356
kuva 356
tapahtumia 356
kielten 356
eurooppalaisille 355
aloite@@ 355
parlamen@@ 355
muutamat 355
moitte@@ 355
tulevia 355
sista 355
Yhdysvaltoihin 355
oppositi@@ 355
eto@@ 354
tähden 354
tukensa 354
seet 354
demokraattisesti 354
keskustelemaan 354
EKP:n 354
issa@@ 354
hankk@@ 354
toteaa 354
oikeusperusta 354
soveltamisalaan 354
kirje@@ 353
parannuksia 353
vihdoin 353
Alankomaissa 353
emme@@ 353
jatkamme 353
meihin 353
rans@@ 353
työmarkkinaosapuolten 353
1,@@ 353
tarkoin 353
yhteisvastuull@@ 353
nimessä 353
muodostu@@ 353
Strasbourgissa 353
yhdestä 353
alkuper@@ 353
ajaa 353
todettiin 353
On 353
valtiosta 353
O:n 353
and@@ 352
tän@@ 352
tettuna 352
teknologian 352
houkut@@ 352
selvästikin 352
kehotamme 352
toimiva 352
täyt@@ 352
johtuvat 352
puhujan 352
33 352
takaamiseksi 352
geen@@ 352
WTO 352
haluatte 351
ajassa 351
olennais@@ 351
keskeistä 351
tarkasta@@ 351
yhdentymisen 351
vastustan 351
ehdotuksiin 351
rke@@ 351
Alankomaiden 351
tehtävämme 351
aiheeseen 351
Gu@@ 351
lapset 351
jatketaan 351
osu@@ 350
täydentää 350
näkyy 350
haitta@@ 350
kkää@@ 350
riittää 350
kuvaa 350
kotimaassani 350
Tampereen 350
sanoja 350
päästävä 350
katsoa 350
imi@@ 350
idässä 350
ikävä 350
päivinä 349
komissioon 349
esityslis@@ 349
viimeisen 349
uksensa 349
parempia 349
päästy 349
luj@@ 349
tuonn@@ 349
julkisesti 349
arin 349
avun@@ 349
reh@@ 349
yhteiskuntaan 349
normaal@@ 349
esityksen 348
mukanaan 348
iin@@ 348
erinomaista 348
1995 348
onnan 348
kansainvälisellä 348
pyysi 348
dia 348
kulunut 348
osoittautu@@ 348
joutunut 347
sar@@ 347
ac@@ 347
ohj@@ 347
seikat 347
kansala@@ 347
epärö@@ 347
Le@@ 347
suosituks@@ 347
jatko@@ 347
be@@ 347
heinäkuussa 346
ääni@@ 346
tietyn 346
isuudelle 346
teknisen 346
muotoil@@ 346
kunnioitettava 346
estään 346
atonta 346
historiallinen 346
meneillään 346
viimeisim@@ 346
toimivien 346
myötätun@@ 346
uri@@ 346
kirjall@@ 346
neuvostoon 346
11@@ 346
avo@@ 346
helmikuuta 346
päämiehet 346
perusoikeuksien 346
itoista 346
tarkistukseen 346
ij@@ 346
ilta@@ 346
digita@@ 346
muutosten 345
hengen 345
ulottuvuus 345
uor@@ 345
á@@ 345
lannin 345
uskoa 345
merkityksen 345
paremman 345
vettä 345
asiakirjat 345
poliittisiin 345
varjo@@ 345
avaruus@@ 345
puhuu 344
käsin 344
nuoret 344
voisin 344
taloudelliseen 344
vaatimusta 344
aikooko 344
kestää 344
luvulla 344
ajatuksen 344
monen 344
eurooppalaiseen 344
liikkeelle 344
riski 344
kuukausien 344
:ssa 344
vetoan 344
kohteeksi 344
tarkastelemaan 343
monimutkais@@ 343
esitettyjä 343
panos@@ 343
aikojen 343
asteitta@@ 343
ettely@@ 343
lia@@ 343
amatta 343
oikeutta@@ 343
Ol@@ 343
sain 343
uksella 343
toimintaohjelman 343
kunnioittaa 343
kuningas@@ 343
tarpeesta 343
liittymisen 343
isti@@ 343
lentoliikenteen 343
minuutin 342
vastaavien 342
työryhmän 342
kap@@ 342
asetettu 342
toimielimen 342
suurempaa 342
infrastruktu@@ 342
kykyä 342
sääntö@@ 342
liev@@ 342
02 342
OLAFin 342
toimivalta 342
päästöjä 342
poliittisessa 342
ankin 342
olevani 342
istunnossa 342
maail@@ 342
viet@@ 341
eihin 341
tarkistuksiin 341
ile@@ 341
otettaisiin 341
todisteita 341
puitte@@ 341
kannusti@@ 341
tyihin 341
sisäisen 341
saavuttaneet 341
moniin 341
kansainvälisissä 341
vaaleja 341
maailmanlaajuisen 341
huollon 341
kuolemanrangais@@ 341
iloisia 340
vani 340
äksemme 340
kansainvälisesti 340
toteuttamiseen 340
olojen 340
rautati@@ 340
hallituks@@ 340
viita@@ 340
parannetaan 340
kid@@ 340
sisällytetty 340
demokraattisten 340
Bur@@ 340
ottamista 339
stan@@ 339
atte 339
kysyn 339
paljas@@ 339
sellaisiin 339
kansainvälisessä 339
ises@@ 339
liittol@@ 339
38 339
suljet@@ 339
hoidon 339
Afganistanissa 339
itetty 338
liiall@@ 338
tekisi 338
isyy@@ 338
taloudellisista 338
ttömy@@ 338
tekijö@@ 338
R 338
vaatinut 338
suurelta 338
pääsihte@@ 338
lentokon@@ 338
lääkke@@ 338
vaalik@@ 337
imen@@ 337
asianom@@ 337
tapausta 337
tavan@@ 337
varas@@ 337
saavutetaan 337
alasta 337
osapuolia 337
sitoutuneet 337
saadakseen 337
kasvi@@ 337
eks@@ 337
vakaus 337
kaap@@ 336
hyödyllistä 336
immi@@ 336
kumppanuuden 336
joustavuutta 336
BKT@@ 336
tarpeita 336
taan@@ 336
isyydestä 336
järjestelmällisesti 336
käyttöönotto 336
kkien 336
poistu@@ 336
torjunnan 336
olevaan 336
ituista 336
lippu@@ 336
määrästä 336
pohjois@@ 336
ympäristölle 336
lieven@@ 336
pysyy 336
tarkistusehdo@@ 335
yksityisen 335
investointien 335
nellä 335
tukeni 335
vie 335
x@@ 335
valvontaan 335
taud@@ 335
teimme 335
puheenvuoroa 334
maani 334
tiedonannosta 334
halunneet 334
suunnitelmia 334
menoja 334
jatkamaan 334
seuraavassa 334
pyrkinyt 334
zin 334
kutsua 334
menestys 334
käytäntö 334
rauh@@ 334
kiistan@@ 334
rasismin 334
lää@@ 334
tulon 333
hankkeet 333
liity 333
esitellä 333
syn@@ 333
kasv@@ 333
verotuksen 333
jakautu@@ 333
kauni@@ 333
.30 333
suuru@@ 333
hallitu@@ 333
muutoin 333
menetelmä 333
vuus@@ 332
äskettä@@ 332
tr@@ 332
yhteenkuuluvuuden 332
maailmanlaajuistu@@ 332
ajattelu@@ 332
pääsemme 332
korosti 332
ellisia 332
Rans@@ 332
muutos@@ 332
viestinnän 332
olisiko 332
jojen 332
pääasiall@@ 332
jästä 332
kantamme 332
priorite@@ 332
nuoria 332
estämään 332
demokraattien 332
ottom@@ 332
täysi 332
rauhall@@ 332
neuvostolta 332
kiin@@ 332
laajentumisesta 332
tekniiko@@ 332
hyväksyn@@ 331
suosittel@@ 331
olenn@@ 331
95 331
kahdessa 331
bruttokansan@@ 331
isempia 331
tässäkin 331
suhde 331
tähänas@@ 331
:ta 331
hajo@@ 331
turvata 331
yhtiön 331
kiellon 331
tiuken@@ 331
varus@@ 331
pakottaa 331
toimenpid@@ 331
yll@@ 331
ohjelmiin 331
käsitys 331
tarpeellista 331
asemasta 331
itettävä 331
hankin@@ 331
22@@ 331
itetään 330
tuore@@ 330
kommentoida 330
luomiseksi 330
kehittyne@@ 330
toimiv@@ 330
merkkejä 330
toimin 330
huolissani 330
kansainväliseen 330
lyhyellä 330
venälä@@ 330
ruoka@@ 330
vakautta@@ 330
täydellistä 330
rahoitusnäkymien 330
34 329
llisesta 329
uutta@@ 329
perusteet 329
alueellisen 329
västi 329
aste 329
yrittävät 329
välittää 329
periaatteeseen 329
kohdistuvat 329
vaikuta 329
viranomainen 329
asianmukaisia 329
koordinointia 329
saastutta@@ 329
sanaa 329
hallitukselle 329
6. 329
varattu 329
eti@@ 329
väkivaltaa 329
huomautuksen 329
kot 329
ava 328
ataan 328
liikente@@ 328
palveluiden 328
nuoriso@@ 328
ministere@@ 328
liike 328
valtavan 328
rahanpes@@ 328
häl@@ 328
ei@@ 328
kyll@@ 328
ääni 328
kent@@ 328
pohjoisen 327
eräitä 327
änsä 327
utumis@@ 327
tarttu@@ 327
yksinkertainen 327
itut 327
historian 327
kansaa 327
kommun@@ 327
Fischler 327
patentti@@ 327
ylijää@@ 327
merkitsisi 326
toissijaisuusperiaatteen 326
yttäminen 326
sivät 326
naisille 326
arvioitava 326
vastaavasti 326
EU:hun 326
tekopyh@@ 326
pia 326
kti@@ 326
36 326
erimiel@@ 326
markkinoihin 326
uudenla@@ 326
ryhmitty@@ 326
järjestäytyneen 326
suhteista 326
epidem@@ 326
presidentin 326
kauppaan 326
iko 325
lisääntyy 325
44 325
huu@@ 325
kanssamme 325
haasteisiin 325
hyvinkin 325
sovelta@@ 325
erottaa 325
tilintarkastustuomioistuin 325
ksiamme 325
loppua 325
tosiseik@@ 325
Kansa@@ 325
vahvistamaan 325
piil@@ 325
lentoli@@ 325
llään 324
onnut 324
kiinnitetään 324
paine@@ 324
tana 324
oppia 324
intaan 324
25@@ 324
ennyt 324
voimavaroja 324
taloud@@ 324
tekninen 324
sanovat 324
optimis@@ 324
käytäntöjä 324
af@@ 324
ihmet@@ 324
konkreettisesti 324
teluun 324
vastuuseen 324
lakia 324
henkilön 324
pys@@ 324
monimutkainen 324
mahdollisen 324
derin 324
itsemääräämis@@ 324
tala@@ 324
tautien 324
eurooppal@@ 323
pahoittel@@ 323
kato@@ 323
toimilla 323
itiin 323
monopol@@ 323
haa@@ 323
toivat 323
puheenjohtajakaudella 323
jäljitettäv@@ 323
entää 323
mistään 323
perustuslakia 323
laajalti 323
fundamentalis@@ 323
laan 322
aiheu@@ 322
väes@@ 322
avu@@ 322
toimeenpan@@ 322
määriteltävä 322
kolmesta 322
Atlantin 322
kiitokseni 322
GUE 322
aiheuttanut 322
41 322
tehtäviin 322
harkittava 322
tahdon 322
yksimielisyys 322
istuntosalissa 322
ter 321
tarpeiden 321
millainen 321
tapauksen 321
ryhtynyt 321
laki 321
välin@@ 321
auto@@ 321
sosiaaliseen 321
suurimman 321
ilmailu@@ 320
ec@@ 320
neljänneksi 320
kit@@ 320
sydäm@@ 320
ttamista 320
toivottavaa 320
oikeusasiamiehen 320
veto 320
Espan@@ 320
perustuslaki 320
vihreiden 320
polttoain@@ 320
koordinointi@@ 320
kantasolu@@ 320
järjestelyjä 319
menestykse@@ 319
asialle 319
:sta 319
edistävät 319
attoman 319
vatkin 319
eriko@@ 319
tahot 319
osia 319
takaa@@ 319
ehdotus@@ 319
suoja 319
puolis@@ 319
tettuun 319
onia 319
erilainen 319
syrjin@@ 319
oikeusperustaa 319
koskemattom@@ 319
tapahtumista 319
kalatalous@@ 319
terrori 319
voimien 319
esittämiä 319
keskityttävä 319
vu@@ 318
ehdotuksella 318
selvä@@ 318
lokakuussa 318
tehtävänsä 318
kana 318
maailmanlaajuisesti 318
parantamiseen 318
tem@@ 318
ituksiin 318
miljardin 318
vampi 318
vahvistamista 318
ruok@@ 318
Yhdysvaltoja 318
Nizzassa 318
kloona@@ 318
lopullisen 317
yhdenmukaistamista 317
viljelijö@@ 317
jaks@@ 317
kriteerien 317
sopimuksista 317
esteet 317
adan 317
ketään 317
toimittaa 317
enneet 317
pääse 317
tuotantom@@ 317
gaan@@ 317
tärkeimmät 316
tammikuussa 316
olisikin 316
isa 316
menestystä 316
selviä 316
jätetty 316
arvi@@ 316
myönteisen 316
sijaitse@@ 316
huomattavaa 316
askeleen 316
ettaisiin 316
tap@@ 316
laivo@@ 316
rauho@@ 316
hir@@ 316
tuksella 316
kokoonpan@@ 316
ivo@@ 316
otsi@@ 316
emalla 316
jasta 316
hiukan 316
viesti@@ 316
osaan 316
kappale@@ 316
lakkautta@@ 316
nopeutta@@ 316
muunnet@@ 316
ehdokasvaltioissa 316
vaarallisten 315
katastrofin 315
tehostaa 315
sisällön 315
huonom@@ 315
mita@@ 315
tärkeim@@ 315
mies 315
toteuttamisen 315
kuluttaja@@ 315
kiinnostune@@ 315
parasta 315
järjestyksen 315
radikaal@@ 315
vastustavat 315
eta 315
rahasto 315
varusta@@ 315
tasoilla 315
todistaa 315
julkilausuman 315
henk@@ 315
tall@@ 315
köyhyyttä 315
suojeluun 315
muotoa 315
päätöslauselmasta 315
Lu@@ 315
tuotanto 315
terrorismi 315
Pro@@ 314
kiit@@ 314
vit@@ 314
EL 314
toimijat 314
kky@@ 314
havaita 314
tehtäväksi 314
mpää 314
ryhmään 314
lakien 314
käyttäjien 314
tunnin 314
aiheutuvat 314
06@@ 314
tärkeimpiä 314
vuokra@@ 314
hinn@@ 314
ttö@@ 314
etur@@ 314
onne 313
toimimme 313
emp@@ 313
tävistä 313
mahta@@ 313
yhteenkuulu@@ 313
makro@@ 313
kokon@@ 313
kkeiden 313
liio@@ 313
äänestykset 313
tonnia 313
riä 313
8. 313
maksuja 313
diplomaatt@@ 313
kehittämään 313
käsiteltiin 313
maito@@ 313
tina 312
tävänä 312
kaltaisten 312
pidetty 312
tavara@@ 312
laaditaan 312
Par@@ 312
yhteyksiä 312
soveltamisesta 312
uhre@@ 312
päättä@@ 312
ss@@ 312
roolin 312
jot@@ 312
turkki@@ 312
kevat 312
muuntogeen@@ 312
näyttävät 311
tatte 311
signa@@ 311
kuljetusten 311
selkeät 311
helpom@@ 311
päätelmät 311
vahinkojen 311
pyrkimyks@@ 311
MO@@ 311
valkoisessa 311
ranskalais@@ 311
mahdollista@@ 311
pääsyn 311
tunutta 311
yhty@@ 311
Yor@@ 311
rä@@ 311
sopimuks@@ 311
vakiinn@@ 311
ulottuvuuden 311
opis@@ 311
300 311
erinomaisen 311
iri@@ 311
demokratiso@@ 311
voidaanko 311
edistysaskel 311
Cotonoun 311
keskustelleet 310
ryhmää 310
toissijais@@ 310
päivään 310
osallistumisen 310
sitäkin 310
seuraavista 310
ittely@@ 310
tavoitteenamme 310
ula@@ 310
varsinkaan 310
normeja 310
hedelmä@@ 310
ure@@ 310
tosiasiall@@ 310
sallinette 310
monille 310
Fer@@ 310
toukokuussa 310
puolu@@ 310
pyyntö 310
ovatkin 310
uol@@ 310
kannattavat 309
sosiaalidemokraattisen 309
ivä@@ 309
pyrkimyksiä 309
pah@@ 309
kilpailukykyä 309
ollenkaan 309
tosiaan 309
iiton 309
virkamiesten 309
aikanaan 309
sti 309
ylittää 309
hyötyvät 309
direktiivejä 309
energian@@ 309
tiukem@@ 309
määrät 309
Syy@@ 309
pilarin 309
sihte@@ 309
pyynti@@ 309
huomata 308
periaatteesta 308
matkailuvaliokunnan 308
huonon@@ 308
vanhen@@ 308
asteittain 308
esittelijö@@ 308
huomattavan 308
kerä@@ 308
huolissamme 308
huomio 308
rahan 308
piirissä 308
kielteisiä 308
toivotan 308
tuloa 308
tällaiseen 308
vesiv@@ 308
oleville 308
toimissa 308
tore@@ 307
varapuheenjohtaja 307
aluksen 307
jäänyt 307
rahal@@ 307
nnän 307
ksissä 307
tämäntyypp@@ 307
Cor@@ 307
Ään@@ 307
järjet@@ 307
maapall@@ 307
avustus@@ 307
korvauksia 307
na 307
vaikkakin 307
väliin@@ 307
ulkopolitiikan 307
takaamaan 307
kunnioitetaan 307
kasvien 307
toimielinasioiden 307
kolmann@@ 307
vertailu@@ 307
katastrofi 306
vaikeudet 306
joistakin 306
tapahdu 306
Kreikka 306
vastuull@@ 306
eräiden 306
joillakin 306
lii@@ 306
jyrkästi 306
pidäty@@ 306
fyys@@ 306
tömy@@ 306
lukea 306
hallitustenvälisessä 306
der@@ 306
taistelua 306
euvos@@ 306
kaupasta 306
johtaisi 306
kierräty@@ 306
raaka 306
tusla@@ 306
tää@@ 305
esitety@@ 305
emman 305
suotu@@ 305
tasapain@@ 305
viikkoina 305
toimeen 305
kohtien 305
menestyks@@ 305
omis@@ 305
Tukholman 305
tyypill@@ 305
mahdottom@@ 305
rikosten 305
esitys 305
suva@@ 305
vahvistettu 305
jatkuva 305
läsnäol@@ 305
itell@@ 305
vahvistaminen 305
perussopimus- 305
Ch@@ 305
tupakka@@ 305
menettelystä 304
sovittu 304
vaarallisia 304
luonteeltaan 304
ylläpitä@@ 304
vastuusta 304
heikken@@ 304
valtioista 304
välineenä 304
malti@@ 304
kapitalis@@ 304
kurj@@ 304
ruu@@ 304
osien 304
ang@@ 304
arvoinen 304
tutkimukset 304
taistelussa 304
käsitellyt 303
kuukau@@ 303
itsessään 303
melko@@ 303
kehittämiseksi 303
sellaiseen 303
uri 303
myöhään 303
tekniikka 303
suunniteltu 303
Portugali 303
tolle 303
oikeud@@ 303
sisällytettävä 303
epämäärä@@ 303
inaan 303
kyseistä 303
naisiin 303
taipu@@ 303
neuvostolla 303
vasemmis@@ 303
kohtuuttom@@ 303
puhtaasti 303
työjärjestys- 303
vapaa@@ 303
teksti@@ 303
idenkin 303
ksell@@ 303
alki@@ 303
käytävän 302
kustannuksista 302
sikäli 302
sähköisen 302
normien 302
tekstistä 302
oikean@@ 302
täytäntöönpan@@ 302
soveltamisen 302
luettelon 302
öl@@ 302
maamme 302
järkyt@@ 302
käytämme 302
tarvittavia 302
toisesti 302
39 302
summa 302
ajaksi 301
otetta@@ 301
pi 301
pettymy@@ 301
sty@@ 301
vet@@ 301
yhtiöt 301
myönnyty@@ 301
pienen 301
matkan 301
omista 301
kkaiden 301
ketj@@ 301
isyyd@@ 301
perheiden 301
ali 301
Tanska 301
oikeusperus@@ 301
vilpit@@ 300
res@@ 300
peästi 300
mänä 300
keskitytään 300
osoitettu 300
merenkulku@@ 300
up@@ 300
maataloutta 300
avoimia 300
olosuhteet 300
huumaus@@ 300
uni@@ 300
51 300
jokaisella 299
mani 299
tietyissä 299
näkemyksen 299
asetukseen 299
vastuunsa 299
tamiselle 299
huolestune@@ 299
ympäristö 299
prosentilla 299
terä@@ 299
puh@@ 299
voidakseen 299
vakuuttuneita 299
9. 299
esitin 299
stään 299
ravin@@ 299
Lan@@ 298
16@@ 298
halua@@ 298
suhtautuvat 298
tavar@@ 298
suurista 298
COS 298
etkin 298
sopiv@@ 298
tutkimaan 298
kykene 298
elimen 298
tod@@ 298
ttaminen 298
Kreikassa 298
vihreän 298
pienem@@ 298
kaltaiset 298
Israel 298
luokan 298
elem@@ 298
itsemaan 298
tiede@@ 298
emminkin 298
65 298
tei 298
tuote@@ 298
varmaan 297
sisältävät 297
tuneita 297
ek@@ 297
sell@@ 297
luettuna 297
teem@@ 297
kertomuksesta 297
määritell@@ 297
telusta 297
tuotan@@ 297
ulta 297
itsel@@ 297
huolestuneita 297
hallitustenvälinen 297
etu 297
alukset 297
mää@@ 297
naapuri@@ 297
tikaan 297
tutustu@@ 297
kunnioittaminen 297
luv@@ 297
evien 297
toivottaa 297
luvan 297
viik@@ 297
päätöksiin 297
terveydelle 297
kieltä 297
valmiste@@ 297
melu@@ 297
asianos@@ 296
julkilausuma 296
tulleet 296
istö 296
työllisyys 296
99 296
infrastruktuurin 296
43 296
päätetään 296
armeijan 296
totuus 296
Eng@@ 296
enemmistö@@ 296
NGL 296
siirtyä 296
tuntia 296
takseen 296
perustamissopimuksessa 296
elv@@ 296
Ecofin 296
esittämistä 295
sopii 295
istään 295
hankkeisiin 295
Az@@ 295
lerin 295
molempia 295
aike@@ 295
varmuuden 295
yksittäisiä 295
katsotaan 295
elliset 295
tärkeässä 295
heikkou@@ 295
valiokuntien 295
arvonlisä@@ 295
oikeudenmuka@@ 295
edustajana 295
kona 295
kunta 295
kärsimy@@ 295
elektron@@ 295
tahojen 295
järkeä 295
säilytettävä 295
pahoittelen 294
estämiseksi 294
hyvinvoinnin 294
tuotteen 294
tukeminen 294
Fisch@@ 294
sisämarkkinat 294
käsitell@@ 294
vi 294
kunnalle 294
hoitoa 294
viimeisten 294
ore@@ 294
toimintansa 294
ensisijaisena 294
Ka@@ 294
ilmaissut 294
vähentämiseksi 294
kieli@@ 294
ystä@@ 294
tieteen 294
avusta 294
kansalaisilla 294
Johannesburgin 294
hilj@@ 293
ymmärrämme 293
painokkaasti 293
ratkaisevaa 293
horj@@ 293
erästä 293
ass@@ 293
Euroopalla 293
Mal@@ 293
rakenteiden 293
useam@@ 293
hallinta@@ 293
dyna@@ 293
kieltoa 292
analyy@@ 292
työskentele@@ 292
iliö@@ 292
isempaa 292
pystyttävä 292
työttö@@ 292
lähitulevaisuudessa 292
emistä 292
vaale@@ 292
kiireellisesti 292
ostamaan 292
virastojen 292
demokraattisia 292
pite@@ 292
maahanmuut@@ 292
tori 292
eduista 292
lentoasem@@ 292
valtuuksia 291
päätöksestä 291
tain 291
itty 291
pyyntöä 291
pöytäkirjaan 291
noudattaminen 291
vahingoll@@ 291
aloitteiden 291
tutkittava 291
toreita 291
yistä 291
asiantuntijoiden 291
rahoituksesta 291
tämät 291
pelä@@ 291
riippuvaisia 291
estetään 291
tein 291
parlamenttimme 291
kohtal@@ 291
nousee 291
muuttunut 291
puheen 291
riippumaton 291
vastauksesta 291
jilla 291
poistettava 291
pilaantu@@ 291
Irlanti 291
vakaussopimuksen 291
automaattisesti 291
vältä 291
inkiel@@ 291
Liban@@ 291
vaino@@ 291
valtioihin 291
kuningaskunta 291
mit 291
tämätön 291
riippuva@@ 291
urheilun 291
liberaalir@@ 290
tekemästä 290
yksiselitteisesti 290
Britanni@@ 290
ssa 290
velvollisuutemme 290
1994 290
etteikö 290
luku 290
re 290
merkitä 290
täydellisesti 290
suunnitelmien 290
tarj@@ 290
jään 290
vedota 290
päätöslauselmaesityksen 290
liikenn@@ 290
ori 290
vampaa 290
kausi 290
hyväksymisen 290
tekniikkaa 290
väkivalta 290
humanitaarista 290
budjettivallan 290
paikalliset 289
taloudellisesta 289
liberalis@@ 289
määritelmä 289
murhenäytel@@ 289
ttäisiin 289
edustus@@ 289
prioriteet@@ 289
ikenne@@ 289
ulkoministeri 289
lann@@ 289
työmarkkinoiden 289
etonta 289
kalastusta 289
saivat 288
äänesti 288
perustella 288
skandaal@@ 288
isuuksien 288
imista 288
ama 288
päätöksentekoon 288
esittelem@@ 288
kokemusta 288
välinettä 288
uuden@@ 288
tehtyjä 288
syd@@ 288
valiko@@ 288
kulttuurien 288
veronmaks@@ 288
rajall@@ 288
esitämme 288
ympä@@ 288
eläimiä 288
Kypro@@ 288
27@@ 288
lähes@@ 288
katsom@@ 288
taistelu 288
pysyä 288
keskey@@ 287
valmistautu@@ 287
puoles@@ 287
todelliset 287
uusille 287
tankin 287
teknologi@@ 287
työttömyyden 287
viikkoa 287
osoittamaan 287
yissä 287
iltaan 287
opolitiik@@ 287
asi 287
maati@@ 287
tuomita 287
uista 287
työvoiman 287
ityö@@ 287
asianomaisten 287
tiedos@@ 287
muutakin 287
kulttuuri 287
vastaanot@@ 287
tarvita 287
Yhdistynyt 287
arkkino@@ 287
tutustua 286
ikenne 286
miin@@ 286
perinn@@ 286
suun@@ 286
koheesiopolitiik@@ 286
kertomusta 286
öntä 286
laatimista 286
muuttuu 286
inko 286
työskentelevät 286
asente@@ 286
asenne 286
kä 286
löytyy 286
monenla@@ 286
radioaktiiv@@ 286
suhtauduttava 286
ismin 286
kr@@ 286
tekivät 286
neuvotella 286
epävirall@@ 286
vat@@ 286
kommunist@@ 286
uhra@@ 286
viimeaik@@ 286
urs@@ 286
velka@@ 286
istuntojaks@@ 285
mahdoton 285
utti 285
suuressa 285
useammin 285
hait@@ 285
ottaminen 285
viittaa 285
byrokraatt@@ 285
tunnustusta 285
yhteyksissä 285
kiellet@@ 285
näkemykset 285
armei@@ 285
vastuulla 285
laajamitta@@ 285
suk@@ 285
Sve@@ 285
taak@@ 285
aikataulun 285
päätöslauselma@@ 285
atiiv@@ 285
toiveita 285
iaa 285
kunnioittamista 285
ensisijaisen 285
ous@@ 285
esityslistalle 284
osissa 284
antamalla 284
käsittelevä@@ 284
markkinoista 284
kulku@@ 284
yste@@ 284
jurid@@ 284
varmaa 284
risty@@ 284
lopullista 284
vihamiel@@ 284
päätökseksi 284
ohjelmis@@ 284
tode@@ 284
ksellä 284
tavarali@@ 284
täytäntöönpanossa 283
muutetaan 283
kertoi 283
asianmukaisen 283
h 283
mihinkään 283
sääntelyä 283
säännön 283
muussa 283
innos@@ 283
laillisesti 283
197@@ 283
riskit 283
itety@@ 283
sulkea 283
näkökohdista 283
kidu@@ 283
yhteentoimiv@@ 283
kiitoll@@ 282
kannassa 282
kkau@@ 282
puheenjohtajalle 282
huolen@@ 282
huomaa@@ 282
puutu@@ 282
tuvat 282
keskeytti 282
dynaamis@@ 282
kump@@ 282
rajoite@@ 282
syytö@@ 282
urin 282
tulle@@ 282
Iran@@ 282
avi@@ 282
metsäpal@@ 282
kritiso@@ 281
assaolo@@ 281
epäsuotu@@ 281
organiso@@ 281
esittelijälle 281
isilta 281
rö@@ 281
yhmä 281
jokais@@ 281
kiinnostunut 281
ilmaisem@@ 281
julistuksen 281
pes@@ 281
tehtävistä 281
korjat@@ 281
etään 281
keskeytettiin 281
edistytty 281
ksilta 281
halusi 281
tarkoitukseen 281
aisi 281
sid@@ 281
&amp; 281
tarpeeseen 281
tuneet 281
tann@@ 281
kirjeen 280
kkoja 280
poistamaan 280
julki 280
maalis@@ 280
kiireesti 280
oikeusperustan 280
inon 280
äänestykseen 280
isuutensa 280
vähintäänkin 280
Tans@@ 280
ner@@ 280
nuo 280
kynn@@ 280
&#91; 280
&#93; 280
Puol@@ 280
myyd@@ 280
ong@@ 280
arvio 280
tapausten 279
president@@ 279
vuoti@@ 279
esityslistan 279
keskustelimme 279
maanviljelijö@@ 279
vuoropuheluun 279
syrjäisim@@ 279
äänsä 279
lausunto 279
ymmärtänyt 279
teknistä 279
hö@@ 279
koulutus- 279
vii@@ 279
taholta 279
henkilöä 279
onnistuu 279
toimintaansa 279
tapaukset 279
vuodelta 279
varau@@ 279
tynä 279
koista 279
noudattavat 279
täkään 279
odotetaan 279
San@@ 279
viisa@@ 279
Bö@@ 279
tuntevat 279
Solana 279
og@@ 279
ettu@@ 279
jö@@ 279
arvoisen 278
huoli 278
telin 278
valmiiksi 278
neeseen 278
lukuja 278
ever@@ 278
Keski- 278
hedel@@ 278
puolestani 278
joukon 278
rakenteita 278
ensimmäiseen 278
Saksa 278
massaan 278
huomautta@@ 278
soveltamisalan 278
tarvitsem@@ 278
vienn@@ 278
huumausaineiden 278
ksen@@ 278
oleskelu@@ 278
IC@@ 278
viite@@ 278
annin 278
äänestämästä 277
mattomia 277
kyt@@ 277
löytä@@ 277
luul@@ 277
sovittaa 277
katastrofi@@ 277
näke@@ 277
osto@@ 277
viiden@@ 277
ig@@ 277
älkäämme 277
ennä@@ 277
tapana 277
kuolee 277
isyyteen 277
kreik@@ 277
hyvään 277
kunhan 277
ylis@@ 277
jokapäivä@@ 277
kius@@ 277
teli 277
vähentämään 277
kuorma 277
maante@@ 276
alueesta 276
toteuttamisessa 276
tutkimusten 276
dramaatt@@ 276
tasalla 276
keskisuurten 276
jatkettiin 276
ideolog@@ 276
neille 276
antamista 276
liittyviin 276
vaati 276
kalavarojen 276
teknisesti 276
lisäarvoa 276
jokseenkin 276
ihmisoikeuksista 276
seihin 276
käynnisty@@ 276
löyty@@ 276
syvästi 276
vapauksien 276
hylätä 276
tän 276
rinnakkais@@ 276
jääd@@ 276
rikostuomioistuimen 276
energiavaliokunnan 276
erityispiir@@ 276
mpiä 276
neuvosto@@ 276
tonnik@@ 276
Se@@ 275
tulossa 275
ollessa 275
alueellisia 275
puhuneet 275
yhteenkuuluvuutta 275
epäilystäkään 275
jokaista 275
kansalaisiin 275
poista@@ 275
laivan@@ 275
seuraamuksia 275
paikalle 275
evää 275
tulevassa 275
käyttämättä 275
parlamentilta 275
essanne 275
Verts 275
äänestäneet 275
salakulje@@ 275
hyväksyn 274
ohjelma@@ 274
kiinni@@ 274
edistymistä 274
kriteere@@ 274
verra@@ 274
IT 274
tuossa 274
politiikkamme 274
sovittel@@ 274
terveys 274
pidetyn 274
biopoltto@@ 274
Strasbourgin 273
päässyt 273
innokkaasti 273
innon 273
vauhtia 273
kehittämis@@ 273
puheen@@ 273
kosken@@ 273
lykä@@ 273
näkemykseen 273
turvaa 273
tiettyä 273
valittu 273
onnettomuus 273
kristillisdemokraatit 273
pannut 273
konkreettis@@ 273
onnistu 273
vapaus@@ 273
pankki@@ 273
tyydyttä@@ 273
kuntaan 273
tör@@ 273
teknisten 273
imman 272
johti 272
liikkuvuus 272
esittämää 272
tyydyttävä 272
kustannus@@ 272
edistämistä 272
isik@@ 272
hyödyllinen 272
määrään 272
naure@@ 272
tarkastuksia 272
puututtava 272
mes@@ 272
osoitetaan 272
aines@@ 272
seuran@@ 272
46 272
mainitun 272
päämiesten 272
pääsemään 272
syks@@ 272
emis@@ 272
49 272
Tsetsen@@ 272
pul@@ 271
pyynnöstä 271
avata 271
emättä 271
vastaavia 271
ehdotuksensa 271
ehdotuksissa 271
työttömy@@ 271
kärj@@ 271
työllisyyteen 271
tilan 271
kirjasta 271
sopiva 271
minim@@ 271
puhuttu 271
hyväksyttävää 271
vakavaa 271
seurausta 271
väestö 271
aloitteet 271
uhreille 271
tetyt 271
talla 271
toisena 271
kohte@@ 271
tapojen 271
matkus@@ 271
tra@@ 271
menetelmän 271
tukemiseksi 271
siemen@@ 271
Da@@ 271
Bushin 271
hylkäsi 270
suunnitelmaa 270
näytä 270
maal@@ 270
käsiteltävänämme 270
jne 270
tarkistuks@@ 270
tiedotusväline@@ 270
isuutemme 270
imiseksi 270
olevasta 270
konferenssia 270
ollisuuden 270
hitaasti 270
emista 270
voidessani 270
todellisuutta 270
osallistuneet 270
palaa@@ 270
auttamaan 270
osuutta 270
vuot@@ 270
älkää 270
vaihtoehtoa 270
tuhannet 270
sido@@ 270
Algerian 270
oikeis@@ 270
asuin@@ 270
tarjotaan 270
eläkeläisten 270
maailmanlaajuinen 270
Dohan 270
vähentämistä 269
kansalaistemme 269
riskien 269
immista 269
viljelijöiden 269
globaal@@ 269
jälkimmä@@ 269
linja 269
arvosta 269
ajattelen 269
itsell@@ 269
toteuttamis@@ 269
:lle 269
voimakas 269
ittaisiin 269
kollegojeni 269
hallituksia 269
giin 269
luottamu@@ 269
vapauksia 269
taistelu@@ 269
vetäyty@@ 269
jännitte@@ 269
äänestänyt 269
ALE 269
kaikkemme 268
jänn@@ 268
vähentäminen 268
yhtenäistä 268
yksiselitte@@ 268
iltapäivällä 268
saisimme 268
verkoston 268
päätettävä 268
luoki@@ 268
parlamentit 268
aidosti 268
kissa 268
heks@@ 268
Agenda 268
totea@@ 268
ujen 268
vier@@ 268
kohtelua 268
turs@@ 268
satamien 268
Sevillan 268
teltiin 267
Ruotsissa 267
isu@@ 267
käv@@ 267
köyhyys 267
esillä 267
työttömyys 267
sanom@@ 267
käsitteen 267
politiikalle 267
eva 267
lasku@@ 267
teet@@ 267
kuvi@@ 267
huhtikuussa 267
veron 267
tääkseni 267
aseet 267
käsittää 267
tiedonväl@@ 267
elämässä 267
eik@@ 267
vata 267
ihmiskaupan 267
positiiv@@ 267
leikka@@ 267
unnan 267
syyttä@@ 266
ion 266
tyhjää 266
viimeinkin 266
kkäästi 266
puhunut 266
edellytetään 266
osoittautunut 266
sisällyttämistä 266
ulottuvuutta 266
kuluttajia 266
kossa 266
isuutta@@ 266
ryhmässä 266
yrityksistä 266
yrityksiin 266
poliitik@@ 266
meja 266
poistamiseksi 266
maanantaina 266
kaikessa 266
ulkosuh@@ 266
kannanot@@ 266
unsa 266
tasta 266
vapauttaa 266
perheen 266
ilmatilan 266
tukenut 265
nähnyt 265
muuhun 265
rahoja 265
seitsem@@ 265
yksityisten 265
ilmeistä 265
käsityksen 265
hyvinvointia 265
varmuus 265
kit 265
poikkeus 265
ellisten 265
kutsutaan 265
laa 265
luopua 265
valiokuntaan 265
käyn@@ 265
altistu@@ 265
ansaitsevat 265
voimakkaita 265
päätelmissä 265
Rooman 265
Har@@ 265
altti@@ 265
iskujen 265
loog@@ 264
järjestelyn 264
huippu@@ 264
laatimiseen 264
oloja 264
toteuttamisesta 264
ammin 264
voittaa 264
tietyn@@ 264
tisten 264
osallistumis@@ 264
välisissä 264
teollisuutta 264
juur@@ 264
mielipiteitä 264
di 264
irtisanom@@ 264
lupaa 264
voisiko 264
suhteissa 264
sitoumusten 264
muukalaisvi@@ 264
demokratiaan 264
puolueet 264
yhdentymis@@ 264
pääll@@ 264
paketti 264
kalastajien 264
laivas@@ 264
olle@@ 263
esittämän 263
johdonmukainen 263
poik@@ 263
vänsä 263
päätelmien 263
kotima@@ 263
mahdollisista 263
säilyttäminen 263
nnen 263
ehtojen 263
eenne 263
tuonut 263
yti@@ 263
jatkuvaa 263
aamu@@ 263
pun 263
solidaarisuutta 263
laatiminen 263
Neuvos@@ 263
keskusteltiin 263
velvoitteita 263
92 263
miehet 263
turvautu@@ 263
vuoristo@@ 263
audiovisuaal@@ 263
ikennettä 263
perj@@ 262
itettaisiin 262
ryhdy@@ 262
sopivat 262
kertoo 262
tettyjen 262
monop@@ 262
sääntö 262
keinoteko@@ 262
voimat 262
saisivat 262
äly@@ 262
lopputulos 262
kahdella 262
brittilä@@ 262
yleissopimus 262
asiantunte@@ 262
Intian 262
raportin 262
huomautuksia 262
käyttämällä 262
tukemiseen 262
Ruot@@ 262
sivisty@@ 262
rahoituks@@ 262
orin 262
Kööpenhaminassa 262
Geor@@ 262
tietokone@@ 261
mielipiteen 261
kuljettajien 261
tettavissa 261
tilasta 261
sosiaalisesta 261
immat 261
uja 261
prosessista 261
tietty 261
puhuvat 261
arvostan 261
hintoja 261
entinen 261
tärkeät 261
yleisiä 261
riittävät 261
Kosovossa 261
71 261
merkitse 261
täysistun@@ 261
käännö@@ 261
tuleva 260
uuksien 260
vahinkoja 260
tissa 260
komitologi@@ 260
sut 260
eensa 260
estamme 260
omalta 260
valtiolle 260
tukeen 260
täisivät 260
huolehd@@ 260
Fran@@ 260
pun@@ 260
mielivalta@@ 260
itseva 260
Madrid@@ 260
vahvisti 260
itt@@ 260
kev@@ 260
afrik@@ 260
Co@@ 260
Pi@@ 260
sopimuksella 259
ättä 259
muotojen 259
välttämiseksi 259
kansalaisista 259
voiv@@ 259
iik@@ 259
tulojen 259
omin@@ 259
päättyi 259
tehokkuus 259
maksettava 259
tion@@ 259
euro 259
kyseen@@ 259
nen 259
toimielimissä 259
Portugal@@ 259
Helsingin 259
vies@@ 259
radio@@ 259
taite@@ 259
liittyminen 259
imperialis@@ 259
suullisen 258
vaatimuksista 258
väliaikaisen 258
isyys@@ 258
rinn@@ 258
paremmat 258
perustuttava 258
esti@@ 258
päätöksistä 258
epäselv@@ 258
aansa 258
lopetta@@ 258
edistämiseen 258
dit 258
tervetulleeksi 258
edelly@@ 258
saas@@ 258
luotan 258
ostaan 258
Liettu@@ 258
perussopimusten 258
enemmis@@ 258
lukien 258
olog@@ 258
menetelmien 258
maailmalle 258
puolilla 258
Venä@@ 258
noudata 257
vaikutel@@ 257
rau@@ 257
öiden 257
utuksen 257
ttien 257
mietinnöistä 257
äänty@@ 257
laittomasti 257
nimittä@@ 257
suuresta 257
EI@@ 257
Es@@ 257
päätteeksi 257
tettuihin 257
käsittelevässä 257
jäsenvaltiosta 257
liikennettä 257
valvonnassa 257
ain 257
sissa 257
ehdoton 257
rauhanturva@@ 257
vaa@@ 257
täyttämään 257
:h@@ 257
määräenemmistö@@ 257
sysä@@ 257
maailmanlaajuista 257
arvopa@@ 257
naut@@ 256
kkol@@ 256
valvottava 256
tapauksesta 256
ristiri@@ 256
verotus@@ 256
tenne 256
yleiseen 256
ilmaisi 256
turha@@ 256
nykyaik@@ 256
samasta 256
käyttöönot@@ 256
emi@@ 256
Slovaki@@ 256
nykyiseen 256
seikan 256
arvoisia 256
tärkeistä 256
Shar@@ 256
E 256
murha@@ 256
iväes@@ 256
musta@@ 256
pettynyt 256
sch@@ 256
levottom@@ 256
lisääntymis@@ 256
Maailman@@ 256
vapauttamis@@ 256
euroalueen 256
Husseinin 256
Venäjällä 255
ikaan 255
suojelusta 255
täydentäv@@ 255
aloille 255
tukemista 255
mmä@@ 255
keskity@@ 255
alueelliset 255
kansallisiin 255
kansalliseen 255
merkitsevät 255
haasteita 255
maksetaan 255
rajoitukset 255
monimuoto@@ 255
57 255
ban 255
x 255
torjumaan 255
kokouksissa 255
vaatimuksen 255
ier@@ 255
käsitettä 255
poliisin 255
valvom@@ 255
veronmaksajien 254
liike@@ 254
kaava@@ 254
uttu 254
kiinnostuneita 254
vasto@@ 254
puun 254
sad@@ 254
nästä 254
rinnakka@@ 254
ihinsa 254
diplomaat@@ 254
työlä@@ 254
ulla 254
kosme@@ 254
kaas@@ 254
sorkka@@ 254
pantu 253
yksiköt 253
pääoma@@ 253
kosket@@ 253
jonkinlainen 253
vuos@@ 253
ellistä 253
tuella 253
soike@@ 253
selvityksen 253
kuuluvan 253
tans@@ 253
kansat 253
tehottom@@ 253
järjestelyt 253
kiito@@ 253
petosten 253
kuljetu@@ 253
järjestöille 253
rannikon 253
mana 253
ait@@ 253
eksi@@ 253
kärsii 253
viljeli@@ 253
myönnän 253
elintarvikkeita 253
konkreettista 253
suosituksen 253
henkilöstöä 253
tekemän 253
päätöslauselmia 253
atin 253
pakotta@@ 253
valtiovarain@@ 253
integra@@ 253
tappa@@ 253
diktaat@@ 253
huomionne 252
kuukausi 252
lausuntoja 252
julka@@ 252
Barón 252
sovittiin 252
asiakirjaa 252
evän 252
välttämättömy@@ 252
ensisij@@ 252
toissa 252
edeltä@@ 252
mainitsin 252
lainsäädän@@ 252
Turkissa 252
lampa@@ 252
elävät 252
osi 252
elämä 252
rian 252
miltä 252
EU:@@ 252
saam@@ 252
osuuden 252
direktiive@@ 252
istuntokauden 251
suhtaud@@ 251
alakohta@@ 251
ettomasti 251
silmä@@ 251
kriittisesti 251
ensimmäisestä 251
mies@@ 251
petos@@ 251
ylikansall@@ 251
1992 251
ihme@@ 251
evästi 251
vakuuttune@@ 251
työn@@ 251
satell@@ 251
der 251
alkohol@@ 251
kanssani 251
jääneet 251
kulttuuri- 251
abor@@ 251
gra@@ 251
Wat@@ 251
legiti@@ 251
Afganista@@ 251
kauhe@@ 250
amman 250
painotta@@ 250
elpy@@ 250
monipuol@@ 250
teo@@ 250
tarjon@@ 250
ensimmäiset 250
tiettyihin 250
Val@@ 250
uudistaa 250
tuomioistuimessa 250
kaikki@@ 250
ympäristöystävä@@ 250
ottu 250
luomiseen 250
ryhdytään 250
aiotte 250
iasta 250
tapaamis@@ 250
arvoisan 250
eroa 250
käyttäneet 250
47 250
ör@@ 250
kriisin@@ 250
tällaisesta 250
matkustajien 250
20. 250
kongres@@ 250
into 249
Jap@@ 249
kunnioituks@@ 249
tapahtuvaa 249
illamme 249
kasvuun 249
tiedossa 249
esittelijä@@ 249
asiakirjoihin 249
esty@@ 249
pahim@@ 249
arvion 249
laajemmin 249
tehtävään 249
aloihin 249
hallitus@@ 249
parlamentista 249
hämmen@@ 249
läsnä@@ 249
haki@@ 249
sekaann@@ 249
kseksi 249
viikko 249
esitettyihin 249
arvioi 249
Irak 249
liittoutu@@ 249
käymme 248
vastu@@ 248
järkevä@@ 248
suhtaudutaan 248
kolmas@@ 248
oulu@@ 248
palveluihin 248
onnistune@@ 248
anneta 248
auttavat 248
llekin 248
selventää 248
hallitsem@@ 248
lainsäädännöstä 248
hirvittä@@ 248
uksena 248
jättänyt 248
67 248
laitoksen 248
vuotu@@ 248
tieteellisen 248
kunnianhimoinen 248
ulkopuolisten 248
euvo@@ 248
yhteyd@@ 248
käytäntöjen 248
organismien 248
kestävään 248
maaper@@ 248
taistelun 248
tuani 247
eräässä 247
jäseneltä 247
täytäntöönpanoon 247
energialähte@@ 247
laajentamista 247
hyödyllis@@ 247
kohtelun 247
yrityksissä 247
sallitaan 247
sanomme 247
harkitsemaan 247
tuomion 247
Bryssel@@ 247
taloudellisiin 247
ydin 247
koostuu 247
kollegoja 247
koe@@ 247
toimeksi@@ 247
ministerineuvoston 247
inta@@ 247
työryhmä 247
siirtolais@@ 247
Brokin 247
vattom@@ 247
miljoonaan 247
osapuolen 247
tuksi 246
Palacio 246
sanottiin 246
uni 246
säil@@ 246
vaiheeseen 246
häiri@@ 246
ilm@@ 246
siä 246
heikom@@ 246
työttömyys@@ 246
sellaisenaan 246
tehtäisiin 246
niiltä 246
kilpailuun 246
toimineet 246
rahoitetaan 246
standardeja 246
Portugalissa 246
kilomet@@ 246
palestiin@@ 246
päätöslauselmaan 246
pohti@@ 246
päällekkä@@ 246
investoin@@ 246
DA 246
bo@@ 246
tekniset 246
painostusta 246
kalatalousvaliokunnan 246
pros@@ 246
Cancú@@ 246
seen 245
ohjaus@@ 245
kasvanut 245
luonnoksen 245
kirjallisesti 245
nitel@@ 245
heijas@@ 245
aiku@@ 245
näinä 245
näkökohtaa 245
asiain@@ 245
pääosin 245
alus@@ 245
bel@@ 245
erimielisyy@@ 245
vähennetään 245
päätöksentekopros@@ 245
takeita 245
noissa 245
tutkinta@@ 245
esitettyjen 245
suorittaa 245
esitystä 245
oliitt@@ 245
ikkaan 245
seuraamu@@ 245
YUT@@ 245
käyttöönoton 245
tääksemme 245
varmistaakseen 245
aloitteeseen 245
karjan@@ 245
kuolemanrangaistuksen 245
laj@@ 245
udu 244
yhdenmukaistaminen 244
osoituksena 244
ajia 244
vatpa 244
myöhässä 244
elvyttä@@ 244
Berliinin 244
tävällä 244
rakenteen 244
hajau@@ 244
lisääntynyt 244
käytävää 244
takaisin@@ 244
kirjaan 244
edun@@ 244
pysyvä 244
vakaasti 244
ra 244
kansalaisen 244
31. 244
pahem@@ 244
tärkeään 244
kansalle 244
perusoikeuskirja 244
tultava 244
psy@@ 244
ministerikok@@ 244
ellaan 244
sivuuttaa 244
od 244
Venäjä@@ 244
Romanian 244
vaadin 243
Lon@@ 243
vaarallista 243
tekemällä 243
byrokrati@@ 243
kohe@@ 243
politiikat 243
jaettu 243
periaatteell@@ 243
suojeltava 243
esimer@@ 243
sähkön 243
tarkistettava 243
huolestuttaa 243
palveluista 243
resurssien 243
lupa 243
52 243
kenn@@ 243
keskus 243
vailla 243
itil@@ 243
rakenne 243
tehtyä 243
kukin 243
perusoikeuksia 243
työjärjestys@@ 243
perheen@@ 243
Irlan@@ 243
lisäämällä 243
pime@@ 243
amerik@@ 243
perustuslaki@@ 243
son 242
osti 242
suurella 242
johtajan 242
kummall@@ 242
è@@ 242
töntä 242
al 242
öljyä 242
pyrkineet 242
ttavaa 242
tiset 242
rin@@ 242
johdonmukaista 242
tunnis@@ 242
kohdissa 242
vanhu@@ 242
tuotann@@ 242
valinta 242
energiaa 242
gen 242
ylipäänsä 242
merili@@ 242
viimeistään 242
katsoen 242
llisista 242
ira@@ 242
15. 241
puhumaan 241
etelän 241
määrien 241
mietintönsä 241
hoitoon 241
valppa@@ 241
Saks@@ 241
hun 241
vaihtoa 241
katsa@@ 241
ilahd@@ 241
siirretään 241
ylik@@ 241
400 241
Taiwan@@ 241
rajoitetaan 241
kysymy@@ 241
Skotlannin 241
IP@@ 241
Belgia 241
esään@@ 241
lahjo@@ 241
joukkoja 241
rajoissa 241
työskentel@@ 241
ler@@ 241
tuomitsem@@ 241
seuraavia 241
taku@@ 241
siirtymään 241
kkom@@ 241
Egyptin 241
tarkkaava@@ 240
liikennemuo@@ 240
toisensa 240
sellaisesta 240
säilyttämistä 240
tarkistamista 240
laskem@@ 240
ulot@@ 240
tapauksista 240
iha@@ 240
kenen 240
vältettävä 240
pyynnö@@ 240
sanotun 240
tyr@@ 240
aluksia 240
ehdot@@ 240
tiedottamista 240
solidaarisuuden 240
ottava 240
Maastrichtin 240
kyselytun@@ 240
sisäinen 240
asio@@ 240
naapure@@ 240
tarjoamaan 240
Yhdisty@@ 240
kauppajärjestön 240
kuulua 240
monimuotoisuutta 240
hyökkä@@ 240
traged@@ 240
xin 240
Irakiin 240
lentoyhtiöiden 240
vahvistettiin 239
ansio@@ 239
varaan 239
vina 239
kohden 239
kielteinen 239
ymmärtämään 239
tekijöiden 239
sankti@@ 239
ba@@ 239
sisäistä 239
vät@@ 239
of 239
suojellaan 239
tusohjel@@ 239
fa@@ 239
miehen 239
maksut 239
näkökohtiin 239
perustein 239
häviä@@ 239
arvoasioiden 239
liittyvästä 239
selkeä@@ 239
huumeiden 239
asetarkasta@@ 239
avaaminen 238
voittoa 238
vuodelle 238
tilanteita 238
llisestä 238
saamiseksi 238
teho@@ 238
sulj@@ 238
yhdys@@ 238
rinnalla 238
ihminen 238
vaivaa 238
kkeita 238
tasapainoon 238
periaatteista 238
kilu@@ 238
toissijaisuus@@ 238
kaltainen 238
hahmo@@ 238
määrätietoisesti 238
oikeutettu 238
kyvyttömy@@ 238
mukavuus@@ 238
maksavat 238
tällaisessa 238
puiteohjelman 238
mielipiteensä 238
liiton 238
menetelmää 238
amerikkalaisten 238
investoinnit 238
kemiall@@ 238
täynnä 238
Ku@@ 237
yksiköiden 237
strategiasta 237
Pu@@ 237
kauttakulku@@ 237
huomioita 237
puutteet 237
arki@@ 237
ääntöjen 237
veroja 237
luottamuksell@@ 237
onnistua 237
vasten 237
yhdeksän 237
jyr@@ 237
Kansainvälisen 237
olemmekin 237
lausunn@@ 237
vallitse@@ 237
panemaan 237
korostanut 237
Qu@@ 237
kokonaisuutena 237
kosta 237
kansalaisjärjestöt 237
kestä@@ 237
käyttänyt 237
eurosta 237
torit 237
menot 237
maatalouspolitiikkaa 237
eläkkeiden 237
Guine@@ 237
vetoomus@@ 237
De 236
tään@@ 236
minuuttia 236
hia 236
uusiutuvien 236
johdon@@ 236
minister@@ 236
arvioimaan 236
keinona 236
ymmärtävät 236
2007 236
v 236
monessa 236
asetuks@@ 236
vaikuttanut 236
asianaja@@ 236
brit@@ 236
dollaria 236
amisessa 236
ekonom@@ 236
järjestelmiin 236
harvo@@ 236
tarkoituksessa 236
kaksois@@ 236
hinnan 236
jokaisessa 236
oikeutettua 236
johdonmuka@@ 236
terv@@ 236
huomautus 236
Strasbour@@ 236
tii@@ 236
loukkau@@ 236
unta@@ 236
vastataan 236
ratkaistu 236
jatkuvat 236
näe 236
kriisistä 236
polt@@ 236
ioiden 236
savu@@ 236
puuttuminen 235
pohtimaan 235
laajoja 235
määrärahoista 235
ettujen 235
tärkeiden 235
kertaan 235
elämme 235
K 235
vakaa 235
sisämarkkinoita 235
ous 235
sääntöihin 235
our@@ 235
alkavat 235
omi@@ 235
alueelta 235
tällaisissa 235
käyttäen 235
merkityksestä 235
yksikön 235
pyytäneet 235
osallistumisesta 235
siirtol@@ 235
loppu 235
pöyd@@ 235
ulkomaan@@ 235
hun@@ 235
uro@@ 235
esitettyä 235
Kuub@@ 235
Irakia 235
tuloks@@ 234
toimintalin@@ 234
itän 234
tekemät 234
välissä 234
kehittämisessä 234
1993 234
vastauksena 234
vastuuntun@@ 234
este@@ 234
federalis@@ 234
osallistunut 234
voimaa 234
kys@@ 234
tulli@@ 234
hiil@@ 234
jäseneksi 234
vanha 234
tieteellistä 234
riske@@ 234
panos 234
tulevaisuuden@@ 234
koordin@@ 234
konserva@@ 234
banaan@@ 234
taakse 234
YMP:n 234
YK 234
soveltamisalaa 234
í@@ 233
äkseni 233
vaikka@@ 233
tapahtuneen 233
tuote 233
tuhansien 233
viimeisenä 233
hakija@@ 233
tuhla@@ 233
ihimme 233
jäsenyyttä 233
pöy@@ 233
foorumi 233
pääministerin 233
vastaisessa 233
valtioon 233
kalastajat 233
lopettamaan 233
hämmästyt@@ 233
henkilöille 232
etenkään 232
niu@@ 232
alem@@ 232
aineista 232
koordinoinnin 232
toimeen@@ 232
isto@@ 232
alueellista 232
ihmisistä 232
elimet 232
puhu 232
uttavat 232
riittäviä 232
kehystä 232
tavoitteeksi 232
atit 232
kokemuksia 232
minulta 232
sisällyttäminen 232
puhet@@ 232
aloitettava 232
21. 232
esittämiin 232
puheenvuorossani 232
rikollisuutta 232
pelkää@@ 232
keskusteluihin 232
onne@@ 232
viholl@@ 232
rahoitukseen 232
vaaleihin 232
Unkar@@ 232
kieliä 232
gene@@ 232
tönsä 231
valmiit 231
resurssit 231
parantamisen 231
lyö@@ 231
vastin@@ 231
rahoittamiseen 231
suurempia 231
voimakasta 231
valkoisen 231
valit@@ 231
voimavarojen 231
mietintöjen 231
perim@@ 231
kriteerejä 231
säv@@ 231
tus- 231
kuuluvia 231
Kansain@@ 231
mielipidettä 231
kohtelu 231
terroristien 231
mailla 231
yhteisöä 231
viljelyn 231
vastannut 231
him@@ 231
työskennell@@ 231
antaina 230
muuttaminen 230
lö@@ 230
kiittämällä 230
eemme 230
suuntaisia 230
käsittelystä 230
Rob@@ 230
useimmissa 230
rehellisesti 230
valvontavaliokunnan 230
Barnier 230
liittää 230
rang@@ 230
tou@@ 230
levittä@@ 230
ania 230
Pattenin 230
pääsevät 230
tupa@@ 230
aisesta 230
haluaisinkin 230
tinsa 230
olettaa 230
BSE@@ 230
perhe 230
laps@@ 230
# 230
x017E 230
Fi@@ 230
INI 230
muistutti 229
merkitsem@@ 229
päivästä 229
suurenmo@@ 229
peri@@ 229
maassani 229
uudistaminen 229
ymp@@ 229
mahd@@ 229
pitkäaik@@ 229
raa@@ 229
kysely@@ 229
eille 229
reak@@ 229
Pakistanin 229
linjaa 229
iseltä 229
ryhtyy 229
pyrkimykset 229
innän 229
kompromissiin 229
53 229
integroitu@@ 229
ammatinharjoitta@@ 229
tomen@@ 229
hyvänsä 229
pure@@ 229
istunto@@ 229
pakolaisia 229
Ser@@ 229
kenenkään 229
onnettomuu@@ 228
sosiaalivaliokunnan 228
eriarvo@@ 228
velvoittaa 228
kotimaani 228
toimille 228
asenn@@ 228
kehitetään 228
suhteisiin 228
tarpeellinen 228
lakka@@ 228
imalla 228
akti@@ 228
etenee 228
vastaav@@ 228
asuvat 228
perustettu 228
viipymättä 228
äid@@ 228
alaisille 228
jatkuvan 228
laajennetaan 228
56 228
ossaan 228
haku@@ 228
komitea@@ 228
väären@@ 228
Turkkia 228
æ@@ 228
antamiseksi 227
EU:lla 227
itsellemme 227
uutensa 227
kehittämisestä 227
jako 227
tiivistä 227
mahdollisuudesta 227
laaditta@@ 227
syntyä 227
pakko@@ 227
Baskim@@ 227
laajempaa 227
päädy@@ 227
koken@@ 227
sellaisista 227
kaupankäynnin 227
perinpohj@@ 227
ryhdytty 227
vahin@@ 227
sotilaallisen 227
Pe@@ 227
vahvistamiseksi 227
sillo@@ 227
petty@@ 227
lisäävät 227
valtiona 227
äivä@@ 227
137 227
epätoivo@@ 227
Bus@@ 227
nyt@@ 226
työjärjestyspuheenvuoron 226
perustamissopimusten 226
EU:ta 226
opetuksen 226
ajatellaan 226
eu@@ 226
laatii 226
sosiaali- 226
peruu@@ 226
kuluttajan 226
äärimmä@@ 226
itella 226
tiukkoja 226
suosittelen 226
jälleenrakennus@@ 226
rauhaan 226
järjetöntä 226
päässä 226
toimen 226
erikois@@ 226
ministerin 226
ryhd@@ 226
maassaan 226
Bolkestein 226
fin@@ 226
eläkerahas@@ 226
vientiä 226
avien 225
kollegojen 225
verkon 225
19. 225
mietin@@ 225
sisämarkkinoilla 225
kilpailulle 225
taloudessa 225
lujasti 225
asiaan@@ 225
kulttuuria 225
iteta 225
ipu@@ 225
kansallisissa 225
noudattamisen 225
keskipitkällä 225
käytössään 225
säteil@@ 225
mainitsitte 225
Bo@@ 225
Bal@@ 225
Tiibet@@ 225
käytänn@@ 225
tyneitä 225
kaun@@ 225
työtään 225
aikaansaamiseksi 225
ainoana 225
Man@@ 225
ratkaise@@ 225
koskemattomuuden 225
puhke@@ 225
tue 225
päätetty 224
vuotis@@ 224
neistä 224
lämp@@ 224
liikenne 224
koheesiorahas@@ 224
tunnen 224
nnel@@ 224
mahdollistavat 224
takeet 224
alkanut 224
kausia 224
issään 224
ktor@@ 224
huuto@@ 224
vampia 224
tisista 224
kollegoj@@ 224
vaikut@@ 224
selvästikään 224
virallinen 224
kull@@ 224
esitys@@ 224
istua 224
ECH@@ 224
lukuisat 224
vyöhy@@ 224
tarmo@@ 224
tarvitsisi 224
ellin 224
kolmansista 224
energialähteiden 224
ihmisoikeustoimik@@ 224
mietintöni 224
Ukra@@ 224
määritelmää 224
kehitysmaat 224
rajatylittä@@ 224
13. 223
pienille 223
jäi 223
kohtalo@@ 223
oppi@@ 223
suunnitelmat 223
perustamisen 223
siirr@@ 223
tarvittavaa 223
joukkoon 223
jäsenvaltioilta 223
valvotaan 223
järjestykseen 223
koet@@ 223
vakiin@@ 223
66 223
sehän 223
korjaamiseksi 223
elpo@@ 223
interventi@@ 223
tuomioistuimeen 223
varmaankin 223
rajat@@ 223
neessa 223
sissä 223
oikeudelliset 223
tarkoitettujen 223
myöhem@@ 223
perustetaan 223
kerin 223
säännell@@ 223
tunnemme 223
kalainen 223
kehittyneiden 223
direktiiviehdotuksen 223
nopeu@@ 223
iljel@@ 223
vaikeita 223
syiden 223
iss@@ 223
aikataulu@@ 223
esteiden 223
tarkastusten 223
Puolan 223
hetken 223
teidät 223
Ira@@ 223
liikennem@@ 223
laivaston 223
SA@@ 223
vetoomusvaliokunnan 223
joulukuun 222
vastaavaa 222
vesillä 222
haluankin 222
ittelun 222
kästä 222
annettaisiin 222
hyödyllisiä 222
kkaat 222
kannatusta 222
epäsuorasti 222
kauksia 222
mahdollisten 222
merellä 222
lääkintä@@ 222
kulun 222
vuotia@@ 222
hartaasti 222
kuljet@@ 222
kamppail@@ 222
riippumattomien 222
kustannu@@ 222
pysyvän 222
kansanäänestyksen 222
tahto 222
itimme 222
maailmaan 222
otsa@@ 222
voimakkaan 222
puolelle 222
historia 222
ehkäistä 222
iden@@ 222
laiton 222
myynti@@ 222
pyys@@ 221
muutamien 221
oletteko 221
ilijoiden 221
nilla 221
käsiteltävä@@ 221
seuraavaan 221
attien 221
kielteisesti 221
ajoin 221
numer@@ 221
tetussa 221
aikataulu 221
alaisena 221
palkinnon 221
muodostuu 221
olleen 221
kiinnittämään 221
vahing@@ 221
lykätä 221
tiedonantoa 221
töönsä 221
sehdo@@ 221
ammattiyhdisty@@ 221
muill@@ 221
kuuhun 221
alkoi 221
Washington@@ 221
turvapaikka- 221
räike@@ 221
sanoista 221
terrorite@@ 221
muksen 221
ttavan 221
painostaa 221
kyseenalaistaa 221
tauti 221
ehdokasvaltioita 221
itsin 221
Galileo 221
itseämme 220
pitääkö 220
neuvon@@ 220
täen 220
suorastaan 220
ettuja 220
luettuina 220
herrat 220
parhaat 220
lähiaikoina 220
ilmisel@@ 220
mieleen 220
pystyä 220
määrätieto@@ 220
politiikalla 220
asianosaisten 220
jäljelle 220
sitovia 220
vaikutuksen 220
miljoonasta 220
Vitor@@ 220
solm@@ 220
yhteiskunnallisen 220
vastaavan@@ 220
katsovat 220
intaa 220
maanviljelijät 220
oikeusasiamies 220
täh@@ 220
54 220
synnyttää 220
kunnasta 220
tarkistuksilla 220
pyrkimys 220
ikassa 220
Ann@@ 220
määrittää 220
roman@@ 220
ryös@@ 220
ttelu@@ 220
millaista 220
paikkaansa 220
verotusta 220
irro@@ 220
aka@@ 220
tartun@@ 220
aloitan 220
tupakan@@ 220
kerralla 220
š@@ 220
normit 219
piden@@ 219
tärkeimp@@ 219
sisällö@@ 219
kannalla 219
mielestään 219
vire@@ 219
järjestely 219
kärs@@ 219
riippumattoman 219
jina 219
30. 219
yleissopimusta 219
täydellisen 219
riin 219
poliitikkojen 219
tyytyväisenä 219
toimintasuunnitelma 219
järjestety@@ 219
tosopim@@ 219
sisäisiä 219
luonne 219
vallankumou@@ 219
tunnustamista 219
poliis@@ 219
menettää 219
isuudessakin 219
tarjottava 219
ba 219
riito@@ 219
Kolumbian 219
mistaan 218
C:n 218
esitetyn 218
eko 218
kokemus 218
suositukset 218
päätän 218
selvitettävä 218
kansallisille 218
Luxemburg@@ 218
suureen 218
Ri@@ 218
yhteisöön 218
logi@@ 218
suure@@ 218
tukselle 218
aiseen 218
tulevissa 218
albaan@@ 218
muistan 218
tarkoitetaan 218
EM@@ 218
järkevästi 218
kompromissia 218
vastaiseen 218
sanomalehd@@ 218
vanke@@ 218
kut 218
kunta@@ 218
Johannesburgissa 218
menn@@ 217
kattavan 217
kuunnella 217
tekemä 217
keks@@ 217
uunn@@ 217
hyvien 217
2000@@ 217
kehityksessä 217
päätelmiä 217
tärkeyttä 217
mainittujen 217
kilpailus@@ 217
säilyy 217
ehdotuksemme 217
keja 217
mietinnössäni 217
kustann@@ 217
nykyisestä 217
synnyttä@@ 217
kansakuntien 217
isyydessä 217
rikoksia 217
sitte 217
solidaarisuus@@ 217
naapurim@@ 217
vaatineet 217
raporto@@ 217
kritiikkiä 217
vakavan 217
En@@ 217
laajuisten 217
jousto@@ 217
erilaista 217
ivi@@ 217
valku@@ 217
räjähd@@ 216
stynyt 216
ellisiä 216
köyhim@@ 216
pysyvät 216
määrittä@@ 216
yhmien 216
luetteloa 216
men 216
yleismaailmall@@ 216
rakentamisen 216
piiri@@ 216
välisistä 216
saali@@ 216
kuunnell@@ 216
liikkeen 216
vahingot 216
umpiku@@ 216
mik@@ 216
istanne 216
hallintaan 216
ymmärre@@ 216
käytetä 216
ihmisillä 216
ksena 216
sitoutumista 216
Feiran 216
gh@@ 216
kalakantojen 216
Ky@@ 216
yhdenverta@@ 216
onnistuttu 216
jollei 216
mietinnöt 216
Pa@@ 216
63 216
lennon@@ 216
aseista@@ 216
Prestigen 216
johtaneet 215
Itävallassa 215
lasket@@ 215
tuotantoon 215
voima 215
ump@@ 215
käyvät 215
hajautta@@ 215
valvoo 215
ihante@@ 215
neksi 215
liikkumavaraa 215
istus@@ 215
Vitorino 215
aloittamaan 215
etuus@@ 215
hyödynnettävä 215
ntä 215
tulot 215
äänkin 215
itsen 215
tarkastelee 215
vankien 215
lannissa 215
valuutan 215
kantaansa 215
vapautu@@ 215
äkö@@ 215
tyyp@@ 215
tautia 215
ravintol@@ 215
tarkistus@@ 215
tasavallassa 215
julistan 214
säilyttämään 214
ehdokasvaltioille 214
mietintöjä 214
omiin 214
keinojen 214
kokemukset 214
riittävää 214
joutui 214
ituksista 214
huolen 214
asianmukaiset 214
empiä 214
selvitys@@ 214
pänä 214
täytä 214
konkreettinen 214
vois@@ 214
esitetyistä 214
sydämellisesti 214
selonte@@ 214
komiteassa 214
aikataulua 214
ikka@@ 214
sanoivat 214
oletta@@ 214
ratkaisut 214
ettelyn 214
luetteloon 214
alkuperäisen 214
aisille 214
huolestuttava 214
ylläty@@ 214
päästöt 214
Meksikon 214
sunluu@@ 214
vilta 213
Poettering 213
onnettomuuksia 213
säännöstöä 213
rahastojen 213
vaikutelman 213
päättyy 213
vaihdon 213
eb@@ 213
foorumin 213
aikovat 213
järkeviä 213
ympäri 213
apuun 213
tuihin 213
toimiston 213
köyhdy@@ 213
Ki@@ 213
NATOn 213
pyh@@ 213
mainitut 213
tehdystä 213
Ru@@ 213
yhteydet 213
asetetut 213
ulkorajojen 213
tonta 213
kunnioittamisen 213
gian 213
tarjous@@ 213
tämiselle 213
tasapuolisesti 213
tapo@@ 213
saattamista 213
Kongon 213
kyseisessä 213
äänestetään 213
tiedustelu@@ 213
teema@@ 213
muot@@ 212
kiireellistä 212
harkin@@ 212
äännöt 212
sevat 212
vierailu@@ 212
yrittänyt 212
johdu 212
innassa 212
kauppi@@ 212
vastusta 212
luopumaan 212
suoraa 212
luonnollises@@ 212
vahvistavat 212
toimivia 212
eurooppalaisessa 212
ysy@@ 212
tapahduttava 212
pikku@@ 212
vastar@@ 212
amb@@ 212
bian 212
oikeutettuja 212
alas@@ 212
vos@@ 212
moniarvo@@ 212
huolehtimaan 211
katastrofe@@ 211
satamissa 211
tammik@@ 211
hol@@ 211
Luxemburgin 211
kehittymistä 211
Poh@@ 211
käytäntöä 211
rakennem@@ 211
tukeneet 211
62 211
qu@@ 211
ohjelmissa 211
ori@@ 211
Erik@@ 211
suku@@ 211
vaikutusvaltaa 211
irekti@@ 211
kärsivä@@ 211
asiain 211
uhkaa@@ 211
ilma 211
yhdentymistä 211
mästi 211
oni@@ 211
esittelijät 211
58 211
otsakkeen 211
tinin 211
eläimet 211
solu@@ 211
ilmoitettava 210
b 210
tekemää 210
jollakin 210
selville 210
kehitysa@@ 210
syrjäytymisen 210
yrittäj@@ 210
laadusta 210
auta 210
alenta@@ 210
edellytysten 210
taaksepäin 210
tavallaan 210
Grö@@ 210
hull@@ 210
vahingoittaa 210
suureksi 210
selvittämään 210
haluam@@ 210
direktiivit 210
autettava 210
ostavat 210
03 210
hankkia 210
oman@@ 210
tiedottaa 210
onnistumme 210
hävittä@@ 210
Alp@@ 210
avautu@@ 210
-ryhmän 210
erot@@ 210
yhteisistä 210
geri@@ 210
Angolan 210
syyttää 209
inenkin 209
tunnel@@ 209
ähän 209
tekeminen 209
halusimme 209
iluun 209
strateginen 209
palaan 209
ääntöjä 209
moneen 209
edustettuina 209
ehdottaneet 209
tassa 209
kulttuurista 209
maininnut 209
suuremman 209
llisistä 209
odotuksia 209
hau@@ 209
hallinnan 209
nime@@ 209
tuttava 209
tömät 209
usti 209
selkka@@ 209
entistäkin 209
periaatteisiin 209
tutkimuksessa 209
tuottajat 209
tuotteista 209
assosiaatiosopimuksen 209
kuluttaja 209
eurooppa@@ 209
tuberku@@ 209
telo@@ 208
helmikuussa 208
ohjelmista 208
kehit@@ 208
ehdotetut 208
korkeak@@ 208
ymmärtääkseni 208
kokemusten 208
yhteisesti 208
oikeudenmukainen 208
ilmoitan 208
85 208
ente@@ 208
viimeiseksi 208
alulle 208
mennään 208
sitova 208
lujittaa 208
korkeataso@@ 208
kaupunge@@ 208
elleen 208
kasvihuonekaasu@@ 208
harvin@@ 208
puutteesta 208
tili@@ 208
käytiin 208
saatavuutta 208
edellisessä 208
siirtyminen 208
kuv@@ 208
täs@@ 208
hyvänä 208
osasta 208
muslim@@ 208
veru@@ 208
pienim@@ 208
esitteli 208
torjuttava 208
hyväksyvät 208
kansainvälisestä 208
pelkkää 208
veren 208
Eurosta@@ 208
toimitus@@ 208
genti@@ 208
kotou@@ 208
vaarallinen 207
ytti 207
pitää@@ 207
määräaika 207
aikaansaa@@ 207
istani 207
voimakkaammin 207
puhuttaessa 207
järjestystä 207
yleisestä 207
estävät 207
sisäisten 207
yhteys@@ 207
kyseenalaiseksi 207
hävi@@ 207
kät@@ 207
mor@@ 207
Eurojus@@ 207
ohjes@@ 207
saavuttaminen 207
Pohjo@@ 207
vallassa 207
väestön@@ 207
hallintaa 207
eurooppalaisista 207
kehitysapu@@ 207
Solanan 207
hoitamaan 207
päätöslauselmaesitys 207
osakseen 207
täysimäärä@@ 207
ylpeä 207
piirte@@ 207
puoluetta 207
julistuksessa 207
tiedotuskampan@@ 207
perustamissopimukseen 207
-ohjelman 207
titte 207
päivittä@@ 207
tämäkin 207
laatimasta 207
utonta 206
96 206
tämättömy@@ 206
gn@@ 206
emmaksi 206
oneet 206
maatalous 206
suuntaa 206
sänne 206
helpompi 206
vetoomuksen 206
noll@@ 206
huolestuttavaa 206
käsitelleet 206
uuttaa 206
suveren@@ 206
olennaisia 206
py@@ 206
inis@@ 206
omen@@ 206
tulemme 206
ehdoista 206
ren@@ 206
varmastikin 206
ryhtyneet 206
isinkin 206
aiheuttamat 206
ytys@@ 206
tuonti@@ 206
sopusoinnussa 206
säilytetään 206
esittelijämme 206
vesih@@ 206
isto 206
sula@@ 206
kirjaim@@ 206
kki 206
Bosni@@ 206
verojen 206
Geno@@ 206
Kiina 206
alkioiden 206
Bush 206
Tš@@ 206
seuraam@@ 205
ittamaan 205
rikkaiden 205
paikallisia 205
riittämätön 205
ktion@@ 205
Itali@@ 205
tekin 205
kumppanuus 205
arvioin@@ 205
tonn@@ 205
viikkojen 205
tettavaa 205
sääntel@@ 205
onnistui 205
joustavuuden 205
kerron 205
pysyvästi 205
kauaskan@@ 205
pään 205
vastuuttom@@ 205
asiantuntijat 205
varasto@@ 205
omissa 205
bar@@ 205
lämpim@@ 205
nolle 205
yhdeksi 205
tämänhetkinen 205
jaetaan 205
hienoa 205
siirrymme 205
menetelmät 205
naa@@ 205
Araf@@ 205
hämä@@ 205
korostaneet 205
etusijalla 205
yksimielinen 205
johonkin 205
kielen 205
kohtu@@ 205
ihmisoikeusrikkom@@ 205
toisi@@ 205
Mugab@@ 205
joulu@@ 204
kuolemaan 204
hämmä@@ 204
mielellään 204
kansallisista 204
katsottuna 204
onhan 204
terin 204
huoleen 204
keskimäärin 204
puutteen 204
muodon 204
yksien 204
sivuu@@ 204
laittomien 204
huomautti 204
taankin 204
vapaakauppa 204
viittaus 204
evä 204
tuotannosta 204
antaman 204
Dublin@@ 204
yhteyden@@ 204
ehty@@ 204
arvokka@@ 204
kuulin 204
kitaan 204
laatuun 204
järjestelyjen 204
alenn@@ 204
köön 204
käyttööno@@ 204
kiinnostaa 204
ketta 204
muodot 204
konflikti 204
riippuvainen 204
ympäri@@ 204
unn@@ 204
Ukrainan 204
kiintiöiden 203
menettel@@ 203
siirryn 203
one 203
edistyneet 203
Vi@@ 203
suurimmat 203
keneet 203
hylättiin 203
nelleet 203
ristiriito@@ 203
kahdeks@@ 203
tulo 203
mahdollisuuksista 203
amin 203
tarvittava 203
pystyneet 203
minkään 203
Internetissä 203
sovi 203
autonom@@ 203
tavoitteesta 203
mattomasti 203
jäsenillä 203
vallalla 203
siirtom@@ 203
rasist@@ 203
kansalaisuuden 203
päivän@@ 203
tulkita 203
piakkoin 203
määritelmän 203
sitoumukset 203
budjettivaliokunta 203
tari@@ 203
anssi@@ 203
yhtiö 203
Lamy 203
krist@@ 203
manne 202
seikoista 202
mehän 202
työpaikkaa 202
tapahtuisi 202
suunnat@@ 202
ylipäätään 202
paikallaan 202
mutkik@@ 202
välisiin 202
fuusi@@ 202
työmme 202
valinnan@@ 202
vätkö 202
nopeaa 202
tuomioistuinten 202
haasteeseen 202
ympäristö- 202
tärkeinä 202
varainhoidon 202
edelleenkään 202
menevät 202
suuriin 202
kumppanuutta 202
the 202
arvel@@ 202
isti 202
yksittäiset 202
kysyttävä 202
kriisiin 202
voimmeko 202
onnea 202
väärä 202
tarkoitusta 202
vastalause@@ 202
miljoonia 202
viikon@@ 202
tuomitsemme 202
laatineet 202
sellaisissa 202
puheenjohtajakau@@ 202
noiden 202
uhkaavat 202
täydy@@ 202
liberaali- 202
pääsee 202
ruots@@ 202
usk@@ 202
mot@@ 202
yhteistu@@ 202
Laeken@@ 202
koskivat 201
säätää 201
jäs@@ 201
täviin 201
yksityiskohtaisia 201
innissa 201
nopea 201
EU:lle 201
ylpeitä 201
eloku@@ 201
yksimielisyyttä 201
polku@@ 201
oton 201
mastaan 201
pysäh@@ 201
tehta@@ 201
amerikkalais@@ 201
seuraavasti 201
ioita 201
tam@@ 201
ejä 201
yksellä 201
heikko 201
vaikutu@@ 201
yksistään 201
ulkoministeri@@ 201
lopullisessa 201
pakkaus@@ 201
ääre@@ 201
Serbian 201
luomisesta 201
ksiensa 201
toreiden 201
kalastuslaivas@@ 201
perustuslakiin 201
kynnys@@ 201
Göteborgissa 201
telemään 200
aiheutti 200
luonne@@ 200
tuloja 200
ret 200
yhteiskuntamme 200
tarkoituksenmukais@@ 200
kasvavat 200
kyseisiä 200
jakau@@ 200
Genev@@ 200
tille 200
puhuja 200
edelle 200
joilta 200
super@@ 200
yksilön 200
yhteisölle 200
täytettävä 200
1991 200
3. 200
Pari@@ 200
ham@@ 200
co 200
yleisölle 200
rakentaminen 200
istuntosal@@ 200
metsien 200
hoide@@ 200
vastasi 200
juom@@ 200
voja 200
institution@@ 200
mietinnölle 200
puheenjohtajakaud@@ 200
nimenomaisesti 200
puolueita 200
reagoida 200
selki@@ 200
HVK:n 200
vastaisesti 200
margin@@ 200
mystä 200
maahanmuutto 200
ene 200
WTO:ssa 200
eläinkoke@@ 200
huone@@ 199
mieliin 199
päätet@@ 199
touko@@ 199
tavaksi 199
puuttuvat 199
eissa 199
järjestelyä 199
mahdolliseksi 199
määrät@@ 199
toivonut 199
oletan 199
teollisuudelle 199
ruuh@@ 199
pinta@@ 199
ankarasti 199
päätöslauselmaesitystä 199
nit 199
sopia 199
erillään 199
Tanskassa 199
tavallisesti 199
tehostettava 199
suvaitseva@@ 199
päätöksenteko@@ 199
kaiv@@ 199
sotilaallisia 199
valinta@@ 199
tyytyväisyy@@ 199
uskonnon@@ 199
Palac@@ 198
työskentelee 198
Suomen 198
päätöksellä 198
Wal@@ 198
tettaessa 198
edes@@ 198
itel@@ 198
tutkii 198
ttuun 198
p 198
soveltu@@ 198
televan 198
siirtymistä 198
pystytään 198
mielipiteet 198
Wi@@ 198
ratkaisematta 198
elimiä 198
purj@@ 198
kärsine@@ 198
halukas 198
virkamiehet 198
huolenaiheita 198
joill@@ 198
Wall@@ 198
lienee 198
oikeusasia@@ 198
proje@@ 198
lausuntoa 198
suurimmista 198
tilintarkastus@@ 198
mekanismeja 198
rauhanprosessin 198
mina 198
johdolla 198
kielellä 198
ob@@ 198
kaksin@@ 198
toimeenpano@@ 198
tieteellinen 198
haluaisivat 198
jouko@@ 198
huippukokoukseen 198
julistus 198
sky@@ 197
televisio@@ 197
työmarkkinoilla 197
luonteen 197
vieläpä 197
rahojen 197
én 197
tarkkoja 197
kats@@ 197
aliso@@ 197
Berliinissä 197
pörs@@ 197
muttei 197
taustaa 197
kkä 197
ukselle 197
hankinta@@ 197
pakettia 197
uusissa 197
äänestivät 197
eviä 197
ajille 197
tehtävästä 197
antamasta 197
voimia 197
kennel@@ 197
päästiin 197
ratkaisujen 197
11.00 197
potentiaal@@ 197
kuolle@@ 197
syntyi 197
Bas@@ 197
pääsihteeri 197
sodasta 197
ots@@ 197
turska@@ 197
taaj@@ 197
rez 197
Indonesian 196
ajatel@@ 196
panee 196
aloista 196
konservatiivi@@ 196
sanomalla 196
kevään 196
keä 196
koul@@ 196
nöyr@@ 196
useammat 196
osallistuttava 196
yhtenäismarkkinoiden 196
takuu@@ 196
korrupti@@ 196
ohjesään@@ 196
elle@@ 196
poliitikot 196
seurannut 196
tekemässä 196
pöytäkirjaa 196
saastuttaja 196
tarkastukset 196
osan@@ 196
ylläpitää 196
rekis@@ 196
asettanut 196
hygi@@ 196
Kaakkois 196
korostamme 196
98 196
68 196
läheisesti 196
mut@@ 196
kansanmur@@ 196
sieppa@@ 196
ajankohtainen 196
koolle 196
allians@@ 196
mankin 196
äiti@@ 196
hankkeeseen 196
yhdistel@@ 196
keskeisenä 196
väitetään 196
kehitysavun 196
unta 196
portugalila@@ 195
varalta 195
järjestys 195
jassa 195
yhdenmukaistaa 195
kollegaani 195
inkaan 195
alueellinen 195
mietinnöissä 195
rakennetta 195
ittavaa 195
alueilta 195
johda 195
opi@@ 195
viimeis@@ 195
telyn 195
virallisen 195
perustamiseen 195
puhumattakaan 195
Del@@ 195
vapaaehtois@@ 195
perustettiin 195
harjoittavat 195
maalle 195
luonnonvarojen 195
vasemmiston 195
lopulla 195
resurs@@ 195
virheitä 195
viedään 195
vaste@@ 195
jonkinlaista 195
asiallinen 195
del@@ 195
yksikkö 195
Er@@ 195
kumppani 195
säkin 195
jatkoa 195
laino@@ 195
kehittyy 195
vaikeuksista 195
lihan 195
hintaan 195
tarvittaviin 195
tyy@@ 195
kristillis@@ 195
mitätö@@ 195
Roman@@ 195
kykenee 195
for@@ 195
yhteiskun@@ 195
WTO@@ 195
Sahar@@ 195
käytännöllisesti 195
Barcelonassa 195
haasteet 194
koordinointi 194
edellinen 194
lisääntyminen 194
mietinnös@@ 194
poikkeuksellisen 194
neljäs 194
emisesta 194
mieliku@@ 194
toimisi 194
talouskasvun 194
le 194
fio@@ 194
lähde 194
2,@@ 194
ED@@ 194
prosentti@@ 194
levi@@ 194
valinn@@ 194
myöntäminen 194
sian@@ 194
arvoon 194
kokousten 194
läpinä@@ 194
virtojen 194
maksusitou@@ 194
nauttia 194
taistella 194
koskettaa 194
laajempi 194
tarkoitettuja 194
kohdin 194
sairauksien 194
kehitysmaille 194
torsta@@ 193
uudistuksesta 193
ihmishen@@ 193
tavana 193
byrokratiaa 193
havaittavissa 193
89 193
rakente@@ 193
välttämään 193
sosio@@ 193
yhtäläiset 193
sovelleta 193
järjestössä 193
tutkijoiden 193
vaihto 193
lainsäädäntöpäätöslauselman 193
hyväksymisestä 193
paikallisen 193
amerikkalaiset 193
tietyillä 193
alkan@@ 193
keskiviik@@ 193
07@@ 193
alkuperäistä 193
osallistui 193
työskentelemään 193
miestä 193
periksi 193
ihmisiin 193
kauppas@@ 193
tuoneet 193
ulottuv@@ 193
demokraattipuolueen 193
Napol@@ 193
pö@@ 193
ympäristönsuojelun 193
jarr@@ 193
vaikutusvalta@@ 193
aktiivinen 193
maailmanlaajuistumisen 193
yttämistä 193
rikkomis@@ 193
alkoholin 193
sotilaallinen 193
seikkaan 192
aiheuttama 192
kyvyn 192
pir@@ 192
imp@@ 192
nopeuttaa 192
tietyssä 192
luonnon 192
löytämiseksi 192
ksenne 192
analyysin 192
valvomaan 192
odotettavissa 192
itani 192
markkina 192
muilta 192
konferenssiin 192
toissijaisuusperiaatetta 192
torjunn@@ 192
talle 192
tehdyistä 192
kannattamaan 192
ksin 192
vaikuttamaan 192
jatkua 192
matkustaa 192
ulkominister@@ 192
raportissa 192
lopetettava 192
yksissä 192
heij@@ 192
tunnustamisen 192
maataloustuotteiden 192
tekemisissä 192
seuraamme 192
yksestä 192
rakentavasta 192
edellyt@@ 192
kohen@@ 192
kista 192
61 192
biassa 192
misella 191
itävalta@@ 191
IS@@ 191
todettakoon 191
aiheuttaman 191
kuljetuksia 191
pystynyt 191
infrastruktuurien 191
pääosaston 191
seikkojen 191
tiedoista 191
alkuun 191
tettä 191
pill@@ 191
perusteltu 191
aktiivista 191
oikais@@ 191
mälle 191
muutoksista 191
johdonmukaisuutta 191
antama 191
toiminnalle 191
prosentista 191
tarvittavan 191
vanhojen 191
yksimielisyyden 191
päättävät 191
lentokone@@ 191
iltapäivänä 191
ü@@ 191
inan 191
mikro@@ 191
onni@@ 191
sill@@ 191
keskeyty@@ 191
arvoihin 191
5. 191
pitäneet 191
vanhan 191
pim@@ 191
äänestän 191
inten@@ 191
hyväksyimme 191
korkealaatu@@ 191
strategiaan 191
Kamb@@ 191
Chil@@ 191
des 191
sukupolven 191
muusta 191
aidsin 191
kauppasopim@@ 191
edettävä 191
veren@@ 191
kolmikanta@@ 191
maid@@ 191
Bou@@ 191
miksei 190
terveys- 190
työskentelemme 190
net@@ 190
keskellä 190
mielenkiintoista 190
tutkitaan 190
mukaisten 190
aiheuttamien 190
ttuna 190
asukkaiden 190
tämää 190
N 190
osal@@ 190
keskuspan@@ 190
taloudelle 190
tuomioistuinta 190
estämme 190
itta 190
é 190
filoso@@ 190
nis@@ 190
hiilidioksidi@@ 190
maanviljelijöille 190
riskin@@ 190
sallii 190
tekosyy@@ 190
neg@@ 190
tai@@ 190
Alankoma@@ 190
henä 190
strategiassa 190
aikaansa@@ 190
huippukokouksesta 190
16. 190
tervetulle@@ 190
Vihre@@ 190
kriisiä 190
tuotteille 190
koordinaati@@ 190
ind@@ 190
tukahdutta@@ 190
avar@@ 190
henkilös@@ 190
pila@@ 190
järjestetty 189
kerton@@ 189
yksipuolisesti 189
000@@ 189
aiheuttaisi 189
hallitukseen 189
rahastosta 189
arviointiin 189
hankkeista 189
varsinainen 189
23. 189
tuomar@@ 189
sellaisille 189
riskin 189
insäädännön 189
kirja@@ 189
kehitykselle 189
osakke@@ 189
vero 189
Tä@@ 189
nainen 189
mets@@ 189
esittävät 189
salais@@ 189
kensä 189
kisin 189
lyhyt 189
kohdistuvan 189
mie@@ 189
kilpa@@ 189
tieto- 189
lajien 189
YM@@ 189
televät 189
demokraattiset 189
suhteell@@ 189
tekemiä 189
Re@@ 189
rahastoa 189
pinta 189
maatalou@@ 189
kohdellaan 189
epäinhimill@@ 189
rahoitusmarkkinoiden 189
keksin@@ 189
Galician 189
noudattanut 189
laaja@@ 189
dop@@ 189
Bar@@ 188
kielletty 188
käymään 188
pyyntöön 188
huomautusta 188
tuovat 188
arvioinnissa 188
sopivia 188
kataan 188
tyminen 188
imäärä@@ 188
harjoitetaan 188
uudistamisesta 188
valtioll@@ 188
voidaksemme 188
syv@@ 188
gin@@ 188
legitim@@ 188
vaaraa 188
diplomati@@ 188
tekemättä 188
tulevaan 188
sääntely 188
perustettava 188
totesitte 188
kkiin 188
kansantasa@@ 188
kollektiiv@@ 188
lentoken@@ 188
istu 188
ilahduttavaa 188
Palestiin@@ 188
federa@@ 188
ehdotetun 188
kohdel@@ 188
konflikteja 188
mielenoso@@ 188
ympäristössä 188
poliittisella 188
tuomittava 188
jätettä 188
vähenn@@ 188
30@@ 188
G8 188
liiketoim@@ 188
verrata 188
Latinalais@@ 188
perustavan@@ 188
Vietnamin 188
asetusten 187
houku@@ 187
yhtyy 187
ajankohtana 187
perusteltuja 187
tikään 187
piste@@ 187
molemmin@@ 187
laatiman 187
kuunnel@@ 187
muka 187
lopun 187
tuohon 187
aloittanut 187
sisälly 187
kou@@ 187
puhuitte 187
esimerki@@ 187
toimintaohjelma 187
tuaan 187
Maa@@ 187
torj@@ 187
Niel@@ 187
Balkanilla 187
emisestä 187
mainittakoon 187
tehtävässä 187
tuloksesta 187
vaihtaa 187
tuotteisiin 187
korvausta 187
kansoja 187
amat 187
Tukhol@@ 187
matkalla 187
halve@@ 187
rakentavaa 187
assosi@@ 187
USA:n 187
palauttamista 187
Itäm@@ 187
toimite@@ 187
lentom@@ 187
Doh@@ 187
artikl@@ 186
tyytyä 186
asiakirjo@@ 186
tiukka 186
tasalle 186
useista 186
uskottavuutta 186
elintarv@@ 186
uskovat 186
vanhoja 186
yttiin 186
tupakan 186
Kore@@ 186
teollisuuden@@ 186
opposition 186
puheenvuor@@ 185
SE@@ 185
F 185
symbol@@ 185
Bla@@ 185
III 184
vanho@@ 184
iota 184
maaseud@@ 184
lais@@ 184
ykset 184
antibio@@ 184
Hussein 184
Bra@@ 183
uskonn@@ 183
ron@@ 183
Verheugen 183
Ab@@ 183
81 182
oc@@ 182
69 182
kuuta 182
Nielson 182
77 182
Kolum@@ 182
tiedus@@ 182
Monterre@@ 182
politiikka@@ 181
eltaan 181
kut@@ 181
liiketo@@ 181
tyytyvä@@ 181
seis@@ 180
ilman@@ 180
joja 180
direktiiv@@ 180
byrokra@@ 180
huoleh@@ 180
infor@@ 180
erinom@@ 180
93 180
150 180
kunnianhim@@ 180
M 180
aud@@ 179
aisin 179
hetke@@ 179
varm@@ 179
sovitta@@ 179
kl@@ 179
tini 179
Su@@ 179
varain@@ 179
IL@@ 179
pornogra@@ 179
kuor@@ 179
loka@@ 179
immät 178
monik@@ 178
era@@ 178
arti@@ 178
pu 178
ve 178
omet@@ 178
marras@@ 177
bour@@ 177
tellen 177
jus@@ 177
To@@ 177
Kor@@ 177
aw@@ 177
ttunut 176
Ko@@ 176
istan 176
Egyp@@ 176
void@@ 176
Q@@ 176
Ara@@ 176
riit@@ 175
Po@@ 175
insääd@@ 175
San 175
käd@@ 175
lun@@ 175
htu@@ 175
da 175
anti@@ 175
87 174
ytty 174
B 174
heinä@@ 174
don@@ 174
luvu@@ 174
Sol@@ 174
A:n 174
määräraho@@ 174
Mus@@ 174
Moldo@@ 174
asiall@@ 173
aikaan@@ 173
tere@@ 173
varmas@@ 173
Verheu@@ 173
issu@@ 173
97 173
profess@@ 173
viljelijät 173
kän 173
Som@@ 173
2008 173
ran 173
Kaliningra@@ 173
pyytä@@ 172
vaat@@ 172
ologi@@ 172
omaisesti 172
Pas@@ 172
assaol@@ 171
one@@ 171
Mor@@ 171
Bulgarian 171
wa@@ 171
Ba@@ 171
mieli@@ 170
strö@@ 170
vastuun@@ 170
ken 170
teur@@ 170
kannan@@ 169
artik@@ 169
120 169
hem@@ 168
88 168
pelk@@ 168
keskit@@ 168
ES@@ 168
pakka@@ 168
He@@ 168
kristi@@ 168
64 168
Zimbabw@@ 168
Echelon 168
Berluscon@@ 168
imatta 167
91 167
Mic@@ 167
ykseen 167
roati@@ 167
and 167
Nigerian 167
loo@@ 166
Schreyer 166
kunnassa 166
Byrne 166
lob@@ 166
alkoh@@ 166
Tim@@ 166
Bolkes@@ 166
huolestu@@ 165
taus@@ 165
82 165
rekister@@ 165
ehdottom@@ 165
ssäni 165
HVK@@ 165
nnön 165
enla@@ 165
teesta 165
viol@@ 165
ener@@ 165
i- 164
08@@ 164
ator@@ 164
Du@@ 164
teg@@ 164
59 164
ov 164
Erasmus 164
Tunisian 164
tit@@ 163
opti@@ 163
semin@@ 163
II@@ 163
no 163
lim@@ 163
inä@@ 163
yhdeks@@ 163
tion 163
Mc@@ 163
Jugosla@@ 163
bin 163
Rü@@ 163
Saharan 163
merik@@ 162
bud@@ 162
dra@@ 162
lam@@ 162
CO@@ 162
kui@@ 162
94 161
tehokk@@ 161
öö@@ 161
Cam@@ 161
nau@@ 161
ord@@ 161
ulkor@@ 161
+ 161
Med@@ 161
Bel@@ 161
kra@@ 161
äh@@ 161
Posselt 161
bus@@ 161
Kab@@ 161
Bu@@ 161
Helsing@@ 160
ren 160
mieles@@ 160
ire 160
propagan@@ 160
inf@@ 160
Aznar 160
dt 160
200@@ 160
ICA@@ 160
Bre@@ 159
hyväks@@ 159
bas@@ 159
hah@@ 159
f 159
llisessa 159
hämmästy@@ 159
kautta@@ 159
nar@@ 159
ro 159
ir 159
ristiriid@@ 159
osoituks@@ 159
hap@@ 159
ere@@ 159
Mi@@ 159
Randzio 158
argu@@ 158
sion 158
yleisö@@ 158
Leon@@ 158
Mü@@ 158
tlan@@ 158
jel@@ 158
OEC@@ 158
ò@@ 158
ow@@ 157
isat 157
ale@@ 157
lta 157
use 156
Europol 156
ylpe@@ 156
ivan@@ 156
Costa 156
käsittä@@ 156
DE@@ 156
pall@@ 156
mm@@ 156
Schmid@@ 156
homos@@ 156
kulj@@ 155
Poet@@ 155
huoll@@ 155
gissa 155
86 155
OLAF@@ 155
ysä@@ 155
muukalais@@ 155
UEN 155
vilj@@ 155
ant@@ 155
Berlusconi 155
Red@@ 154
Davi@@ 154
Austr@@ 154
Buitenwe@@ 154
tamissa 153
Mit@@ 153
83 152
McCar@@ 152
rad@@ 152
No@@ 152
mielell@@ 152
pus@@ 152
nee 152
Fatuzzo 152
katsot@@ 151
tausta@@ 151
AR@@ 151
huhti@@ 151
kijö@@ 151
ytä@@ 151
Tsa@@ 151
Pac@@ 151
Vel@@ 151
84 151
MEDA 151
opt 151
Prestige 151
runsa@@ 150
Kinnock 150
entin 150
Ra@@ 150
atu@@ 150
tön@@ 150
Ti@@ 150
Jarzembows@@ 150
Giscard 150
never@@ 149
Tamper@@ 149
Meksi@@ 149
symb@@ 149
vähimmä@@ 149
ard@@ 149
tavaro@@ 149
lin 149
vian 149
vähem@@ 148
visi@@ 148
liikkuma@@ 148
onut 148
nit@@ 148
OLAF 148
Irlann@@ 148
600 148
11.30 148
1980 148
är@@ 147
Roth 147
rahoit@@ 147
ECHO 147
Kinno@@ 147
And@@ 147
oko 147
Skot@@ 147
than 147
­ 147
issani 147
ley 147
Valenci@@ 147
Martí@@ 147
toista@@ 146
tukahd@@ 146
help@@ 146
sson 146
Am@@ 146
Labour 146
Lat@@ 146
den@@ 145
Liik@@ 145
ive 145
pääsy@@ 145
kolog@@ 145
TE@@ 145
tera@@ 145
V 145
Angol@@ 145
assosiaati@@ 145
uaal@@ 145
Lamfalus@@ 145
ganis@@ 145
c 144
neuv@@ 144
vuoros@@ 144
Go@@ 144
Caud@@ 144
Dell 144
manipu@@ 144
Cohn 144
the@@ 144
käynnin 144
Roth@@ 144
21@@ 143
medi@@ 143
Swob@@ 143
Haarder 143
usin 143
Crespo 142
deja 142
ó@@ 142
L 142
heen 142
br@@ 142
ry@@ 142
76 142
esitteli@@ 142
250 142
sairau@@ 142
minuu@@ 142
Maij 142
Sevill@@ 142
ulkop@@ 142
teell@@ 141
poliit@@ 141
sohjel@@ 141
aio@@ 141
rahan@@ 141
ippu@@ 141
nation@@ 141
Bow@@ 141
id 141
dies@@ 141
fiel@@ 141
asbes@@ 141
aankin 140
rou@@ 140
opin@@ 140
toida 140
Ur@@ 140
tellään 140
anom@@ 140
El@@ 140
päiv@@ 140
trate@@ 140
sian 140
pull@@ 140
GMO 140
Joh@@ 140
epäsuor@@ 140
EP@@ 140
Bag@@ 140
Mad@@ 139
Langen@@ 139
soon 139
Europol@@ 139
kaks@@ 139
titu@@ 139
ry 139
Sella@@ 139
ad 138
uutena 138
asiantun@@ 138
dio@@ 138
Kir@@ 138
Turk@@ 138
aiot@@ 138
bro@@ 138
Or@@ 138
Sterck@@ 138
Hau@@ 138
Sac@@ 138
1989 137
eir@@ 137
valv@@ 137
Koso@@ 137
ón 137
aids 137
tto@@ 137
aut@@ 137
over@@ 137
monella 137
nnö@@ 137
räjä@@ 137
Hol@@ 136
anna@@ 136
tuoll@@ 136
hier@@ 136
ile 136
tiedonann@@ 136
Jerus@@ 136
Mac@@ 136
usti@@ 136
Japan@@ 136
viit@@ 136
WH@@ 136
Välimer@@ 136
Var@@ 136
Suu 136
käsi 135
Hul@@ 135
rj@@ 135
kehity@@ 135
72 135
Myan@@ 135
Aung 135
Nig@@ 135
Sri 134
Goeb@@ 134
rap@@ 134
aih@@ 134
suhta@@ 134
aph@@ 134
kassa 133
kolle@@ 133
lleet 133
ketaan 133
73 133
joka@@ 133
tavoitteen@@ 133
Javier 133
viikko@@ 133
yhdy@@ 133
Ca@@ 133
fas@@ 133
ler 133
Schengen 133
rais@@ 132
syys@@ 132
ven 132
inna 132
arkalu@@ 132
IV 132
bur@@ 132
ard 132
nell@@ 132
ettaa 132
GAT@@ 132
alia 131
Monti 131
enimmä@@ 131
Vir@@ 131
Gibr@@ 131
kik@@ 131
tekos@@ 131
ratka@@ 131
Dan@@ 131
Nistic@@ 131
end@@ 130
yp@@ 130
kep@@ 130
aria 130
Ver@@ 130
ois@@ 130
Corbet@@ 130
ya 130
Cash@@ 130
illään 130
SIS 130
che@@ 129
des@@ 129
liitt@@ 129
Bon@@ 129
Gar@@ 129
tietok@@ 129
ettis@@ 129
co@@ 129
tuken@@ 128
Wallström 128
Haar@@ 128
Thor@@ 128
pyrk@@ 128
risti@@ 128
radi@@ 128
Bulgar@@ 128
Do@@ 128
und@@ 128
Husse@@ 128
Tou@@ 128
Fär@@ 128
Sta@@ 127
toivotta@@ 127
ttä 127
Venezu@@ 127
periaa@@ 127
79 127
turvapa@@ 127
kysel@@ 127
zu 127
fin 127
tituu@@ 127
iten 127
apor@@ 127
presid@@ 126
Swoboda 126
terro@@ 126
irtis@@ 126
parado@@ 126
PP@@ 126
Ter@@ 126
AK@@ 126
Lom@@ 126
Sar@@ 126
Graefe 126
Baringdor@@ 126
spon@@ 126
eEurope 126
Ech@@ 126
White@@ 126
ASEM 126
sel 125
paikka@@ 125
Pal@@ 125
Tor@@ 125
PV@@ 125
ison 125
Mat@@ 125
Oomen 125
maas@@ 124
eves@@ 124
Guatem@@ 124
uuta 124
Berg 124
ensinnä@@ 124
viest@@ 124
top@@ 124
miehi@@ 124
gan@@ 124
dis@@ 124
Dupuis 124
kong@@ 124
vauh@@ 124
Lin@@ 124
Sen@@ 124
Coll@@ 124
Cun@@ 123
investointe@@ 123
human@@ 123
minkään@@ 123
kulttu@@ 123
tolta 123
neljän@@ 123
Brok 123
kill@@ 123
Ac@@ 123
Sloven@@ 123
oun@@ 123
Ludfor@@ 123
ez 122
myö@@ 122
hyödynnet@@ 122
pidem@@ 122
Medina 122
kauppa- 122
Méndez 122
Ruij@@ 122
Mercos@@ 122
78 121
X@@ 121
kriteer@@ 121
Th@@ 121
antasa@@ 121
Galic@@ 121
Jacks@@ 121
Pur@@ 121
Sten@@ 121
nnet@@ 121
jalka@@ 121
sem@@ 121
At@@ 121
Jarzembowski 121
tri@@ 120
So@@ 120
totali@@ 120
Byr@@ 120
militar@@ 120
Jean 120
häpe@@ 120
ira 120
urg@@ 120
agu@@ 120
Bourlan@@ 119
met 119
Tu@@ 119
IM@@ 119
Schrö@@ 119
työnte@@ 119
Maes 119
Tit@@ 119
Lam@@ 119
itaa 118
moti@@ 118
pitäisik@@ 118
Wog@@ 118
sto@@ 118
lantila@@ 118
int@@ 118
ruption 118
arm@@ 118
automaatt@@ 118
García 118
impl@@ 118
Oostlan@@ 118
ity 118
AS 118
Banglades@@ 118
Sharon 118
kasvan@@ 117
For@@ 117
Peij@@ 117
inten 117
tetusti 117
essa@@ 117
tömästi 117
talo@@ 117
vun 117
toimivall@@ 117
Porto 117
Hatzidak@@ 116
has@@ 116
Vall@@ 116
pöytä@@ 116
Men@@ 116
dem@@ 116
Ita@@ 116
pessimis@@ 116
arvon@@ 116
varmaan@@ 116
74 116
ituksessa 116
spe@@ 116
geneett@@ 116
Malm@@ 116
la 116
Korea 116
020@@ 115
entis@@ 115
musten 115
Kuu@@ 115
Vig@@ 115
Pol@@ 115
Ugan@@ 115
log@@ 115
tian 115
Blair 115
nauta@@ 115
esityslista@@ 114
110 114
detään 114
kohtana 114
autom@@ 114
Sou@@ 114
mun@@ 114
kyvyt@@ 114
kro@@ 114
Albanian 114
Solbes 114
toisa@@ 114
Ban@@ 114
800 114
Orteg@@ 114
plan@@ 114
anan 114
El 114
mielip@@ 114
ologian 114
nes@@ 114
intermod@@ 114
ge 113
musi@@ 113
kunnian@@ 113
ppa@@ 113
monimuotois@@ 113
Mul@@ 113
Monte@@ 113
Steven@@ 113
US@@ 113
Miguélez 113
Aleg@@ 113
television 112
ch 112
perustell@@ 112
és 112
imiel@@ 112
G 112
taar@@ 112
Liikanen 112
oul@@ 112
Lanno@@ 112
or 112
017@@ 112
AL@@ 112
Katifor@@ 112
ré@@ 112
Vietna@@ 112
Indon@@ 111
Romano 111
ark@@ 111
Y:n 111
for 111
sivi@@ 111
viivä@@ 111
Arafat 111
harmon@@ 111
ci@@ 111
kemi@@ 111
alle@@ 111
Eura@@ 111
FA@@ 111
Tra@@ 111
yksis@@ 110
arkk@@ 110
fossi@@ 110
itsisi 110
Flor@@ 110
Morgan@@ 110
Salafran@@ 110
ajoneu@@ 110
Mill@@ 110
inves@@ 110
don 110
Sal@@ 110
Pir@@ 110
ASE@@ 110
nez 109
Euratom 109
Jacques 109
m. 109
matk@@ 109
les@@ 109
orm@@ 109
019@@ 109
eder@@ 109
Sierra 109
Ander@@ 109
2015 109
Thessalon@@ 109
Hans 109
Verhofsta@@ 109
700 108
alta@@ 108
pin@@ 108
sanomal@@ 108
Armen@@ 108
AC@@ 108
nández 108
post@@ 108
taulu@@ 108
Maurita@@ 108
helmik@@ 107
eira 107
Gil 107
Casac@@ 107
mos@@ 107
Haid@@ 107
Uni@@ 107
uno@@ 107
htunut 107
tähän@@ 107
ika 107
Nic@@ 107
car@@ 107
eivät@@ 107
Paul@@ 107
aggres@@ 107
AF@@ 107
dor@@ 107
adop@@ 107
Sil@@ 107
Burund@@ 107
Cox 106
fe@@ 106
ar 106
Schre@@ 106
dar@@ 106
li 106
eman 106
hon@@ 106
Lagendij@@ 106
valuu@@ 106
uhd@@ 106
Lamassour@@ 106
am 105
Cres@@ 105
05 105
hdo@@ 105
take@@ 105
hetk@@ 105
Schul@@ 105
sym@@ 105
monimuo@@ 105
vastan@@ 105
George 105
ikä 105
kaupan@@ 105
Blo@@ 105
mar 104
kolme@@ 104
UC@@ 104
Ta@@ 104
Amster@@ 104
prim@@ 104
mielipid@@ 104
Diamantop@@ 104
Mugabe 104
Rad@@ 104
kuning@@ 104
viim@@ 103
haja@@ 103
Leh@@ 103
hom@@ 103
1.@@ 103
Ä@@ 103
Diamantopoulou 103
Nichol@@ 103
1408 103
Saudi 103
Mir@@ 103
José 103
Britan@@ 103
Ger@@ 103
toden@@ 103
Å@@ 103
sun@@ 102
Le 102
Kes@@ 102
Söder@@ 102
kiinti@@ 102
tuhan@@ 102
tre@@ 102
EC@@ 102
zen 102
Hautal@@ 102
TRIPS 102
Kofi 102
oles@@ 102
aller@@ 102
mas 102
Sanders 102
Fatuzz@@ 102
täänkin 101
jet@@ 101
amma@@ 101
Gaz@@ 101
Balkan@@ 101
by@@ 101
konkre@@ 101
rac@@ 101
krite@@ 101
käynn@@ 101
Michel 101
ez@@ 101
ill 101
Tob@@ 100
Sep@@ 100
Sud@@ 100
Howit@@ 100
kot@@ 100
ino 100
3.@@ 100
Jord@@ 100
Alavan@@ 100
ihinkin 100
j 99
usi 99
olisik@@ 99
il 99
Izquierdo 99
Watson 99
Ö@@ 99
Bro@@ 99
uttom@@ 99
vallankum@@ 99
imer@@ 99
Ni@@ 99
Staun@@ 99
Gah@@ 99
Seveso 99
Schroed@@ 98
ies 98
istunn@@ 98
pahoill@@ 98
eläk@@ 98
labor@@ 98
Ari@@ 98
kerr@@ 98
evi@@ 98
Á@@ 98
ric@@ 98
Morill@@ 98
González 97
Ribeiro 97
iz@@ 97
Papayanna@@ 97
tab@@ 97
ts 97
Karaman@@ 97
ga@@ 97
Feir@@ 97
moja 97
shar@@ 97
hes@@ 97
Ly@@ 96
ration@@ 96
ert 96
ca 96
tarvi@@ 96
helppo@@ 96
popul@@ 96
vyö@@ 96
imit@@ 96
HV@@ 96
350 96
veri@@ 96
ber 96
aman@@ 96
aatt@@ 96
Media 96
Wyn@@ 95
Pla@@ 95
mid@@ 95
Chi@@ 95
autu@@ 95
kasvihuone@@ 95
tak@@ 95
Cus@@ 95
instituu@@ 95
lait@@ 95
vasem@@ 95
CA@@ 95
diag@@ 95
rates 95
Brenn@@ 95
ris 95
reas@@ 95
Herz@@ 95
Tem@@ 95
gar@@ 94
Br@@ 94
Grossetê@@ 94
kkinä 94
emit@@ 94
Eurodac 94
attisen 94
hard 94
Corbett 94
see 94
Napoli@@ 94
IT@@ 94
leg@@ 94
Possel@@ 94
moot@@ 94
Mas@@ 94
Gor@@ 93
auti@@ 93
annes@@ 93
Gi@@ 93
ky 93
fil@@ 93
hön 93
gall@@ 93
Iran 93
itetta 92
valvon@@ 92
Romania 92
enpäin 92
enaan 92
Län@@ 92
kollegan@@ 92
ho 92
Be@@ 92
are 92
uttavaa 92
Andalu@@ 92
McKenna 92
ety 91
Fin@@ 91
Tr@@ 91
gia 91
med 91
tehokkuu@@ 91
veron@@ 91
Sing@@ 91
contro@@ 91
erin@@ 90
itor@@ 90
Barni@@ 90
Ad@@ 90
Pakistan@@ 90
mukan@@ 90
viha@@ 90
put@@ 90
uli@@ 90
anto 90
nesty 90
fan@@ 90
AT@@ 90
Tunisi@@ 90
Esta@@ 90
Learning 90
Ortuon@@ 90
08 89
ck@@ 89
valvonn@@ 89
nuore@@ 89
umi 89
ennut 89
osoituksia 89
termin@@ 89
go 89
terrori@@ 89
Varela 89
wi@@ 89
lip@@ 88
siirry@@ 88
päätöslauselmaes@@ 88
aikaisesti 88
à@@ 88
nään 87
Duisenberg 87
om 87
kkais@@ 87
kierr@@ 87
International 87
seks@@ 87
täältä 87
Luxemb@@ 87
air@@ 87
.000 87
mo 86
ø@@ 86
ollu@@ 86
myös@@ 86
ner 86
PVC 86
aanko 86
set 86
ong 86
keli@@ 86
Hu@@ 86
gal@@ 86
ah 86
bia 86
hill 86
EC 85
les 85
takais@@ 85
kysym@@ 85
out 85
päivällä 85
sensu@@ 85
Harbour 85
Migu@@ 85
Eurostat 84
Behrend@@ 84
nur@@ 84
sky 84
Busqu@@ 84
espan@@ 84
sivis@@ 84
Gra@@ 84
chet 84
drama@@ 84
kanis@@ 84
varautu@@ 84
Bendit 84
oun 84
head@@ 84
tw@@ 84
kuin@@ 84
Afganistan@@ 84
syner@@ 83
gan 83
usina 83
kis 83
ST@@ 83
korrup@@ 83
LIFE 83
est 83
Liber@@ 83
ttaessa 82
bin@@ 82
Brys@@ 82
norm@@ 82
ittäin 82
tuomioistu@@ 82
Lannoye 82
neu@@ 82
Bosnia 82
kivat 82
plas@@ 82
suuntavi@@ 81
vottom@@ 81
unoh@@ 81
ç@@ 81
töö@@ 81
Si@@ 81
X 81
res 81
demokra@@ 81
itten 81
onian 81
Karas 81
ers 81
Zimbabwe 81
Hel@@ 80
kesken@@ 80
Galeote 80
anteen 80
entu@@ 80
pasi@@ 80
Alban@@ 80
inc@@ 80
essakin 80
onissa 80
deter@@ 80
depar@@ 79
star@@ 79
bu@@ 79
apa@@ 79
Eurojust 79
OP@@ 79
porte@@ 79
ryhm@@ 79
sopus@@ 79
teko@@ 79
inv@@ 79
mila@@ 79
Castr@@ 79
Pat@@ 79
ioksi@@ 79
ash@@ 79
Sc@@ 79
Nev@@ 79
inter@@ 78
keskisuur@@ 78
nnä 78
sl@@ 78
aissa 78
net 78
version 78
Im@@ 78
okra@@ 78
tos 78
ikaa 78
Weggen 78
MacCorm@@ 78
ada 78
radik@@ 78
ktiiv@@ 78
ikenn@@ 78
Kong@@ 78
sch 77
teeksi 77
ily 77
jatket@@ 77
0 77
hiu@@ 77
pat@@ 77
hard@@ 77
bra@@ 77
neutra@@ 77
Evans 76
luop@@ 76
ise 76
typ@@ 76
valu@@ 76
AI@@ 76
aul 76
De@@ 76
Zimbab@@ 76
ars 76
ã@@ 76
Plath 75
asetu@@ 75
vakuuttu@@ 75
inde@@ 75
suhtaudu@@ 75
ähte@@ 75
töön@@ 75
NAT@@ 75
lien@@ 75
Maghreb 75
tali@@ 75
eva@@ 75
European 75
tehok@@ 74
LA@@ 74
Fontain@@ 74
Tii@@ 74
Isra@@ 74
nan@@ 74
äty@@ 74
Con@@ 74
ella@@ 74
minuut@@ 74
tekijä@@ 74
SE 74
his@@ 74
Gal@@ 74
Bos 74
Gonzá@@ 74
ns 73
hjel@@ 73
toimen@@ 73
ote 73
Fra@@ 73
nella 73
järj@@ 73
ME@@ 73
Mo@@ 73
wan@@ 73
open 73
Nizz@@ 73
Cas@@ 72
stu@@ 72
Equal 72
sti@@ 72
Wurtz 72
elon 72
käytettä@@ 72
temp@@ 72
haluais@@ 72
reg@@ 72
Europe 72
virus 72
ck 72
ETA 72
Peters@@ 72
som@@ 72
FIF@@ 72
illi@@ 71
World 71
too 71
NATO 71
sion@@ 71
Thessalonik@@ 71
As@@ 71
hiilidioksi@@ 71
Jos@@ 71
meat 71
massa@@ 70
pe 70
modern@@ 70
far@@ 70
aani 70
esion 70
Bi@@ 70
Belder 70
Mann 70
pitemmä@@ 69
Wogau 69
vied@@ 69
sijais@@ 69
sanon@@ 69
hyök@@ 69
vic@@ 69
myönn@@ 69
rea 69
Lucas 69
ing 69
J 69
hirv@@ 68
time@@ 68
uc@@ 68
can 68
tettuina 68
isuuden@@ 68
ryö@@ 68
Char@@ 68
rat 68
tilann@@ 68
if@@ 68
Hughes 68
Guinea 68
Ramo@@ 68
aus@@ 67
varmuu@@ 67
naapu@@ 67
maase@@ 67
Mu@@ 67
ties 67
sens@@ 67
ama@@ 67
gro@@ 67
dre@@ 67
Kööpenhamin@@ 67
istakin 67
im 67
ony 67
tamin@@ 67
ell 67
Sadd@@ 67
juris@@ 66
British 66
edera@@ 66
big 66
tettu@@ 66
pati@@ 66
bert 66
Luc@@ 66
EA@@ 66
töni 66
mys@@ 66
provo@@ 66
luet@@ 65
sub@@ 65
stra@@ 65
que 65
kuuka@@ 65
Kosovo 65
Ag@@ 65
dog@@ 65
ike 65
con@@ 65
Hugh@@ 65
ström 65
à 65
ahas@@ 65
oneu@@ 65
Marok@@ 65
Milosevi@@ 65
Putin 65
ster@@ 65
Di@@ 65
veh@@ 65
ex@@ 64
konf@@ 64
Reding 64
dy 64
Frass@@ 64
innova@@ 64
Weg@@ 64
lääkin@@ 64
non 64
oik@@ 64
Chirac 64
ki- 63
Rap@@ 63
Mulder 63
käyttöö@@ 63
esimerkke@@ 63
ord 63
ego@@ 63
Morillon 63
Blokland 63
Afganis@@ 63
Castro 63
ures 63
lamen@@ 62
Thea@@ 62
kre@@ 62
Sjöstedt 62
Frassoni 62
opar@@ 62
sp@@ 62
ppi 62
del 62
.e@@ 62
land@@ 61
199@@ 61
analys@@ 61
minu@@ 61
opportun@@ 61
koos@@ 61
ges 61
Kal@@ 61
ú@@ 61
Latin@@ 61
Mercosur 61
Bend@@ 61
ulkorajo@@ 61
tras@@ 61
Galile@@ 61
TR@@ 60
salli@@ 60
pääse@@ 60
identi@@ 60
fos@@ 60
app@@ 60
fal@@ 60
pass@@ 60
ía 60
Staes 60
uudessaan 60
Mer@@ 60
tosis@@ 60
laim@@ 59
um 59
mann 59
halun@@ 59
ase 59
idemokra@@ 59
Sjöste@@ 59
ittavissa 59
lent@@ 59
U 59
arme@@ 59
isuun 59
solid@@ 59
yo@@ 59
ques@@ 59
posti 59
pr@@ 59
ws 59
kaikk@@ 59
fur@@ 59
imperi@@ 59
Estaing 59
fel@@ 59
Bulgaria 59
dro@@ 58
Atlan@@ 58
Internet@@ 58
ation@@ 58
mili@@ 58
enä@@ 58
systema@@ 58
pann@@ 58
Jun@@ 58
sosi@@ 58
Pak@@ 58
alko@@ 58
ff 58
we@@ 58
Sy@@ 58
Kalining@@ 58
äy@@ 57
IN@@ 57
Ste@@ 57
parlamenti@@ 57
Behrendt 57
bel 57
kamp@@ 57
ennalta@@ 57
USA 57
haavo@@ 57
ef@@ 57
Perry 57
gent@@ 57
syr@@ 56
uudell@@ 56
EL@@ 56
komis@@ 56
attaa 56
ñ@@ 56
dik@@ 56
ent 56
ug@@ 56
vähin@@ 56
ksikin 56
Busquin 56
CE 56
insäädä@@ 56
kantas@@ 56
Irish 56
rich@@ 56
BK@@ 55
suh@@ 55
istan@@ 55
lit 55
valio@@ 55
ay 55
Napolitano 55
säh@@ 55
OS@@ 55
erb@@ 55
McK@@ 55
isiko 55
MacCormick 55
Schmidt 55
TAC@@ 55
maj@@ 55
alli@@ 55
join 54
pl@@ 54
ou 54
istuntos@@ 54
Min@@ 54
ester@@ 54
fis@@ 54
opa@@ 54
ó 54
char@@ 54
wan 54
med@@ 54
Rio 54
vastuus@@ 53
tekemäs@@ 53
sikä@@ 53
Maastrich@@ 53
perussopimus@@ 53
ben@@ 53
edistys@@ 53
katastro@@ 53
iken@@ 53
fe 53
resis@@ 53
Ju@@ 53
mpia 53
enkaan 53
etteko 52
onte@@ 52
Malta 52
suosion@@ 52
merkitse@@ 52
wo@@ 52
Col@@ 52
ansall@@ 52
mant@@ 52
DA@@ 52
kedon@@ 52
bels 52
rati@@ 52
mitä@@ 52
kand@@ 52
hat@@ 52
pasiteet@@ 52
ferens@@ 52
kloon@@ 52
Lehne 52
Peter@@ 51
Duisen@@ 51
udan@@ 51
imäär@@ 51
Trans@@ 51
eth@@ 51
Com@@ 51
tuina 51
Pres@@ 51
The 51
kustan@@ 50
Lis@@ 50
ääd@@ 50
Ex@@ 50
onom@@ 50
put 50
Lissab@@ 50
RE@@ 50
Ang@@ 50
got 50
anti 50
her 50
separ@@ 50
Kauppi 50
Gro@@ 50
majo@@ 50
Gale@@ 50
cu@@ 50
Gö@@ 50
ins 50
Savary 50
NS 50
siep@@ 50
lling 50
Sand@@ 50
ipa 49
ger@@ 49
bes@@ 49
Pr@@ 49
olos@@ 49
ep 49
prag@@ 49
Ludford 49
0.@@ 49
Algeria 49
pensa@@ 49
eur@@ 49
Wurt@@ 48
elitte@@ 48
enc@@ 48
ysti 48
shi@@ 48
mid 48
set@@ 48
vol@@ 48
ence 48
sus@@ 48
Tunisia 48
lisään@@ 48
ï@@ 48
ECO@@ 48
ub@@ 48
flu@@ 48
ikö 47
EN 47
lot 47
osp@@ 47
Jac@@ 47
etukä@@ 47
polit@@ 47
soon@@ 47
ittelen 47
tekop@@ 47
vern@@ 47
isen@@ 47
EU@@ 47
ary 47
head 47
ese 47
enter@@ 47
Mol@@ 47
Taiwan 47
niin@@ 46
koheesi@@ 46
oda 46
EMU 46
rekti@@ 46
imag@@ 46
mobil@@ 46
bri@@ 46
käsittelev@@ 46
UT@@ 46
vis 46
tulis@@ 46
st@@ 46
äätä@@ 46
Mag@@ 46
Pirker 46
ames 46
hansa 46
DS 46
loy@@ 46
Stock@@ 46
idem@@ 46
eler@@ 45
välia@@ 45
ce 45
Pakistan 45
torjun@@ 45
France 45
w 45
itakin 45
sc@@ 45
sis 45
cal@@ 45
IS 45
House 45
Y 44
kandaal@@ 44
opol@@ 44
ally 44
rus@@ 44
Ven@@ 44
analy@@ 44
enkään 44
cel@@ 44
olenna@@ 44
Alankom@@ 44
Katiforis 44
Un@@ 44
bon 44
Taliban 44
zz@@ 44
red@@ 44
Bos@@ 44
Kosovos@@ 43
í 43
oura@@ 43
prosenti@@ 43
Den@@ 43
fu@@ 43
reite@@ 43
rar@@ 43
venä@@ 43
off@@ 43
Buitenweg 43
mer 43
rajatyl@@ 43
verrat@@ 42
Bud@@ 42
trans@@ 42
Au@@ 42
tutus@@ 42
ulkominis@@ 42
tyl@@ 42
huoles@@ 42
tuhann@@ 42
Sterckx 42
hiljat@@ 42
demokraatit 42
tekni@@ 42
isimman 42
multi@@ 42
ministerik@@ 42
eenkin 42
mes 42
Fir@@ 42
Slovakia 42
Canc@@ 42
ors 41
kästi 41
æ 41
ony@@ 41
Brit@@ 41
Etel@@ 41
stres@@ 41
wel@@ 41
Georgia 41
HIV 41
unila@@ 41
tilta 40
status 40
direktii@@ 40
äris@@ 40
sav@@ 40
ore 40
US 40
Latvia 40
ning 40
MO 40
hur@@ 40
imbab@@ 40
ò 40
sw@@ 40
ks 39
we 39
ainut@@ 39
of@@ 39
uro 39
ymmä@@ 39
hou@@ 39
big@@ 39
oton@@ 39
line 39
ude 39
Ener@@ 39
Isla@@ 39
arma@@ 39
limit 39
joon@@ 38
cor@@ 38
..@@ 38
ling 38
saati@@ 38
yer 38
tain@@ 38
pan 38
siih@@ 38
join@@ 38
all 38
aid 38
ambi@@ 38
Fre@@ 38
Tre@@ 38
absur@@ 38
lar@@ 38
tig@@ 38
plu@@ 38
meet@@ 38
Gen@@ 38
ean 38
tenkään 38
á 38
ustra@@ 37
ide 37
jektiiv@@ 37
maus@@ 37
Götebor@@ 37
plus 37
komit@@ 37
ago@@ 37
idea 37
pre@@ 37
by 37
Angola 37
ech@@ 37
Nigeria 37
imes 37
hagen 37
tenkaan 37
emen@@ 37
National 37
kein 36
atten@@ 36
Berli@@ 36
oulo@@ 36
ant 36
lenn@@ 36
fran@@ 36
rist@@ 36
fre@@ 36
erro@@ 36
moder@@ 36
säte@@ 36
pail@@ 36
Bri@@ 36
mmen@@ 36
laimin@@ 36
akko@@ 36
thy 35
lähituleva@@ 35
pidätys@@ 35
prof@@ 35
simp@@ 35
fo@@ 35
erahas@@ 35
ye@@ 35
ca@@ 35
klo@@ 35
COM 35
attit@@ 35
prior@@ 35
Moldova 35
ball@@ 35
mod@@ 35
hoc 34
Evan@@ 34
Act 34
mone@@ 34
aim@@ 34
az@@ 34
Burma 34
wn 34
anal@@ 34
demogra@@ 34
tes 34
Scot@@ 34
viel@@ 34
Energy 34
vähi@@ 34
Lag@@ 34
Pen@@ 34
miks@@ 34
AN 34
had 34
olum@@ 34
up 34
CO2 33
dri@@ 33
energial@@ 33
aff@@ 33
our 33
une@@ 33
ale 33
eij@@ 33
Indonesia 33
bil@@ 33
ago 33
journ@@ 33
iro 33
gh 33
ß@@ 33
dou@@ 33
Johannesburg@@ 33
prosess@@ 32
oth@@ 32
bul@@ 32
pub@@ 32
Ä 32
Cha@@ 32
eenkään 32
lic@@ 32
bit 32
anu@@ 32
tekst@@ 32
aate 32
ph@@ 32
Rights 32
dikta@@ 32
Fis@@ 32
asy@@ 32
Väl@@ 32
onna 32
Financial 32
itellen 31
ger 31
farm@@ 31
meet 31
prov@@ 31
uclear 31
Gre@@ 31
sof@@ 31
Gros@@ 31
ly 31
OM 31
minkin 31
bet 31
plur@@ 31
mag@@ 31
Hag@@ 30
burg@@ 30
Can@@ 30
shall 30
alition 30
histu@@ 30
manner 30
instru@@ 30
Milos@@ 30
ost 30
nö@@ 30
patri@@ 30
els 30
ice 30
control 30
etna@@ 30
valid@@ 30
Jerusalem 30
aluepolitiikka@@ 29
tal 29
pol 29
jatkos@@ 29
mom@@ 29
uran@@ 29
onnis@@ 29
Ob@@ 29
Maghre@@ 29
periaat@@ 29
but 29
kalastuslai@@ 29
viipy@@ 29
pop@@ 29
Tun@@ 29
brutto@@ 29
cal 29
Association 29
Yhd@@ 29
audiovis@@ 29
back 29
blo@@ 29
Yhdysval@@ 29
my 29
ish 29
GM 29
Diaman@@ 29
ityksellä 28
Galicia 28
syt 28
xemb@@ 28
los@@ 28
ktu@@ 28
immil@@ 28
Bol@@ 28
suuren@@ 28
beli@@ 28
top 28
land 28
truktu@@ 28
ol 28
protes@@ 28
äpä 28
Trade 28
ô@@ 28
rig@@ 28
2.@@ 27
fer@@ 27
togeen@@ 27
läp@@ 27
def@@ 27
obli@@ 27
ween 27
aikan@@ 27
ery 27
standardis@@ 27
emo@@ 27
anim@@ 27
problem@@ 27
gg@@ 27
maksus@@ 27
Chile 27
Lamfalussy 27
ed 27
malaria 27
law 26
Olymp@@ 26
Cu@@ 26
qui@@ 26
inspi@@ 26
ref@@ 26
tor 26
progres@@ 26
olitiik@@ 26
kansain@@ 26
ld 26
É@@ 26
Pos@@ 26
territor@@ 26
noud@@ 26
berg 26
kolmik@@ 26
yet 26
yan@@ 26
age 26
osuo@@ 26
dian 26
ick 26
col@@ 26
jälkim@@ 25
mainstreaming 25
krit@@ 25
peu@@ 25
str@@ 25
ear@@ 25
W 25
prostitu@@ 25
Human 25
ineuvos@@ 25
safe 25
sinnä@@ 25
nal 25
% 25
osopim@@ 25
East 25
dom@@ 25
Washington 25
bad@@ 25
tano 25
chi@@ 25
market@@ 25
gl@@ 25
ast 25
nant 25
transa@@ 25
FYR@@ 25
Tali@@ 25
Vietnam 25
Hi@@ 24
ic 24
mainitta@@ 24
enna 24
diplom@@ 24
wood 24
kaikken@@ 24
AT 24
yksil@@ 24
inissä 24
umu@@ 24
Union 24
ens 24
king 24
th 24
sympa@@ 24
human 24
shor@@ 24
dig@@ 24
ther@@ 24
agre@@ 24
cha@@ 23
au 23
Soci@@ 23
lec@@ 23
histor@@ 23
Scheng@@ 23
demokraat@@ 23
win 23
ques 23
intervention 23
side 23
Je@@ 23
imb@@ 23
itiik@@ 23
ek 23
kasvus@@ 23
ker 23
its 23
fra@@ 23
inven@@ 23
ols 23
ung 23
amin@@ 23
Barcelon@@ 23
italis@@ 23
Kaliningrad 23
catch 23
eye 23
bal@@ 22
West 22
lobb@@ 22
will 22
over 22
rev@@ 22
art 22
resid@@ 22
tahol@@ 22
bru@@ 22
Albania 22
dim@@ 22
lausel@@ 22
ft 22
liber@@ 22
itou@@ 22
ur 22
abs@@ 22
hop@@ 22
Wor@@ 22
ime 22
ket 22
Dublin 22
rich 22
evel@@ 22
per 22
arri@@ 22
ende@@ 22
Cour@@ 22
jur@@ 21
ex 21
emer@@ 21
Dec@@ 21
pri@@ 21
reser@@ 21
itur@@ 21
ela 21
cas@@ 21
Democ@@ 21
rer 21
drew 21
muuton 21
ich 21
Buiten@@ 21
ting 21
Tai@@ 21
kus 21
parti@@ 21
sy 21
pelkäs@@ 21
harm@@ 21
ineu@@ 21
lli@@ 21
Beij@@ 21
iten@@ 20
noike@@ 20
war@@ 20
aspi@@ 20
dy@@ 20
peen 20
Strasbourg 20
odaan 20
vel 20
Serbia 20
ist 20
q@@ 20
vision 20
morator@@ 20
bor@@ 20
radio 20
bun@@ 20
Por@@ 20
pohjimmil@@ 20
improv@@ 20
gri@@ 20
ming 20
call 20
bila@@ 20
sou@@ 19
topi@@ 19
Ho@@ 19
Res@@ 19
Atlantic 19
Minu@@ 19
Barcelona 19
Europe@@ 19
then 19
pain 19
Kurdis@@ 19
ards 19
tic@@ 19
will@@ 19
ok 19
Op@@ 19
krati@@ 19
justi@@ 19
potenti@@ 18
OLA@@ 18
Arvo@@ 18
välttämä@@ 18
tso@@ 18
Eco@@ 18
ogra@@ 18
him 18
hypo@@ 18
mis 18
ope 18
that 18
be 18
Group 18
Sto@@ 18
unc@@ 18
talin@@ 18
bet@@ 18
DP 18
aske@@ 18
koskem@@ 18
let@@ 18
materi@@ 18
opa 18
val 18
sched@@ 18
Colom@@ 18
Dis@@ 18
media 18
Eg@@ 18
aver@@ 18
naudan@@ 18
thing 18
call@@ 18
York 18
tru@@ 18
lif@@ 18
ikaat@@ 17
sha@@ 17
st 17
port@@ 17
hope@@ 17
ow 17
rid@@ 17
tastro@@ 17
päätöksen@@ 17
Helsinki 17
entit@@ 17
aqu@@ 17
rele@@ 17
ment 17
öin 17
und 17
fem@@ 17
Lissa@@ 17
dura@@ 17
ring@@ 17
Izquier@@ 17
stitute 17
NG@@ 17
tron@@ 17
myöh@@ 17
pro 17
com@@ 17
then@@ 17
phasing 17
int 17
oulou 17
Lamass@@ 17
ulf 16
pra@@ 16
Ö 16
alt@@ 16
LIF@@ 16
trad@@ 16
pla@@ 16
out@@ 16
ndez 16
Econom@@ 16
korkea@@ 16
manu@@ 16
business 16
ue 16
voimak@@ 16
ace 16
work 16
ze 16
vement 16
Chan@@ 16
isra@@ 16
arms 16
air 16
fil 16
Ó 16
influ@@ 16
thi@@ 15
Sea 15
Pet@@ 15
anen 15
ture 15
ate 15
Bang@@ 15
mem@@ 15
Sö@@ 15
vul@@ 15
llises@@ 15
byro@@ 15
burg 15
barbar@@ 15
war 15
mihin@@ 15
demokraatti@@ 15
ges@@ 15
Ge@@ 15
jäljitet@@ 15
spa@@ 15
thou@@ 15
Mé@@ 15
dec@@ 15
Pri@@ 15
Development 15
Committee 15
fr@@ 15
Laeken 15
Johannes@@ 15
sman 15
Health 15
Doha 15
bey@@ 15
rid 15
dus@@ 15
ž@@ 15
lloin 14
IF@@ 14
fac@@ 14
ust 14
deleg@@ 14
entises@@ 14
Commission 14
hope 14
todetta@@ 14
stitu@@ 14
ce@@ 14
· 14
stru@@ 14
ver 14
sing@@ 14
dos@@ 14
cho@@ 14
Ir@@ 14
istur@@ 14
rela@@ 14
repe@@ 14
brid@@ 14
Nov@@ 14
vient@@ 14
kauas@@ 14
arisen 14
volu@@ 14
tavasti 14
mand@@ 14
ders 14
FYROM 14
Christian 14
Presti@@ 14
add@@ 13
adem@@ 13
Protection 13
taul@@ 13
porno@@ 13
phy 13
acc@@ 13
Rec@@ 13
ms 13
ods 13
harma@@ 13
Kur@@ 13
lor@@ 13
ohon 13
get 13
alaatu@@ 13
policy 13
ë@@ 13
formula 13
sho@@ 13
Tam@@ 13
matta@@ 13
gres@@ 13
ical 13
q 13
Sw@@ 13
mol@@ 13
Centre 13
ams 13
cies 13
ans 13
insis@@ 13
tran@@ 13
Community 13
hind@@ 13
tens 13
emb@@ 13
found@@ 13
ters 13
CF@@ 13
Johannesburg 13
end 12
fir@@ 12
itseva@@ 12
ikaal@@ 12
Equ@@ 12
pli@@ 12
cc@@ 12
bench@@ 12
osen 12
able 12
ê@@ 12
ith 12
Women 12
bre@@ 12
ratiso@@ 12
ple@@ 12
itsemäärää@@ 12
portu@@ 12
dor 12
stimu@@ 12
popula@@ 12
po 12
elec@@ 12
AIDS 12
kön 12
Patten@@ 12
field 12
:o 12
governance 12
lack 12
Federal 12
money 12
isol@@ 12
ehkä@@ 12
tric@@ 12
Eras@@ 12
Sci@@ 12
mark 12
syste@@ 12
sla@@ 12
run 12
Office 12
Information 12
car 12
toler@@ 12
cour@@ 12
England 12
ud 12
rea@@ 11
ds 11
regi@@ 11
Sala@@ 11
wit@@ 11
Rus@@ 11
Council 11
Läh@@ 11
enni@@ 11
gender 11
revi@@ 11
ance 11
gr@@ 11
dependent 11
contr@@ 11
tra 11
mul@@ 11
obser@@ 11
invo@@ 11
gre@@ 11
inner 11
internation@@ 11
å@@ 11
viip@@ 11
GMO@@ 11
muna 11
tilis@@ 11
ely 11
vari@@ 11
Migué@@ 11
äärää@@ 11
can@@ 11
ial 11
tlant@@ 11
inso@@ 11
migra@@ 11
ney 11
ade 11
ure 11
poin@@ 11
ammatin@@ 11
ult 11
aga@@ 11
off 11
ef 11
Yhdys@@ 11
plan 11
poten@@ 11
American 11
ú 11
Hus@@ 11
arm 11
each 11
urch 11
common 10
lains@@ 10
lab@@ 10
assis@@ 10
bac@@ 10
force 10
ther 10
fro@@ 10
tapahd@@ 10
with 10
dez 10
die 10
sharing 10
Part@@ 10
Federation 10
ess 10
coll@@ 10
portugal@@ 10
data 10
korostan@@ 10
interven@@ 10
profes@@ 10
fam@@ 10
old 10
fri@@ 10
intensi@@ 10
cro@@ 10
ules 10
zio 10
taval@@ 10
talis@@ 10
Medi@@ 10
low 10
occ@@ 10
sea 10
cr@@ 10
London 10
Plan 10
iturvall@@ 10
ath 10
Dub@@ 10
domain 10
Freed@@ 10
ulgar@@ 10
lines 10
ried 10
alter@@ 10
era 10
clause 10
reac@@ 10
fer 9
Fund 9
amon@@ 9
ball 9
small@@ 9
Proc@@ 9
Administra@@ 9
ecu@@ 9
dev@@ 9
marking 9
ital 9
innä 9
maap@@ 9
vers@@ 9
pers@@ 9
û@@ 9
Forum 9
päätöksentekop@@ 9
see@@ 9
uussa 9
hec@@ 9
tas 9
Party 9
chil@@ 9
sopusoinn@@ 9
ight 9
iness 9
tend@@ 9
eläker@@ 9
pursu@@ 9
United 9
div@@ 9
glob@@ 9
phy@@ 9
monito@@ 9
retro@@ 9
euv@@ 9
cla@@ 9
Ass@@ 9
para@@ 9
blu@@ 9
cell@@ 9
ede 9
Coton@@ 9
IG@@ 9
ordin@@ 9
verei@@ 9
Seves@@ 9
Oc@@ 9
achi@@ 9
koheesior@@ 9
ound@@ 9
Security 9
bed 9
Foreign 9
feder@@ 9
gener@@ 9
inva@@ 9
Α@@ 9
endi@@ 8
any@@ 8
Ü@@ 8
ye 8
Pl@@ 8
trou@@ 8
terran@@ 8
new 8
Food 8
individu@@ 8
Q 8
ere 8
year 8
kalastusla@@ 8
merit 8
Garc@@ 8
screening 8
Presid@@ 8
ylipää@@ 8
lleen@@ 8
parad@@ 8
häne@@ 8
Criminal 8
usual 8
lie 8
ative 8
Cr@@ 8
nel 8
national 8
arz@@ 8
right 8
cy@@ 8
thusi@@ 8
ory 8
China 8
organ@@ 8
prin@@ 8
well 8
cl@@ 8
track 8
sai@@ 8
State 8
Organisation 8
CAP 8
bal 8
ium 8
lopul@@ 8
turvapaikan@@ 8
promis@@ 8
pac@@ 8
mine 8
tory 8
assu@@ 8
Indus@@ 8
ition@@ 8
mal 8
commu@@ 8
ulti@@ 8
ces 8
South 8
People 8
Madrid 8
Cub@@ 8
ones 8
hous@@ 7
Emp@@ 7
if 7
Liberal 7
far 7
lly 7
row 7
playing 7
vähim@@ 7
from 7
tern@@ 7
less 7
loc@@ 7
Action 7
ition 7
UK 7
lands 7
watch 7
economy 7
Lud@@ 7
review 7
value 7
area 7
peace 7
ß 7
mean 7
serva@@ 7
Hun@@ 7
eing 7
gla@@ 7
hab@@ 7
dic@@ 7
Gonz@@ 7
ids 7
messa@@ 7
Mau@@ 7
Aug@@ 7
lem 7
Programme 7
pyrkin@@ 7
vention 7
aban@@ 7
regula@@ 7
lades@@ 7
green 7
rita@@ 7
tions 7
onal 7
trag@@ 7
ward 7
juurik@@ 7
Government 7
food 7
dras@@ 7
group 7
äsket@@ 7
mach@@ 7
red 7
inter 7
even@@ 7
multila@@ 7
Industry 7
tune 7
ystem 7
seri@@ 7
demon@@ 7
ach 7
Jer@@ 7
thu@@ 7
Corm@@ 7
@ 7
alon@@ 7
Ε@@ 7
DR 6
ask 6
Justice 6
basi@@ 6
sex@@ 6
taaks@@ 6
deficit 6
idak@@ 6
have 6
urities 6
requ@@ 6
rant 6
ston@@ 6
ular 6
imper@@ 6
bec@@ 6
Inves@@ 6
hold 6
sm@@ 6
Lab@@ 6
main 6
lavan@@ 6
kejä 6
practice 6
refer@@ 6
kuole@@ 6
Maastricht 6
road 6
partner@@ 6
ency 6
tics 6
Oos@@ 6
Associ@@ 6
ulkos@@ 6
Research 6
fast 6
Bank 6
Paris 6
aming 6
ement 6
agement 6
tance 6
perip@@ 6
motor@@ 6
ners 6
No 6
Time 6
estin@@ 6
Alger@@ 6
way 6
noon 6
bla@@ 6
onz@@ 6
Defence 6
Catal@@ 6
North 6
ps 6
appe@@ 6
slau@@ 6
Authority 6
lainsäädä@@ 6
ná@@ 6
level 6
acquis 6
tane@@ 6
Regi@@ 6
ign 6
Gener@@ 6
Í@@ 6
global 6
ete 6
bottom 6
cre@@ 6
was@@ 6
Cancún 6
º@@ 5
ons 5
very 5
sco@@ 5
Aus@@ 5
sud@@ 5
oinn@@ 5
entre@@ 5
baan@@ 5
sig@@ 5
cap@@ 5
state 5
sive 5
mail 5
pec@@ 5
Investment 5
high 5
must 5
pres@@ 5
Free 5
based 5
burden 5
nership 5
aim 5
volun@@ 5
this 5
time 5
she@@ 5
substan@@ 5
³ 5
ved 5
public@@ 5
yhti@@ 5
setsen@@ 5
Wh@@ 5
them 5
evol@@ 5
mano@@ 5
lea@@ 5
päälle@@ 5
ours 5
insul@@ 5
äli 5
act 5
terr@@ 5
map 5
agenda 5
ront 5
spo@@ 5
early 5
bir@@ 5
wor@@ 5
ves 5
polog@@ 5
Af@@ 5
ations 5
ilos@@ 5
täytän@@ 5
vice 5
hic 5
ebru@@ 5
sing 5
egal 5
op 5
fla@@ 5
ezu@@ 5
ision 5
rul@@ 5
embry@@ 5
throw 5
Colombia 5
bit@@ 5
Members 5
let 5
how 5
made 5
gran@@ 5
ets 5
rs@@ 5
their 5
market 5
GU@@ 5
Economic 5
Mexico 5
töönpan@@ 5
hos@@ 5
show 5
limin@@ 5
rac 5
older 5
alti 5
ics 5
ding 5
stre@@ 5
Sec@@ 5
ates 5
Policy 5
name 5
shame 5
rend@@ 5
rule 5
labour 5
Africa 5
without 5
urban 5
Ê@@ 5
Education 5
stand 5
ening 5
ose 5
ble 5
single 5
rup@@ 5
trade 5
tionary 5
ways 5
gun 5
als 5
ced 5
form 5
Gis@@ 5
dama@@ 5
Monterrey 5
eve 5
profit 5
fied 5
Gua@@ 5
ghter 5
atz@@ 5
persecu@@ 5
modes 5
ouse 5
Americ@@ 5
¤ 5
− 5
hand@@ 5
unti@@ 5
board 4
pris@@ 4
Employment 4
allevi@@ 4
lement 4
Treaty 4
mission 4
ugosla@@ 4
dela@@ 4
you 4
counter 4
aring 4
under@@ 4
arch@@ 4
ising 4
ted 4
ches 4
best 4
ght 4
alists 4
ì@@ 4
egu@@ 4
Moz@@ 4
they 4
ever 4
SP 4
Finan@@ 4
Environment 4
was 4
vig@@ 4
night 4
tariff 4
only 4
tex@@ 4
happ@@ 4
tax 4
fic@@ 4
geting 4
Amsterdam 4
quality 4
ew 4
repres@@ 4
High 4
cur@@ 4
forum 4
body 4
positi@@ 4
Democratic 4
legal 4
ù 4
In 4
reli@@ 4
has 4
Direc@@ 4
Safety 4
sell 4
sad 4
prevention 4
America 4
Z 4
demok@@ 4
fic 4
Regional 4
Agreement 4
any 4
Parliament 4
win@@ 4
Internal 4
eag@@ 4
sure 4
trac@@ 4
enda 4
plom@@ 4
inste@@ 4
tive 4
Conference 4
wat@@ 4
Bureau 4
tent 4
fare 4
tuna@@ 4
good 4
trial 4
vil 4
incen@@ 4
yhten@@ 4
Social 4
ood 4
wait 4
gs 4
Hague 4
ources 4
è 4
network 4
ordino@@ 4
Cooperation 4
squ@@ 4
mental 4
â@@ 4
iver 4
General 4
Minis@@ 4
ground 4
change 4
coun@@ 4
equ@@ 4
execution 4
manif@@ 4
Helsin@@ 4
public 4
Cotonou 4
Single 4
ability 4
tí@@ 4
cus@@ 4
adoption 4
WT@@ 4
system 4
spending 4
racy 4
tors 4
p.m 4
fit 4
compromise 4
ender 4
ode 4
Agency 4
eas@@ 4
due 4
ology 4
power 4
Home 4
heu@@ 4
African 4
fair 4
Alliance 4
Monter@@ 4
Alli@@ 4
tone 4
rier 4
cri@@ 4
court 4
form@@ 4
Fon@@ 4
try@@ 4
seem@@ 4
beg@@ 4
Eas@@ 4
monim@@ 4
Regu@@ 4
ound 4
quick 4
open@@ 4
ace@@ 4
pace 4
tural 4
lti 4
″ 4
where 3
² 3
cost 3
Portugu@@ 3
minimum 3
inning 3
Youth 3
Great 3
alem 3
been 3
tribu@@ 3
onto 3
enhan@@ 3
ades 3
building 3
goro@@ 3
cond@@ 3
wei@@ 3
issued 3
sec@@ 3
tives 3
base 3
reliable 3
correc@@ 3
hone 3
possible 3
xi@@ 3
µ@@ 3
spi@@ 3
Court 3
cul@@ 3
dependence 3
Acc@@ 3
alco@@ 3
more 3
information 3
society 3
ric 3
ethnic 3
two 3
diovis@@ 3
ffer@@ 3
Law 3
ications 3
enter 3
corpor@@ 3
hes 3
domin@@ 3
continuing 3
life 3
Coh@@ 3
Scotland 3
crime 3
free 3
stor@@ 3
Beh@@ 3
Cong@@ 3
ility 3
low@@ 3
potential 3
nomin@@ 3
Portugal 3
defence 3
Feira 3
Sum@@ 3
EUR 3
yes 3
Green 3
treaty 3
Nice 3
your 3
p.@@ 3
Transport 3
day 3
ls 3
eed@@ 3
duc@@ 3
short 3
abo@@ 3
Vih@@ 3
better 3
programme 3
nic 3
epäin 3
notes 3
ful 3
mainstre@@ 3
oil 3
dise@@ 3
gy 3
joint 3
Mai@@ 3
tant 3
kle 3
face 3
Iz@@ 3
employment 3
environment 3
itions 3
dom 3
Def@@ 3
elek@@ 3
ends 3
prog@@ 3
now 3
past 3
under 3
private 3
ational 3
worth@@ 3
È@@ 3
claus@@ 3
ffer 3
bers 3
Govern@@ 3
abol@@ 3
å 3
term 3
exac@@ 3
Intergovernmental 3
democ@@ 3
ils 3
sli@@ 3
start 3
drin@@ 3
läs@@ 3
welcomes 3
fact 3
ased 3
decou@@ 3
wis@@ 3
ingu@@ 3
regulation 3
gue 3
want 3
Baltic 3
eiv@@ 3
union 3
Tuk@@ 3
thir@@ 3
wh@@ 3
international 3
President 3
Convention 3
ierra 3
premis@@ 3
share 3
eness 3
try 3
Coun@@ 3
diver@@ 3
soci@@ 3
_ 3
listen 3
= 3
custom@@ 3
lock 3
civil@@ 3
Saf@@ 3
Afghan 3
access 3
last 3
dual 3
funds 3
haz@@ 3
oth 3
pend@@ 3
compromis@@ 3
women 3
city 3
pping 3
self 3
country 3
omen 3
Environ@@ 3
future 3
kseenkin 3
attle 3
minis@@ 3
agreement 3
toral 3
stakeh@@ 3
Fisher@@ 3
We 3
comb@@ 3
ats 3
centr@@ 3
É 3
dies 3
Ster@@ 3
modi@@ 3
productive 3
race 3
appar@@ 3
Commun@@ 3
Rural 3
zero 3
democracy 3
farm 3
there 3
Stability 3
ple 3
deb@@ 3
Western 3
ological 3
signing 3
pid 3
dea@@ 3
ining@@ 3
Special 3
lear@@ 3
else 3
make 3
rene@@ 3
hre@@ 3
gas 3
deep 3
representative 3
fig@@ 3
India 3
Public 3
institu@@ 3
pected 3
cou@@ 2
ress 2
comp@@ 2
audit 2
beef 2
even 2
benefit 2
toge@@ 2
denied 2
alleg@@ 2
elimin@@ 2
sev@@ 2
nor 2
leva@@ 2
º 2
welfare 2
TRIP@@ 2
clauses 2
paying 2
dealt 2
rating 2
subject 2
memb@@ 2
ece 2
Dupu@@ 2
therefore 2
proc@@ 2
orders 2
countries 2
lare 2
sign@@ 2
activity 2
management 2
goals 2
hing 2
driving 2
chocol@@ 2
capacity 2
seat 2
strong@@ 2
wonderful 2
world 2
indis@@ 2
basis 2
endor@@ 2
takes 2
later 2
lum 2
ual 2
ond 2
ommun@@ 2
enfor@@ 2
rec@@ 2
charge 2
commerce 2
defici@@ 2
propos@@ 2
propor@@ 2
tional 2
competent 2
authorities 2
dist@@ 2
part@@ 2
direct 2
cy 2
ated 2
catches 2
commer@@ 2
artis@@ 2
Kosov@@ 2
num@@ 2
part 2
export 2
keskimäär@@ 2
À@@ 2
Mone@@ 2
fication 2
techni@@ 2
reti@@ 2
digital 2
promo@@ 2
foot@@ 2
itime 2
senior 2
president 2
statis@@ 2
Maas@@ 2
julki@@ 2
mattakaan 2
user 2
order 2
present 2
Cy@@ 2
ists 2
moun@@ 2
than@@ 2
Central 2
kets 2
happy 2
person@@ 2
short@@ 2
save 2
regre@@ 2
yksikk@@ 2
deregu@@ 2
ences 2
Christi@@ 2
considers 2
committee 2
softw@@ 2
just 2
repu@@ 2
impor@@ 2
small 2
govern@@ 2
Market 2
tially 2
ference 2
deal 2
which 2
sense 2
conflict 2
first 2
&@@ 2
zer@@ 2
Feder@@ 2
clu@@ 2
enlargement 2
processing 2
community 2
approach 2
actions 2
subsidi@@ 2
Cambo@@ 2
Aud@@ 2
understanding 2
Conc@@ 2
four 2
statement 2
Educ@@ 2
Culture 2
social 2
light 2
compliance 2
manufac@@ 2
turing 2
§ 2
privatis@@ 2
turning 2
lation 2
tically 2
iment 2
own 2
may 2
person 2
his 2
how@@ 2
service 2
larg@@ 2
tom 2
yers 2
stri@@ 2
finan@@ 2
opoltto@@ 2
come 2
signed 2
loading 2
plo@@ 2
learning 2
tic 2
shareh@@ 2
compe@@ 2
States 2
table 2
mahdot@@ 2
allow@@ 2
deni@@ 2
initiative 2
drug 2
cand@@ 2
statute 2
parties 2
rules 2
procedure 2
simis@@ 2
tivity 2
Ribe@@ 2
White 2
saf@@ 2
ration 2
implementation 2
nar 2
pling 2
osla@@ 2
Commissioner 2
workable 2
Christ@@ 2
eigh@@ 2
fish 2
mp 2
ows@@ 2
ded 2
asing 2
paper 2
conveni@@ 2
led@@ 2
endorse 2
consultation 2
terms 2
cin@@ 2
ses 2
urs 2
major 2
essalon@@ 2
wing 2
surance 2
itable 2
acy 2
Organis@@ 2
labelling 2
marketing 2
house 2
lawyers 2
mainly 2
new@@ 2
action 2
asylum 2
clas@@ 2
isations 2
hel 2
î@@ 2
rapid 2
ross 2
port 2
least 2
Â@@ 2
telep@@ 2
guar@@ 2
ential 2
ï 2
moral 2
chall@@ 2
thank 2
undertaking 2
alisation 2
dow 2
kly 2
motion 2
class 2
accus@@ 2
ouring 2
tho@@ 2
travel 2
tries 2
Middle 2
case 2
facility 2
differenti@@ 2
vance 2
Copenhagen 2
venture 2
± 2
versity 2
manag@@ 2
Asia 2
security 2
cop@@ 2
Reform 2
Commis@@ 2
hul@@ 2
perman@@ 2
points 2
idät 2
people 2
border 2
suspen@@ 2
friendly 2
fight 2
warning 2
tunnel 2
tarians 2
bodies 2
party 2
ownership 2
dumping 2
ines 2
health 2
rinna@@ 2
smu@@ 2
holding 2
fear 2
clear@@ 2
ating 2
commun@@ 2
enci@@ 2
entr@@ 2
pay 2
range 2
cen@@ 2
Luxembour@@ 2
after@@ 2
step 2
Republic 2
¡ 2
Berl@@ 2
fron@@ 2
teac@@ 2
cru@@ 2
failing 2
company 2
diction 2
event 2
kill 2
bill 2
emplo@@ 2
cer@@ 2
during 2
wee@@ 2
avoid@@ 2
CFSP 2
ratification 2
Chinese 2
Agriculture 2
mula 2
suures@@ 2
itoring 2
prob@@ 2
Jacqu@@ 2
swi@@ 2
Danish 2
led 2
broken 2
great 2
Russia 2
sibility 2
alities 2
acu@@ 2
ilies 2
kovin@@ 2
gros@@ 2
Schro@@ 2
again 2
vihd@@ 2
still 2
itives 2
reduce 2
moratorium 2
alise 2
cent@@ 2
Rep@@ 2
ù@@ 2
operators 2
Affairs 2
stem 2
roper@@ 2
esses 2
Citizens 2
ă@@ 2
charter 2
cope 2
break@@ 2
through 2
Europeans 2
balan@@ 1
deliver 1
four@@ 1
vers 1
refuse 1
delayed 1
justice 1
itional 1
pharmaceu@@ 1
organisations 1
sci@@ 1
other 1
imental 1
ause 1
yright 1
prehen@@ 1
Framework 1
embargo 1
confidence 1
regard 1
feed@@ 1
cle@@ 1
Directive 1
cover 1
instruments 1
recognised 1
scale 1
fiable 1
uation 1
reci@@ 1
donor 1
Nis@@ 1
ness 1
Mexic@@ 1
laid 1
highest 1
standard 1
prac@@ 1
tise 1
Paper 1
split 1
comitology 1
special 1
either 1
intense 1
wall 1
sanctions 1
cot@@ 1
born 1
grow 1
learn 1
much 1
know 1
knowledge 1
software 1
stresses 1
collec@@ 1
risk 1
evalu@@ 1
trading 1
Northern 1
cement 1
origin@@ 1
propa@@ 1
genu@@ 1
ving 1
task 1
scope 1
August 1
tual 1
payment 1
solution 1
proportion@@ 1
tend 1
Polic@@ 1
pression 1
bot@@ 1
dow@@ 1
conten@@ 1
prosecu@@ 1
scheme 1
Auth@@ 1
orities 1
product 1
conom@@ 1
pair 1
stand@@ 1
annual 1
gir@@ 1
preg@@ 1
against 1
ism 1
fine 1
teral 1
incenti@@ 1
cow 1
Develop@@ 1
ments 1
istic 1
power@@ 1
mic 1
Statute 1
äytel@@ 1
mouth 1
transit 1
pays 1
trained 1
proceedings 1
resh 1
flexibility 1
Ì@@ 1
Ï@@ 1
cing 1
Papay@@ 1
world@@ 1
Consumer 1
Commission@@ 1
planet 1
olly 1
job 1
training 1
¼ 1
debt 1
pick 1
governmental 1
organisation 1
trust 1
pren@@ 1
integr@@ 1
extreme 1
show@@ 1
Sport 1
sanc@@ 1
temporary 1
puhem@@ 1
supervisory 1
authority 1
compl@@ 1
coherence 1
coordination 1
certain@@ 1
conditions 1
conclu@@ 1
claims 1
quota 1
remember 1
often 1
stock 1
because 1
things 1
absolutely 1
ridiculous 1
interests 1
population 1
commitments 1
sight 1
report 1
examination 1
certainty 1
clarification 1
option 1
combine 1
transport 1
mergers 1
acqu@@ 1
itage 1
Afric@@ 1
heritage 1
cannot 1
kept 1
achieved 1
ining 1
Japan 1
Anne@@ 1
depend@@ 1
phen@@ 1
lights 1
stocks 1
changed 1
checks 1
balances 1
Democrat 1
curr@@ 1
ject 1
gets 1
pointment 1
were 1
once 1
both 1
backs 1
ready 1
left 1
exper@@ 1
fundamentalism 1
failed 1
marks 1
kland 1
produc@@ 1
produced 1
mission@@ 1
December 1
works 1
till 1
natural 1
available 1
zone 1
rs 1
xim@@ 1
pressure 1
mind 1
smugg@@ 1
trafficking 1
preci@@ 1
oblig@@ 1
gap 1
viously 1
talks 1
going 1
February 1
Assembly 1
stead@@ 1
active 1
oint 1
petition 1
contrac@@ 1
fec@@ 1
ering 1
talk 1
Minister 1
operation 1
satellite 1
oms 1
ource 1
Ø@@ 1
representa@@ 1
gence 1
regulated 1
markets 1
front 1
stabil@@ 1
follow 1
wr@@ 1
sound 1
avier 1
card 1
lying 1
Finn@@ 1
wha@@ 1
stable 1
them@@ 1
inher@@ 1
sensiti@@ 1
fall 1
chec@@ 1
commitment 1
.5 1
bad 1
days 1
long@@ 1
ior 1
Fif@@ 1
incorpor@@ 1
enable 1
political 1
governing 1
funding 1
adopted 1
codecision 1
Justi@@ 1
working 1
elines 1
ystäkään 1
model 1
fav@@ 1
reducing 1
source 1
internal 1
itor 1
qualified 1
majority 1
difficult 1
chain 1
divide 1
oning 1
tering 1
narrow 1
individuals 1
finding 1
broadcas@@ 1
remit 1
poor@@ 1
mping 1
did 1
election 1
May 1
confirmed 1
Constitutional 1
June 1
calls 1
examine 1
possibility 1
using 1
Article 1
copyright 1
visa 1
consisten@@ 1
judgement 1
aware 1
awar@@ 1
noti@@ 1
specific 1
leadership 1
rise 1
Amsterd@@ 1
pects 1
ements 1
door 1
deta@@ 1
liability 1
seems 1
return 1
ongoing 1
crises 1
additional 1
Asian 1
Mediterranean 1
correctly 1
understand 1
reform 1
personnel 1
itely 1
occupation 1
negotiation 1
alising 1
involved 1
aps 1
content 1
Ñ@@ 1
Genoa 1
agents 1
certi@@ 1
Pub@@ 1
geogra@@ 1
institution 1
expres@@ 1
rights 1
fru@@ 1
ption 1
essenti@@ 1
repression 1
ful@@ 1
wish 1
teams 1
back@@ 1
female 1
MEP 1
Tourism 1
commen@@ 1
medium 1
uses 1
Å 1
dru@@ 1
middle 1
web@@ 1
date 1
conf@@ 1
judicial 1
cial 1
ints 1
¸ 1
education 1
sible 1
ffec@@ 1
what 1
goes 1
down 1
pation 1
rying 1
sustainable 1
mobility 1
Amendment 1
course 1
supported 1
Mrs 1
grateful 1
room 1
Chin@@ 1
ality 1
favour 1
Funda@@ 1
sum 1
capita@@ 1
extra 1
handling 1
duty 1
multi 1
meth@@ 1
team 1
employed 1
Charter 1
check 1
balance 1
parall@@ 1
worst 1
position 1
process 1
broad 1
reaction 1
criteria 1
respect 1
meeting 1
between 1
Cyprus 1
leader 1
Turkish 1
supports 1
establishment 1
invi@@ 1
ratify 1
particular 1
significant 1
carry 1
capital 1
buil@@ 1
Rand@@ 1
foc@@ 1
ship@@ 1
ffic@@ 1
accompanied 1
sexual 1
exploitation 1
gration 1
stric@@ 1
UN 1
enjo@@ 1
cut@@ 1
consum@@ 1
mation 1
tly 1
wished 1
feel 1
targeted 1
wealth 1
sions 1
law@@ 1
mieluu@@ 1
chair 1
plat@@ 1
Parliamentary 1
forman@@ 1
CFP 1
stands 1
colon@@ 1
association 1
irregularities 1
professional 1
wrong@@ 1
doing 1
within 1
death 1
quo@@ 1
across 1
ffici@@ 1
home 1
may@@ 1
stages 1
tebor@@ 1
together 1
ë 1
politics 1
goods 1
gar 1
Secre@@ 1
enough 1
existing 1
regimes 1
negotiations 1
location 1
ý 1
ý@@ 1
Ý@@ 1
ð@@ 1
cam@@ 1
rate 1
desper@@ 1
science 1
Parlia@@ 1
wrong 1
ural 1
coming 1
news 1
letter 1
foor@@ 1
parliamentary 1
porting 1
reve@@ 1
third 1
cks 1
oub@@ 1
away 1
junction 1
cle 1
post 1
sales 1
fundamen@@ 1
transatlantic 1
ome 1
paid 1
talking 1
closure 1
registration 1
with@@ 1
intermedi@@ 1
legislation 1
fle@@ 1
elections 1
accounts 1
relevant 1
atuzz@@ 1
coalition 1
willing 1
moment 1
press 1
desig@@ 1
Eastern 1
place 1
etusij@@ 1
reau 1
executive 1
Contro@@ 1
Tibet 1
hit 1
central 1
Niger@@ 1
total 1
allowed 1
transpar@@ 1
freedom 1
period 1
think 1
mixed 1
sex 1
sport 1
stake 1
threats 1
threat 1
related 1
critical 1
thern 1
ental 1
ecological 1
indicators 1
negative 1
hs 1
democratic 1
should 1
democrat@@ 1
institutions 1
permanent 1
Pact 1
gras@@ 1
jud@@ 1
reference 1
protection 1
exis@@ 1
register 1
lose 1
youn@@ 1
adver@@ 1
cos@@ 1
including 1
never 1
orrow 1
late 1
means 1
arbit@@ 1
acco 1
canc@@ 1
clos@@ 1
Yugoslav 1
Macedonia 1
fill@@ 1
Spanish 1
connec@@ 1
March 1
inst 1
deli@@ 1
atory 1
icals 1
spec@@ 1
tac@@ 1
classes 1
author@@ 1
cros@@ 1
after 1
selves 1
God 1
ghting 1
rim 1
read@@ 1
brief 1
conc@@ 1
good@@ 1
ths 1
akkois 1
scen@@ 1
deriv@@ 1
halt 1
makers 1
spar@@ 1
week 1
Afghanistan 1
treat 1
session 1
oppos@@ 1
tical 1
ü 1
ping 1
pre 1
removal 1
formed 1
something 1
proud 1
educ@@ 1
youth 1
real 1
consequence 1
such 1
incompatible 1
membership 1
Swedish 1
experience 1
½ 1
taxation 1
representation 1
existence 1
Ç@@ 1
Cauc@@ 1
susta@@ 1
Balkans 1
document 1
õ@@ 1
input 1
candidates 1
notably 1
directive 1
root 1
adverse 1
reports 1
driven 1
bank 1
ring 1
vation 1
weap@@ 1
scand@@ 1
many 1
xt 1
Om@@ 1
ilmaissu@@ 1
olution 1
Iraq 1
organic 1
institutional 1
tants 1
thro@@ 1
manifes@@ 1
reach 1
independence 1
colleagues 1
ame 1
relations 1
speci@@ 1
ings 1
ority 1
ages 1
ides 1
blood 1
nine 1
estiin@@ 1
hamin@@ 1
ittee 1
bill@@ 1
ì 1
pact 1
payments 1
unit 1
prohib@@ 1
Nations 1
Control 1
September 1
regular 1
presented 1
budget 1
mobile 1
authorised 1
iting 1
resolved 1
issues 1
weapons 1
state@@ 1
standards 1
before 1
Greece 1
being 1
killed 1
chance 1
bear 1
build 1
tools 1
severe 1
Common 1
reduction 1
safer 1
drugs 1
entity 1
numbers 1
datab@@ 1
Strate@@ 1
ech 1
hol 1
survi@@ 1
southern 1
deem@@ 1
Vice 1
Report 1
fire 1
ê 1
misel@@ 1
indic@@ 1
cross 1
parts 1
million 1
estab@@ 1
entre 1
sh 1
contin@@ 1
corporate 1
det@@ 1
Maastric@@ 1
Opportun@@ 1
technology 1
opportunity 1
Friday 1
Brussels 1
piakko@@ 1
Budgets 1
cent 1
focus 1
Stras@@ 1
cred@@ 1
deman@@ 1
stop 1
sometimes 1
ances 1
Kati@@ 1
tury 1
Summit 1
Bour@@ 1
particularly 1
sensitive 1
descri@@ 1
resort 1
busin@@ 1
Consum@@ 1
Wash@@ 1
swif@@ 1
push 1
excell@@ 1
logical 1
ication 1
entific 1
substantial 1
less@@ 1
competition 1
cycle 1
Α 1
immen@@ 1
burea@@ 1
inhim@@ 1
scho@@ 1
Fisheries 1
sugg@@ 1
asus 1
aspects 1
relating 1
isation 1
Slova@@ 1
design 1
about 1
etting 1
ying 1
seem 1
indicate 1
onic 1
cells 1
essential 1
medical 1
progress 1
relatively 1
characterised 1
researchers 1
these 1
apply 1
respective 1
laws 1
regulations 1
permit 1
already 1
distributed 1
few 1
establish 1
measures 1
pass 1
hdoinkin 1
vely 1
Code 1
cancer 1
divid@@ 1
qual@@ 1
dic 1
reven@@ 1
hear@@ 1
cra@@ 1
thre@@ 1
neighbour@@ 1
double 1
ries 1
slow 1
aling 1
plant 1
picture 1
tax@@ 1
eval@@ 1
sign 1
ral 1
Ireland 1
Ι@@ 1
Ν@@ 1
Ι 1
concerns 1
development 1
economic 1
cooperation 1
udi 1
Tampere 1
USD 1
blin@@ 1
quar@@ 1
radic@@ 1
kers 1
structured 1
reper@@ 1
movement 1
