#version: 0.2
@ @</w>
i s
t h
t e
i n
t a
e n
i t
e n</w>
a n
th e</w>
o n</w>
t i
l l
i n</w>
e s
o n
a r
e r
s i
a n</w>
a l
a @@</w>
r o
t ä
t u
t a</w>
r e
o u
t o</w>
o r
a t</w>
o f</w>
o m
i @@</w>
t ä</w>
o s
o l
e t
e l
i s</w>
j a</w>
k s
a s
an d</w>
u s
i k
ä @@</w>
in g</w>
t o
m a
i d
m en
e s</w>
e @@</w>
r a
j o
l a
o p
m is
s a</w>
i m
u u
ta @@</w>
d e
i c
i l
e d</w>
h a
th at</w>
k a
o @@</w>
m m
ti on</w>
ä n</w>
k u
v e</w>
e r</w>
v o
w h
v a
v i
p ro
u ro
a l</w>
t y
m i
s u
o r</w>
e c
e t</w>
et tä</w>
r es
E uro
p u
s a
k e
tä @@</w>
n e
n o
l e
is @@</w>
l i
mm e</w>
w e</w>
u n
t i</w>
ä ä
h d
a t
th is</w>
p os
f or</w>
te n</w>
e en</w>
r i
a c
v ä
j ä
ll a</w>
c on
i t</w>
te l
a s</w>
k o
p ar
v al
u @@</w>
t s</w>
ks i</w>
l e</w>
y s
t @@</w>
p e
m u
men t</w>
h e
ll e</w>
l y</w>
b e</w>
p a
y h
s ä</w>
o v
id en</w>
s e
p or
k ä
ar e</w>
it i
m e
si on</w>
v a@@</w>
k a</w>
l d</w>
ta r
t ö
in en</w>
n n
k an
m y
ti on
c om
no t</w>
o t
p er
en @@</w>
te r
is ta</w>
is i
d i
k i
ou ld</w>
c e</w>
ha ve</w>
e m
en t</w>
si @@</w>
te d</w>
c i
u r
k in</w>
u t</w>
q u
ll ä</w>
ic h</w>
wh ich</w>
ou n
a d
tu @@</w>
C om
e d
w it
p ol
s e</w>
wit h</w>
f or
t r
l u
k si
s sa</w>
u l
a si
tä m
y @@</w>
it ä</w>
it y</w>
h y
k om
Euro op
a g
i h
v u
a ll
a tion</w>
v ä@@</w>
e x
jä s
s h
& a
&a pos
er e</w>
h u
my ö
b y</w>
a b
o ll
e i</w>
@ -
@- @</w>
yh te
th e
il l</w>
Euro pe
mis @@</w>
t ta
Europe an</w>
s o</w>
w ill</w>
t e</w>
v er
v a</w>
kom is
it te
k os
g h
h o
m e</w>
ta an</w>
u ks
- @@</w>
i r
Com mis
ti @@</w>
to im
Euroop an</w>
tion s</w>
ha s</w>
al l</w>
es ti</w>
is sa</w>
ou r</w>
ta n
t tä
ik e
f f
v at</w>
al u
v as
@ @@</w>
ty @@</w>
p o
n a
l is
M r</w>
m in
pu he
es ta</w>
k e@@</w>
j en</w>
n i@@</w>
n @@</w>
w or
al a
n i
us @@</w>
us t</w>
d en</w>
l o
th er</w>
n y
m p
vo is
it a</w>
tu r
v ar
is uu
res id
por t</w>
e v
s o
g i
de ll
ty ö
s ta</w>
la men
par lamen
o ike
p ää
u s</w>
t ta</w>
ka ik
myö s</w>
m o
0 0
er s</w>
j a@@</w>
k es
is i</w>
a p
it @@</w>
an @@</w>
Commis sion</w>
i lle</w>
r is
ou t</w>
kä y
t ra
val ti
es sa</w>
s el
s @@</w>
d is
i o
m an
w ould</w>
re c
P resid
in s
it y
ol e</w>
to @@</w>
b e
m er
k a@@</w>
te @@</w>
&apos ;</w>
ti ve</w>
jäs en
ov at</w>
in n
b er</w>
te s</w>
vois a</w>
ta l
c h
al so</w>
n ä
is tä</w>
c oun
s sä</w>
is en</w>
at e</w>
mi el
e hd
m on
te r</w>
k ys
ne u
a r</w>
k uu
un i
u c
s en</w>
m a@@</w>
2 00
te n
b ut</w>
vu o
r j
jo @@</w>
i v
v el
vä l
on e</w>
sh ould</w>
i a</w>
ny t</w>
f ro
Presid ent</w>
fro m</w>
m ust</w>
ar voisa</w>
b le</w>
as sa</w>
t ing</w>
s tä</w>
s ti</w>
d s</w>
is esti</w>
d a
komis sion</w>
c h</w>
t ri
U ni
v ä</w>
k e</w>
id än</w>
p ä
p ec
s uu
li a
k i@@</w>
men ts</w>
ksi a</w>
m uu
tu ks
s an
p it
ta a</w>
m ä
ö n</w>
P ar
y y
u d
en t
g u
uni on
v os
th ere</w>
t ta@@</w>
b een</w>
es sä</w>
n ä@@</w>
yhte is
all y</w>
on s</w>
m ar
m or
m an</w>
pu ol
tar k
ehd o
y o
e ll
g e</w>
tal ou
S ta
l an
jo ka</w>
a ik
es s</w>
i te
s a@@</w>
a i
ma an</w>
täm ä</w>
yo u</w>
puhe mi
ti n</w>
k ä</w>
valti o@@</w>
a j
d e</w>
s ta
t t
jo h
us e</w>
p res
es e</w>
en n
is ten</w>
ou r
Par lia
l ik
in @@</w>
e ksi</w>
de r</w>
d o
neu vos
it s</w>
jä rj
puhemi es</w>
M em
it u
Parlia ment</w>
jo t
es s
jot ka</w>
h i
f i
mor e</w>
järj es
g o
ll a@@</w>
c an</w>
ää r
f in
p an
Uni on</w>
gh t</w>
kes k
a an</w>
th ese</w>
con c
k o@@</w>
w a
ti c
s op
ol e@@</w>
C oun
&apos ;
it ta@@</w>
u p</w>
k @@</w>
ci l</w>
ver y</w>
k ing</w>
pro pos
Coun cil</w>
n ut</w>
is i@@</w>
t or
si itä</w>
ne et</w>
d o</w>
ka u
w as</w>
v i@@</w>
&apos; s</w>
m inen</w>
f u
isi a</w>
in c
in g
n i</w>
ku nn
the y</w>
komis si
h alu
per us
tä y
er n
l ä
me idän</w>
ih in</w>
r an
wh at</w>
is tu
g ra
mar k
on n
r ke
lik e</w>
jäs en</w>
mi et
tö @@</w>
i r</w>
i lla</w>
mu t@@</w>
re port</w>
hu om
ää n
y r
d ing</w>
com m
no w</w>
qu ot
a u
ka an</w>
it tä
i f</w>
te h
ma hd
s ec
m s</w>
o ther</w>
h al
k o</w>
quot ;</w>
& quot;</w>
en ce</w>
ala is@@</w>
Sta tes</w>
n e</w>
p al
the ir</w>
tion al</w>
ac c
tta va</w>
th er
hy vä
parlamen tin</w>
for e</w>
sop im
ku it@@</w>
e ment</w>
jäsen valtio@@</w>
vä t</w>
ha ll
ou s</w>
p i
p re
Mem ber</w>
te en</w>
k i</w>
s is
mahd oll
en c
tä rke
s y
oike u
d er
b ec
täm än</w>
ab le</w>
c o
is ta@@</w>
iti ik
ic al</w>
tä än</w>
in o
p e</w>
ma a
ta va</w>
ke h
su p
ku in</w>
ta pa
s om
kys y
m äär
f ac
e p
pol itiik
tri es</w>
pol ic
m y</w>
ta i</w>
ko h
kos ke@@</w>
e i
es tä@@</w>
on g
va ik
im por
a ti
wor k</w>
Com m
v es</w>
coun tries</w>
ci al</w>
j ec
k er
ol isi</w>
j el
va ll
hyvä ks
e mme</w>
an s
o w
a tions</w>
kesk us
g h</w>
pro v
u n</w>
impor tan
d uc
a m
kan s
pää tö
iti on</w>
a m</w>
ity is@@</w>
ys @@</w>
ks en</w>
it t
tur e</w>
pit ä
se kä</w>
w i
h an
y e
as ta</w>
s er
Euro pe</w>
de c
t on</w>
isi in</w>
t y</w>
o b
t h</w>
f ir
os e</w>
puhe en
ku n</w>
v e
h än</w>
union in</w>
p la
is su
s tan
m ä@@</w>
b et
j ä</w>
ab out</w>
ar d</w>
is et</w>
kysy my
te u
po in
p l
ag re
ff ic
it s
wh o</w>
r yh
p en
joh ta
ö @@</w>
o h
a use</w>
s t</w>
li it
tu s@@</w>
komissi o</w>
jo s</w>
n o</w>
on ly</w>
re s</w>
vi r
le g
el i
p le
as t</w>
ta l</w>
su r
re g
op le</w>
e uro
keskus tel
es tä</w>
la tion</w>
l op
e mm
al o
iti es</w>
re as
ev er</w>
er ityis@@</w>
k y
suu r
ti in</w>
in ter
wi th
de mo
lis ä@@</w>
ne ed</w>
parlamen t
qu es
h e</w>
pro c
y hd
ti ed
ti me</w>
si on
kan n
al is
de vel
ther e
s tr
e h
v en
ku ten</w>
lä h
vo i</w>
kan ssa</w>
ma t
kan sa
j on
ll e
pe ople</w>
ag a
i en</w>
na tional</w>
en er
men d
uks en</w>
ar y</w>
de d</w>
in te
E U</w>
bec ause</w>
h ä
w el
il ity</w>
ik ä</w>
: n</w>
polic y</w>
pol i
vo id
hy vi@@</w>
tr y</w>
vi en</w>
an t</w>
ol en</w>
n a</w>
p r
kos ka</w>
i es</w>
h ar
em p
ti et
p id
there fore</w>
j a
k il
on @@</w>
kos ke
alu e
h en
s it
e w</w>
san o@@</w>
i c</w>
y d
wa y</w>
mer k
g ro
k ti
o d
to is
it tä@@</w>
in a</w>
e ve</w>
dell @@</w>
importan t</w>
y ks
g re
n ä</w>
ta ke</w>
hyväks y@@</w>
h el
ne w</w>
o d</w>
su b
t ro
työ @@</w>
al i@@</w>
di rec
vo i@@</w>
1 9
t in
ol u
es i@@</w>
devel op
v @@</w>
järjes tel
is tu@@</w>
is sä</w>
neuvos ton</w>
p a</w>
itte e</w>
puheen johta
va pa
os t</w>
j o</w>
m ä</w>
ti l
ll @@</w>
miet inn
gh ts</w>
al ta</w>
p on
t om
pro s
l ar
ma in
i d</w>
da y</w>
c le
m a</w>
n u
E U
si ble</w>
on om
su ch</w>
wh en</w>
in v
ar e
ho w
how ever</w>
ma ke</w>
ku n
tu le
t tu@@</w>
k s</w>
t ly</w>
pro b
mu ka
hal u@@</w>
ong el
ä än</w>
in to</w>
mis ta</w>
pol it
op er
p ri
ta mis@@</w>
r u
al s</w>
i p
ta vo
jon k@@</w>
t tä@@</w>
pec i
el y</w>
miel estä@@</w>
t itu
ks een</w>
a vu
is h</w>
k ou
k on
to dell@@</w>
ol i</w>
j ä@@</w>
i ta
ar vi
th ose</w>
a v
vi el
ku l
d es
de b
enc y</w>
la aj
us ta
th ing</w>
an y</w>
som e</w>
asi o
Commis sion
toim i@@</w>
mis eksi</w>
c an
f er
poli itt
tu n
u e</w>
ec onom
e lla</w>
ti lan
val io
et @@</w>
bet w
betw een</w>
be ing</w>
s ov
i in</w>
kaik ki@@</w>
k ol
sup port</w>
k as
halu a
g e
a d</w>
er i@@</w>
tel u@@</w>
par tic
j ou
s tra
si llä</w>
e dell
b eli
la us
prob le
i on</w>
y s</w>
Commission er</w>
ra t
ll is@@</w>
vas tu
f un
vi a</w>
an s</w>
i llä</w>
res pon
ar ly</w>
tuks en</w>
tar ko
ov ern
kaik ki</w>
en s
ttä vä</w>
ka is
man y</w>
l in
fir st</w>
g an
o lla</w>
as e</w>
b ility</w>
yhte is@@</w>
mark k
ta va@@</w>
o g
ma de</w>
k en
b u
tr ans
halua isi@@</w>
ff ec
viel ä</w>
op p
j at
om a@@</w>
i g
ar s</w>
the m</w>
pu b
tä vä@@</w>
its e@@</w>
re ad
ko hd
vas ta
u ra
k ka
propos al</w>
tel e@@</w>
li ik
to iv
th an</w>
tel y</w>
w ere</w>
kti iv
ei vät</w>
per i
mp ä
el ä
v an</w>
f o
tärke ä@@</w>
polit ical</w>
en ti
im e</w>
is e</w>
a ted</w>
su o
us ta</w>
b ud
ttä in</w>
m ber</w>
m itä</w>
di re
vaik u
com e</w>
os o
ed is
e lle</w>
ää d
c es</w>
as ti</w>
huom io
ti e
va h
te hd
li c</w>
sis ä
kunn an</w>
ra ho
beli eve</w>
or der</w>
m ost</w>
dis c
sur e</w>
on g</w>
si ih
ro u
t w
conc ern
m il
sa y</w>
oh jel
siih en</w>
i ä</w>
x t</w>
ov er</w>
ra l</w>
kä än</w>
tä ä</w>
pro duc
k ra
koske va@@</w>
an ce</w>
poin t</w>
ap pro
i ma
j ul
re d</w>
y le
sa a@@</w>
f ic
es itte
su h
ra c
hu ol
g et</w>
ta k
se lla@@</w>
ys te
us e
tt u</w>
to teu
v ic
as e
un ity</w>
ur e</w>
it e</w>
fac t</w>
issu e</w>
u res</w>
ri ghts</w>
t tiin</w>
so si
it ys
k al
isi on</w>
ki r
u h
a a</w>
toim in
n sa</w>
a mend
k or
j ust</w>
C on
esitte li
tavo itte
te taan</w>
men tal</w>
tar y</w>
ks et</w>
tu s</w>
ar ds</w>
deb ate</w>
euro opp
y mpä
Comm ittee</w>
mis een</w>
void aan</w>
ko lle
tar v
teh tä
k y@@</w>
ti c</w>
c er
th in
pub lic</w>
hall it
e f
isuu den</w>
ro s
con si
un der
ta b
r ik
ac h</w>
or d
ty vä@@</w>
ing s</w>
tu t
ins t</w>
väl i@@</w>
hy vä@@</w>
s itte
jo ita</w>
aga inst</w>
jä l
s yste
per us@@</w>
a vo
p yy
ev en</w>
mi en</w>
Y hd
ih mis@@</w>
in for
es ty
19 9
y ing</w>
tur vall
toiv o@@</w>
ra p
c re
suur @@</w>
me as
kuu @@</w>
c c
in a@@</w>
ad op
ll y</w>
ttä ä</w>
h a@@</w>
k ö
at ta@@</w>
f e
t tö
ll is
in ä</w>
m en</w>
h ere</w>
cer ta
ympä ris
ff er
hä n@@</w>
maa il
v ing</w>
pro te
d ra
i a@@</w>
s itu
do es</w>
tta va@@</w>
ri ght</w>
vuo ksi</w>
p p
wh ere</w>
pu h
ques tion</w>
h er
a ali@@</w>
el in
pos sible</w>
to i
vi ew</w>
min is
tw o</w>
k ä@@</w>
c l
t tä</w>
se ura
wel l</w>
m än</w>
op e</w>
ter ro
rat kais
ai he
s peci
I n
par t</w>
la ins
t re
c our
an n
m it
th an
u us@@</w>
miet in
p yr
ma a</w>
la r</w>
ksi in</w>
tt om
täm ä
vir on
econom ic</w>
men et
kans alais@@</w>
ha d</w>
mm ä
read y</w>
g overn
va an</w>
myö n
n ec
ta ma@@</w>
ov er
mu kaan</w>
et y</w>
r s</w>
ääd ä
stra te
en s</w>
lains äädä
t ö</w>
k im
pa in
ex a
se e</w>
e pä
i ta@@</w>
dire ktiiv
di es</w>
ke en</w>
ksi ä</w>
mietinn ö
w ant</w>
th en</w>
n tö
ye ars</w>
parlament ti</w>
et te
y l
es t</w>
e ffec
re la
re gi
s ää
ot ta@@</w>
o w</w>
mä än</w>
us ta@@</w>
ent ly</w>
iti z
ho w</w>
tapa h
inc lu
p et
develop ment</w>
pal j
c ould</w>
en d</w>
b ers</w>
so cial</w>
gan is
th ou
määr ä
M rs</w>
te ke
thin k</w>
pa ik
can not</w>
to o</w>
in d
situ ation</w>
olu tion</w>
te n@@</w>
v an
nn ö
200 1</w>
ell @@</w>
d u
prov id
vuo den</w>
sa me</w>
hy ö
si ksi</w>
pres en
kuu l
ma lla</w>
sa id</w>
yhteis ön</w>
with in</w>
ksi en</w>
c r
inc reas
fu ture</w>
en g
val mis
tu l
tä hän</w>
b er
terro ris
la a
miel tä</w>
halu a@@</w>
ol e
enn en</w>
hu man</w>
coun try</w>
a f
ye ar</w>
te ttava</w>
al ready</w>
tark is
demo kra
ow n</w>
i ll
kaik @@</w>
pro gra
jo iden</w>
en si
c itiz
pec t</w>
to day</w>
s pe
con tin
tak en</w>
f r
prote c
jo ta</w>
om a
f re
leg is
euroopp alais@@</w>
Comm unity</w>
acc ep
t u</w>
ch an
cle ar</w>
ympäris tö@@</w>
ny ky@@</w>
p s</w>
val ta@@</w>
meas ures</w>
uks et</w>
ter s</w>
mu ch</w>
EU :n</w>
ot h</w>
u ksia</w>
palj on</w>
oper ation</w>
at ing</w>
pitä isi</w>
re gu
ur r
uu den</w>
til l</w>
liit ty@@</w>
v o@@</w>
ul t</w>
ku @@</w>
ex c
s c
isuu s</w>
i ous</w>
s till</w>
tark as
tu ral</w>
peri a
talou dell
mahdoll @@</w>
isi ä</w>
or ity</w>
res s</w>
mis esta</w>
pä ä@@</w>
fin an
direc tive</w>
mark et</w>
tu s
nä mä</w>
ip pu
ins titu
w n</w>
disc us
nn e</w>
tä lla@@</w>
b asi
rap por
in e
pos ition</w>
inte res
huomio on</w>
wh y</w>
vaik ka</w>
jec t</w>
for m</w>
vä h
f ur
cour se</w>
ko kou
en viron
ta s
mm ä@@</w>
ensi mmä@@</w>
im ple
kä si
ac hi
th rou
fu l</w>
b oth</w>
j uu
un der</w>
v en</w>
markk ino
kä sit
p ys
vo te</w>
suu nn
g a
sec on
p uu
200 0</w>
oll ut</w>
c urr
mp le</w>
talou s@@</w>
k now</w>
n ou
s et</w>
j ien</w>
k l
A r
to r</w>
il u@@</w>
pla ce</w>
a ir
e llä</w>
l ta</w>
comm on</w>
tark istu
al ity</w>
lo y
di ffer
h is</w>
ad d
h ope</w>
hen kil
w e
on al</w>
ma tion</w>
it se</w>
puol esta</w>
r i</w>
u lar</w>
pr in
tu om
go od</w>
h et
an a</w>
s taan</w>
c ase</w>
ti ves</w>
politiik an</w>
isuu tta</w>
som e
mis tä</w>
demo c
mi a</w>
va i
tehd ä</w>
pitä ä</w>
päätö s
a ino
ih mis
ta tion</w>
puh u@@</w>
toim i
e l</w>
ve l</w>
l ast</w>
prin ci
ven tion</w>
ette i</w>
y our</w>
s ol
p el
si inä</w>
neuvos to</w>
as s
laaj en
tu nn
täm ä@@</w>
it ä@@</w>
ti es</w>
us ten</w>
citiz ens</w>
s ä
vas ta@@</w>
neu vo
jäl keen</w>
g ener
menet tel
te ki
ma y</w>
qu i
s in
wor ld</w>
os all
ou se</w>
so ci
partic ular</w>
uu tta</w>
ki el
uks essa</w>
kansa in
kansain väl
kansainväl is@@</w>
u tu@@</w>
d ly</w>
con su
agre ement</w>
mer ki
ehdo tuks
komissi o@@</w>
isuu d
g y</w>
m i@@</w>
teu r</w>
is een</w>
amend ments</w>
syste m</w>
ser vic
mis en</w>
täy si@@</w>
e ar
sa avu
talou s
proc ess</w>
ka a</w>
than k</w>
vuo ro
sopim uksen</w>
vä lis
ob jec
200 2</w>
f ra
tri bu
nec ess
ac tion</w>
th re
rappor teur</w>
nu mber</w>
u tta@@</w>
pal vel
use i@@</w>
be fore</w>
co operation</w>
c u
m ikä</w>
si ons</w>
tt y</w>
n al</w>
tiet o
us ed</w>
va ati
pu t</w>
sitte @@</w>
infor mation</w>
si g
or ganis
s i</w>
inv ol
c a
var o
te tään</w>
asi a</w>
ma iden</w>
inter national</w>
me ans</w>
au th
y mmä
in iti
valti o
oll e@@</w>
vi ä</w>
with out</w>
at te
ymmä r
tu ot
te k
gi ven</w>
ma ks
exa mple</w>
ur ity</w>
ko ko</w>
is uus@@</w>
to jen</w>
raho it
iti ons</w>
T ur
yhte yd
tut kim
o in</w>
pro mis
are a</w>
tu sta</w>
te ttu</w>
ti la
issu es</w>
yle is@@</w>
lop u@@</w>
v il
Yhd ys@@</w>
käy tä
ffic i
mi ll
si ir
f ar</w>
es een</w>
sa ad
vu onn
et ta</w>
tu lo
Uni ted</w>
le vel</w>
vuonn a</w>
en i</w>
kansa llis@@</w>
t te</w>
va ka
laus el
gre at</w>
hal f</w>
tapah tu
v ed</w>
pres ent</w>
ttä vä@@</w>
en sure</w>
v is
0 0</w>
s ed</w>
as ed</w>
keh it
neuvo t
kaik ke@@</w>
lar g
proble m</w>
päätös lausel
kys e</w>
s ään
arvi o@@</w>
uu dis
ittä vä@@</w>
H ouse</w>
dec ision</w>
g ent
juu ri</w>
en a</w>
yhteyd essä</w>
mi ten</w>
b r
ra jo
str uc
os sa</w>
c k</w>
sel f</w>
reg ard</w>
tarko it
de t</w>
f oll
is im
P ro
y ksi
ty mis@@</w>
t tu
s te
imple men
inv es
h as
gi ve</w>
tu ksia</w>
käy ttö
op e
im in
vas taan</w>
perus te
thou gh</w>
in e</w>
er i</w>
I s
kil pa
consi der
et s</w>
tab lis
es tablis
ks e@@</w>
jäsen et</w>
finan cial</w>
ään esty
min u
ul es</w>
vi ime</w>
om en</w>
u m</w>
me illä</w>
Euroop pa</w>
sin ce</w>
ku lu
ys tä</w>
gent le
necess ary</w>
h ed</w>
kuul u@@</w>
var mis
ko ros
a va@@</w>
ic e</w>
fi c</w>
te ll
gentle men</w>
a is@@</w>
sa f
k ed</w>
en d
al th</w>
sa a</w>
arvi o
ö n
la dies</w>
s yy
valio kunnan</w>
ter ve
or ities</w>
merki ksi</w>
ittä ä</w>
tu ke
lo o
proble ms</w>
en ts</w>
propos als</w>
it se
mat ter</w>
is in</w>
toim ia</w>
w er</w>
ta a@@</w>
pää s
s en
tämä t@@</w>
throu gh</w>
asi assa</w>
va ike
pu r
si a</w>
k ke
yhteis työ@@</w>
l ong</w>
wh e
myön te@@</w>
ul arly</w>
ta ble</w>
ll inen</w>
ac t</w>
in de
te xt</w>
l ed</w>
oike us@@</w>
sosi aali@@</w>
vo im
tel u
om e</w>
d el
aino a@@</w>
ou ra
sh i
f t</w>
proc ed
talous arvio@@</w>
ta sa
leg al</w>
kolle g
is ed</w>
euro @@</w>
com pet
aga in</w>
j ö
con tro
in ten
loy ment</w>
f is
työ tä</w>
n im
iti ve</w>
val v
whe ther</w>
ka t
e ments</w>
par an
in no
ex pres
g es</w>
op in
ai d</w>
ol og
os ta@@</w>
I ra
emm än</w>
per s
l as
isi ons</w>
p li
ra ken
sa a
os alta</w>
p lan
c ar
f l
la w</w>
re qui
Mem bers</w>
partic ularly</w>
tä ä
tr u
ti ce</w>
tor j
is esta</w>
p a@@</w>
puheenjohta ja</w>
h ing</w>
l ess</w>
af ter</w>
suh te
are as</w>
certa in</w>
por ts</w>
ty y</w>
it or
sisä l
osall istu@@</w>
jul k
200 3</w>
por tun
p ly</w>
In ter
si bility</w>
go ti
l tä</w>
basi s</w>
tärke i@@</w>
c ed</w>
tilan te
he idän</w>
conc lu
el ec
ou s
wa ys</w>
th ir
r ic
vapa u
adop ted</w>
o f
a k
ol i@@</w>
c oll
ne goti
pl ic
ind us
oso itta@@</w>
fur ther</w>
y ksi</w>
R e
kans ala
te ri
m ely</w>
esitteli jä</w>
di ffic
s titu
kal as
b i
ten t</w>
te ch
uu si@@</w>
tu o
mon i@@</w>
ag e</w>
suu n
yr ity
vi ran
i tel
w omen</w>
p rac
asio iden</w>
viran oma
ac coun
res pect</w>
me work</w>
mietinn ön</w>
asi a
pu @@</w>
ol em
u p
bud get</w>
m @@</w>
op portun
M ar
sis ä@@</w>
su or
m e@@</w>
id e
il ma
fi ed</w>
legis lation</w>
c all
fu lly</w>
t is
päätöslausel ma@@</w>
ll oin</w>
n ing</w>
ac e</w>
tä vä</w>
ne xt</w>
oun d</w>
d one</w>
t ty@@</w>
il e</w>
res olution</w>
G ro
sää nnö
h ol
go ing</w>
s ä@@</w>
progra mme</w>
p le</w>
edell een</w>
shi p</w>
on a@@</w>
k no
an te
ou t
kysymy s</w>
keh ity
toi men
y n</w>
vastu u@@</w>
avu lla</w>
va ih
pä i
el i</w>
po h
edell y
strate gi
jo illa</w>
ter ms</w>
o m</w>
b ac
in ti@@</w>
sec urity</w>
ala lla</w>
ver y
enn e@@</w>
fer ence</w>
differ ent</w>
f av
at @@</w>
suo jel
e qu
con tribu
kann alta</w>
be half</w>
tech n
pro g
k in
en larg
tä ntö
re presen
nä än</w>
concern ed</w>
täy täntö
b o
ar ti
se ur
tar pe
d @@</w>
T re
e very
aik ana</w>
protec tion</w>
con d
at ti@@</w>
stan d
ed usta
is yy
tä nään</w>
hyö d
all is@@</w>
ki inn
it o@@</w>
mit ään</w>
te oll
ot ta
sel vä@@</w>
r ules</w>
ta in
comm it
sel ves</w>
e tu
union i</w>
ric ul
ma king</w>
aik a
g en
muka isesti</w>
su cc
w ish</w>
ma a@@</w>
il man</w>
gu ar
sub ject</w>
n ope
min un</w>
opin ion</w>
as k</w>
tu mis@@</w>
ex is
sov el
suunn itel
gro up</w>
i l</w>
w ard</w>
ef for
r an</w>
C h
g o</w>
t te
to te
hy vä</w>
M a
com pan
a ih
agre e</w>
julk is@@</w>
k ri
servic es</w>
ro le</w>
tar vi@@</w>
s tar
fra mework</w>
si ve</w>
va ar
lu on
l et</w>
gre a
p resid
i te@@</w>
ker ta@@</w>
a al
ty y
j us
pros ent
mu od
air s</w>
ff airs</w>
me di
saf ety</w>
tor s</w>
w ards</w>
mm in</w>
os a</w>
ol tava</w>
a a@@</w>
some thing</w>
Sta te</w>
jo issa</w>
tta mis@@</w>
tule e</w>
ö y
tel y@@</w>
asi a@@</w>
h is
emm in</w>
qu ite</w>
os @@</w>
w s</w>
Gro up</w>
B r
asi asta</w>
jo lla</w>
vi in</w>
ra u
ot ta</w>
foll ow
hi gh
vi im
tule va@@</w>
propos ed</w>
tapa uksessa</w>
it o
f ew</w>
M ad
tie ten@@</w>
gi a@@</w>
onn istu@@</w>
k si@@</w>
arti kl
peruste ell@@</w>
a w
cl os
gra tion</w>
r as
thre e</w>
aik a@@</w>
sh all</w>
ki ittä@@</w>
nä kö
di v
sec tor</w>
secon d</w>
op u
wh ole</w>
u es</w>
os ta</w>
ed s</w>
princi ple</w>
mil jo
ous ly</w>
at y</w>
wor king</w>
prosent ti@@</w>
ti e@@</w>
es it
d en
he alth</w>
prog ress</w>
cle arly</w>
Is ra
kir ja@@</w>
työ n
mietinnö ssä</w>
nou d
ul ko@@</w>
li i@@</w>
a tive</w>
kys e@@</w>
enlarg ement</w>
m ää
ks eni</w>
sel ke
enc es</w>
oikeu ksien</w>
tärke ä</w>
speci fic</w>
his tor
e g
me ille</w>
ra k
an other</w>
kun ta</w>
g @@</w>
ki rj
to ge
I ta
A mer
esitteli jä@@</w>
nn ön</w>
n ed</w>
tä mis@@</w>
comm un
saad a</w>
ke y</w>
ma in</w>
se e
pain o@@</w>
peria atte
ur ing</w>
kä y@@</w>
ot taa</w>
do wn</w>
pit kä@@</w>
our ces</w>
ehdo t@@</w>
l im
valti o</w>
puol u
toimen p
la te</w>
ti a@@</w>
to ja</w>
k el
mi ä</w>
c or
uu s</w>
parlamen t@@</w>
institu tions</w>
koros ta@@</w>
bet ter</w>
pa a</w>
f ul
is ty@@</w>
contin ue</w>
kou lu
tu ke@@</w>
1 0</w>
mietin tö</w>
for ward</w>
li ber
väl t
r i@@</w>
de fin
pre par
il ta</w>
d ic
ri ippu
s or
vas ta</w>
sit ou
lin e</w>
toimenp ite
id e</w>
n et
fun da
ta so
tehtä vä</w>
ar m
res ult</w>
ear ch</w>
as @@</w>
o t</w>
Con vention</w>
vel y</w>
chan ge</w>
tö n</w>
kysymy ks
liit tyvä@@</w>
man ag
Presid ency</w>
N o</w>
a lla</w>
varmis ta@@</w>
tule va
uu dell
ll isesti</w>
e very</w>
ta va
on ce</w>
ord in
kau p
is tä@@</w>
appro ach</w>
ig n</w>
l and</w>
ra ther</w>
vo ima
guar ante
aik aan</w>
si mp
si ja@@</w>
ti a</w>
valv on
certa in
avo im
la ati
va kuu
b en
lo b
toge ther</w>
puheenjohta ja@@</w>
il y</w>
a in
vält tämät@@</w>
achi ev
m assa</w>
l es</w>
te itä</w>
j et
uks en@@</w>
kansala isten</w>
en ä</w>
minis ter
hyväks y
tuot te
a mme</w>
ag ricul
tää llä</w>
regu lation</w>
k ka@@</w>
fav our</w>
gener al</w>
te ttu@@</w>
mahdoll isuu
consu m
di d</w>
vel vo
suh ta
wel come</w>
vah v
te ho
pen d
at ten
sisä ll
ik e@@</w>
ac ti
m at</w>
environ mental</w>
kol man
in is
ta king</w>
ti en</w>
lis ä
appro pri
stan d</w>
curr ent</w>
mää ri
jo hd
emp loyment</w>
ll een</w>
trans port</w>
m es</w>
d uring</w>
mon e
ffic e</w>
s to
vu os
es sion</w>
ex tre
ka ksi</w>
ryh män</w>
199 9</w>
f a
alo itte
ta in</w>
n or
sta te</w>
enti al</w>
asi aa</w>
y ttä@@</w>
to wards</w>
com ple
h in
tuke a</w>
teki jö
Tre aty</w>
oikeu dell
miljo ona@@</w>
sa atta@@</w>
g ed</w>
mill ion</w>
as em
oike us
määr ä@@</w>
ehd o@@</w>
artikl a@@</w>
P al
työ s
ra tic</w>
ite ttava@@</w>
het ke
ään estä@@</w>
puheenjohta ja
uks een</w>
G re
ne eds</w>
comm ittee</w>
mietin tö
fi el
A mend
o c
isuud essa</w>
es peci
ap pe
Mad am</w>
tta a</w>
j e
mu ka@@</w>
c ri
b ased</w>
aj a
c ul
le v
ko jen</w>
especi ally</w>
as es</w>
kir jo
im prov
vuoro @@</w>
me et
in tro
n sä</w>
accoun t</w>
it self</w>
il mo
tr uc
yks in
grea ter</w>
yh ä</w>
hetke llä</w>
importan ce</w>
fin ally</w>
rac y</w>
sa an</w>
ku in
al a@@</w>
poin ts</w>
cond itions</w>
uu d
ar vo@@</w>
p rec
union i@@</w>
kuin ka</w>
tied ä@@</w>
hel p</w>
1 5</w>
te ttiin</w>
kulu tta
henkil ö@@</w>
A ffairs</w>
ac tu
re @@</w>
e ach</w>
u al</w>
m ov
tra de</w>
se qu
vaati mu
turvall isuus@@</w>
le ast</w>
al an</w>
l en
kat s
la ad
toteu tta@@</w>
y et</w>
k usta
mis sä</w>
ittä mis@@</w>
respon sibility</w>
kor ke
ik ke
thir d</w>
ka hd
te ttävä</w>
re ally</w>
teke mä@@</w>
du ce</w>
de al</w>
v u@@</w>
o th
s ten</w>
li f
c ap
ha ving</w>
lu o
lo c
yh tä</w>
r en
es ittää</w>
kolleg at</w>
j at</w>
to inen</w>
sä il
al though</w>
us k
direktiiv in</w>
käy ttää</w>
u t
rec og
recog n
provid e</w>
k ers</w>
en ä@@</w>
mu iden</w>
00 0</w>
parlament issa</w>
m ot
en ä
tilan ne</w>
politiik kaa</w>
vo ita
toim inn
si de</w>
b ur
sään tö
res ources</w>
sel vä
auth orities</w>
m as
koske va</w>
ch ar
u a</w>
te ks
ehdo tuksen</w>
va a
kunn io
s ta@@</w>
pe ace</w>
tek n
ll i@@</w>
fin d</w>
i an</w>
indus try</w>
sol id
ser ious</w>
nope a@@</w>
bec ome</w>
inde ed</w>
aik o
ma ttom
men e
la i
sh or
gu e</w>
ai r</w>
g g
sy n
vois i@@</w>
d ou
opportun ity</w>
wh ile</w>
pros ess
b al
L is
increas e</w>
su os
vahv ista@@</w>
hu ippu
produc ts</w>
p er</w>
tuom io
yhd en
A fr
kul ttu
div id
ur o</w>
hyöd y
fre ed
et tava</w>
inclu ding</w>
o cc
var ten</w>
tr ic
at ta
kehit ys@@</w>
val itettava@@</w>
os a
käsi tel
ll ista</w>
kokou ks
al ways</w>
var ious</w>
govern ment</w>
isim man</w>
b us
void a</w>
ratkais e@@</w>
Euroop assa</w>
EU R</w>
amend ment</w>
asi an
parlament ti@@</w>
at or
tic le</w>
par t
k ö@@</w>
aj an</w>
an g
seur a@@</w>
ur i@@</w>
contro l</w>
it ta
p ris
laajen tumis@@</w>
i o@@</w>
g lob
asi an</w>
achi eve</w>
te ille</w>
regi ons</w>
saavu tta@@</w>
itys tä</w>
perus tamis@@</w>
tu va@@</w>
vaiku tta@@</w>
v ista</w>
S ch
rahoit us@@</w>
jou tu@@</w>
täy tyy</w>
var si@@</w>
all ow</w>
v er</w>
uks ista</w>
res earch</w>
kunn assa</w>
un d</w>
re form</w>
ma tta</w>
g ran
polic ies</w>
koh ta@@</w>
b our
proced ure</w>
tan ce</w>
te lla</w>
c all</w>
tuomio istu
palvel u
wor ds</w>
Yhd isty@@</w>
me m
val tu
tava lla</w>
en tra
pan o@@</w>
k ää
s olu
joh ta@@</w>
par lia
käyttö ön</w>
l yh
ku va@@</w>
os a@@</w>
vi ol
lar ge</w>
spe a
ha p
de f
tiet o@@</w>
2 0</w>
kusta nn
hi gh</w>
us i</w>
avo in</w>
Ita li
ol ev
B ar
soci ety</w>
h er</w>
s een</w>
diffic ult</w>
ra uh
kes ke
hu man
compet ition</w>
ter m</w>
P or
ex ten
ans ka@@</w>
i ksi</w>
maa han
m ed</w>
con stitu
conc er
interes ts</w>
re duc
voita isi@@</w>
olem assa</w>
ar @@</w>
3 0</w>
ne en</w>
R i
yhd essä</w>
pp a@@</w>
s tu
menettel y
es @@</w>
re a
ar vo
h and</w>
aihe utta@@</w>
ch il
pec ts</w>
negoti ations</w>
kats o@@</w>
S a
reas on</w>
ma jo
alis ation</w>
invol ved</w>
acti v
concern s</w>
ker ran</w>
tar jo
acc ess</w>
s m
talou den</w>
com b
par ti
r e</w>
as et
funda mental</w>
olev an</w>
bac k</w>
M inis
su mm
o do
nim ittä@@</w>
jo ista</w>
h an</w>
consi der</w>
nä ke
mone y</w>
majo r</w>
vi ik
el @@</w>
th ings</w>
muu to
mi in</w>
o tetaan</w>
ess ential</w>
tur va@@</w>
lu o@@</w>
re ac
ab ility</w>
ol o
pi en@@</w>
m asta</w>
järjestel mä
jo in
is essa</w>
follow ing</w>
certain ly</w>
asi an@@</w>
sm all</w>
b ro
S u
fiel d</w>
dec isions</w>
O @@</w>
oike a@@</w>
o i@@</w>
men n
is eksi</w>
environ ment</w>
myö nn
qu ality</w>
democ ratic</w>
5 0</w>
re al</w>
fic ation</w>
va ad
keskustel u</w>
is m</w>
extre mely</w>
is ista</w>
gra tu
al i
accep t</w>
p ala
se ik
kö yh
maa talous@@</w>
n er
il i
henkil ö
con gratu
Amer ic
compan ies</w>
pid ä@@</w>
L a
tyy tyvä@@</w>
neuvot telu
re ques
commun ic
joh @@</w>
si o@@</w>
demokra atti@@</w>
de m
ir e</w>
e ag
huom au
concer n</w>
valmis telu@@</w>
initi ative</w>
kau tta</w>
B el
jat ka@@</w>
m in</w>
can d
n en</w>
pos itive</w>
aw are</w>
o re
effec tive</w>
min d</w>
tarkis tuks
ehdo tus</w>
regu la
ell is@@</w>
pid e@@</w>
s usta
vil jel
kä sitte
t ou
ki a</w>
A l
res ul
s ing</w>
har jo
asio ita</w>
loo k</w>
atten tion</w>
ap plic
vo ted</w>
pä iv
markkino iden</w>
as e@@</w>
implemen tation</w>
vall an</w>
democ racy</w>
th s</w>
oike ud
maahan muu
its i</w>
selke ä@@</w>
200 4</w>
mahdoll ista</w>
isi vat</w>
vah v@@</w>
Por tu
vu otta</w>
e en@@</w>
v äär
a tes</w>
demokra tia@@</w>
d r
objec tives</w>
l a@@</w>
we e
nä y
el im
progra mm
on e
an al
miel @@</w>
ma j
hall in
Ar ticle</w>
ryh mä@@</w>
ku mp
pro f
mon et</w>
es ti
ben ef
e ded</w>
be g
tion ed</w>
gro w
ful l</w>
G overn
vois i</w>
tu u</w>
n on</w>
uudell een</w>
f le
puheen vuoro@@</w>
con sequ
viim e@@</w>
O ffice</w>
noud atta@@</w>
reg ar
susta in
muu tta@@</w>
täytäntö ön
ki in
for ce</w>
selvä sti</w>
pro ve</w>
es tin
inn ä@@</w>
do cu
re f
yle is
rak enn
im mi
pro mot
fo od</w>
b an
s ing
maj ority</w>
luon no
kilpa ilu@@</w>
L i
ta is
cr it
suun ta
g ing</w>
bu il
järjes ty
m ik
k ar
tarkoit uksen@@</w>
objec tive</w>
ks emme</w>
il a@@</w>
o s</w>
s tään</w>
järjestel män</w>
re fer
k ö</w>
an ta
si lloin</w>
oikeu ksia</w>
ke ho
h on
R u
ins tru
simp ly</w>
bus in
coll eag
ol d</w>
a vai
h e@@</w>
pu hel
fo re
h @@</w>
ko ja</w>
inter nal</w>
effor ts</w>
at tava@@</w>
mi ght</w>
in divid
elin tarv
ste p</w>
lainsäädä n
ens innä@@</w>
torj u@@</w>
sub stan
san ot
end a</w>
sta te
var a@@</w>
fl ic
ni fic
dou b
min usta</w>
laa ti@@</w>
jäs en@@</w>
c os
1 2</w>
uu @@</w>
ener gy</w>
pos e</w>
union issa</w>
ll ing</w>
s t
th em
freed om</w>
em mis
ko kon
fre e</w>
kilpa il
mu istu
a ffec
avai la
oike us</w>
t ti</w>
lop pu@@</w>
op en</w>
vä he
ma issa</w>
emp i</w>
ma an
käsit tel
l ää
ros s</w>
o t@@</w>
trans par
toimin ta@@</w>
of ten</w>
he ik
mi ksi</w>
en ing</w>
alu een</w>
I r
legis la
im me</w>
at t
f y</w>
up on</w>
interes t</w>
keh ittämis@@</w>
strate gy</w>
2 0
fe el</w>
y ys@@</w>
puol i@@</w>
agre ements</w>
vaa ti@@</w>
respon sible</w>
na isten</w>
käy nn
k et
men tioned</w>
ker tom
str eng
ima t@@</w>
s olution</w>
per io
san o
ed uc
es ite
sig nific
for ms</w>
tois eksi</w>
huol imat@@</w>
appropri ate</w>
parti ci
A f
prac tic
kä r
yr itys
pyy d@@</w>
com es</w>
el ess</w>
call ed</w>
ha ps</w>
iti onal</w>
sosi aal
alo gue</w>
per haps</w>
ep ä@@</w>
us sa</w>
te mme</w>
voim a@@</w>
an y
fis her
ti mes</w>
mis estä</w>
yhteis työtä</w>
minis tra
b il
f am
econom y</w>
oth ers</w>
j ud
con flic
yy den</w>
terroris m</w>
to de
avoim @@</w>
ques tions</w>
Govern ment</w>
ta n</w>
A @@</w>
is essä</w>
ran ce</w>
u ps</w>
Ar voisa</w>
m men
im p
jä lleen</w>
W T
com promis
c ris
fun ds</w>
alue ella</w>
s in</w>
develop ing</w>
mil i
1 @@</w>
ar ity</w>
is ation</w>
intro duc
toim iin</w>
ongel mia</w>
rec ent</w>
mu o
ne iden</w>
kau ppa@@</w>
meet ing</w>
muistu t@@</w>
kno w
tur n</w>
li ght</w>
ro w</w>
d i@@</w>
suur i</w>
ag o</w>
men tary</w>
ris k</w>
han kke
w ar</w>
työ llis
m el
tu n</w>
ma t@@</w>
ong er</w>
et te</w>
ris ti
od a</w>
1 1</w>
er ila@@</w>
b est</w>
to d
te llä</w>
in fr
mä ttä</w>
r y</w>
programm es</w>
maail man</w>
puheenjohtaja valtio</w>
määr ä</w>
liik en
le ad
o ff
ex peri
tarv itse@@</w>
gro ups</w>
co ordin
w an
työn tekijö
m an@@</w>
usk on</w>
si l
fer ens
star t</w>
ffici ent</w>
pel kä@@</w>
kon ferens
ap pli
mi eh
it tele@@</w>
la is@@</w>
käy te
actu ally</w>
merk ittä
m i</w>
s et
k ko@@</w>
j an</w>
po wer</w>
all ow
di alogue</w>
sup por
jec ts</w>
kau den</w>
br ing</w>
f arm
a ati
availa ble</w>
is sa@@</w>
ehdo kas
pos ed</w>
accep table</w>
bud jet
re com
a mon
väh ä@@</w>
taso lla</w>
k ki@@</w>
V enä
päätö ks
ole va@@</w>
an sa
lif e</w>
secon dly</w>
pys ty@@</w>
elin ten</w>
in f
K @@</w>
u t@@</w>
kun ta@@</w>
us tus@@</w>
manag ement</w>
S o
kalas tus@@</w>
wor kers</w>
kas vu@@</w>
valtio iden</w>
s p
d ate</w>
Amend ment</w>
D i
ryh ty@@</w>
is te@@</w>
vuoro puhel
p h
m om
an im
vä es
n a@@</w>
vai he
cand id
väl ine
them selves</w>
tavoitte en@@</w>
Ri ghts</w>
kka a@@</w>
on ta</w>
tehtä vä
A n
tor y</w>
j ia</w>
represen ta
under stand</w>
kokon ais@@</w>
ne e@@</w>
hel p
ad ministra
tois in</w>
puu ttu@@</w>
per ä@@</w>
yl i</w>
laaj u@@</w>
d es</w>
uks esta</w>
tarkis t@@</w>
es ittä@@</w>
agricul tural</w>
us ing</w>
mat ters</w>
human ita
yritys ten</w>
po ikke
es itys
ymmär r
concern ing</w>
täytäntöön pano@@</w>
th eless</w>
mem bers</w>
com ing</w>
sy ystä</w>
R us
vi i
fi ght</w>
ver s
k re
vo in</w>
le d
enc oura
c ases</w>
es iin</w>
sov ell
d on
päi vä
curr ently</w>
P ol
ongel ma</w>
do ing</w>
C our
huomio ta</w>
regi on</w>
re ports</w>
rela tions</w>
re alis
h im
me itä</w>
cre ate</w>
tois aa@@</w>
n el
kump pan
know led
ky mmen
par ties</w>
jo ka@@</w>
it telu@@</w>
sopim us</w>
ka h
ll e@@</w>
sing le</w>
esit tämä@@</w>
suor a@@</w>
un for
käsitte le
alue iden</w>
sel v
vastu sta@@</w>
valio kunta</w>
l y
lis ta@@</w>
epä il
to si
E s
teh o@@</w>
C O
con text</w>
ki ito@@</w>
fir s
ma k
vi ous</w>
de al
seura av
firs tly</w>
fa il
koh taan</w>
it te</w>
u ll@@</w>
tra c
s ci
ener gia@@</w>
regi onal</w>
edelly t@@</w>
säil y@@</w>
S w
B 5</w>
B er
to a</w>
Ira k@@</w>
väl inen</w>
läh esty
ud u@@</w>
g al</w>
val tojen</w>
Cour t</w>
hap pen
vaad i@@</w>
mon ths</w>
la ck</w>
järjes tö
b ly</w>
is e@@</w>
t ment</w>
a ine
ou th</w>
hu on
E n
pit e</w>
tarkistu ksia</w>
re ly</w>
id ence</w>
yhte nä
ar vos
M E
o ike@@</w>
fo c
e k
par ha@@</w>
dra ft</w>
h es</w>
tuleva isuudessa</w>
ra ti
merk ittävä@@</w>
kan na
aik aa</w>
maks a@@</w>
pid ä</w>
w r
ta v@@</w>
mu ita</w>
he i@@</w>
ku t
seura ava@@</w>
me th
keho t@@</w>
im prove</w>
ko ke
2 5</w>
isuu teen</w>
ri ittävä@@</w>
tasa paino@@</w>
ka a@@</w>
kokouks essa</w>
jat kuva@@</w>
ob li
dr en</w>
myö s@@</w>
ke ino
e te
pl es</w>
stand ards</w>
p opu
esitys lista@@</w>
ehdo tuksia</w>
d ue</w>
määr i@@</w>
ri ed</w>
mu l
ll isen</w>
. @@</w>
k an</w>
reas ons</w>
no thing</w>
al ka@@</w>
it u@@</w>
es im
en emmis
v ent</w>
de mon
käy tö
menn essä</w>
mp i</w>
ihmis ten</w>
a va
työs ken
ity s</w>
var m
it tava</w>
laus un
ur g
u g
an sio@@</w>
tu na
et tu</w>
edis tä@@</w>
l öy
la p
tuna tely</w>
s e@@</w>
eh kä</w>
tta isiin</w>
requi re
sub si
sta tes</w>
po w
syste ms</w>
mietintö ä</w>
yksi miel@@</w>
produc tion</w>
c ru
as te</w>
torj un
kysy m
kom ite
ta c
ehdo tusta</w>
o tettava</w>
kin d</w>
e p</w>
tus ten</w>
tul e@@</w>
fin al</w>
varm asti</w>
chil dren</w>
in ing</w>
ehdokas valtio@@</w>
jo ita@@</w>
demon stra
M e
Es pan
lyh y@@</w>
isuud esta</w>
es ta@@</w>
am oun
perio d</w>
l onger</w>
tarko itta@@</w>
kom promis
ent istä</w>
is te
mo ve</w>
i al</w>
su gg
G er
t to@@</w>
vasta a@@</w>
ra ha@@</w>
il tä</w>
ön tä</w>
ti u
er a
d i</w>
esim er
vaih to
kys y@@</w>
me an</w>
educ ation</w>
isi ja@@</w>
et t@@</w>
ens isija@@</w>
em ber</w>
kä si@@</w>
terve yd
ess es</w>
con f
pu n
ä l
to ista@@</w>
sovel tamis@@</w>
os tu@@</w>
kesk it
legisla tive</w>
19 @@</w>
tarpe e@@</w>
e iv
sa lli@@</w>
yks ityis@@</w>
loc al</w>
achiev ed</w>
as sis
compromis e</w>
princi ples</w>
keskustel u@@</w>
govern ments</w>
uks e@@</w>
or ig
u tu
kulttu uri@@</w>
vi e
regar ding</w>
mom ent</w>
maail man
itt le</w>
it tava@@</w>
ci es</w>
Venä jä@@</w>
resul ts</w>
pri va
ti al</w>
mu r
tapah tu@@</w>
r imin
vi l</w>
par emm
pre vent</w>
mahdoll isuus</w>
l ittle</w>
ge tary</w>
jo t@@</w>
se ver
paremm @@</w>
kti i
dire ktii
con struc
organis ations</w>
syy tä</w>
exc ell
b an</w>
kon kre
de ta
pros es
congratu late</w>
kul u@@</w>
d ang
keskustel un</w>
vaka va@@</w>
d a</w>
ab o
or row</w>
o ds</w>
v issa</w>
il o@@</w>
ag enda</w>
te iden</w>
kes tävä@@</w>
join t</w>
contin u
ti vely</w>
ha pp
jo ihin</w>
sustain able</w>
istu n
er in
mili tary</w>
communic ation</w>
te idän</w>
tom orrow</w>
ou gh</w>
ään es
sy rj
näke my
budjet ti@@</w>
od y</w>
le ad</w>
kun ing
it ing</w>
as pects</w>
e en
R anska@@</w>
N i
si s</w>
en ough</w>
re lation</w>
huom attava@@</w>
ab ly</w>
valvon ta@@</w>
p ast</w>
abo ve</w>
effec t</w>
politiik ka</w>
aset ta@@</w>
val vo@@</w>
tab led</w>
val u
syn ty@@</w>
ell e@@</w>
n ess</w>
acc or
infr as
candid ate</w>
C 5</w>
ol isi@@</w>
mi t</w>
cris is</w>
tr ue</w>
neuvos to@@</w>
is ing</w>
pit ä@@</w>
muu n</w>
gu id
grow th</w>
yh ti
laa ja@@</w>
itt u</w>
c ho
ten ce</w>
ide a</w>
ma ll
pa itsi</w>
lainsäädä nnön</w>
isi lle</w>
is enä</w>
v et
ki itä@@</w>
vä hen
tell ä@@</w>
konkre ett@@</w>
all @@</w>
toiminn an</w>
aati o@@</w>
pyr ki@@</w>
olog y</w>
erin oma@@</w>
ter nal</w>
si en</w>
vuoropuhel u@@</w>
a pu
reg ards</w>
lainsäädä ntö
mak es</w>
l j
ap ply</w>
ymmär tä@@</w>
ne eded</w>
jäsen ten</w>
Y K@@</w>
paik allis@@</w>
prov ed</w>
agre ed</w>
järjes tä@@</w>
fur ther
si lle</w>
c el
os in</w>
ik ka@@</w>
x i
eh kä
järjestel mä</w>
pä in</w>
pri ority</w>
ind ic
2 @@</w>
ks ista</w>
asi aan</w>
nä hd
muu t</w>
c en
aik a</w>
p ass
e uro</w>
tie te
commit ment</w>
b our</w>
ad van
liik enne@@</w>
edis ty@@</w>
ass ess
individ ual</w>
g ets</w>
om an</w>
vir as
ai o@@</w>
b ody</w>
of f</w>
id ä
com pe
min ä</w>
yksin kerta@@</w>
yhd y@@</w>
es ter
b ar
ki i
ihmis oikeus@@</w>
kans an@@</w>
un ti
j ille</w>
uks issa</w>
pa y
cos ts</w>
A g
ter min
consu l
tta ma@@</w>
further more</w>
l ing</w>
is to@@</w>
Tur key</w>
Ira q</w>
alu e@@</w>
tuomioistu im
pää tty@@</w>
excell ent</w>
kokou ksen</w>
Euroop pa@@</w>
v in
our selves</w>
ma te</w>
enn a@@</w>
teh nyt</w>
pi ir
käy d
activ ities</w>
kka asti</w>
ä s
tarjo a@@</w>
se em
c ing</w>
hyö ty@@</w>
dec id
tied on
n e@@</w>
ker to@@</w>
discus sion</w>
id en@@</w>
u usi</w>
tuo tan
min kä</w>
wa ter</w>
v es
pid et
pla y</w>
unti l</w>
toimi elinten</w>
sh e</w>
ne i
er ä@@</w>
uud esta</w>
every one</w>
ob ser
guarante e</w>
yhte en
c hall
halu a</w>
ci r
speci al</w>
p öy
vi lle</w>
res tric
määri tel
kysymy ksiä</w>
kolman n@@</w>
kut su
mene tel
S ec
te st</w>
kehity ksen</w>
Pal estin
oikeu den</w>
nä ky
el ta</w>
välis en</w>
tu res</w>
ik an</w>
tied o
sa tis
ab solu
ta u
tu t</w>
lainsäädän tö@@</w>
Con ference</w>
pyr itä@@</w>
ra has
fis hing</w>
vuo si@@</w>
provid ed</w>
Par ty</w>
des pite</w>
entra l</w>
edis tää</w>
po ista@@</w>
kolle go
Ir lan
fun ding</w>
unfor tunately</w>
sel s</w>
vapa a@@</w>
oura ble</w>
1 3</w>
tus la
si ja
yhteis ö
mo tion</w>
acc ession</w>
hi m</w>
päi vä@@</w>
perus tusla
t ti@@</w>
enn a</w>
ta pa</w>
ni men
s sä@@</w>
Tur k@@</w>
D ec
jä rke
sa mo
to dis
pro jects</w>
huol es
con nec
keskustel ua</w>
b s</w>
z z
toim ien</w>
markk ina@@</w>
kann atta@@</w>
to o
nn ö@@</w>
rec eiv
a im
N or
B al
il i@@</w>
sever al</w>
samo in</w>
jo lloin</w>
servic e</w>
a te
prac tice</w>
l i</w>
inves to
lop ull@@</w>
bal ance</w>
w ar
v än</w>
itse va@@</w>
ol enna@@</w>
em an</w>
ta maan</w>
contribu tion</w>
techn ical</w>
polit ic
lis ään
pl an</w>
nu or
inclu de</w>
presen ted</w>
koh ta</w>
adop t</w>
P @@</w>
ta h
yy ttä</w>
ra h
ta as</w>
ra te</w>
us ko@@</w>
lu et
in ed</w>
ta lly</w>
u b
te tty</w>
mon im
Espan ja@@</w>
hel d</w>
le a
cru cial</w>
ryh mä</w>
dra w</w>
Inter n
shor t</w>
sen se</w>
kor va
kul je
nnö ssä</w>
D em
sitou tu@@</w>
sh are</w>
s sa
v issä</w>
a ktiiv
wor ks</w>
u ksiin</w>
vä ki
kann at@@</w>
har mon
F R</w>
va al
de lle</w>
väh en@@</w>
oso it
ci vil</w>
a lle</w>
hallit uksen</w>
cri teri
uu n</w>
pyr i@@</w>
p onn
imp act</w>
chan ges</w>
ll isia</w>
re li
mietinnö stä</w>
alo itta@@</w>
ai m</w>
neuvos t
add ition</w>
am b
prov isions</w>
m er</w>
con tain
conflic t</w>
c ha
is ena</w>
hi eman</w>
my y
pi an</w>
H e
tehd ä@@</w>
luonno ll@@</w>
käy t
expres s</w>
Afr ic
car ried</w>
turvall isuuden</w>
us ko
ys sä</w>
ta nn
tu en</w>
ohjel man</w>
knowled ge</w>
tu ki@@</w>
immi gration</w>
sta ge</w>
tiet ty@@</w>
exc lu
ks en@@</w>
is t</w>
N a
käsitel tävä@@</w>
gen u
consum ers</w>
emp has
promot e</w>
es i
n or</w>
a de
signific ant</w>
ryh mä
e an</w>
ain e@@</w>
state ment</w>
pu hu
si jo
läh e@@</w>
kon f
i lle
j @@</w>
alue ellis@@</w>
popu lation</w>
lin es</w>
im um</w>
so on</w>
stan ding</w>
re main
Su mm
proced ures</w>
jus ti
at h</w>
Me di
uu teen</w>
toim et</w>
ei ther</w>
U N</w>
use a@@</w>
valio kunnassa</w>
osa puol
huomau t@@</w>
muu ta</w>
ro @@</w>
ul kom
atte mp
ne ver</w>
lan gu
kä s
res ol
crit ic
transpar ency</w>
neuvost ossa</w>
va tion</w>
ta kia</w>
hall inn
ing ly</w>
accor ding</w>
liik ku
poliitt inen</w>
n er</w>
te ty
ro ad</w>
inte gration</w>
voima kkaa@@</w>
re pe
jo ta@@</w>
jat ko@@</w>
kysymy ksen</w>
Sw ed
lis t</w>
euroopp ala
er @@</w>
pu itte
val tion</w>
fle xi
hallit us</w>
ite m</w>
ta minen</w>
sh ip
1 .</w>
toimin ta
e tu@@</w>
fisher ies</w>
K os
every thing</w>
to in</w>
fore ign</w>
e il
kos ka@@</w>
acc ord
M on
varo ja</w>
al e</w>
rat ka
Summ it</w>
kaik en</w>
käy ttä@@</w>
na ture</w>
m es
te le
kl o</w>
konf lik
edelly ty
jo ten</w>
seem s</w>
m et
as ked</w>
ttom asti</w>
liit tymis@@</w>
B ud
ati ves</w>
it tu@@</w>
h or
to is@@</w>
mark ets</w>
tut ki@@</w>
nn in</w>
l ou
re main</w>
ed er
K re
b on</w>
n ers</w>
ul k
nimen oma@@</w>
od otta@@</w>
lu onn
respon se</w>
b order</w>
sa ying</w>
yhtenä is@@</w>
tek ni
kan a</w>
vaihe essa</w>
c lar
mm at</w>
de man
colleag ues</w>
read ing</w>
benef it</w>
Minis ter</w>
me mber</w>
k ki</w>
a tely</w>
Di rec
ä kuu@@</w>
da m</w>
consum er</w>
vaihto eh
kol me</w>
ulk opu
all e
s es</w>
reg re
minister i</w>
bud getary</w>
s tä@@</w>
saad a@@</w>
pöy tä
kuu lu
ans wer</w>
inte gra
y oun
id enti
p ä</w>
minu lla</w>
de lla</w>
tarkistu sta</w>
hyvä ksi</w>
cr imin
tode ta</w>
sa man
hall inno
cir cu
b el
expres sed</w>
ac tions</w>
A 5</w>
sh ar
requi red</w>
sopim ukseen</w>
4 0</w>
Kos ov
kää n@@</w>
basi c</w>
vet o
tarkoit us</w>
un ds</w>
käsit tele@@</w>
tuks et</w>
os ten</w>
mm än</w>
inde pend
sano i</w>
ra ised</w>
glob al</w>
vo ting</w>
viljel i
ulkopu ole@@</w>
tutkim us@@</w>
toimin taa</w>
im mä
exis ting</w>
vas toin</w>
diffic ul
rik oll
jou k
tie tä@@</w>
th us</w>
reques t</w>
kun tien</w>
dec lar
throu gh
spea k</w>
k ly</w>
alue illa</w>
mis essa</w>
con sis
velvo ll
ran ga
d y</w>
as y
mis sa</w>
kä ä@@</w>
tan ut</w>
merk it
käsi tellä</w>
1 4</w>
elä in
tilan teen</w>
he ar
ol ette</w>
de termin
an sa@@</w>
S ep
it us@@</w>
as ta@@</w>
al ku
through out</w>
tilan n
tilann etta</w>
qu ic
aktiiv is@@</w>
tic ally</w>
tan @@</w>
sä h
& #
&# 9
suhta udu@@</w>
S E</w>
is ella</w>
poh j
pa y</w>
n es
ar vois
tapahtu u</w>
lisä ä</w>
ittä is@@</w>
ik a@@</w>
farm ers</w>
presid ent
oikeud en
fl ec
f air</w>
muka ista</w>
ky llä</w>
g n
e f</w>
on ni
f f</w>
tra ining</w>
tas k</w>
over ty</w>
j ar
ic y</w>
is estä</w>
dis as
L ä
teh ty</w>
koh ta
res pec
la it@@</w>
establis h</w>
itor ing</w>
ins te
en te
an ne
Pro di</w>
vah in
E C
succ ess</w>
johd on
d eli
ta sa</w>
ord ino
ko ordino
suhta utu@@</w>
p overty</w>
inste ad</w>
Isra el@@</w>
re flec
ed es</w>
Pol icy</w>
ta jien</w>
re ach</w>
d ers</w>
increas ing</w>
kuning as@@</w>
i o</w>
establis hed</w>
c ks</w>
vic ti
ks a@@</w>
u no
ple ased</w>
ma at</w>
läh et
asio ista</w>
oikeu tta</w>
et tom
merkit see</w>
lu m</w>
en si@@</w>
da ta</w>
l uu
ro h
clos ed</w>
institu tional</w>
em paa</w>
teke e</w>
si ellä</w>
poin ted</w>
ll ed</w>
recom men
vo it
vi ously</w>
perus ta@@</w>
ki en</w>
ka s</w>
ar v
a ja@@</w>
ase tuksen</w>
täytäntö ön</w>
poliitt isen</w>
disc rimin
ö lj
prepar ed</w>
nä kö@@</w>
väl in
cul tural</w>
ty ö</w>
toi vo
liiken teen</w>
la bour</w>
ksi lle</w>
määrä raho
busin ess</w>
lu otta
ohjel ma@@</w>
ity is
ill e@@</w>
direktiiv i@@</w>
aika väli@@</w>
yhte @@</w>
ess ä@@</w>
työllis yys@@</w>
tak es</w>
s on</w>
pre vious</w>
o p</w>
käsi tellä@@</w>
pa tion</w>
minu lle</w>
onn ettom
ta x
youn g</w>
effor t</w>
tarkis tuksen</w>
fi ve</w>
reac hed</w>
ri an</w>
huom enna</w>
i ted</w>
ta x</w>
muu ta@@</w>
y ll
criteri a</w>
mu assa</w>
b or
am mat
F is
dis e
applic ation</w>
y t</w>
varo jen</w>
us es</w>
tur vapa
0 3
val ta</w>
no in</w>
da ma
Lis bon</w>
keh it@@</w>
jäsen en</w>
istu nn
Lis sa
u ne
pur su
na mely</w>
keh itystä</w>
itu ksia</w>
su l
initi atives</w>
vaike a@@</w>
hol d</w>
po ten
bil ities</w>
y ed</w>
equ al</w>
he itä</w>
vo i
p ac
asy lum</w>
advan ta
sisäll yttä@@</w>
require ments</w>
p il
decid ed</w>
WT O</w>
muu tama@@</w>
kunnio itta@@</w>
b on@@</w>
Lissa bon@@</w>
ver o@@</w>
kan ta@@</w>
kahd en</w>
sugg es
ny ky
amon g</w>
kan taa</w>
vi h
exa min
w aste</w>
ap proved</w>
riippu @@</w>
ill aan</w>
gh tly</w>
seuraav an@@</w>
sopim usten</w>
asi at</w>
ade qu
maailman laaju@@</w>
jus tice</w>
doub t</w>
elin es</w>
ul ot
uc le
pro ject</w>
P P
t lan
obli g
u o
kohd alla</w>
consequ ences</w>
sy ys
cor rec
regula tions</w>
olog ical</w>
P at
pyr kim
ic es</w>
cap ac
EU @@</w>
tr as
val ues</w>
va i</w>
representa tives</w>
presid ency</w>
ma teri
cl ose</w>
200 6</w>
te s
tar p
sta bility</w>
ilmo itta@@</w>
ur s
tas tro
kompromis si@@</w>
miel essä</w>
ar ound</w>
implemen ted</w>
F ren
paran tamis@@</w>
ex p
puol usta@@</w>
im medi
Bar cel
ucle ar</w>
ed usta@@</w>
y ksiä</w>
inclu ded</w>
ter r
palvelu jen</w>
m ys
kysym ystä</w>
as soci
tieto ja</w>
wh ose</w>
teh @@</w>
suur i@@</w>
mo re
more over</w>
govern mental</w>
ac tive</w>
yks ityis
idä t</w>
mik ä@@</w>
f our</w>
Ru ot
rela ting</w>
o ffici
it ys@@</w>
vas ti</w>
ru le</w>
m ole@@</w>
Rus sia</w>
wee k</w>
viranoma isten</w>
ver o
spe ec
neuvos to
add res
er o
Fren ch</w>
199 8</w>
as u@@</w>
su fficient</w>
mon itoring</w>
aih e@@</w>
A us
v istä</w>
rec ently</w>
poliitt ista</w>
val mi
no te</w>
tarp een</w>
pa ho
d le</w>
ar i@@</w>
speci fic
ks essä</w>
ille gal</w>
mer en</w>
men tion</w>
terroris min</w>
ter ran
ord ers</w>
fac e</w>
coordin ation</w>
com pl
N ations</w>
sääntö jä</w>
is ely</w>
ha as
b ri
ta pa@@</w>
direktiiv i</w>
hon ourable</w>
aj an
te mber</w>
lo w</w>
h es
Sep tember</w>
Irlan n
yhd en</w>
v e@@</w>
terran ean</w>
direc t</w>
p as
c he
f ri
ex ternal</w>
del eg
Medi terranean</w>
ke ep</w>
c ost</w>
Itali a@@</w>
E ast</w>
alo illa</w>
W or
tar jo@@</w>
hallin to@@</w>
comm unity</w>
kes ki@@</w>
c tions</w>
aih e</w>
yhteis ö@@</w>
enemmis tö@@</w>
p oll
nou da
ex tent</w>
kaup an</w>
mahdollisuu ksia</w>
lainsäädäntö ä</w>
d ri
F rance</w>
con fir
ti iv
kolman s@@</w>
k alais@@</w>
te tta@@</w>
exc ep
priva te</w>
ole vien</w>
es sa@@</w>
def ence</w>
v ed
työntekijö iden</w>
comple tely</w>
amoun t</w>
ver theless</w>
palvel u@@</w>
ne vertheless</w>
kysymy kseen</w>
A m
V äl
syys kuu@@</w>
r un
tuotte iden</w>
than ks</w>
l ö
käy ttä
es ity
Isra el</w>
u ja</w>
prosess in</w>
viol ence</w>
taloudell is@@</w>
devel op</w>
S e
tra d
kutsu @@</w>
kulutta ja@@</w>
kan san
ens i</w>
add ress</w>
m u@@</w>
assis tance</w>
S pan
ä mme</w>
puol @@</w>
c ause</w>
jou sta
pri orities</w>
var a
so tila
practic al</w>
elec tions</w>
cr ime</w>
PP E</w>
mä llä</w>
guid elines</w>
ann e@@</w>
i vat</w>
s ter
i ans</w>
yks ittäis@@</w>
c tion</w>
Väl i@@</w>
immä is@@</w>
solid arity</w>
äänesty s@@</w>
d u@@</w>
pow ers</w>
lu ov
re lev
ell ow</w>
conclu sion</w>
rou ght</w>
kan sa@@</w>
alle kirjo
te et</w>
str ong</w>
prec isely</w>
absolu tely</w>
miel ip
me et</w>
ke in
ima l</w>
v esi@@</w>
terr itor
suunta vii
pres sure</w>
u tion</w>
anal y
ex er
käytä nnössä</w>
as su
H u
tu ho
too k</w>
K i
us ten@@</w>
t täm
protec t</w>
ou ght</w>
g en</w>
tehd y@@</w>
tal king</w>
m o@@</w>
lähesty mis
li ve</w>
b io
asio issa</w>
n uclear</w>
al most</w>
te lla@@</w>
pa kol
järjestelmä ä</w>
gi ving</w>
va a</w>
si ltä</w>
del a
mit ted</w>
is tan</w>
f ellow</w>
sh ow
puolu e
puol ustus@@</w>
connec tion</w>
Span ish</w>
inves tment</w>
he ad</w>
äänesty s</w>
president ti</w>
ha va
ti g
jo bs</w>
vel s</w>
succ ess
tu ll
oikeu det</w>
in tä@@</w>
an nu
ar gu
koh tia</w>
foll ow</w>
G en
ra ja@@</w>
le ar
cre ation</w>
c are
jä ttä@@</w>
ac ross</w>
1 8</w>
t ol
sc he
c y</w>
varmis te@@</w>
la inen</w>
Dem oc
toimi valta@@</w>
pro per
ven ess</w>
receiv ed</w>
S tras
val ue</w>
h uu
consider ed</w>
Stras bour
G u
ai emmin</w>
s ääd
il s</w>
m ma
res t</w>
pää stä</w>
le vels</w>
foc us</w>
vä t@@</w>
läh es</w>
capac ity</w>
sh ow</w>
pac ka
or m
muu @@</w>
mat ka
th y</w>
te ur
re duce</w>
na tion
v ision</w>
tel l</w>
re fu
pa ten
bec om
an ta@@</w>
w is
tämä n
histor ia@@</w>
aj at
et e</w>
dem and</w>
h ta@@</w>
työ n</w>
r a@@</w>
experi ence</w>
kas va@@</w>
sc ope</w>
im mä@@</w>
d esta</w>
asia kirj
täy dell@@</w>
per in
con dem
Afr @@</w>
myön tä@@</w>
la ista</w>
ja a@@</w>
quic kly</w>
ma l</w>
leg iti
le ft</w>
circu m
ko ko
discus sed</w>
en ter
specific ally</w>
ex pec
tre at
tote a@@</w>
te er
ec e</w>
P e
increas ed</w>
ty mä@@</w>
puolu een</w>
arvois a@@</w>
ty ä</w>
si bilities</w>
ki er
alis ed</w>
mis sion</w>
j u
direc tion</w>
re ality</w>
m b
asian tun
h il
f ound</w>
hallit usten</w>
sy istä</w>
paran taa</w>
pa ko@@</w>
läh i@@</w>
Sa ksa@@</w>
tic s</w>
terve y
tal k</w>
com par
1 6</w>
tu al</w>
mp loyment</w>
ta a
laajen tu@@</w>
kohd an</w>
vaar all@@</w>
va l</w>
hin d</w>
er i
be hind</w>
appli ed</w>
S ol
sopim usta</w>
rik os@@</w>
ll isten</w>
gro und</w>
N os</w>
ys ti</w>
docu ment</w>
tuks een</w>
re ference</w>
liber alisation</w>
ratkais u</w>
g s</w>
un d
te ll@@</w>
spe ak
muod osta@@</w>
lis ää
em er
conc ep
en i@@</w>
proc e
j ää
imple ment</w>
vähe mmän</w>
B us
accord ance</w>
so d
ec han
b orders</w>
a way</w>
myö tä</w>
jou lu
e valu
ag rap
pre ven
an i</w>
un @@</w>
ma an@@</w>
da ys</w>
pros en
kal ta
ä ä@@</w>
vuos ina</w>
maail massa</w>
ko ti
un acceptable</w>
s po
victi ms</w>
puu tte
de l</w>
aino a</w>
mov ement</w>
kal a@@</w>
is elle</w>
tilante essa</w>
ku t</w>
jo b</w>
instru ments</w>
ra lly</w>
clar i
neuvot telu@@</w>
ag es</w>
yl i@@</w>
yhte en</w>
mi h
löy tä@@</w>
tu h
k kuu
conclu sions</w>
Bel gi
op en
id ent</w>
b rought</w>
menettel yn</w>
luet tel
lop ul
Con stitu
tieto a</w>
mer i@@</w>
ver k
pöytä kirja@@</w>
aihe utu@@</w>
ad d</w>
väl ttä@@</w>
til a@@</w>
päätö kseen</w>
m echan
A T
vi it
pä in@@</w>
parlia mentary</w>
m un
len to@@</w>
Bal kan
san i</w>
pys y@@</w>
kär si@@</w>
sta ted</w>
is emmin</w>
techn ology</w>
pro per</w>
lu oda</w>
discus sions</w>
työ h
develop ed</w>
es saan</w>
tä ys
keskustel e@@</w>
luu l
Ni zz
näy ttää</w>
it tama@@</w>
a men
w ing</w>
om a</w>
b ill
assess ment</w>
seura a@@</w>
o il</w>
Portu g
työ stä</w>
tel i@@</w>
laus u
kesk us@@</w>
aiko o</w>
or y</w>
onni tell@@</w>
len to
k u</w>
C har
valv onn
us sels</w>
B an
vi es
teoll isuuden</w>
sop i@@</w>
s ens
opportun ities</w>
effec ts</w>
tuomioistuim en</w>
relev ant</w>
kii re
has to@@</w>
c k
re jec
L u
turvall isuutta</w>
kol me@@</w>
anne taan</w>
mp i@@</w>
ihmis iä</w>
Br ussels</w>
bal an
N ice</w>
an imal</w>
e de
sec tors</w>
en able</w>
crimin al</w>
Dec ember</w>
Br ys
w ise</w>
ete en
tilante esta</w>
päätö s</w>
hallit usten@@</w>
a tional</w>
tion @@</w>
inn ing</w>
tiet ysti</w>
su per
on a</w>
lai ll@@</w>
Americ an</w>
tavo ite</w>
kno wn</w>
Nizz a@@</w>
v uus</w>
la ito
ev ents</w>
ili ation</w>
e b
ator y</w>
ka tastro
joulu kuu@@</w>
pi en
d e@@</w>
w id
mu kana</w>
id dle</w>
J o
koh ti</w>
ud e</w>
discus s</w>
merkittä vä</w>
eteen päin</w>
el f</w>
N e
propos e</w>
u d</w>
or s</w>
käsit tely@@</w>
korke a@@</w>
keskustel ussa</w>
instru ment</w>
com ments</w>
alu ksi</w>
oikeuden muka@@</w>
B ri
orig in
han k
mil jar
m ing</w>
circum stan
I I</w>
mis sä@@</w>
consider able</w>
al ter
ther n</w>
t to
pos sibility</w>
johdon muka@@</w>
r in
toimin ta</w>
r o</w>
al ong</w>
ty pe</w>
s ha
di pl
he ard</w>
enti fic</w>
sääntö jen</w>
over all</w>
vi ra
Wor ld</w>
viim e
re forms</w>
pen sa
i ons</w>
res er
V er
Re gu
vuo teen</w>
out side</w>
elintarv ike@@</w>
C o
pää ttää</w>
G ener
tri al</w>
riippu mat@@</w>
re view</w>
e th
agricul ture</w>
tu lis
4 @@</w>
fr on
esi in
ator s</w>
sel vi@@</w>
poliitt isten</w>
ryh mien</w>
a ma@@</w>
treat ment</w>
toimenpite itä</w>
ta ha@@</w>
myö he@@</w>
käsittele vä@@</w>
s us
miel estä</w>
ks estä</w>
toteu tu@@</w>
suojel u@@</w>
c la
pr ice</w>
laati ma@@</w>
itte @@</w>
add itional</w>
ik @@</w>
h ard</w>
teki jä
suppor ted</w>
kolleg a</w>
id a@@</w>
ex pla
com mer
O r
r yhdy@@</w>
circumstan ces</w>
b ab
yhteis kunnan</w>
con tr
te ral</w>
suu @@</w>
kau pun
Direc tive</w>
00 @@</w>
sitou mu
ner ship</w>
mes sa
auth ority</w>
to si@@</w>
to isen</w>
partici pation</w>
minu a</w>
cre ating</w>
yrity kset</w>
ttä isiin</w>
in i@@</w>
en cies</w>
e taan</w>
car ry</w>
tieto jen</w>
ra por
markk in
sel i@@</w>
mar k</w>
direc tly</w>
Aus tri
sisäl tä@@</w>
on d</w>
maahanmuu t@@</w>
fam ily</w>
U S</w>
tosi asia@@</w>
minister i@@</w>
Gener al</w>
G al
täy ttä@@</w>
refer red</w>
ohjel ma</w>
consider ation</w>
A s
se ud
w ide</w>
ser i
exp lo
ssa kin</w>
re qu
in ti</w>
mm in@@</w>
laa tu@@</w>
kas va
keh itys
Af gh
vakuu ttu@@</w>
ester day</w>
alis t</w>
te emme</w>
Brys seli@@</w>
8 0</w>
tulis i</w>
tul o@@</w>
il me@@</w>
hyödy n@@</w>
gan i</w>
J us
y esterday</w>
mys elf</w>
ette i@@</w>
tr ying</w>
is es</w>
ad s</w>
: ssa</w>
tu o@@</w>
mo del</w>
her ä
affec ted</w>
Z im
kir ja</w>
ite ttava</w>
tel u</w>
avo id</w>
spea king</w>
si in</w>
ne ita</w>
ponn is
n ti@@</w>
ap er</w>
y ty
tavoitte et</w>
ran n
raho itta@@</w>
yhden muka
vall at</w>
välis tä</w>
prov ision</w>
peria at
Jus tice</w>
päätö ksen</w>
huol i@@</w>
fac il
teke vä@@</w>
kau an</w>
accep ted</w>
vaike a</w>
kä y</w>
f lo
el in@@</w>
vah vis
si z
vers ity</w>
neuvosto lle</w>
et tu@@</w>
ei ve</w>
20 @@</w>
alter na
jä r
con tent</w>
l ic
en sä</w>
6 0</w>
uu tta@@</w>
käyttö ö
anim als</w>
v in</w>
uu det</w>
ttä mis@@</w>
t it
our s</w>
läh ti@@</w>
rau ta
raken te
pääs e@@</w>
pa ti
Am ster
tull ut</w>
tarkas tus@@</w>
ener gi
edis ty
ongel mat</w>
ke l</w>
1 2
työh ön</w>
tied ä
difficul ties</w>
lä p
ky ky@@</w>
inc or
annu al</w>
osall istu
n s</w>
wan ted</w>
refu ge
näkö kul
rauh an@@</w>
pää tel
jat ku@@</w>
hu ge</w>
to tal</w>
compl ete</w>
tote si</w>
co hes
as kel</w>
Palestin ian</w>
p ike
jäsen iä</w>
ite ttu</w>
U S
C ha
h i</w>
en na
eh ti@@</w>
o ta
i ra
encoura ge</w>
ll iset</w>
esti in
estiin alais@@</w>
cohes ion</w>
pur pose</w>
ob viously</w>
maahanmuu tto@@</w>
te ta@@</w>
Ruot si@@</w>
D E</w>
ol in</w>
hu ole@@</w>
kan ta</w>
s tö@@</w>
Intern et</w>
Char ter</w>
ten sa</w>
ch ed</w>
c over
vie ws</w>
tur va
kohd istu@@</w>
go es</w>
ei vät@@</w>
dis tribu
ra ts</w>
in s</w>
com pli
vuos i</w>
järke vä@@</w>
pers on
käy tön</w>
P s</w>
pal estiinalais@@</w>
miel en
mahdoll isuuden</w>
apu a</w>
valtu us
sään tely@@</w>
humanita rian</w>
s saan</w>
par ty</w>
conf idence</w>
sa as
pyy tää</w>
genu ine</w>
docu ments</w>
pu l
muu ttu@@</w>
viel ä@@</w>
päätö ksiä</w>
om i@@</w>
al a</w>
ran s
päiv än</w>
beg in</w>
En viron
1 7</w>
ys ten</w>
par agrap
allow ed</w>
yhteis kunn
te g
d ru
Zim bab
il mi</w>
ehdotuks esta</w>
administra tive</w>
plan s</w>
ho ito@@</w>
adequ ate</w>
tunn usta@@</w>
teho kka@@</w>
e et
su ffer
katastro f
ic ally</w>
gh ted</w>
po or</w>
ma ita</w>
joh tu@@</w>
is issa</w>
help o@@</w>
ole va</w>
a va</w>
k en</w>
Sec urity</w>
sta tus</w>
la in@@</w>
kolle gani</w>
au ttaa</w>
Afric a</w>
vaiku tuksia</w>
urg ent</w>
poten tial</w>
mahd ot@@</w>
c are</w>
täy den
struc tural</w>
muu ten</w>
laati ma</w>
kes ke@@</w>
we ap
pä te
discrimin ation</w>
con trac
si x</w>
mi lla@@</w>
lä s
lle et</w>
sa fe
pre hen
kiire ell@@</w>
ho id
sotila allis@@</w>
rajo itta@@</w>
ar ran
humanita ar@@</w>
any thing</w>
ru p
res olu
merkittä v@@</w>
E C</w>
tu lla</w>
ar ily</w>
ttö mä
säännö t</w>
se par
A gre
uu des
tuks esta</w>
ri ghtly</w>
dra wn</w>
de ath</w>
kiel tä@@</w>
ilmo it@@</w>
emm e@@</w>
bill ion</w>
vapau den</w>
j al
em a@@</w>
un anim
puitte issa</w>
char ge</w>
P er
Itali an</w>
part ners</w>
K ansa@@</w>
I re
tapa uksissa</w>
ev ent</w>
buil ding</w>
at u</w>
Pro c
tä s
tark @@</w>
off er</w>
loo king</w>
ko k
h ment</w>
Ire land</w>
periaat teen</w>
La ek
pid ä
pain op
ehdotuks et</w>
uno hta@@</w>
lo t</w>
inten ded</w>
ent is@@</w>
beg inning</w>
ol isivat</w>
sor t</w>
saa tava</w>
ku n@@</w>
5 @@</w>
yy s</w>
par i@@</w>
ulot tu
kann an</w>
meth od</w>
dama ge</w>
suu re
streng th
tain ed</w>
ol o@@</w>
for ces</w>
set ting</w>
con v
s ession</w>
deman ds</w>
to ista</w>
deal ing</w>
a id
9 0</w>
ta vat</w>
me istä</w>
lim ited</w>
jul ki
organis ation</w>
i tal</w>
es tää</w>
elä mä
Regu lation</w>
Br it
Americ a</w>
saa tav@@</w>
ku olem
ear li
an i@@</w>
vi tal</w>
kans sa@@</w>
terve ys@@</w>
ship s</w>
satis fac
miljar di@@</w>
maa talouden</w>
implemen ting</w>
huon o@@</w>
edell is@@</w>
F in
yy n</w>
til in
ec h
os an</w>
as u
tod e@@</w>
sci entific</w>
perus tuva@@</w>
pa id</w>
l er</w>
ttom an</w>
re mind</w>
str ic
reg ime</w>
ää n@@</w>
ref er</w>
om s</w>
ho ita@@</w>
eurooppala inen</w>
op pos
säh kö@@</w>
bro ad</w>
toteu ttamis@@</w>
remain s</w>
pike mmin@@</w>
conv inc
ati es</w>
f io
conc entra
an ti
A ra
vapa a
J un
sur ing</w>
e as
ver ra
R om
yksityis kohta@@</w>
st ress</w>
pa in</w>
koros te@@</w>
Q u
L A
G M
tö mä
Re public</w>
rec eive</w>
comb at</w>
p ic
g et
exer c
Ban k</w>
sa ma</w>
ex pect</w>
coll ec
emp lo
y es</w>
eläin ten</w>
ehkä is
Pat ten</w>
ris h</w>
pohj alta</w>
min imum</w>
commit ments</w>
re turn</w>
Ger many</w>
äär immä@@</w>
isim me</w>
polic e</w>
ks esta</w>
kas @@</w>
vaka v@@</w>
g ar
com ment</w>
T h
terveyd e@@</w>
ket tä@@</w>
defin ition</w>
teoll isuus@@</w>
reas on
m paa</w>
it si@@</w>
c o</w>
tavoitte ita</w>
par empi</w>
näkemy kse@@</w>
inf lu
commit ted</w>
tutkim uksen</w>
s pi
s pec
el s</w>
vira llis@@</w>
käytä nnön</w>
C ar
tiedä tte</w>
k ka</w>
con duc
äänes t@@</w>
ra di
ris ks</w>
myönn et
as kel
ev el
O s</w>
summ it</w>
ra ise</w>
gran ts</w>
markkino illa</w>
is tö@@</w>
c ross</w>
meas ure</w>
c am
teho kkuu
ma tic</w>
K ore
medi um</w>
kok ous</w>
ik o
speec h</w>
seri ously</w>
äs kettä@@</w>
sopim uksia</w>
me an
f eder
ate tta</w>
val ta
pre vention</w>
om in
mih in</w>
main ita</w>
effec tively</w>
direc tives</w>
ta van</w>
ku ka@@</w>
i vi
establis hing</w>
P aper</w>
Lä hi</w>
perus te@@</w>
hallinn on</w>
to i</w>
is tamis@@</w>
il ed</w>
i va@@</w>
mahdoll ista@@</w>
hy l
m mis
jud ic
Amend ments</w>
sit ting</w>
het i</w>
M iddle</w>
tas on</w>
reduc tion</w>
mo d
su ku
evel op
D evelop
3 7</w>
poliitt isia</w>
käsittel yssä</w>
E uro</w>
pr im
epäil e@@</w>
m is</w>
lu ku@@</w>
enn e</w>
rauta tie@@</w>
merk itys</w>
So ci
Ki ina@@</w>
Environ ment</w>
yhteis kunta@@</w>
peria atetta</w>
vähe mmis
t ting</w>
solid a
ell ä@@</w>
N G
vapa utta@@</w>
some times</w>
kysymy ksiin</w>
Inter national</w>
isi lla</w>
c e
b rea
P oh
to i@@</w>
streng then</w>
s al
packa ge</w>
emp i@@</w>
as sa
rela tion
y ö
ti o@@</w>
nn ut</w>
li ving</w>
dec ide</w>
all oc
y ond</w>
tarkistu s</w>
l os
jäsen tä</w>
ed us
be yond</w>
taloudell isen</w>
sta ff</w>
com pensa
ta ul
pers onal</w>
mat k
Agre ement</w>
ex ac
com prehen
au tta@@</w>
vi era
sopim us@@</w>
id a</w>
do m</w>
as sa@@</w>
vä it@@</w>
en sa</w>
asem a</w>
ku s</w>
cre ated</w>
Portug ali@@</w>
par an@@</w>
ex per
avu n</w>
le hd
kymmen en</w>
eet t
a an@@</w>
te ke@@</w>
messa ge</w>
infras truc
huom io@@</w>
7 0</w>
high ly</w>
vas taa</w>
sto p</w>
l u@@</w>
el tä</w>
is istä</w>
I rish</w>
stand ar
po is</w>
improv ing</w>
tu rally</w>
per i@@</w>
ug os
ugos la
ttu a</w>
arvio inti@@</w>
S ad
merk itystä</w>
ar ms</w>
Brit ish</w>
tic al</w>
s ty@@</w>
organis ed</w>
contribu te</w>
t ti
päivä nä</w>
ite tta</w>
Irlann in</w>
viranoma iset</w>
tarkas tele@@</w>
jo iden@@</w>
w ha
t on
sopim uksessa</w>
requi res</w>
provid ing</w>
k is
jä ä@@</w>
happ en</w>
ta ri
ma assa</w>
keskus tella</w>
ja ka@@</w>
e tel
alis ts</w>
incor por
as to@@</w>
appli es</w>
val mis</w>
sosiaal isen</w>
respon d</w>
pä ä</w>
inves tig
wh er
ur he
it ure</w>
Hu man</w>
Develop ment</w>
rela ted</w>
neuvottelu jen</w>
käyttö ä</w>
ke hy
ins pec
vapau ttamis@@</w>
va t
h op
ff ic</w>
ky v
kan so
ann ettava</w>
al one</w>
0 1
f oun
tavoitte iden</w>
recogn ise</w>
c li
lim it</w>
pää asia@@</w>
oper ate</w>
main tain</w>
i an
har k
epä onnistu@@</w>
activ ity</w>
ME Ps</w>
ra jat</w>
end or
tra ffic</w>
sanot tu@@</w>
provid es</w>
balan ced</w>
b y
Af ganis
bo dies</w>
poli isi@@</w>
dra f
develop ments</w>
ri t</w>
ongel man</w>
ole via</w>
g er
tuotan to@@</w>
tel tava</w>
L an
rann ik
kiin ni@@</w>
ex pend
as pect</w>
wor d</w>
to den
si mi
per ä
discus sing</w>
sovell e
men esty
järjes tö@@</w>
f ish</w>
en tä@@</w>
da tions</w>
. .
tu pa
päätö s@@</w>
merk ity
kri teer
en suring</w>
deleg ation</w>
järjesty ksen</w>
auth or
O LA
a vi
I tä@@</w>
y ttämis@@</w>
su s</w>
sh own</w>
m pa
lisä ä@@</w>
expend iture</w>
turvapa ikka@@</w>
d y
out come</w>
in es</w>
busin esses</w>
R es
Jun e</w>
vaatimu ksia</w>
qu ali
parlia ments</w>
osallistu mis@@</w>
luotta mu
e ffici
des cri
Minis ters</w>
K y
weap ons</w>
produc ed</w>
muu t
ex plan
emphas ise</w>
earli er</w>
suun taan</w>
risti ri
S pain</w>
D an
ma s</w>
langu age</w>
contr ary</w>
yhte y
v ol
regre t</w>
pro duce</w>
hyöd y@@</w>
perus oikeus
is a@@</w>
0 1@@</w>
mielip ite
la ter</w>
ik ka</w>
Sch eng
ta kais
concep t</w>
Ch ina</w>
mis sions</w>
m usta</w>
las tly</w>
ta kaa@@</w>
mi c</w>
Kre i@@</w>
success ful</w>
puheenjohtaja valtio@@</w>
la ted</w>
ed ing</w>
uks ena</w>
tuo tann
laad i@@</w>
uks ella</w>
si vi
on es</w>
na an</w>
merkity kse@@</w>
rati fio
independ ent</w>
ehdotuks essa</w>
call s</w>
analy sis</w>
ur ge</w>
uo to@@</w>
ca used</w>
T ra
ympäris tö
ty yd
tu otta@@</w>
m et</w>
k ala
2 1</w>
to co
toco l</w>
torjun ta@@</w>
s sani</w>
olo gi
kysymy kset</w>
clos ely</w>
pl en
b lo
Democ rats</w>
requ ire</w>
puol esta@@</w>
lea ve</w>
joh to@@</w>
exis t</w>
conc iliation</w>
R ules</w>
kulutta jien</w>
asia kirjo
hyödy ll@@</w>
emp loy
e arly</w>
kilpail u
i lla@@</w>
en orm
ratka ista</w>
cam pa
työsken tele@@</w>
tunn us@@</w>
ko on</w>
suo ja@@</w>
al ta@@</w>
l s</w>
köyh i@@</w>
te lev
simi lar</w>
politiik kaan</w>
pla ced</w>
ite t@@</w>
construc tion</w>
prof es
na tural</w>
inter pre
enti re</w>
cul ture</w>
y li
puu n</w>
bur g</w>
viik olla</w>
mon op
toden näkö@@</w>
me dic
A C
il ta@@</w>
tämä n@@</w>
periaatte e@@</w>
nn e@@</w>
m usten</w>
la id</w>
increas ingly</w>
er ous</w>
stu dy</w>
ko ko@@</w>
direktii viä</w>
wh om</w>
rakenn era
qu e</w>
hyö k
pos itions</w>
markkino ille</w>
jo in</w>
pre ci
k en@@</w>
vähemmis tö@@</w>
na turally</w>
e vä@@</w>
Afganis tan@@</w>
vastu u</w>
sovel taa</w>
re ply</w>
net works</w>
ki ito
consul tation</w>
pääs tä@@</w>
muka inen</w>
li ves</w>
paran n@@</w>
ttä nyt</w>
mel ko</w>
flexi bility</w>
aihe u
M ac
1 9</w>
yh tä@@</w>
valtu u
s esti</w>
k in@@</w>
yd in
use ful</w>
ru ral</w>
adop tion</w>
F ore
ta ma</w>
nei gh
happen ed</w>
enter pris
Fore ign</w>
no on</w>
en ge</w>
chall enge</w>
tu uri@@</w>
tilante eseen</w>
taloudell ista</w>
sens itive</w>
pääs tö
pres s</w>
lopul ta</w>
jat ke@@</w>
dy na
con sen
ac qu
Swed ish</w>
valtio t</w>
f all</w>
julki lausu
tu u@@</w>
prob ably</w>
os itta@@</w>
kiinn ostu@@</w>
di versity</w>
C entral</w>
kanna ta@@</w>
o ista</w>
des ig
se k
menettely ä</w>
appe ar</w>
solu tions</w>
s pen
produc t</w>
kes tä@@</w>
tta essa</w>
sc ale</w>
histor y</w>
aihe esta</w>
kau si@@</w>
esite tty</w>
respon sibilities</w>
pää ttävä@@</w>
pres sion</w>
min kään@@</w>
rakennera hasto@@</w>
po hd
N AT
Fis ch
C a
ta tions</w>
reli gi
pys y
pers on</w>
tois een</w>
par ts</w>
ll aan</w>
kes äkuu@@</w>
colleag ue</w>
an u
Sad dam</w>
liikku v@@</w>
kansala is
S er
yhti ö@@</w>
tu ista</w>
ke jä</w>
anal ys
ala a</w>
tt ö</w>
pu ite
mm e@@</w>
man ner</w>
kär si
Gre ece</w>
us te@@</w>
itse ma@@</w>
proper ly</w>
is ti@@</w>
he ad
suuntavii vo
an ti</w>
L e
mis elle</w>
ita tion</w>
cap ital</w>
mahdoll isuutta</w>
k ke@@</w>
T anska@@</w>
tu o</w>
te m
san ctions</w>
occ u
thou ght</w>
rauh an</w>
pers pec
pen al
etu jen</w>
2 2</w>
ste ps</w>
mu ista@@</w>
mor ning</w>
ma ihin</w>
2 3</w>
thin king</w>
rik o
paragrap h</w>
gi ves</w>
dang erous</w>
at s</w>
an sa</w>
toivo ttava@@</w>
o issa</w>
koko on
vuos itta@@</w>
lan ds</w>
deal t</w>
2 4</w>
tra ffic
.. .</w>
bo ard</w>
WT O@@</w>
valvon taa</w>
resolu tions</w>
politiik assa</w>
monim ut
itor s</w>
id @@</w>
c us
attemp t</w>
wr ong</w>
maks u@@</w>
compan y</w>
B ur
prosess i</w>
pr ices</w>
lop puun</w>
achiev ing</w>
tru k
perustusla ki@@</w>
part nership</w>
ölj y@@</w>
ymmärr ä@@</w>
jä lle
go ods</w>
call ing</w>
maail man@@</w>
infras truk
wan ts</w>
pala u
h ome</w>
F und</w>
ty s@@</w>
thir dly</w>
ilma ista</w>
e asi
il e@@</w>
yhteiskunn allis@@</w>
opp i@@</w>
ab or
0 2@@</w>
ik ä
san a@@</w>
jo is@@</w>
veto om
s ent</w>
muuto ksia</w>
m al
ttä vissä</w>
tr e</w>
lö yd
di men
dise ase</w>
net work</w>
la un
Ma a
vastu u
W h
asiantun ti
B u
yhd is
convinc ed</w>
tu ki</w>
pen sion</w>
Ma y</w>
con ven
Afgh an
yhteisö jen</w>
ty p
tarv ittava@@</w>
mm ik
him o@@</w>
sisäll y@@</w>
ri ittä@@</w>
mahdollisuu det</w>
kul jet
aika taul
J u
ys tä
tark ka
ol os
käyt tö@@</w>
consen sus</w>
S outh</w>
teur s</w>
s ti
pidet tävä</w>
huol en
el ements</w>
crit ical</w>
ksi a@@</w>
kehitys yhteistyö@@</w>
des er
Afghan istan</w>
subsi di
ris m</w>
jou du@@</w>
T he</w>
väh immäis@@</w>
actu al</w>
tarv itse</w>
koke mu
ite ttu@@</w>
en ds</w>
benef its</w>
att it
arvio i@@</w>
puhemi eh
high er</w>
ta ja@@</w>
na me</w>
mietintö ön</w>
laajen ta@@</w>
inter ven
partici p
ka mp
ap pla
O M</w>
vaar an@@</w>
si an</w>
is ms</w>
So cial</w>
spi rit</w>
becom ing</w>
1 00</w>
wee ks</w>
promot ing</w>
käynn istä@@</w>
con om
c al
administra tion</w>
Proc ed
mi es
el se</w>
co her
tou ko
ll ä@@</w>
lisään ty@@</w>
Jo han
He alth</w>
E conom
tulo ksia</w>
sovell et
sovellet tav@@</w>
rappor teurs</w>
nei ther</w>
improv ed</w>
conclu de</w>
tiete ell
koulu tus@@</w>
du ty</w>
Proced ure</w>
lää kke
equ ality</w>
chall eng
alue ita</w>
tuks e@@</w>
sisäl tyy</w>
seud un</w>
käy ttö</w>
ca teg
addres sed</w>
ren e
la tions</w>
Rom an
B SE</w>
ohjel mien</w>
introduc ed</w>
c ut</w>
touko kuu@@</w>
päätöks ente
luo k
w on
mi e
ku r
j en@@</w>
f all
bi g</w>
C an
ru o
keskustel uun</w>
i ght</w>
p .
min ä@@</w>
la ws</w>
sup ple
neuvot tel
jo issa@@</w>
fail ure</w>
huol ehti@@</w>
de gre
comb ating</w>
b ia</w>
tark ista@@</w>
re present</w>
lu ku
an a@@</w>
terroris t</w>
sub mitted</w>
relation ship</w>
or gan
olos uh
introduc tion</w>
P r
ttömä sti</w>
wh il
whil st</w>
kol men</w>
n ro</w>
jon kin</w>
intro duce</w>
vo c
nn an</w>
he ar</w>
H us
pos es</w>
miel i
ks u@@</w>
asio ihin</w>
P o
ver s</w>
kunn ian
järjestel mien</w>
ta neet</w>
pala ut@@</w>
i vät</w>
C or
kohd assa</w>
jä ä</w>
R o
H a
pro por
op ti
i ri
es itä@@</w>
ti me
mon i
ti ivi
tiivi i@@</w>
des ire</w>
yh tä
var ma</w>
see k</w>
neigh bour
istunn ossa</w>
invol ving</w>
K ar
sy y</w>
politiik asta</w>
k r
de pen
recogn ition</w>
judic ial</w>
c entral</w>
anu ary</w>
J anuary</w>
yr ittä@@</w>
vi a@@</w>
toteu te@@</w>
myönn e@@</w>
kka a
kansa in@@</w>
tiu k@@</w>
succ e
s ound</w>
ra il</w>
od a@@</w>
infor med</w>
täy ty@@</w>
r un</w>
kilpailu kyky@@</w>
vaatimu kset</w>
tiedon ann
meth ods</w>
keskit ty@@</w>
eil en</w>
o ther
medi a</w>
alu e</w>
neuvottel ut</w>
itu ksi@@</w>
sa ys</w>
poliitt iset</w>
men e@@</w>
l ä@@</w>
kiito s</w>
Johan nes
mu ihin</w>
ev idence</w>
em pää</w>
char ac
korke a</w>
sup ply</w>
cre di
0 @@</w>
tom a
las ke@@</w>
hy lä
op ening</w>
U K</w>
199 7</w>
uudis ta@@</w>
under standing</w>
sod an</w>
ja a</w>
compet itive</w>
M o
E rik
refuge es</w>
kohd at</w>
e fficient</w>
Ber l
ta po
mm e
e ing</w>
Li ber
Hus se
aih etta</w>
ver kos
f ai
de pend
vähen tämis@@</w>
sovelle ta@@</w>
harjo it@@</w>
ac e
Ita ly</w>
tuom io@@</w>
ratkais u@@</w>
nu mer
mies ten</w>
toimin taan</w>
other wise</w>
nyky isen</w>
la be
happ y</w>
ha a@@</w>
Ch risti
C y
Amer ik@@</w>
poh ti@@</w>
onn e@@</w>
e k</w>
alterna tive</w>
oikeudell isten</w>
l et
2 7</w>
substan tial</w>
sek tor
merki lle</w>
inter vention</w>
one theless</w>
n onetheless</w>
mo der
ap preci
un able</w>
s ti@@</w>
kuu le
ta mmik
kehity s</w>
be ar</w>
monim uoto@@</w>
ki is
j os
indus trial</w>
vakuu tta@@</w>
tta v@@</w>
liik ke
k y</w>
enti rely</w>
as king</w>
F re
vuo sien</w>
o tettu</w>
lähet tä@@</w>
differ ences</w>
ch ec
P act</w>
thre at</w>
tain ing</w>
se a</w>
huippu kokouksessa</w>
exac tly</w>
C A
tiete ellis@@</w>
strategi an</w>
show s</w>
käy tävä@@</w>
i j
alku perä@@</w>
yhte en@@</w>
suppor ting</w>
sec u
disas ter</w>
tammik uu@@</w>
raken ta@@</w>
is hed</w>
inten tion</w>
finan cing</w>
re ä@@</w>
koh te
kan sa</w>
toi mista</w>
ra il
ko ro
enorm ous</w>
Econom ic</w>
kunnian himo@@</w>
mä ll@@</w>
kiinn ittää</w>
d ik
b ed</w>
N ov
Constitu tion</w>
om is
main ly</w>
kys een
P ub
tr ansa
n osta@@</w>
iti ous</w>
sov ittelu@@</w>
hy vin
aine iden</w>
er o@@</w>
vir ka
L eg
y t@@</w>
substan ces</w>
recogn ised</w>
etu ja</w>
degre e</w>
b re
V i
re member</w>
its enä
emplo ye
cl as
täy si
toiminta suunnitel
la u
Pub lic</w>
ol s</w>
traffic king</w>
str ong
im es</w>
x em
tu han
tr ust</w>
to tally</w>
jos kus</w>
ik ö</w>
f ec
CO M</w>
to isi
na iset</w>
esimer kki@@</w>
va mma
tu e@@</w>
suo j
rak enne@@</w>
establis hment</w>
ta lis
kuu kausi@@</w>
commer cial</w>
sa ta
ma ista</w>
it ur
3 5</w>
repe at</w>
matk usta@@</w>
lead ers</w>
bur g@@</w>
alis m</w>
yrity ksiä</w>
täm inen</w>
tuks ista</w>
elintarv ikke
deb ates</w>
Bel gia@@</w>
vaihtoeh to@@</w>
fi f
strate g@@</w>
kuule mis@@</w>
Mar ch</w>
perus tus@@</w>
p t</w>
dang er</w>
clos er</w>
0 2
tode ta@@</w>
state ments</w>
any one</w>
speak ers</w>
in ta@@</w>
get ting</w>
perin te@@</w>
määrä ä</w>
l ess
ka pa
e ir
cho ice</w>
taloudell inen</w>
koordino i@@</w>
Inter governmental</w>
yhteis työ</w>
re ject</w>
plen ary</w>
mä t@@</w>
mi llä</w>
con tra
yd in@@</w>
vasta an
to on</w>
kehit ty@@</w>
con ference</w>
ci vil
P a
wor ked</w>
vi ita
kä ä</w>
fun d</w>
f er</w>
con stan
Pe ople</w>
päätöksente ko@@</w>
päätö kset</w>
kiinn i</w>
aloitte en</w>
F unds</w>
per fec
lä mp
id ents</w>
f la
väl @@</w>
vuo desta</w>
viljeli jö
ve h
vat ko</w>
kansalais järjestö@@</w>
in su
set t
res urs
keske inen</w>
influ ence</w>
f ying</w>
otta maan</w>
con ver
a head</w>
tavoitte en</w>
see m</w>
op position</w>
la teral</w>
kom men
isyy ttä</w>
er ää@@</w>
S @@</w>
struc ture</w>
siir ty@@</w>
kin ta@@</w>
pal k
for ced</w>
S truc
tuom i@@</w>
sc ho
ris ti@@</w>
reduc ing</w>
monimut ka@@</w>
koti maa@@</w>
en e
Ch ech
sig ned</w>
saf e</w>
pi ll
käyt tämä@@</w>
Lu xem
ä n@@</w>
vaka us@@</w>
ll i
ing dom</w>
gh ting</w>
une mployment</w>
ul ti
rene w
as tu@@</w>
sa ar
mend ation</w>
ma alis
kymmen @@</w>
adop ting</w>
pro @@</w>
meet ings</w>
main i@@</w>
inno va
con tac
yle ensä</w>
yhd istä@@</w>
ks u
ka p
c ro
Struc tural</w>
tem por
sanot tava</w>
r ing</w>
poll ution</w>
perusoikeus kirja@@</w>
for mer</w>
elä ke@@</w>
ad ded</w>
taloudell isia</w>
pää ministeri</w>
prosen tin</w>
lop et
järjestö jen</w>
immedi ately</w>
contain s</w>
L at
sa an
p es
ot to@@</w>
osapuol ten</w>
mo di
men o
lähesty mis@@</w>
ful fi
V al
mu kau
la isia</w>
gi c</w>
exten d</w>
200 5</w>
sur pris
re ad</w>
raken tamis@@</w>
is o@@</w>
c over</w>
Nov ember</w>
tell en</w>
peria ate</w>
maalis kuu@@</w>
väki valta@@</w>
viime is@@</w>
ty h
si mple</w>
po is@@</w>
dis charge</w>
ma ille</w>
ing ing</w>
ann oun
Kosov o</w>
yll ä
t old</w>
subsi dies</w>
laaj e@@</w>
e missions</w>
väh i@@</w>
tarko ita@@</w>
our ce</w>
lähestymis tapa@@</w>
ge ments</w>
vamma is@@</w>
vaal e
tuleva isuuden</w>
tied ot</w>
sp ace</w>
proses sia</w>
koh taa</w>
huoles tu@@</w>
ty ne@@</w>
pe ace
henkilö iden</w>
fi gu
ase tuks
p ika@@</w>
kysymyks istä</w>
isyy s</w>
ik kalais@@</w>
cli mate</w>
appe ars</w>
K ingdom</w>
olog @@</w>
mar ras
correc t</w>
bac k
tu sti</w>
perus ta</w>
maks et@@</w>
isi vät</w>
väl ine</w>
ra tes</w>
pu tting</w>
nel jä
ker ta
exis tence</w>
ca pa
wis hes</w>
s end</w>
markkin at</w>
3 ;</w>
&#9 3;</w>
las ten</w>
heik en
de p
menet tely</w>
var ain
tö ä</w>
tunn us
tr on
strategi c</w>
reason able</w>
profes sion
kansan terveyde@@</w>
in him
1 ;</w>
&#9 1;</w>
y ri
vi estin
see king</w>
sa atu</w>
mov ing</w>
ase maa</w>
E T
mer ely</w>
h a</w>
advanta ge</w>
ta ar
subsidi arity</w>
ris e</w>
high li
critic ism</w>
Gre ek</w>
yhden tymis@@</w>
urhe ilu@@</w>
tulo s</w>
suur en</w>
solida ar@@</w>
saa ta@@</w>
orig in</w>
no ja@@</w>
liber aali@@</w>
ex change</w>
as te
2 8</w>
vapaa eh
tilin tarkastus@@</w>
manag ed</w>
ksi lla</w>
konflik ti@@</w>
tu oda</w>
marras kuu@@</w>
kon e@@</w>
j our
elec ted</w>
Austri a</w>
recom mendation</w>
hyväksy mis@@</w>
b in
ad ap
väline itä</w>
siir tä@@</w>
kor va@@</w>
kiel te@@</w>
rec or
Tur k
wher e
rejec ted</w>
ab ol
H el
ot tama@@</w>
man u
liiken te
laa ja</w>
ky ken
ir man</w>
te istä</w>
exerc ise</w>
s s
lu vu
ide as</w>
beli ev
amb itious</w>
mietin tö@@</w>
ex pen
es ty@@</w>
Ky pro@@</w>
vu or
resol ve</w>
kau pa
it y@@</w>
it ime</w>
gen e
käyd ä</w>
si t</w>
op les</w>
lead ing</w>
improv ement</w>
d estä</w>
consequ ently</w>
ty t</w>
to ihin</w>
occ asi
main itse@@</w>
ch ance</w>
ajan kohta@@</w>
thou san
po t@@</w>
lu ke@@</w>
attit ude</w>
T am
tto aine@@</w>
seur anta@@</w>
saavu te@@</w>
odo t@@</w>
neuvottelu issa</w>
ar ing</w>
O c
tark asti</w>
sivi ili@@</w>
r @@</w>
huolen aihe@@</w>
yhden muka@@</w>
mp ien</w>
läp i</w>
j an@@</w>
enterpris es</w>
manu fac
is u
Kosov o@@</w>
te tä@@</w>
ta usta@@</w>
men @@</w>
ilma is
Ger man</w>
va ali@@</w>
parlamen taar
constitu tional</w>
tol er
tarkas tella</w>
evalu ation</w>
ac ts</w>
recommen dations</w>
im possible</w>
kal ta@@</w>
cover ed</w>
spe ed</w>
rik ko@@</w>
r ying</w>
käytä ntö
kulu tta@@</w>
de ksi</w>
veh ic
tied ä</w>
thousan ds</w>
g st</w>
amon gst</w>
Leg al</w>
E tel
to ki</w>
poh jois@@</w>
näkökul masta</w>
c ell
al ussa</w>
my @@</w>
funda men
yhteis ö</w>
toi mis
ter ve@@</w>
oike a</w>
integra ted</w>
välin e@@</w>
käs ity
istu va@@</w>
fe ar</w>
facil ita
esimer kki</w>
propos ing</w>
harmon isation</w>
ep ing</w>
al usten</w>
vi en
teh tävä@@</w>
tais telu@@</w>
suhte essa</w>
rau han
lou kka
f el
v uuden</w>
dipl om
Tre aties</w>
val ko@@</w>
ongel maa</w>
im @@</w>
huippu kokouksen</w>
buil d</w>
sy nn
k et</w>
4 5</w>
situ ations</w>
siir tymä@@</w>
op posed</w>
järjes tön</w>
valvonn an</w>
inten d</w>
E x
03 @@</w>
reduc ed</w>
poikke ukse@@</w>
m .</w>
kou lu@@</w>
koh tuu@@</w>
for get</w>
construc tive</w>
b a
Tra de</w>
Tam per
ö ö
takais in</w>
pe oples</w>
jo ille</w>
com ply</w>
S E
suojel e@@</w>
keskit y@@</w>
fra ud</w>
figu res</w>
comple x</w>
aim ed</w>
paho i@@</w>
kuu n
itsenä is@@</w>
safe gu
dimen sion</w>
asem assa</w>
ra ja</w>
oso it@@</w>
en han
transpar ent</w>
ter ing</w>
konferens sin</w>
institu tion</w>
edusta ja</w>
mp tion</w>
com pla
Barcel ona</w>
ro oli@@</w>
one u
aj oneu
os uus</w>
hel pp
grea test</w>
a ffairs</w>
tod en@@</w>
rajo jen</w>
istun to@@</w>
gran ted</w>
en ta@@</w>
määr än</w>
ehdotuks een</w>
hu n</w>
Pal esti
työ ttö
tel tu@@</w>
sion @@</w>
h ti
contro ls</w>
tte ko</w>
re le
tila isuus</w>
suo sion@@</w>
pi d</w>
an d
1 1.</w>
velvoll isuu
re ite
oblig ations</w>
il ma@@</w>
guarante es</w>
en jo
vol un
tois essa</w>
he in
g er</w>
constitu tion</w>
vi itta
represen ts</w>
d oll
Europe ans</w>
vasta av
valio kunn
myön tämis@@</w>
ko vin</w>
eas y</w>
compensa tion</w>
ri es</w>
isi ksi</w>
enn alta</w>
G e
tu te</w>
teh osta@@</w>
pys ty</w>
ne l</w>
n ation</w>
ar k
Pr ime</w>
D oh
nähd ä</w>
Christi an</w>
vä lia
to ber</w>
man date</w>
kustann ukset</w>
gro unds</w>
des tro
ca me</w>
at tama@@</w>
arran gements</w>
Oc tober</w>
Bri tann
usk onn
terroris mi@@</w>
star ting</w>
for es
ans w
ttäm ään</w>
pass eng
Etel ä</w>
v an@@</w>
to p
pakol ais@@</w>
ser ies</w>
mark s</w>
appla use</w>
r ä
lo g
laaj @@</w>
ell a@@</w>
de fic
challeng es</w>
6 @@</w>
ten a</w>
katastrof i@@</w>
hy vän</w>
em b
compe tence</w>
voi maan</w>
v isi
practic es</w>
kans an</w>
ei ght</w>
aw ar
se m
ratkais un</w>
defin ed</w>
aim s</w>
tuke ma@@</w>
ja ks
continu ing</w>
br inging</w>
2 6</w>
op u@@</w>
henkilö stö@@</w>
emp ha
e ita</w>
d o@@</w>
c ement</w>
appe al</w>
B ro
turvall isuuteen</w>
tapahtu va@@</w>
sup ports</w>
julkilausu ma@@</w>
huippu @@</w>
declar ation</w>
me idät</w>
is ts</w>
comprehen sive</w>
viestin tä@@</w>
te ttava@@</w>
pe ä@@</w>
mu tual</w>
ha gen</w>
a mis@@</w>
E S</w>
0 1</w>
elä kke
effici ency</w>
Portu gal</w>
3 1</w>
u tta</w>
toim i</w>
ta ud
siz ed</w>
mp ia</w>
luul e@@</w>
ga tive</w>
V an</w>
t ments</w>
s yr
oso ituksia</w>
chan ged</w>
Barcel ona@@</w>
st res
rah at</w>
infrastruk tuuri@@</w>
an to@@</w>
alue elle</w>
ten ed</w>
tempor ary</w>
strong ly</w>
köyh yyden</w>
ka amme</w>
ch es</w>
as h
väes tön</w>
ku mm
dru gs</w>
äs ke@@</w>
iti veness</w>
immi grants</w>
hel pot@@</w>
Nor th</w>
uni vers
pan kin</w>
lan ko@@</w>
vo tes</w>
tuotte ita</w>
tun e@@</w>
struc tures</w>
par haa@@</w>
muu tama</w>
etel ä@@</w>
asem an</w>
te lleet</w>
säännö s
pub lis
o ffice</w>
k k@@</w>
it us</w>
invol ve</w>
offici al</w>
lo ka
ks istä</w>
initi al</w>
infrastruc ture</w>
Ju ly</w>
An g
koulu tuksen</w>
d ical</w>
teh ty@@</w>
kiin ti
da m@@</w>
atta cks</w>
NAT O</w>
pay ments</w>
lu opu@@</w>
kilpail un</w>
deta iled</w>
Al ger
ty ssä</w>
te ful</w>
sem bly</w>
mu issa</w>
loka kuu@@</w>
employe es</w>
Palesti ina@@</w>
A lanko@@</w>
ratifio i@@</w>
lu pa
k ko</w>
h u@@</w>
g y
pysy vä@@</w>
mmä lle</w>
B as
ver ta
sopim ukset</w>
origin al</w>
kohd e@@</w>
is emm
N ew</w>
Dan ish</w>
B ol
un a</w>
selke ä</w>
perus telu@@</w>
määräraho ja</w>
keino ja</w>
ik a
h om
aiko ina</w>
alue et</w>
syr jä
chil d</w>
v uutta</w>
tor i@@</w>
si vely</w>
rik kom
rahoit usta</w>
jo is</w>
j ur
c al</w>
periaatte ita</w>
inte ll
var ma@@</w>
tekijä t</w>
mpä ä</w>
vapaaeh tois@@</w>
palvelu ja</w>
kulttu ur
desig ned</w>
appropri ations</w>
appro val</w>
a mer
täs mäll@@</w>
te ver</w>
läh tö@@</w>
kuu n</w>
elim et</w>
D u
langu ages</w>
Portu gu
Gre en</w>
wha tever</w>
tunn e@@</w>
tiedo tus@@</w>
te dly</w>
ex port</w>
y er</w>
gra ph
glob alisation</w>
Sta bility</w>
territor y</w>
tar gets</w>
läs nä</w>
ll o@@</w>
ll isiä</w>
aikataul u@@</w>
Poh jois</w>
yhteen kuulu
tun te@@</w>
pri or
mon en
ks issa</w>
des truc
ag ed</w>
Portugu ese</w>
M c
vasta ava@@</w>
mieh et</w>
llis yyden</w>
fail ed</w>
compet itiveness</w>
t onn
representa tive</w>
r id
os aa</w>
me kan
alis ti@@</w>
verra ttu@@</w>
tuomioistu in</w>
iv @@</w>
is tetaan</w>
i ed</w>
va tions</w>
v ement</w>
te ki</w>
it tamis@@</w>
high light</w>
de ad
En g
mov ed</w>
mon th</w>
mekan is
lik ely</w>
lainsäädän tö</w>
kel u@@</w>
by ro
F or
Erik a</w>
ser va
mon ta</w>
mo ja</w>
ann ettu</w>
Turk ish</w>
Fisch ler</w>
l ost</w>
kais e@@</w>
care fully</w>
allekirjo itta@@</w>
a am
199 6</w>
pan na</w>
en ab
ag encies</w>
Strasbour g</w>
pen sions</w>
pa ko
om aa</w>
gra teful</w>
dis pu
bro ad
turvall isuus</w>
pääs y@@</w>
mme ko</w>
hein äkuu@@</w>
expla in</w>
ede llä</w>
dic ta
byro kra
af ter
A z
5 00</w>
un less</w>
tion ing</w>
pres ence</w>
esite tty@@</w>
enemmis tö</w>
de ep
v ity</w>
suh teen</w>
propos es</w>
ne gative</w>
järjestel mä@@</w>
ed on
äär ä@@</w>
thre a
re te</w>
miel ellä@@</w>
arvio inn
vapau tta</w>
sel vä</w>
s ala@@</w>
menettel y@@</w>
keske y@@</w>
jälle en
fac ing</w>
Swed en</w>
pr us</w>
kaik en@@</w>
il e
f il
es ittä
Pal ac
E L
Cy prus</w>
2 9</w>
rah a</w>
n os
vaiku ttava@@</w>
päätös ten</w>
produc ers</w>
pres er
ff er</w>
ar ri
Cha mber</w>
ty vä</w>
sääd ö
ef ly</w>
Balkan @@</w>
valmis telu
tu on
kah ta</w>
justi fied</w>
i llis@@</w>
deta il</w>
a part</w>
Isra eli</w>
lim its</w>
im äärä@@</w>
esit ti</w>
K OM</w>
sta tis
it or</w>
dela y</w>
ammat ti@@</w>
Rus sian</w>
yleis sopimuksen</w>
yhti ö
matka ilu@@</w>
lai vas
keske isi@@</w>
invol vement</w>
v ää
tas ks</w>
poliitt isesti</w>
muod ossa</w>
mm an</w>
la ting</w>
kahd en@@</w>
jä tte
de ks
as sosi
vahin go
o ffer
hallit ukset</w>
en ter</w>
avoim uutta</w>
Pro gra
vi e@@</w>
person ally</w>
mar g
kuu d
kann usta@@</w>
inn än</w>
an toi</w>
su hd
hallinno llis@@</w>
ent it
direktiiv issä</w>
A K
yks et</w>
pan e
markkino ita</w>
käytö stä</w>
inhim illis@@</w>
het k@@</w>
consis tent</w>
bu rea
an to</w>
si vat</w>
paik koja</w>
ongel ma@@</w>
komite a@@</w>
individ u
ima g
hi en
gener ally</w>
flexi ble</w>
wi lling</w>
tote si@@</w>
ro und</w>
riippu va@@</w>
rau ta@@</w>
menesty kse@@</w>
Sol ana</w>
suffer ing</w>
ol es
et ty</w>
contribu tions</w>
am @@</w>
äänesty ksen</w>
resol ved</w>
pers ons</w>
fac ed</w>
edis tämis@@</w>
valmi it@@</w>
ro oli</w>
onn istu
itte es</w>
c ra
tä r
toim itta@@</w>
s man</w>
mechan isms</w>
ma tely</w>
ke hi
happen ing</w>
be ings</w>
tarkistuks ista</w>
strength ening</w>
minis teri
im ä@@</w>
US A</w>
ple ase</w>
pl ying</w>
interes ting</w>
vi ä@@</w>
tas o@@</w>
pitä vä@@</w>
N L</w>
ä sti</w>
yrity ksille</w>
sp ent</w>
onn ittele@@</w>
ol i
lu j
emer g
edusta jat</w>
c oura
vic e</w>
tulo kset</w>
o od</w>
i z
flo or</w>
viras ton</w>
tied e@@</w>
ran ge</w>
kamp an
ing @@</w>
b ad</w>
union ia</w>
jul is
fun c
follow ed</w>
el ement</w>
aloitte ita</w>
P u
we a
säil yttämis@@</w>
pa ket
o iden</w>
kehi te@@</w>
in come</w>
a y</w>
us tra
toimintasuunnitel ma@@</w>
toimi elin@@</w>
t onta</w>
infor m</w>
conc rete</w>
arvio ida</w>
D A</w>
te e</w>
politiik kojen</w>
ongel mien</w>
luonn on@@</w>
ka ks
insu rance</w>
fai l</w>
1 .
ta tive</w>
puolu e@@</w>
ke a@@</w>
jäl j@@</w>
Belgi an</w>
uud essa</w>
s sa@@</w>
pre ad</w>
immedi ate</w>
grow ing</w>
c ot
y ksen</w>
ob sta
järjes @@</w>
velvo itte
ob vious</w>
ha a</w>
h und
sää nnö@@</w>
po l</w>
pa per</w>
it t@@</w>
inclu des</w>
herä ttä@@</w>
ar ed</w>
vasta us</w>
u vos
ter n</w>
sto cks</w>
si des</w>
ser ve</w>
ki ell
id emme</w>
yh ty@@</w>
päiv ä</w>
käsittele mä@@</w>
its es
alo jen</w>
V itor
Con su
per he
liik a@@</w>
jon kin@@</w>
f as
bin ding</w>
L am
ymmär re
perspec tive</w>
nähd ä@@</w>
na mme</w>
ka ttava@@</w>
j un
T i
1 0
tiedo tus
mem ber
acc o</w>
Chech ny
te ta</w>
taloudell isten</w>
t ter</w>
sosiaal itur
rikoll is@@</w>
oper ations</w>
kes ku
ga ve</w>
et si@@</w>
distribu tion</w>
di gn
valmis te@@</w>
uh re
teki jä</w>
odo ta@@</w>
kanso jen</w>
johd o@@</w>
for th
E gy
Britann ia@@</w>
talou s</w>
om asta</w>
occasi ons</w>
ik ä@@</w>
cl es</w>
ajat tele@@</w>
Strasbour g@@</w>
Chechny a</w>
Ag ricul
under min
ta sa@@</w>
si h
pyy tä@@</w>
ke don
laaj u
ko ihin</w>
fo or
curr ency</w>
c ol
Progra mme</w>
y ä</w>
väh intä@@</w>
vaiku tukset</w>
torjun n
tarv etta</w>
parlamentaar is@@</w>
tta via</w>
sil ti</w>
si vu@@</w>
oikeus perusta@@</w>
mu ista</w>
mene e</w>
per man
paik alla</w>
ca uses</w>
at tu</w>
AC P</w>
terroris ti@@</w>
ehd i@@</w>
tasa vallan</w>
is ellä</w>
fin e</w>
burea uc
arvi o</w>
Vitor in
t os
sy ö
seuraav an</w>
contra dic
charac ter
aj at@@</w>
ad ver
Ru le</w>
oikeus valtio@@</w>
elä k
atta ck</w>
P ak
y e</w>
vi hd
ta hd
pyy ntö
let ter</w>
il mas
compli ance</w>
wor k
oikeud en@@</w>
elä män</w>
au t
Re gi
var at</w>
so ta@@</w>
se x
lin ked</w>
ehd ottama@@</w>
A ud
ke eping</w>
k kä@@</w>
in t</w>
commun ities</w>
ma x
g en@@</w>
elä im
c y
U kra
wa it</w>
var muu
ku ka</w>
vien ti@@</w>
un da
täyden tä@@</w>
to b
stand ard</w>
ri ida@@</w>
poh ja@@</w>
us e@@</w>
talou tta</w>
ranga istu
perus taa</w>
mar itime</w>
ete ne
dis t
vih reä@@</w>
tob acco</w>
s issa</w>
ni missä</w>
en de
M one
Consu mer</w>
yhtä lä@@</w>
väär in</w>
tämän hetk@@</w>
ti mme</w>
onnistu nee@@</w>
käytö ssä</w>
h ä@@</w>
ex ec
pakol a
opti mis
komite an</w>
ll istä</w>
alue ille</w>
tel tiin</w>
tehtävä nä</w>
suhte ell@@</w>
particip ate</w>
max imum</w>
expres sion</w>
val tion@@</w>
ten ces</w>
kesk en</w>
uudell een@@</w>
typ es</w>
te x
r ö
no ise</w>
menet tä@@</w>
kri itt@@</w>
fisher men</w>
arv o</w>
alo ite</w>
Mone tary</w>
G ö
öö pen
ööpen ha
ööpenha min
viit taa@@</w>
työ järjesty
tur ning</w>
käyttöö no
equ ally</w>
comm ittees</w>
M an
K ööpenhamin
satisfac tory</w>
s ina@@</w>
poli it
li es</w>
et ti@@</w>
d us
aja tus</w>
Res earch</w>
A tlan
y ty@@</w>
in ts</w>
im plic
affec t</w>
T u
3 3</w>
var sina@@</w>
tu oll
open hagen</w>
hear t</w>
ex emp
ans ka</w>
alku perä
H er
C openhagen</w>
oll aan</w>
na isia</w>
ar ies</w>
1 5
us ko</w>
tär ke@@</w>
tie tävä@@</w>
p i@@</w>
han d
suhte iden</w>
s tre
gran t</w>
differ ence</w>
Ag ency</w>
ov a@@</w>
neu vo@@</w>
mä stä</w>
ll s</w>
kohd ista</w>
fac tor</w>
f ran
T rans
ob tain</w>
el ä@@</w>
destruc tion</w>
al i</w>
tu lle@@</w>
star ted</w>
in ä@@</w>
il ies</w>
ap par
Kööpenhamin a@@</w>
sec ure</w>
pi en</w>
p. m.</w>
im pose</w>
foor u
em o
vapau ksien</w>
te in</w>
sy d
sopim uksesta</w>
neuvottelu ja</w>
go al</w>
F ra
realis e</w>
re ag
kys e
forth coming</w>
c ou
ten ing</w>
ra pid</w>
päätö stä</w>
om ia</w>
ka tta@@</w>
elintarvikke iden</w>
tuotann on</w>
el imin
dis ap
Intern et@@</w>
y ttävä@@</w>
va kau
teks tin</w>
s en@@</w>
ester n</w>
c le</w>
z one</w>
valmis ta@@</w>
tö m@@</w>
plan ning</w>
käyte ttävissä</w>
kulje tus@@</w>
ko i@@</w>
fam ilies</w>
U N
P res
uudis tus@@</w>
työsken tely@@</w>
sop iva@@</w>
equ ip
dra wing</w>
amer ikkalais@@</w>
tu ksiin</w>
saman la@@</w>
certain ty</w>
työs tä@@</w>
tied on</w>
pro motion</w>
pri l</w>
hyväksy tty</w>
A pril</w>
str ik
par as</w>
mä ssä</w>
h o@@</w>
exc es
ed y</w>
J ap
vaiku tus</w>
unda mental</w>
toimenpite et</w>
todis te@@</w>
te illä</w>
tarkistuks essa</w>
respec ted</w>
raken tava@@</w>
me at</w>
is empi</w>
F undamental</w>
7 5</w>
2 00</w>
ologi es</w>
kokoon tu@@</w>
elec tron
asian oma@@</w>
D R</w>
vis it</w>
ot ti</w>
h inn
com pati
ava a@@</w>
sa tama@@</w>
oblig ation</w>
kuul u</w>
Wh ite</w>
vää ris
toteu ttama@@</w>
tarkistu sten</w>
kau della</w>
EC H
yhdenmuka ista@@</w>
re kis
mä t</w>
Ge or
tu ally</w>
re ci
ot sa
op is
ongel mista</w>
no ll@@</w>
kuu kauden</w>
järjestel mään</w>
it ten</w>
el o
Ma kedon
tra vel</w>
suhte ita</w>
sig n</w>
rajo it
pas s</w>
ko he
kat so
fac tors</w>
tois sija
taloudell iset</w>
so til
pitä mä@@</w>
ki ä</w>
expec ted</w>
cla im
täys istunnossa</w>
tä ä@@</w>
si bly</w>
per he@@</w>
menn e@@</w>
d essä</w>
protec ting</w>
numer ous</w>
is mi@@</w>
tämän päivä@@</w>
tul k
te tun</w>
si v
r y@@</w>
pla yed</w>
oikeu teen</w>
il u</w>
endor se</w>
edell een@@</w>
D en
yksin oma@@</w>
wor se</w>
tä hd
pyr ki
ol a@@</w>
näkö kohtia</w>
mietinnö ssä@@</w>
interes ted</w>
he av
ent y</w>
campa ign</w>
varain hoito@@</w>
turva a@@</w>
lin k</w>
ess ing</w>
ati c</w>
Euro pol</w>
strategi a</w>
shar ed</w>
sa i</w>
poliit ik
n tä</w>
laivas to@@</w>
kolle ga
ki o@@</w>
kein o</w>
et ta
l ti</w>
kol mas</w>
f are</w>
def end</w>
väes tö@@</w>
vastuu ta</w>
markk ina</w>
lämp imä@@</w>
kysymyks essä</w>
ne tään</w>
na tions</w>
kuu lla</w>
kehit tyne@@</w>
jou kko@@</w>
isyy den</w>
er o</w>
ed el
ala an</w>
Agricul ture</w>
yksi k
valvon ta</w>
pää ttä@@</w>
min uu
isyy teen</w>
farm ing</w>
Comm un
1 4
va lla@@</w>
tur ing</w>
realis t@@</w>
pur poses</w>
ks essa</w>
edusta jien</w>
S har
Aud itors</w>
3 @@</w>
politic s</w>
paik kojen</w>
M or
yleis ö@@</w>
y ksi@@</w>
wor th</w>
tax ation</w>
lo wer</w>
con solid
tutkim usta</w>
tu va</w>
require ment</w>
bri efly</w>
b a@@</w>
yhteis päätös@@</w>
toiminta ohjelma@@</w>
there by</w>
te ja</w>
nel jä</w>
kno ws</w>
exper ts</w>
tu n@@</w>
mul ti
kysymyks issä</w>
jo ki@@</w>
fin ance</w>
Bud gets</w>
yksi kö
ura l</w>
ulti mately</w>
tru ly</w>
ta ge</w>
sto od</w>
rakenn us@@</w>
mi lle</w>
luov utta@@</w>
jousta v@@</w>
fi ghting</w>
dec isi
wa iting</w>
v i</w>
nouda tettava</w>
kun noll@@</w>
a ver
äänesty ksessä</w>
vii vä
sosiaalitur va@@</w>
sosi alisti@@</w>
läh tö
brea k</w>
al ha@@</w>
K es
A u
vi lla</w>
veto a@@</w>
teke mistä</w>
profession al</w>
pris on
kysymyks estä</w>
offici als</w>
lä is@@</w>
conduc t</w>
va t@@</w>
seik ka@@</w>
osoit us</w>
oma ksu@@</w>
kor ja@@</w>
hu hti
demonstra ted</w>
. e
ta malla</w>
reac hing</w>
pi iri
ot tava@@</w>
mä ttö
mit kä</w>
ll ani</w>
kesk en@@</w>
j u@@</w>
huhti kuu@@</w>
att le</w>
OLA F</w>
Commission ers</w>
väär in@@</w>
th o
kyse isen</w>
e et</w>
ratkais ua</w>
käy ttävä@@</w>
kes ki
improv ements</w>
i el@@</w>
et tava@@</w>
acc idents</w>
Mar ket</w>
Bol kes
olo gia@@</w>
hall ituksi@@</w>
er otta@@</w>
com plic
bur den</w>
I @@</w>
C N
vi ed
uks elle</w>
tyy pp
suojel ua</w>
maks u
ehdo tusten</w>
contain ed</w>
a ff
Scheng en</w>
vaati va@@</w>
tri ed</w>
tr a</w>
th u
su rely</w>
pyy de@@</w>
hen g
haas te@@</w>
dis ab
a sion</w>
u ksien</w>
s ource</w>
myö hä@@</w>
ins tance</w>
har ki@@</w>
g la
elä in@@</w>
F @@</w>
rahoit uksen</w>
p o@@</w>
p k</w>
me ja</w>
kor jaa@@</w>
gra du
al @@</w>
Or ganis
vara ukse@@</w>
ttom ia</w>
time table</w>
tehtävä ä</w>
te ttaisiin</w>
eurooppala isia</w>
entit led</w>
dise ases</w>
am ma
valio kun
työ n@@</w>
sy y@@</w>
san oma@@</w>
represen ted</w>
ohjel maa</w>
materi al</w>
lo w
co as
3 2</w>
tho rou
ter i@@</w>
saman aika@@</w>
kul ku@@</w>
i um</w>
hyödy n
hol ding</w>
histor ic</w>
continu ed</w>
conflic ts</w>
c ent</w>
res tor
pass ed</w>
contin ues</w>
contin ent</w>
Inter nal</w>
Balkan s</w>
vastu un</w>
ta jat</w>
reflec t</w>
osa puoli@@</w>
onnettom uu
mon itor</w>
in kin</w>
9 2</w>
tre ated</w>
puol ella</w>
lää ke@@</w>
im posed</w>
cus tom
assosi aatio@@</w>
7 @@</w>
tuks en@@</w>
tety t</w>
kaupa llis@@</w>
f our
exten ded</w>
ehkä ise@@</w>
d ro
citiz en</w>
Liber al</w>
quali fied</w>
is tettava</w>
alu etta</w>
ó n</w>
väes tö
tö miä</w>
ristiri ita@@</w>
legiti mate</w>
in ta</w>
ende av
Amster dam@@</w>
teks t
et ing</w>
Pro tocol</w>
AK T</w>
sov er
sover ei
ks ellä</w>
edisty s
transa tlan
sa ira
lap si@@</w>
genu in
electron ic</w>
EL DR</w>
pre fer
opin ions</w>
mas s</w>
kehity kseen</w>
en ess</w>
am bi
tied ot@@</w>
separ ate</w>
merk kejä</w>
genuin ely</w>
fron t</w>
anta i@@</w>
yy teen</w>
lähestymis tapa</w>
la in</w>
guarante ed</w>
en du
au toma
ulkom a
tal ks</w>
ryhmä t</w>
rec over
ratkais uja</w>
Zimbab we</w>
Amster dam</w>
pub lic
ne itä</w>
P SE</w>
toimenpite iden</w>
minis ters</w>
confir m</w>
al ku@@</w>
toissija isuus@@</w>
sugg est</w>
j ö@@</w>
val taa</w>
seik ka</w>
mp les</w>
au to@@</w>
ongel miin</w>
mp a@@</w>
edusta ja@@</w>
T ou
Gal ic
tarkas teltava</w>
prec ise</w>
piir i@@</w>
o in@@</w>
la it
ik assa</w>
harjo itta
tu on</w>
te bor
an tu@@</w>
F i
E ner
tuke va@@</w>
trad itional</w>
sotil as@@</w>
s ources</w>
peace ful</w>
ohjel mia</w>
käyd ään</w>
d ings</w>
T @@</w>
Gö tebor
E K
tekni ikan</w>
tarko ita</w>
kuul e@@</w>
koordino inti@@</w>
ih in@@</w>
d it</w>
Organis ation</w>
voi tava</w>
ta misesta</w>
k id
jat ta@@</w>
hil jatta@@</w>
f al
viivä sty@@</w>
ti veness</w>
sub sequ
penal ty</w>
o l</w>
istunn on</w>
yhteenkuulu v@@</w>
tar ve</w>
s ou
puhemieh e@@</w>
pa ino
mod ern
en ta
depend ent</w>
s mo
proses siin</w>
o ta</w>
kysym ysten</w>
he idät</w>
demonstra te</w>
bri ef</w>
0 8</w>
volun tary</w>
realis tic</w>
re infor
le h
la w
kaup pa</w>
h ou
ad v
NG Os</w>
vi llä</w>
rakente e@@</w>
pol ttoaine@@</w>
maa ta</w>
kustann uksia</w>
emerg ency</w>
consider ing</w>
Laek en</w>
yl e@@</w>
tapa us</w>
ta bility</w>
deli ghted</w>
cr imes</w>
b la
Bud get</w>
vall itse@@</w>
määrä yksiä</w>
kaup paa</w>
empha sis</w>
vi isi</w>
tä h
haas te
dign ity</w>
di gi
conclu ded</w>
Bus h</w>
tu vat</w>
sijo itta@@</w>
h ence</w>
ev ening</w>
Euroop asta</w>
A L
pys ä
oper ators</w>
op tion</w>
examin e</w>
en e</w>
credi bility</w>
amoun ts</w>
ab s
syd ä
sec re
perustusla in</w>
nor ma
mi es</w>
man age</w>
käsittel yyn</w>
kiin to@@</w>
Husse in</w>
tion ary</w>
ta ke
mone tary</w>
min @@</w>
in vi
tasa puol@@</w>
restric tions</w>
labe lling</w>
jud g
il mi
Po et
viljel y@@</w>
tiedotus väline@@</w>
str ö
oike uksista</w>
nuor ten</w>
l or
to p</w>
tapa a</w>
rahas ton</w>
e va</w>
co decision</w>
at tava</w>
y ers</w>
politic ians</w>
mielen kiinto@@</w>
huoles tu
halu si@@</w>
clari fy</w>
allow ing</w>
W at
Ni el
K io
B ul
3 8</w>
yo to</w>
yl ittä@@</w>
vah ing
piiri in</w>
inten ds</w>
huol ehdi@@</w>
dis tor
K yoto</w>
ves sels</w>
sul ke@@</w>
pid e</w>
Afric an</w>
19 8
0 2</w>
perman ent</w>
nuor i@@</w>
mi ten@@</w>
lausun non</w>
jäsen elle</w>
it ti@@</w>
ur a@@</w>
ple as
ne g
k le</w>
regula tory</w>
ll u@@</w>
gen der</w>
välis essä</w>
stan ds</w>
etu sija@@</w>
Mo ro
Bul gar
invol ves</w>
im pression</w>
I tä</w>
tuoll o@@</w>
re he
painop iste@@</w>
no ted</w>
aam una</w>
K uu
vapa us</w>
työ markkina@@</w>
taa kseen</w>
ph ase</w>
p y
ni ght</w>
is la
che m
ad voc
S an
J ugosla
Comm on</w>
some what</w>
lento yhtiö@@</w>
järjestel miä</w>
I ran</w>
yhteis työhön</w>
ti ä</w>
ssa mme</w>
pit o@@</w>
ordin ary</w>
happen s</w>
elec tion</w>
vehic les</w>
techn ologies</w>
tan t</w>
moder n</w>
wr itten</w>
tit uu
tied on@@</w>
te t
ri ers</w>
pos t
perfec tly</w>
määräraho jen</w>
ka asu@@</w>
determin ation</w>
ap plying</w>
Mac edon
H i
4 8</w>
yr ittää</w>
yl imäärä@@</w>
vo ice</w>
under taken</w>
periaatte iden</w>
T un
12 .@@</w>
wa ters</w>
ver si
pow er
por ting</w>
occ asion</w>
la h
Den mark</w>
tom an</w>
ther lands</w>
mi es@@</w>
löyd e@@</w>
inte gro
go ro
exa mples</w>
cen tre</w>
Ne therlands</w>
reques ted</w>
pay ment</w>
is em
han ds</w>
h id
fle et</w>
ase tus</w>
as sure</w>
Laek en@@</w>
Kio to@@</w>
sy vä@@</w>
he ug
com men
capa ble</w>
Makedon ia@@</w>
I C
sitoumu kse@@</w>
rikoll isuuden</w>
nä h@@</w>
min ority</w>
mill ään</w>
lainsäädä nnö@@</w>
ed essä@@</w>
d re
val o@@</w>
tra gic</w>
tarv itseva@@</w>
rauhan oma@@</w>
po or
menettely jä</w>
la isen</w>
inn o@@</w>
associ ation</w>
ag ency</w>
Ver heug
or al</w>
li ability</w>
konferens sissa</w>
kann attava@@</w>
ha it
b es
oso ite@@</w>
ole ell@@</w>
lä n
kumm a@@</w>
fel t</w>
Trans port</w>
Au th
vaka va</w>
tois ista@@</w>
res u
reg is
in ation</w>
defin e</w>
d et
att isen</w>
Palac io</w>
teho kas</w>
sus pen
refer endu
p e@@</w>
keskustel u
ch ing</w>
Y @@</w>
religi ous</w>
proce ed</w>
bi lateral</w>
Ener gy</w>
rehe ll@@</w>
pla ces</w>
muod ostu@@</w>
mu ille</w>
encoura ging</w>
tel i</w>
mill oin</w>
mattom ia</w>
m ly</w>
luon te
exis ts</w>
appro ve</w>
so ta</w>
nation als</w>
ke ja</w>
huom aa@@</w>
emp ia</w>
demokra attisen</w>
ben e
tois in@@</w>
sanot tu</w>
re vision</w>
pain o</w>
ins ist</w>
ig er
g one</w>
et na
pr e</w>
pos t</w>
la tter</w>
järjestel y
ik u
ha ki
b it</w>
uudes saan</w>
tarko ite@@</w>
stu d
sov i@@</w>
net tävä</w>
korke i@@</w>
j emme</w>
j an
h ours</w>
experi enc
199 5</w>
w e@@</w>
vaike uksia</w>
na apu
m oun
käyttöö n@@</w>
c ally</w>
Jugosla via@@</w>
ttäm inen</w>
ss ään</w>
sil mä@@</w>
mie hi
mahdollisuu ksien</w>
facilita te</w>
Is o@@</w>
vä llis@@</w>
ta jia</w>
stric t</w>
ponnis telu@@</w>
lisään tymis@@</w>
sol ve</w>
si te
pill ar</w>
os alta@@</w>
oper ating</w>
awar eness</w>
ark alu
arkalu on
all a@@</w>
aiheu ttama@@</w>
todis ta@@</w>
tied ot
tac kle</w>
sisäl tyvä@@</w>
sion ers</w>
noud attama@@</w>
ne essä</w>
n neet</w>
li ev
en try</w>
di a</w>
suojel un</w>
p us
lisää mis@@</w>
Mar o
Ir an@@</w>
Al ban
tu kien</w>
tapa an</w>
sig nal</w>
eläk elä
eläkelä is@@</w>
edellyty kset</w>
e jä</w>
a man
I G
uudis tuksia</w>
tur y</w>
qu ar
o ita</w>
mp iä</w>
lisää mä@@</w>
laati mis@@</w>
kri isin</w>
ker ro@@</w>
kap pal
inno vation</w>
ed ings</w>
al usta</w>
H ome</w>
wel com
welcom ed</w>
r ich</w>
perus teltu@@</w>
negoti ating</w>
llis een</w>
kertom uksen</w>
is ina</w>
h os
La tin</w>
In dus
viik ko@@</w>
tab ly</w>
suhte et</w>
j ääd
be ha
member ship</w>
jaks o@@</w>
iti on
i .e
i.e .</w>
freed oms</w>
fe el
dik ta
b ase</w>
5 5</w>
spen ding</w>
safegu ard</w>
sa ir
re di
proce edings</w>
mechan ism</w>
ita ble</w>
alkuperä is@@</w>
a void
x ed</w>
wel fare</w>
tar get</w>
tan ts</w>
säännö ksiä</w>
köyh @@</w>
käy nti@@</w>
hankke iden</w>
easi er</w>
4 2</w>
tehtä viä</w>
ri en</w>
prim ary</w>
oh j
l ose</w>
individu als</w>
al ities</w>
3 6</w>
tu ssa</w>
toim een
ta vasta</w>
su ku@@</w>
päätöks en@@</w>
prosess issa</w>
ot on
C as
tur ned</w>
telev isi
tavo itetta</w>
pro mo
om et
monop ol
main itsi@@</w>
liik enn
lear n</w>
hyväks y</w>
cour t</w>
sche me</w>
olosuh te
ne llä</w>
katso o</w>
P os
valtio issa</w>
te tty@@</w>
suoj ella</w>
proc esses</w>
pro hi
koh tien</w>
kka u@@</w>
ed essä</w>
aika an
strategi aa</w>
res truc
protec ted</w>
et tiin</w>
deb t</w>
M i
Auth ority</w>
poll u
jär ky
ik ais@@</w>
hä tä@@</w>
seura a</w>
menettel yssä</w>
lausun to@@</w>
ksu aali@@</w>
keskustel uja</w>
ha ke
eb ru
N iger
terveyd en
suku pol
prepar ing</w>
re ment</w>
paik an</w>
p om
ni c</w>
kumppan i@@</w>
kas v
fre qu
Ira q
In don
välia ikais@@</w>
vä is
täysi määrä@@</w>
tra g
järjestel y@@</w>
jä t
it uksen</w>
he al
hankke ita</w>
fo ot</w>
d omin
aut onom
arvos ta@@</w>
A asia@@</w>
u den</w>
ro om</w>
re construction</w>
oper ational</w>
ed ut</w>
contrac ts</w>
condem n</w>
at t@@</w>
valtio ita</w>
uudis tamis@@</w>
tou rism</w>
tervey den</w>
te iltä</w>
s li
pel kää@@</w>
ag @@</w>
Fis her
vaati musten</w>
ta isi</w>
si e
mu iste@@</w>
institu tion@@</w>
heik o@@</w>
h un
ga in</w>
for mu
ehkäis y@@</w>
askel @@</w>
Qu es
Indon es
Ag enda</w>
9 5</w>
valta lais@@</w>
te tusti</w>
p lu
nouda teta@@</w>
la itte
ker ta</w>
dist inc
consi ders</w>
con vention</w>
Vi etna
won der</w>
sisäl ty@@</w>
pää oma@@</w>
nn @@</w>
maan viljeli
m us
käy tettävä</w>
hank keen</w>
voit u</w>
ta so</w>
s si@@</w>
pros per
tö myy
ta an
o on</w>
nähd @@</w>
kiel täyty@@</w>
ki elle@@</w>
ebru ary</w>
aik ais@@</w>
Sec re
Fre ed
F ebruary</w>
velvoll isuus</w>
sa man</w>
maa han</w>
ku va</w>
fir m</w>
esti ma
declar ed</w>
believ es</w>
aik om
IG C</w>
vasta inen</w>
vall oissa</w>
ulkom inis
tutkim us</w>
suure mpi</w>
palau ttamis@@</w>
noud at@@</w>
descri bed</w>
consis ten
asem a@@</w>
al ista@@</w>
valio kunta@@</w>
suos tu@@</w>
independ ence</w>
elä ä</w>
asiakirj an</w>
alo ja</w>
As sembly</w>
yksi puol@@</w>
shor t
politic ally</w>
per for
miel i@@</w>
implic ations</w>
b ann
uudis tuksen</w>
uu si
nä h
laus e@@</w>
f ru
esiin ty@@</w>
confir med</w>
H ar
we ak
pp ed</w>
ongel maan</w>
ic s</w>
huom a
e ties</w>
cen tury</w>
He ads</w>
usko a@@</w>
urg ency</w>
itses tään</w>
cra ft</w>
ar m</w>
w ed</w>
us ers</w>
produc tive</w>
plan ned</w>
luj itta@@</w>
id es</w>
explan ation</w>
ess enti
assa olo@@</w>
Fisher ies</w>
E mployment</w>
uvos to@@</w>
uni on</w>
spo ken</w>
päätöslausel ma</w>
main taining</w>
kapa site
väki vallan</w>
vasta ista</w>
sen sible</w>
sa ll
prec ed
com pul
Y or
Indus try</w>
te red</w>
t on@@</w>
suo si@@</w>
s mall
lin ed</w>
kuulu va@@</w>
hel mik
h ir
d om
au di
suor itta@@</w>
mietinnö stä@@</w>
ammat ti
tuh o@@</w>
teks ti</w>
preven ting</w>
helmik uu@@</w>
govern ance</w>
em bar
consu mption</w>
b ia@@</w>
alloc ated</w>
Lat in@@</w>
C oton
8 @@</w>
satis fied</w>
j än</w>
ittä vä</w>
deta ils</w>
tarkistuks esta</w>
taloudell isesti</w>
o ts</w>
muka isia</w>
koulu tusta</w>
k enne@@</w>
gi ble</w>
exten sion</w>
decisi ve</w>
uudes taan</w>
tapahtu mat</w>
ta kaa</w>
substan ce</w>
s inc
s ala
refer ring</w>
lo va
keskus tella@@</w>
ke pt</w>
jo lla@@</w>
ff s</w>
Zimbab we@@</w>
vis ed</w>
tasa paino</w>
effec tiveness</w>
B os
viljelijö iden</w>
va kauden</w>
tuom itse@@</w>
tulo ksen@@</w>
om assa</w>
li itt
lait osten</w>
gla d</w>
dis pos
aste itta@@</w>
alis e</w>
ver ran</w>
toimenpite isiin</w>
sor y</w>
sel ke@@</w>
saavu tettu</w>
p at
lai m</w>
is en@@</w>
hyvin vo
ex tra
dec ad
cla use</w>
B o
vapa a</w>
tila isuuden</w>
os tus@@</w>
mi d</w>
go t</w>
eth nic</w>
ud esta</w>
toiminn asta</w>
stu dies</w>
n tö</w>
medic ines</w>
k kä</w>
el in</w>
chan ging</w>
ty nyt</w>
tul i</w>
tex ts</w>
recover y</w>
pursu e</w>
le ik
i ten</w>
trans fer</w>
ko t
kau ka@@</w>
et ta@@</w>
cond ition</w>
yksin kerta
vastaav an</w>
us con
rela tes</w>
publis hed</w>
por ted</w>
pli es</w>
par e@@</w>
f air
e u
aver age</w>
4 9</w>
valu able</w>
uu t
to tu
sex ual</w>
nor mal</w>
käytä nnö@@</w>
introduc ing</w>
hallit usta</w>
exclu sion</w>
en immäis@@</w>
Berl uscon
tuho a@@</w>
mun ic
ac knowled
E M
4 4</w>
telu a</w>
pu ite@@</w>
ku vi
kasv u</w>
elim en</w>
bud sman</w>
3 4</w>
v ina</w>
pidet tävä@@</w>
muo to
mo ot
con tain</w>
ad jus
Maa ilman</w>
Bar ni
3 9</w>
taud in</w>
rauh a@@</w>
lear ning</w>
fic ations</w>
compul sory</w>
Vitorin o</w>
Lä n
vi our</w>
sett le
man i
consider ations</w>
associ ated</w>
ar me
an tly</w>
F eir
4 1</w>
vai hd
siir ry@@</w>
rin na
re marks</w>
esity ksen</w>
yks is
var au
see ks</w>
puu tu@@</w>
o ja</w>
kann atta
after noon</w>
acc ident</w>
a pu@@</w>
to m</w>
käsittel yä</w>
es tic</w>
ent ity</w>
compe tences</w>
b om
M in
varo va
ti lo
tavoitte ista</w>
tarkas tella@@</w>
li ha@@</w>
käynn issä</w>
huol to@@</w>
fri ends</w>
Ara f
vil pit
vilpit töm@@</w>
van oma@@</w>
vall assa</w>
tric ity</w>
ta vanoma@@</w>
su ffici
poikke us@@</w>
mo bility</w>
jou ko
j au
ig nor
hyväksy ttävä</w>
equip ment</w>
af for
va u
speak er</w>
ota mme</w>
kä teen</w>
exec u
compar ed</w>
uh kaa</w>
tu le</w>
se where</w>
se itse
reques ts</w>
ne w
ma cy</w>
essenti ally</w>
el sewhere</w>
yll ä@@</w>
va cc
saan e@@</w>
s he
respec tive</w>
pan o
ongel man@@</w>
main itsi</w>
la illa</w>
jäl j
jousta va@@</w>
is oi@@</w>
inn a@@</w>
ilma ise@@</w>
Soci alists</w>
z @@</w>
seura ukset</w>
o ffic
mark ed</w>
id en
fe ed</w>
epäil y@@</w>
ala isen</w>
S i
ö r
wi ll
työntekijö itä</w>
po istamis@@</w>
ess ään</w>
y tymis@@</w>
väis tämät@@</w>
sugges ted</w>
see ing</w>
s esta</w>
puhu ja@@</w>
over come</w>
os asto@@</w>
oikeu tetusti</w>
li a@@</w>
en ed</w>
elec tricity</w>
disas ters</w>
Kore a</w>
D el
suun ta@@</w>
go als</w>
coura ge</w>
Gre ens</w>
tom uuden</w>
syrj ä@@</w>
sy mb
kan tojen</w>
j ista</w>
fo ot
coher ent</w>
announ ced</w>
s tor
ponnis telu
ko ke@@</w>
g as</w>
en tr
b ru
P T</w>
M ol
Kuu ba@@</w>
ä n
vaike i@@</w>
uskonn o@@</w>
tun to@@</w>
tu tus
osapuol et</w>
jou kos
vakuu tus@@</w>
tää kseni</w>
tä ll
täll ö
tila isuutta</w>
te mp
main itsema@@</w>
leg ally</w>
ks ella</w>
high est</w>
contac t</w>
oppos ite</w>
main tained</w>
liit on</w>
kansa llista</w>
ge o
W all
B la
under stood</w>
tw enty</w>
supple mentary</w>
sub mit</w>
rekis ter
prepar e</w>
liit tyvä</w>
c au
S to
R a
valtuus kunnan</w>
to re
re min
prior ite
ll ään</w>
k risti
compe tent</w>
categ ory</w>
care ful</w>
beha viour</w>
Y ugosla
ta ho
rac ism</w>
is tic</w>
fac ts</w>
exces sive</w>
d t</w>
amen ded</w>
w arm
te ihin</w>
s port</w>
pos sibly</w>
mu illa</w>
min orities</w>
läh en
f os
er ed</w>
da ily</w>
argu ment</w>
0 4
tark ka@@</w>
käs it@@</w>
is issä</w>
inves tments</w>
gener ation</w>
g ence</w>
amma ti@@</w>
tällö in</w>
tu et@@</w>
statis tics</w>
san a
r a</w>
pro of</w>
otsa kke@@</w>
hall into</w>
determin ed</w>
compati ble</w>
0 4@@</w>
yy destä</w>
viranoma isen</w>
suor i@@</w>
llis esta</w>
kesk inä@@</w>
h ouse</w>
fin ding</w>
dom estic</w>
argu ments</w>
allow s</w>
ab use</w>
Regi onal</w>
3 00</w>
than king</w>
teoll isuus</w>
obsta cles</w>
huom ion</w>
elim iä</w>
c at
ai empaa</w>
Götebor g@@</w>
Bolkes tein</w>
tel tu</w>
saas tu
explo itation</w>
ar ise</w>
teh tiin</w>
m itta@@</w>
la test</w>
jo ku</w>
Iraq i</w>
rajo ja</w>
p ra
hien o@@</w>
Is la
ympäristö n
pi eni</w>
mul tila
main ita@@</w>
larg ely</w>
edis te@@</w>
I D
3 .</w>
usta va@@</w>
tut ki
ter ri
tapo ja</w>
run ning</w>
referendu m</w>
plan ts</w>
pan o</w>
laad un</w>
k er</w>
jul ka
its isi</w>
er ään@@</w>
dou ble</w>
dipl oma
aikaan saa@@</w>
sy mpa
spo ke</w>
reite rate</w>
mieh en</w>
kysymyks en@@</w>
fulfi l</w>
edis tetä@@</w>
al e
K au
K an
0 .
van g
oll @@</w>
nnö stä</w>
na is@@</w>
mattom an</w>
lu n</w>
koh tiin</w>
arme i
al ta
al koh
ai o</w>
tulo kseen</w>
tell yt</w>
sisä markkina</w>
er y</w>
constan tly</w>
clas si
basi cally</w>
asian osa@@</w>
arkaluon te@@</w>
T ai
yhdenmuka istamis@@</w>
tiedot tamis@@</w>
ro ko
pan e@@</w>
oikeu tettu@@</w>
näkö kohdat</w>
minister ine
ly k
kustann usten</w>
il os
help ing</w>
fir mly</w>
expec tations</w>
el itte@@</w>
coun ter</w>
collec tive</w>
aine ita</w>
Gu ine
usko ttav@@</w>
tell ut</w>
käyd y@@</w>
ed e@@</w>
Presid ents</w>
9 9</w>
yks in</w>
var m@@</w>
tutus tu@@</w>
toteu tettava</w>
tele va@@</w>
t to</w>
regre tta
mill ions</w>
Can c
tu ettava</w>
puolue iden</w>
prosen t@@</w>
käyte ttä@@</w>
kr itiik
investo inte
assu me</w>
advanta ges</w>
ved en</w>
turvall isuudesta</w>
tun te
ttä viä</w>
tety n</w>
muod os
ll isiin</w>
kokou kseen</w>
fi g
c as
bi olog@@</w>
a h
M us
vaal ien</w>
sopim uksiin</w>
pit i</w>
periaatte et</w>
os ana</w>
ad vice</w>
S lova
war ran
vo itte</w>
valmistelu kunta</w>
sc ru
recor d</w>
rau haa</w>
p ing</w>
oh ja@@</w>
lev ittä@@</w>
kom mun
head ing</w>
fun ction</w>
arv on</w>
O m
GM Os</w>
väl isiä</w>
succe ed</w>
s ki
pyrki vä@@</w>
produc ing</w>
prec au
or i</w>
mu ita@@</w>
modi fied</w>
lu otta@@</w>
kaks in
ehdo t</w>
Macedon ia</w>
199 4</w>
vuo si
tervey ttä</w>
tax es</w>
tapahtu i</w>
kka ita</w>
deli ber
cha irman</w>
K inno
F a
CO S</w>
vi iden</w>
tu nut</w>
sydä me@@</w>
sa w</w>
obli ged</w>
komite a</w>
er ään</w>
constitu te</w>
co operate</w>
tric h
sou thern</w>
ranga is
ou @@</w>
men nä</w>
m id
kys el
hä mmä
yr itä@@</w>
vapau teen</w>
te ttävä@@</w>
se min
pu rely</w>
pa per
men esty@@</w>
kuu kautta</w>
indic ated</w>
han ke</w>
der ly</w>
blo od</w>
as trich
Ma astrich
tru th</w>
sci ence</w>
päiv i@@</w>
pyy nnön</w>
painop iste
na a
ka ava@@</w>
im peri
he del
ehdotuks ista</w>
ed un</w>
6 5</w>
yhteis vastuu@@</w>
vuo d@@</w>
tekni ik
sov itta@@</w>
p hen
kä t@@</w>
iti o@@</w>
ins tituu
ede tä</w>
ap pa
vu ot
un doub
käsitel tävä</w>
huoles tune@@</w>
alo ite@@</w>
ac knowledge</w>
M os
Bos ni
tapa a@@</w>
pla ying</w>
main ittu</w>
m outh</w>
enna kko@@</w>
dispos al</w>
c laim</w>
CA P</w>
ä nsä</w>
mi a@@</w>
lä hd
vaati o@@</w>
sel vi
o a</w>
hark itse@@</w>
cho ose</w>
C itiz
4 3</w>
trad ition</w>
sel ec
prim arily</w>
par tly</w>
olo issa</w>
ko ti@@</w>
jä t</w>
huom atta@@</w>
fiel ds</w>
eri llis@@</w>
välis ten</w>
viik on</w>
tre aty</w>
my r
Om budsman</w>
Kore a@@</w>
K al
E I
torjun ta</w>
tehtä vän</w>
syy ttä
organis aatio@@</w>
ol a</w>
kah teen</w>
for mal</w>
fig ure</w>
en vis
an ts</w>
Sto ck
S cot
vir ka@@</w>
se ka
kan @@</w>
uudis tus</w>
tä jä@@</w>
tor al</w>
techn ological</w>
puutte ell@@</w>
prof it</w>
p ä@@</w>
nu tta</w>
imag ine</w>
et c</w>
concentra te</w>
arm ed</w>
K a
te ko@@</w>
ta vara@@</w>
se ven</w>
main ittu@@</w>
ma us
korke a
ha ita@@</w>
communic ations</w>
c ar</w>
acti vely</w>
y ttä</w>
uni ted</w>
tapahtu mien</w>
sy itä</w>
qu ota
muka isen</w>
i el
highli ghted</w>
elä mään</w>
a var
1 .@@</w>
vaiku tusta</w>
ulkom a@@</w>
suunnitel man</w>
s in@@</w>
maus aine@@</w>
koulu tukseen</w>
keino in</w>
arvo a</w>
Poet tering</w>
ys tävä@@</w>
jour n
inclu sion</w>
in adequate</w>
coun ter
becom es</w>
an t
D P</w>
C ol
poor est</w>
palvel ut</w>
mon @@</w>
lääkke iden</w>
la hd
järjestelmä stä</w>
fundamen talis
func tioning</w>
difficul ty</w>
appreci ate</w>
Johannes burg</w>
, 5</w>
vir he
univers al</w>
tä isi@@</w>
ta i
kti o@@</w>
kar a@@</w>
het ki</w>
absolu te</w>
G o
tila is@@</w>
sovel @@</w>
s ets</w>
passeng ers</w>
määrä rahat</w>
mat onta</w>
ka usi</w>
hallinno i@@</w>
cc o</w>
br ings</w>
at ly</w>
ass ess</w>
teki jä@@</w>
tarko itettu@@</w>
selvä sti@@</w>
nn yt</w>
ma att@@</w>
kol og
huu mausaine@@</w>
buil t</w>
äänes ti@@</w>
var i
vahing o@@</w>
tuo te@@</w>
ka ble</w>
d y@@</w>
car rying</w>
alo itetta</w>
Moro cco</w>
B yr
väline iden</w>
varo it@@</w>
val ita</w>
v ul
talous arvio</w>
quota s</w>
puite ohjelma@@</w>
osoit tama@@</w>
l eng
iv er</w>
fore most</w>
en ding</w>
deb ating</w>
Ex ternal</w>
yr itys@@</w>
vi g
sur vi
suo si
saa pu@@</w>
o jen</w>
luvu n</w>
kiinti ö
kein o@@</w>
kehity ksestä</w>
jäsen valtio</w>
jäsen enä</w>
istun to</w>
is empaa</w>
hyök käy
amen ding</w>
Euro sta
vuosi kymmen@@</w>
vo jen</w>
tra ding</w>
su ffer</w>
rajo ite@@</w>
määri tellä</w>
im iel@@</w>
il men
vi id
telev ision</w>
spec ies</w>
necess arily</w>
muuto s</w>
kertom us</w>
järjestö t</w>
b ra
asia kirja</w>
ajoneu vo@@</w>
Th urs
Gen eva</w>
ymmärr ä</w>
ver on
televisi o@@</w>
sih te
sa ttu@@</w>
puutte e@@</w>
parlia ment</w>
lop et@@</w>
lead s</w>
jää vä@@</w>
ing ness</w>
Pro di@@</w>
Citiz ens</w>
A sia</w>
yl ittävä@@</w>
vi esti</w>
tta koon</w>
trag edy</w>
th res
tel @@</w>
tau ti@@</w>
rela tively</w>
me ant</w>
lu kuun</w>
keskustelu issa</w>
kahd esta</w>
issu ed</w>
ine vi
econom ies</w>
Tur kki</w>
undoub tedly</w>
uh rien</w>
tor ate</w>
tac kl
suffici ently</w>
selv ittää</w>
res is
paten tti@@</w>
ks elle</w>
jouk kojen</w>
fu el</w>
excep tion</w>
appro ac
Soci alist</w>
x ima
will ingness</w>
soci eties</w>
op tions</w>
mis essä</w>
minu tes</w>
exten sive</w>
direktii viin</w>
asi de</w>
E Y@@</w>
vasta ava</w>
tu et</w>
toteu tetta@@</w>
suuntavii va@@</w>
p ath</w>
o he
ev e@@</w>
ep tion</w>
ar rest</w>
appro xima
Gen eve@@</w>
5 1</w>
1 7
y llä</w>
us ti</w>
t t@@</w>
strö m</w>
ref ers</w>
puh taa@@</w>
lähtö kohta@@</w>
hu oll
doll ari@@</w>
at trac
ac ting</w>
D ef
C O@@</w>
re action</w>
pal a@@</w>
määr ää
l @@</w>
ku va
isuu temme</w>
istun tos
indus tries</w>
fe a
ex plic
C F
Bri tain</w>
proc essing</w>
oikeudell isen</w>
mä ä</w>
kra atti@@</w>
ki ih
hyväksy ttävä@@</w>
attemp ts</w>
aloitte @@</w>
ala lle</w>
ac y</w>
Sa har
to t</w>
tarkistu s@@</w>
selv ity
muod oll@@</w>
ill ustra
geo graph
employ ed</w>
B ö
urg ently</w>
tti vät</w>
te re
sel ittä@@</w>
pi te@@</w>
pa kko</w>
mon ik
l ying</w>
kyv yn</w>
kuolem an
accoun ts</w>
Thurs day</w>
syy llis
stres sed</w>
pitä isi@@</w>
pain os@@</w>
kyseen ala
juu ri@@</w>
fam ili
Secre tary</w>
Freed oms</w>
: ta</w>
re move</w>
my ys</w>
demokra tia</w>
democ ra
bo o
Johannes burg@@</w>
Fra mework</w>
As soci
yksis elitte@@</w>
tois en@@</w>
tarjo ama@@</w>
konferens si</w>
jo lle</w>
huol ta</w>
es io@@</w>
ar z
W estern</w>
E co
Constitu tional</w>
ver ta@@</w>
strategi es</w>
sto ck</w>
o u</w>
no body</w>
muu n
mi gration</w>
maail maa</w>
lu oda@@</w>
isuu delle</w>
hop es</w>
es ittämis@@</w>
S ME
E as
valmis te
ti ge</w>
teks tiä</w>
suunnitel ma</w>
suojel u</w>
se ksuaali@@</w>
prog res
kohe esio@@</w>
follow s</w>
SME s</w>
: tä</w>
u mp
työs kenne@@</w>
tel ec
rail ways</w>
muka isi@@</w>
met sä
kohd asta</w>
ka a
gre atly</w>
f in</w>
ess ed</w>
en a@@</w>
asian mukaisi@@</w>
ar d
Def ence</w>
C ub
yhd ys
tä nne</w>
tu a</w>
politiik ka@@</w>
ot te@@</w>
n is@@</w>
ma ton</w>
ktiiv @@</w>
cor e</w>
answ ers</w>
B on
ympäristö ön</w>
vaka a@@</w>
v en@@</w>
unanim ously</w>
ta mista</w>
syrj intä@@</w>
sta ble</w>
ks eksi</w>
him self</w>
en e@@</w>
categ or
air craft</w>
M u
Hi gh</w>
w ent</w>
too l</w>
saavu ttama@@</w>
pol @@</w>
on ing</w>
oikeu ksiin</w>
ma asta</w>
liber al</w>
kan a@@</w>
is on</w>
hallin ta@@</w>
enn ess</w>
can c
c ard</w>
adv ance</w>
La my</w>
I V</w>
Egy p
Barni er</w>
valtio ta</w>
tu kia</w>
re hu@@</w>
laad u@@</w>
eth ical</w>
er ro
prepar ation</w>
or e</w>
off ers</w>
luet tu@@</w>
j iin</w>
ir y</w>
ili ja@@</w>
esiin tyy</w>
abs ence</w>
Fin an
valtuu det</w>
tö ntä</w>
tor sta
se ja</w>
propor tion</w>
kaupun ki@@</w>
inno vaatio@@</w>
halua isi</w>
ha ke@@</w>
Maro ko@@</w>
viol ations</w>
vasta usta</w>
vaatimu s</w>
trans itional</w>
tiedonann on</w>
tah toa</w>
ow s
hoid on</w>
fu els</w>
ab sta
Con tro
välis et</w>
void a@@</w>
ohe lla</w>
negoti ation</w>
mel u@@</w>
materi als</w>
koh telu@@</w>
er ing</w>
emphas ised</w>
eett isesti</w>
aja tusta</w>
n et</w>
identi fied</w>
a der</w>
EC B</w>
tä ys@@</w>
tul osta</w>
tu red</w>
toimi valla@@</w>
op enness</w>
käsit tely</w>
ks y@@</w>
govern ing</w>
dela ys</w>
Tai w
Sw ob
Bro k</w>
Associ ation</w>
wid er</w>
vahingo it@@</w>
soverei gn
ro un
regu lar</w>
minis ter</w>
kyseen alais@@</w>
kas vi
jä nn
et nis@@</w>
emb ows
arz embows
Sch re
J arzembows
vul ner
tuks essa</w>
tu esta</w>
offer ed</w>
menettely jen</w>
m mistä</w>
kohta isesti</w>
impor ts</w>
el derly</w>
c ent
G U
Belgi um</w>
vi ksi</w>
työllis yyttä</w>
th ly</w>
simp li
resul ting</w>
pur i@@</w>
lento kone@@</w>
henkilö s
gh ter</w>
ex ports</w>
char ges</w>
ase iden</w>
Luxem bour
D e
vaiku tusten</w>
tet ty
r ä@@</w>
poliitt isesta</w>
o inti@@</w>
läh te@@</w>
kann asta</w>
incorpor ated</w>
vies ti@@</w>
ver sion</w>
ver se</w>
vaik ka@@</w>
uni form</w>
tun ate</w>
si ght</w>
rail way</w>
prepar ations</w>
kä dessä</w>
konferens si@@</w>
j yr
exc e
4 6</w>
viera ilu@@</w>
signific ance</w>
puol i</w>
la imin
kaupun g
en for
de z</w>
comple ted</w>
ch i
air lines</w>
a jo@@</w>
Verheug en</w>
työ llis@@</w>
terroris ts</w>
stan ce</w>
pala ta</w>
my yd
m bers</w>
laus e
em br
e ye</w>
di ed</w>
b loc
a tor</w>
sol ely</w>
rup tion</w>
myönnet tävä</w>
muu alla</w>
har m
ero ja</w>
eh toja</w>
do w</w>
bud gets</w>
ad ing</w>
Ha ar
GU E</w>
E Y</w>
E @@</w>
Contro l</w>
yks een</w>
radi o
phen om
los s</w>
li itte@@</w>
coll abor
c op
V ice</w>
Eas tern</w>
suunn ittelu@@</w>
suos itu@@</w>
restruc turing</w>
pa tent</w>
nim e@@</w>
markkin a
han kki@@</w>
audi ov
ta min
s on@@</w>
ra a
open ed</w>
on going</w>
na u
is ku@@</w>
fri en
frien dly</w>
el i@@</w>
de als</w>
P i
F er
viranoma isille</w>
tr an
seik koja</w>
rik o@@</w>
muuto kset</w>
con vic
ys i</w>
vied ä</w>
ti vat</w>
suunn a@@</w>
sel ity
rele ase</w>
prosper ity</w>
laajen n@@</w>
kier ro
du ties</w>
diploma atti@@</w>
arvo ja</w>
al co
R anska</w>
I M
Gal ile
varova is@@</w>
uh ka@@</w>
talou teen</w>
sche mes</w>
renew able</w>
r ul
painopiste alue@@</w>
kalas tuksen</w>
exten ding</w>
ehdotuks en@@</w>
a ud
Roman ia</w>
ti ally</w>
sa d
p op
ne ar</w>
mon ista</w>
is elta</w>
fall s</w>
edisty kse@@</w>
deser ves</w>
co de</w>
acqu is</w>
Luxembour g</w>
vaiku tuksista</w>
tä mme</w>
työn tekijät</w>
lu pa@@</w>
kri isi@@</w>
ja kau
in al</w>
citiz en
c king</w>
Niel son</w>
Eco fin</w>
var o@@</w>
tosi aan@@</w>
tapa hd
sovereign ty</w>
päte e</w>
päivä ä</w>
p hy
luo ta@@</w>
liit to
järj et@@</w>
hon our</w>
foun ded</w>
E ch
Dem o
A ID
vaal it</w>
syyllis ty@@</w>
sub jects</w>
korva a@@</w>
is tu</w>
hava it@@</w>
artikl a</w>
Euro pol@@</w>
välis estä</w>
ttä essä</w>
sektor in</w>
paik ka@@</w>
maailman laaju
kunnio itu@@</w>
ko a</w>
ken e@@</w>
is ol
intell ig
in o@@</w>
ex tra</w>
complic ated</w>
Na to@@</w>
z e</w>
vuo deksi</w>
vau hd
plan t</w>
maailmanlaaju istu@@</w>
luotta musta</w>
käyte tty</w>
hd @@</w>
edusta jia</w>
c hap
al enta@@</w>
vetoom us@@</w>
v in@@</w>
un fair</w>
u tuu</w>
sustain ability</w>
so taa</w>
pro tocol</w>
ne ws</w>
määri tellä@@</w>
myö tä
mor al</w>
jäl ke@@</w>
im man</w>
es sions</w>
G ar
6 7</w>
ympäristön suojelu@@</w>
ve to</w>
vaiku tus
täy den</w>
pal o@@</w>
ou red</w>
n tä@@</w>
loo ked</w>
lis ten</w>
in ary</w>
alis ing</w>
verk kojen</w>
vastaan otta@@</w>
tehtä vät</w>
neighbour s</w>
laimin ly
h an@@</w>
deb ated</w>
Scheng en@@</w>
Min u
M ic
to pi
remain ing</w>
nuor iso@@</w>
määrä ä@@</w>
kokou s@@</w>
investo inti@@</w>
for mation</w>
ed ull@@</w>
des ira
back ground</w>
av ustus@@</w>
D ut
C res
van kil
v y@@</w>
til asto@@</w>
o x
n one</w>
mielip i@@</w>
liikenn että</w>
korva us@@</w>
kel i@@</w>
henkilö itä</w>
Minu tes</w>
Bar ón</w>
7 1</w>
toisi a@@</w>
speec hes</w>
ri d</w>
r uu
puol et</w>
le z</w>
kuu den</w>
kos ke</w>
huolestu ttava@@</w>
ep ide
cr at</w>
L on
Finan cial</w>
varo ista</w>
tarkistuks issa</w>
prof its</w>
part ner</w>
mas sive</w>
legiti macy</w>
le y</w>
kuljet ta@@</w>
ing ra
fir e</w>
der ed</w>
consider ably</w>
ase maan</w>
tu zz
sosiaal id
sosiaalid emo
la isten</w>
kunnio itet@@</w>
järjestelmä t</w>
importan tly</w>
huippu kokous</w>
guarante eing</w>
citizen ship</w>
aset tama@@</w>
Sta tute</w>
K ansa
ECH O</w>
vaar assa</w>
u r</w>
tic les</w>
te ttä</w>
pain osta@@</w>
paho ittele@@</w>
occ ur
lin ks</w>
justi fy</w>
com pon
suffer ed</w>
seura ava</w>
respon ding</w>
re ti
pääs se@@</w>
poliitt iseen</w>
perus tuva</w>
mielipite en@@</w>
l e@@</w>
kuolem an@@</w>
järjes tö</w>
heav y</w>
dru g</w>
asi alista@@</w>
Pos sel
Fa tuzz
9 1</w>
ä ni</w>
yhtey ttä</w>
tta ja@@</w>
tin y</w>
ti e</w>
some one</w>
restric ted</w>
presen ting</w>
ohjel maan</w>
nel jä@@</w>
määrä ysten</w>
er iko
da an</w>
bene fic
E D
tur ers</w>
tom uutta</w>
tiiv @@</w>
t tö@@</w>
pri or</w>
pan a</w>
määr it
m os
järjes t@@</w>
epä oikeuden@@</w>
employ ers</w>
edellyty s</w>
Palestin ians</w>
tax pay
sosiaalidemo kraatti@@</w>
roh ke
ra vin
pr ing</w>
paik kansa</w>
n ti</w>
luo tava</w>
la y</w>
kommen toi@@</w>
es itys</w>
dep th</w>
F ran
E qu
yks istä</w>
yks issä</w>
val uutta@@</w>
ti t</w>
sor ry</w>
run saa@@</w>
pal kka@@</w>
näy t@@</w>
ll emme</w>
la iset</w>
kollega mme</w>
Dut ch</w>
väl it@@</w>
sija itseva@@</w>
pyy täisi@@</w>
muu ttamis@@</w>
me dical</w>
mark eting</w>
it tämä@@</w>
i tely</w>
fif teen</w>
coher ence</w>
avo in@@</w>
Cub a</w>
vis ory</w>
rannik ko@@</w>
quot e</w>
pit kä
pi ä</w>
ks issä</w>
keho teta@@</w>
id entity</w>
gran ting</w>
edis tävä@@</w>
e qui
Län si</w>
x th</w>
vahvis tama@@</w>
ul ture</w>
ryh miä</w>
regula ted</w>
pre viously</w>
nope utta@@</w>
muo to@@</w>
la keja</w>
kes tävä</w>
keino t</w>
ins ta
h i@@</w>
ehdo tettu</w>
a .
res pects</w>
pos ti@@</w>
määri ä</w>
inten tions</w>
in ingra
dyna mic</w>
defic it</w>
all i
R @@</w>
G oth
C ong
vasta vuoro@@</w>
spen d</w>
sa tell
represen tation</w>
re v
puutte ita</w>
naa puri@@</w>
laa tu
er ity@@</w>
b ig
arvo is@@</w>
C z
vall an
under tak
toim itta
tis ing</w>
tapa uksia</w>
sel ven
satisfac tion</w>
laun ched</w>
jö itä</w>
fu sion</w>
enlarg ed</w>
Euroop alle</w>
C oh
yhteisö ssä</w>
toisi in@@</w>
tarkas t@@</w>
su va
sisäl töä</w>
pi ece</w>
kanna ta</w>
in tä</w>
famili ar</w>
en burg</w>
ash ing
W est</w>
Pres tige</w>
Kal iningra
äär i@@</w>
wor ding</w>
vi isu
undertak ings</w>
toimi joiden</w>
sta ke</w>
s pread</w>
re ds</w>
proper ty</w>
pet o
op t</w>
interpre tation</w>
huom attava</w>
g res
g ement</w>
ati t</w>
W ashing
Tou rism</w>
6 .</w>
where as</w>
par empi@@</w>
net te</w>
mat ka@@</w>
ma ase
lainsäädä nnössä</w>
käytä vä</w>
jul ista@@</w>
istuntos ali@@</w>
investig ation</w>
fi es</w>
be aring</w>
ase tusta</w>
an kara@@</w>
G i
CO D</w>
Bud getary</w>
vuoropuhel u</w>
viita ta@@</w>
vi iv
uusi utu@@</w>
uudis tusta</w>
tois en
toisen la@@</w>
tiiv i@@</w>
tehokkuu tta</w>
suo jaa@@</w>
ruo ka@@</w>
poin ting</w>
op isto@@</w>
lo is
lainsäädäntö ön</w>
la ina@@</w>
kompromis si</w>
hyvinvo inti@@</w>
fe wer</w>
4 7</w>
vero tus@@</w>
re ve
pys tyvä@@</w>
puol us
käyttööno tto@@</w>
kärsi vä@@</w>
coordin ated</w>
NG L</w>
Americ ans</w>
wel comes</w>
tarkas telu@@</w>
su m</w>
sit o@@</w>
reser vations</w>
puhu i</w>
pos tal</w>
out standing</w>
menettel yyn</w>
kos ki</w>
hä peä@@</w>
fair ly</w>
facil ities</w>
enjo y</w>
e iden</w>
bar riers</w>
Tamper e@@</w>
OLA F@@</w>
vä li
vas emmis
vaiku t@@</w>
v ell
to istuva@@</w>
str u
siz e</w>
pos sibilities</w>
ou lo
o tetta@@</w>
nu mbers</w>
hin tojen</w>
helpp o@@</w>
cle ar
addres sing</w>
aal @@</w>
M ed
Goth enburg</w>
w in
voim ia</w>
topi c</w>
per in</w>
organ ise</w>
mer i</w>
le mä@@</w>
ky nn
kilpail u</w>
im pe
ga p</w>
cal cu
c eil
vihd oin@@</w>
us ual</w>
työ voima@@</w>
tosi asia</w>
po is
plu s</w>
muut os@@</w>
kumppan uus@@</w>
jakau tu@@</w>
ho ito
draf ting</w>
demokra atit</w>
cour ts</w>
affec ts</w>
accord ingly</w>
I S</w>
Doh a</w>
5 7</w>
yhteis kunta</w>
sti pu
sec ution</w>
s cand
kri isi</w>
kann us
joh tuva@@</w>
ei j
Fin land</w>
7 7</w>
yrity ksen</w>
yksinkerta ista@@</w>
yhdys valtalais@@</w>
wor st</w>
va kautta</w>
tapahtu nee@@</w>
ta id
ro ads</w>
qu ant
power ful</w>
p an@@</w>
multila teral</w>
löy ty@@</w>
laus u@@</w>
ker ro
infr ing
im mista</w>
hol m</w>
for um</w>
feel ing</w>
eriko is@@</w>
easi ly</w>
Stock holm</w>
S A
Parlia mentary</w>
F eder
wor l
vasta isen</w>
tuotte et</w>
ta varo
siir to@@</w>
pit kä</w>
odo te@@</w>
ku usi</w>
k hol
innova tive</w>
inn an</w>
hund reds</w>
allekirjo it@@</w>
a ko</w>
Se a</w>
yli opisto@@</w>
tekn isiä</w>
teho kas@@</w>
syy t</w>
short com
shortcom ings</w>
rahas to@@</w>
puol een</w>
pa a@@</w>
mis ta@@</w>
luottamu kse@@</w>
le vi
kka at</w>
kala talous@@</w>
feder al</w>
Tu khol
Tamper e</w>
välis een</w>
vaihtoeh toja</w>
uh ri@@</w>
rati fied</w>
ov ers</w>
isuud en@@</w>
ik ään
ar ab
vuor o</w>
ut ti@@</w>
u det</w>
te ac
tavoitte isiin</w>
tah o@@</w>
t so
pan na@@</w>
mil k</w>
m missa</w>
kel po
is hing</w>
fav ourable</w>
ev ident</w>
diplom atic</w>
al kio@@</w>
Austri an</w>
vaihtoeh to</w>
tiedon anto@@</w>
safe guar
rimin al</w>
prison ers</w>
os en</w>
mis take</w>
kii re@@</w>
kah deks
investo in
dri vers</w>
do c
condem ned</w>
ambi gu
C riminal</w>
B ra
AID S</w>
tö itä</w>
terveyd en@@</w>
säännö istä</w>
summ er</w>
san an</w>
ohjel massa</w>
neighbour ing</w>
miehi ä</w>
kohd istuva@@</w>
kkaa mmin</w>
h ope
re d
puh e@@</w>
pleas ure</w>
ov a</w>
m us@@</w>
lopet taa</w>
cro ps</w>
cre dit</w>
cou ple</w>
cell s</w>
ystä vällis@@</w>
väline et</w>
vi is
pu hd
os assa</w>
op pose</w>
nn issa</w>
määr ittele@@</w>
käy tä@@</w>
interven e</w>
ec h</w>
der og
ch osen</w>
c ars</w>
b ound</w>
aihe e@@</w>
yhte nä</w>
tyh jä@@</w>
rekister ö
pos ing</w>
or i
kuud essa</w>
im mat</w>
g r
Tukhol ma@@</w>
tr ans</w>
pp ing</w>
pen sioners</w>
muuto ksen</w>
it tämät@@</w>
istu s@@</w>
we alth</w>
velvo it@@</w>
var ha
strength ened</w>
ou l
oikeudell inen</w>
nn ista</w>
li ini@@</w>
kulttuur in</w>
hy po
help ed</w>
examin ed</w>
be ef</w>
ase tus@@</w>
Berl in</w>
4 00</w>
vi lla@@</w>
uni fication</w>
säännö sten</w>
s son</w>
penal ties</w>
pan kki@@</w>
merk itse
mel ke
kka a</w>
kasva tta@@</w>
il ities</w>
b ing</w>
ar ch
E N</w>
var aa</w>
van h@@</w>
terri ble</w>
siir tol
sa ks
re moved</w>
pa hen
meno jen</w>
kä vi</w>
investointe ja</w>
hä ir
harjo ittama@@</w>
desira ble</w>
arvioinn in</w>
tieto is@@</w>
su itable</w>
scho ols</w>
ra tion</w>
ra pid
pääs tö@@</w>
puol ue</w>
pos iti
pa ke
op ho
määrä tietois@@</w>
mattom ien</w>
laad ittu</w>
käynn iste
koulu tus</w>
d or
applic ations</w>
Re presen
Re port</w>
täytäntöön pano</w>
ta kana</w>
ra ising</w>
om munic
mit ta
liik e@@</w>
lap sia</w>
käsitel ty</w>
k it</w>
inter institutional</w>
identi fy</w>
deep ly</w>
ansa itse@@</w>
D a
u ri
te ttäisiin</w>
su @@</w>
s outh</w>
rahoit us</w>
perus tu@@</w>
n dez</w>
kul ke@@</w>
is ilta</w>
histor ical</w>
hake mu
ha u
ef t</w>
di an</w>
correc tly</w>
ci pl
campa ig
Berluscon i</w>
vulner able</w>
viita ta</w>
un necessary</w>
ulkoma an
thorou gh</w>
tehtä vien</w>
se l</w>
helpp o</w>
hallin toa</w>
exclu ded</w>
b es</w>
N I</w>
5 2</w>
w th</w>
valtu uksia</w>
su n
scho ol</w>
pää sihte
pri vil
poliitt isista</w>
laun ch</w>
joukos sa</w>
ins is
ho l</w>
Gro wth</w>
D ub
yhd isty@@</w>
tur s
stud ents</w>
si mme</w>
pros pects</w>
phy si
monen väl@@</w>
ma ksi</w>
ll usti</w>
koh tal
huon e@@</w>
en su
de ep</w>
clar ity</w>
200 7</w>
tte ja</w>
rati fication</w>
rapid ly</w>
puol en</w>
pli ed</w>
na ud
miljo on@@</w>
ac compan
H au
199 3</w>
tarpe ell
tarpeell ise@@</w>
tar jou
ta ali@@</w>
sup posed</w>
s tic
ou tu@@</w>
oikeu tta@@</w>
kristi llis@@</w>
kehit tämä@@</w>
hä vi@@</w>
hyväksy tty@@</w>
per su
oppos itio@@</w>
oh je
mean ing</w>
lis h</w>
liit to@@</w>
fun ded</w>
ex pan
b a</w>
at tu@@</w>
anta ja@@</w>
Doh a@@</w>
Di aman
ulkomaan kauppa@@</w>
sti mu
päästö jen</w>
nyky aika@@</w>
määrä enemmistö@@</w>
jäsen istä</w>
el e
contro lled</w>
cent res</w>
applic ant</w>
Demo crat</w>
A SE
: lle</w>
vaiku tel
va ura@@</w>
tä v
tas i</w>
syrj innän</w>
precau tionary</w>
es ti@@</w>
ente red</w>
dis cipl
Galile o</w>
Canc ú
uu della</w>
tekijö itä</w>
sur roun
re for
par i</w>
par empaa</w>
olu mb
oikeudell ista</w>
n es</w>
minu te</w>
mall in</w>
ky ky
kan toja</w>
j i
huu me@@</w>
hear ing</w>
depen ds</w>
conduc ted</w>
R ural</w>
GM O@@</w>
: sta</w>
vä ä@@</w>
val mi@@</w>
tyyd yttävä@@</w>
tut k
tiedonann ossa</w>
tes ting</w>
suuntaviivo ja</w>
indic ators</w>
finan ced</w>
b ir
applic able</w>
Kansa in@@</w>
E S
viit tasi</w>
utu nut</w>
tta vien</w>
toivo t@@</w>
tin gu
rec all</w>
pää ministeri@@</w>
puolue et@@</w>
poin tment</w>
neljä nne@@</w>
järjestelmä ssä</w>
isuu des
is empia</w>
ev en
en ded</w>
1 8
0 ,
yleis hyödy@@</w>
vies tin</w>
van he
ut most</w>
sa man@@</w>
pla yers</w>
om @@</w>
mall i</w>
li p
kuu llu@@</w>
kustann uksella</w>
a isi@@</w>
I P
Ber liini@@</w>
mmä t</w>
kri is
draf ted</w>
arvio ida@@</w>
Luxem burg@@</w>
presid en
kirj an</w>
j iä</w>
in een</w>
ec ological</w>
dri ving</w>
alco hol</w>
U n
F ood</w>
D e</w>
unanim ous</w>
telec ommunic
su lj
sa atta
rec y
politiik ka
manufac turers</w>
isuu ksia</w>
er imiel@@</w>
en opho
de llä</w>
conver gence</w>
constan t</w>
R ob
L eft</w>
vääris ty@@</w>
promis ed</w>
pr er
mor aali@@</w>
kot la@@</w>
investo i@@</w>
ate dly</w>
asiakirjo jen</w>
anti ci
where by</w>
vi er
torsta i@@</w>
te tut</w>
se ko
pääs y</w>
myy nti@@</w>
inf laati
ilma tila@@</w>
S kotla@@</w>
L ab
H V
uu delle</w>
uhre ja</w>
tar ttu@@</w>
resid ence</w>
rajo it@@</w>
ot s
on i@@</w>
ja us@@</w>
deman ding</w>
ap u</w>
aika ista@@</w>
5 3</w>
väär ä@@</w>
sija itse@@</w>
signific antly</w>
par all
ka un
hand ling</w>
anal yy
viras to</w>
tuon ti@@</w>
tilante issa</w>
reflec ted</w>
pro secu
om is@@</w>
ob tained</w>
läs nä
heal thy</w>
asu kka@@</w>
yksi l
verra t@@</w>
tekst issä</w>
ri ittämät@@</w>
pro mp
oles kelu@@</w>
heik ko@@</w>
ar ticle</w>
Dub l
0 3</w>
vo ca
ty y@@</w>
sää de
s and</w>
re place</w>
lyk kää@@</w>
harm ful</w>
ell aan</w>
ban ks</w>
av usta@@</w>
asia kirja@@</w>
Ara b</w>
7 6</w>
yksi lö
yhte nä@@</w>
y t
väl ity
pid et@@</w>
pel kkä</w>
op i@@</w>
ny t@@</w>
ministerine uvosto@@</w>
konflik tin</w>
kehy ksen</w>
etene mis@@</w>
en ia@@</w>
determin e</w>
avi ation</w>
acc ura
Cz ech</w>
Byr ne</w>
5 6</w>
ty issä</w>
sov ell@@</w>
recommen d</w>
per uutta@@</w>
myönn ä@@</w>
mu odo
men tally</w>
kertom uksessa</w>
is inä</w>
im a@@</w>
hol ds</w>
er ship</w>
automa atti@@</w>
ymmärr ykseen</w>
vaar a</w>
tu oma@@</w>
sopim uksissa</w>
s wi
ras is
pur ka@@</w>
pa ying</w>
mon ito
ma tically</w>
lu v
llis ista</w>
ll isuutta</w>
geograph ical</w>
fre ight</w>
ent isen</w>
edistys askel@@</w>
asetuks eksi</w>
al e@@</w>
W omen</w>
Ques tion</w>
Cor bet
6 6</w>
warm ly</w>
r on</w>
nä l
minuu t@@</w>
mall ia</w>
ki lais@@</w>
ill ään</w>
i red</w>
he a
ha z
disab led</w>
arvos telu@@</w>
air ports</w>
agre es</w>
Ver ts</w>
Nor thern</w>
AL E</w>
ymmärre ttävä</w>
u tuva@@</w>
tes ts</w>
foc used</w>
der @@</w>
chec k</w>
c t</w>
arvio inti</w>
aiko ja</w>
a ksi</w>
Kinno ck</w>
teoll is@@</w>
siirtol ais@@</w>
luul ta@@</w>
larg est</w>
jäl ke
is ku
il ing</w>
ihmis arvo@@</w>
huippu kokous@@</w>
har dly</w>
extre me</w>
every body</w>
et ty@@</w>
ala inen</w>
a joissa</w>
a at
5 8</w>
yrity s</w>
tutkim ukseen</w>
säännö kset</w>
ra id</w>
päätel mä@@</w>
pää osasto@@</w>
muut osta</w>
ko va@@</w>
gene tically</w>
fer red</w>
distinc tion</w>
aloitte esta</w>
Co operation</w>
C am
A ction</w>
y n@@</w>
unanim ity</w>
pil ari@@</w>
inten si
ehd otta
worl d
utu a</w>
succe eded</w>
sig n
sa ttu
ratka isuu
ra ted</w>
mo bil
il u
il o
contribu ted</w>
Irlann issa</w>
I F
A lli
tonn es</w>
suuntaviivo jen</w>
suspen ded</w>
super vision</w>
si mil
pidä tys@@</w>
pakola isten</w>
p @@</w>
op ar
my y@@</w>
monik ansa@@</w>
lead ership</w>
ita ge</w>
it h</w>
hil ja@@</w>
es sa
es itystä</w>
av ing</w>
an no
world wide</w>
wit n
under taking</w>
tunnus tamis@@</w>
tetty jä</w>
ta an@@</w>
t ise</w>
ratkaisuu n</w>
obser vation</w>
löy tämä@@</w>
koro t@@</w>
in sufficient</w>
goro us</w>
dis tingu
am u@@</w>
ty ksen</w>
suku puoli@@</w>
shar es</w>
pros pect</w>
mi emme</w>
kin ds</w>
emm an</w>
div ision</w>
depen d</w>
6 9</w>
ö n@@</w>
välity ksellä</w>
var jo@@</w>
val uu
työttö myy
thre ats</w>
taso lle</w>
t kin</w>
su in@@</w>
sisäl tävä@@</w>
simp lif
pet ty@@</w>
out set</w>
ol @@</w>
ohjel masta</w>
o teta</w>
kka i@@</w>
jouk ko
identi te
hyl kää
hin ta</w>
as t@@</w>
M er
wid ely</w>
viol ation</w>
telecommunic ations</w>
tavoitte e@@</w>
stu ffs</w>
ste m</w>
pohd ittava</w>
o tettiin</w>
na r</w>
käsittele vä</w>
kuning as
hi il
es pan
er t</w>
Lab our</w>
Alli ance</w>
yhd iste@@</w>
vi ha@@</w>
verta ilu@@</w>
vaih ta@@</w>
työ voim
terro ri@@</w>
te sta
syrj i@@</w>
san an@@</w>
repe atedly</w>
ol o</w>
määrä ykset</w>
kehy s</w>
inspec tors</w>
epä varm@@</w>
dyna am@@</w>
de a
congratu lations</w>
M al
wor thy</w>
w at
v is</w>
turva utu@@</w>
suure mpa@@</w>
surpris ed</w>
small er</w>
siir re@@</w>
settle ment</w>
se v
ris kejä</w>
regar ded</w>
ne eseen</w>
jää mä@@</w>
je opar
i ten
heiken tää</w>
f ast</w>
Hel sin
20 10</w>
val itse@@</w>
työntekijö ille</w>
tuleva isuus</w>
saatta isi</w>
s tri
restor e</w>
rela te</w>
monop oli@@</w>
lopet tamis@@</w>
laad ittava</w>
julk ista</w>
itu ksiin</w>
it ti</w>
gh t
der ing</w>
del iver</w>
arvo jen</w>
ar my</w>
acc es
: o</w>
velvo ll@@</w>
tila a</w>
tervey teen</w>
ter ä
stru gg
mo ti
luov u
li ja@@</w>
join tly</w>
expla ined</w>
energi a</w>
deser ve</w>
d ation</w>
Schre yer</w>
ö stä</w>
pää tä@@</w>
pil ar
p sy
os uo
muo to</w>
menetel miä</w>
men o@@</w>
kommun isti@@</w>
kiinn osta@@</w>
it o</w>
he ij
divid ed</w>
Bu iten
Az nar</w>
8 5</w>
vähen e@@</w>
työjärjesty s
tra ck</w>
tois sija@@</w>
synn yttä@@</w>
reag oi@@</w>
per sis
ne ista</w>
ne ille</w>
log ical</w>
kalas ta@@</w>
appe ared</w>
P et
ME DA</w>
Helsin ki</w>
vies t
ulottu v@@</w>
tul i@@</w>
tehokkuu den</w>
r on
myön tämä@@</w>
mu u</w>
mpä nä</w>
kes kuudessa</w>
hyvin voi@@</w>
emm ä
cor ruption</w>
arab i@@</w>
Roman ia@@</w>
Dec lar
vall itseva@@</w>
vaikutus valta@@</w>
tu jen</w>
tom @@</w>
tod ettu</w>
sta y</w>
sec tion</w>
rik ka@@</w>
puol ten</w>
kon serva
ke ä</w>
jul ki@@</w>
harmon ised</w>
esitteli jöitä</w>
ad mit</w>
vie wed</w>
val inta@@</w>
työ ssä</w>
tu lli@@</w>
tra ag@@</w>
o illa</w>
nel jän</w>
lu o</w>
jur is
ind ika
in i</w>
expres sing</w>
edelly ttävä@@</w>
alue eseen</w>
Shar on</w>
Itali a</w>
ET Y</w>
valiokun taa</w>
va a@@</w>
subsequ ently</w>
sol mi@@</w>
myö tä@@</w>
ma assa@@</w>
ky e@@</w>
her itage</w>
el ta
d en@@</w>
constitu tes</w>
consequ ence</w>
asiantunti ja@@</w>
ante eksi</w>
Declar ation</w>
var moja</w>
var as
tre aties</w>
toiminn assa</w>
tarpe et</w>
sugges tion</w>
sov it
pää määrä@@</w>
p yö
mat kusta
kann an
jäl ki@@</w>
is tan@@</w>
fri end</w>
experienc ed</w>
enn alta
doub ts</w>
coas tal</w>
ann ettu@@</w>
6 8</w>
warran t</w>
vuot is@@</w>
vuo ros
vuoros sa@@</w>
vas t</w>
v ings</w>
s ought</w>
puheen vuorossa@@</w>
phenom en
obser ved</w>
muu tettava</w>
llis ena</w>
li i
hi c</w>
eli missä</w>
comb ined</w>
c ils</w>
aja tuksia</w>
a mm
y y@@</w>
unfor tunate</w>
täs men
tiet osuo
rea u</w>
hylä t@@</w>
es teitä</w>
byrokra tia@@</w>
aih een</w>
C @@</w>
0 s</w>
with draw</w>
suunnitel mia</w>
r end
pursu ant</w>
new s
net tiin</w>
las ku@@</w>
kuul i@@</w>
kiinn os
johd anto</w>
huon o</w>
ha aste</w>
co d</w>
clari fication</w>
6 2</w>
vaad ittava</w>
territor ial</w>
talous kasvu@@</w>
sitoumu ksia</w>
ro ots</w>
pitä ä@@</w>
läh esty@@</w>
loy ed</w>
lopul ta@@</w>
la in
kunn at</w>
kappal e@@</w>
increas es</w>
inc enti
i lahd
eng age</w>
dicta tor
deleg ations</w>
bel ong
ad ic
Represen tative</w>
R ome</w>
Pak istan</w>
N ic
N :o</w>
6 3</w>
val ent</w>
tie tä</w>
tas ol
reser ve</w>
pic ture</w>
p o</w>
ohjel mat</w>
mer en
ir ing</w>
ik ke@@</w>
direktiiv istä</w>
deli ver
com pu
af raid</w>
EK P@@</w>
Cha irman</w>
7 9</w>
5 4</w>
x enopho
under take</w>
ul o@@</w>
trans ition</w>
suunta utu@@</w>
sta tute</w>
s lau
s ar
pro ud</w>
pan kki</w>
op e@@</w>
nor thern</w>
le aving</w>
l er@@</w>
ko ordin
jääd ä</w>
j uh
inter governmental</w>
environ mentally</w>
e va
direktii vien</w>
congratu lating</w>
analys oi@@</w>
a tion
Bu reau</w>
wor rying</w>
viisu mi@@</w>
vahin ko@@</w>
ur ban</w>
ty n</w>
t res
puitte et</w>
propor tion
politiik koja</w>
perio ds</w>
nä yttä@@</w>
kiel i@@</w>
ki eli
johta va@@</w>
categor ies</w>
E ura
wr iting</w>
virka mies@@</w>
tapahtu ma@@</w>
syy ll@@</w>
suo jaa</w>
rauh a</w>
main in@@</w>
maase utu@@</w>
lii all@@</w>
avoim uus</w>
Y M
Mi gu
Hel sing
Araf at</w>
v it
tarko itettu</w>
sää nnön</w>
s y@@</w>
oso itta
ongel masta</w>
mul tin
menettely t</w>
lää kä
la atu</w>
kyseenala ista@@</w>
kahdeks an</w>
hyödyn tämis@@</w>
ehdo tettu@@</w>
b ot
associ ations</w>
amen d</w>
Ro oma@@</w>
Col om
x @@</w>
vaih een</w>
tasa verta@@</w>
shor tly</w>
sa ke</w>
l ec
ko vin@@</w>
innova tiiv@@</w>
enab ling</w>
ca using</w>
a ar
Possel t</w>
Bus h@@</w>
yh @@</w>
tuhan sia</w>
seura us@@</w>
s pite</w>
religi on</w>
regretta ble</w>
re ilu@@</w>
paik ka</w>
laiminly ö@@</w>
henkilös tön</w>
ha avo
eng aged</w>
destro yed</w>
Eng lish</w>
yks estä</w>
vaar a@@</w>
undermin e</w>
ttä mistä</w>
toimi ja@@</w>
sääde tä@@</w>
preven ted</w>
nou se@@</w>
johta ja</w>
iv i@@</w>
er ot</w>
e kolog
cris es</w>
1 4@@</w>
tis an
phenomen on</w>
ong side</w>
lan d
keskustel i@@</w>
ekolog is@@</w>
di c</w>
al ongside</w>
G DP</w>
tta isi</w>
receiv ing</w>
näkö kohtien</w>
ly kät@@</w>
luottamu ksen</w>
kokou sta</w>
kann at</w>
e i@@</w>
ta via</w>
str onger</w>
reflec ts</w>
ref use</w>
ra dical</w>
per mit</w>
per c
p ace</w>
negoti ated</w>
muu t@@</w>
marg in
kil omet
j e@@</w>
incenti ves</w>
demonstra tes</w>
d on</w>
d a@@</w>
consul ted</w>
canc er</w>
Atlan tic</w>
van ha@@</w>
tra ge
taan ko</w>
success fully</w>
sinc er
perfor man
p ik
p hic</w>
p ed</w>
maail ma</w>
käytö ssä@@</w>
ker ra@@</w>
inten sive</w>
inf lation</w>
il menee</w>
ab sur
ver i
thu si
suos ittele@@</w>
ski lls</w>
sha pe</w>
pi la
ku ole@@</w>
kar ko
huoll on</w>
al ustava@@</w>
Helsing @@</w>
uud is@@</w>
tra vell
toimin taa@@</w>
sta bil
naud an
muo toja</w>
maksu jen</w>
lan tilais@@</w>
jyr k@@</w>
fra g
dead line</w>
claim s</w>
assis t</w>
Ech el
yhte ys</w>
yhd en@@</w>
wha tso
whatso ever</w>
vastu sta
valmis tu@@</w>
uudis tusten</w>
työsken nellä</w>
tu a@@</w>
tieto on</w>
reli able</w>
person nel</w>
met sä@@</w>
im i@@</w>
con fusion</w>
a mu
Fatuzz o</w>
Alger ia@@</w>
työn tekijä@@</w>
ravin to@@</w>
pä is@@</w>
kuud en@@</w>
kuu lle
ko itu@@</w>
f res
dr in
disc re
cha in</w>
b all</w>
asiakirj assa</w>
aikom u@@</w>
Ruot si</w>
Haar der</w>
Diaman top
8 8</w>
yr ittä
vasemmis to@@</w>
turvapa ik
tu oda@@</w>
tekn ologi
oikeudell isia</w>
o v</w>
muo tojen</w>
kuulle e@@</w>
ki a@@</w>
is u@@</w>
henkil ö</w>
encoura ged</w>
conven tions</w>
achiev ement</w>
Se villa@@</w>
Kes ki</w>
A T</w>
w eight</w>
viras to@@</w>
territor ies</w>
te jä</w>
op s</w>
ol en@@</w>
kirj assa</w>
in tres
il o</w>
h inno
ga be</w>
collabor ation</w>
ber g</w>
ase ita</w>
as bes
a hasto@@</w>
Pol and</w>
Mu gabe</w>
ver sio@@</w>
tal s</w>
simil arly</w>
seik at</w>
san a</w>
pake tin</w>
om ina@@</w>
obser vations</w>
nor th</w>
ku or
ka i
hope fully</w>
e va@@</w>
contro versi
adver tising</w>
adap t</w>
P V
. 5</w>
teke mis@@</w>
ri ittävä</w>
ra tion
puu te</w>
perus tan</w>
lehd istö@@</w>
kirj an
ke vää@@</w>
enn en
e ar</w>
bel s</w>
ban k</w>
asetuks essa</w>
ar ising</w>
ain ut
a me</w>
Venä jä</w>
In dia</w>
1 1.@@</w>
y ttävä</w>
y lik
vuo t@@</w>
veron maksa@@</w>
restric t</w>
recy cl
pyy si@@</w>
op h
näkemy ksiä</w>
määritel mä@@</w>
melke in</w>
l imin
excep tions</w>
energi an</w>
defin ing</w>
S te
In tia@@</w>
vahv istu@@</w>
sur u@@</w>
sli ghtly</w>
ra v
op ol
la kkau@@</w>
käytä n</w>
kulutta jan
jälleen rakentamis@@</w>
har ma
et ti</w>
d os
coun t</w>
con ser
ann ettava@@</w>
Se ville</w>
S ing
E P
Atlan t@@</w>
to a@@</w>
ori en
muka iset</w>
mov ements</w>
mo tions</w>
mene vä@@</w>
käsit e</w>
jouk ko</w>
fis cal</w>
cre ates</w>
chem ical</w>
bel ong</w>
b as
asiakirjo ja</w>
Wat son</w>
Pet itions</w>
Cres po</w>
yhteen sov
yhteensov ittamis@@</w>
uu tensa</w>
puheen vuoro</w>
näkemy s</w>
mar ine</w>
maail ma@@</w>
isyy destä</w>
inv est</w>
intell ec
gu n</w>
er adic
en thusi
e yes</w>
bureauc ratic</w>
yri tetä@@</w>
va uh
u ally</w>
resu med</w>
post pon
oikeud esta</w>
j en
ik i@@</w>
g ras
dispu te</w>
d essa</w>
Swob oda</w>
vis sä@@</w>
si vät</w>
paper s</w>
oso itettava</w>
ma y
inf ec
defin itely</w>
P ac
K olumb
1 ,
yh deks
tulo ksista</w>
ten s</w>
tarkis tamis@@</w>
surroun ding</w>
ra dik
p u</w>
oikeudell is@@</w>
is ra
ho ita
hi taa@@</w>
haki ja@@</w>
et te@@</w>
det ri
d less</w>
author isation</w>
all eg
ac com
Espan ja</w>
Con c
ään es@@</w>
tr end</w>
tarko ituksiin</w>
preser ve</w>
pohd i@@</w>
nn än</w>
las ting</w>
kuvi tella</w>
koske mat@@</w>
in ti
imp ia</w>
enhan ce</w>
do or</w>
analyy si@@</w>
affec ting</w>
W al
9 8</w>
9 6</w>
vu us@@</w>
tom asti</w>
ten i</w>
seitse män</w>
saks alais@@</w>
re ven
pöytä kirja</w>
por no
performan ce</w>
määritel @@</w>
mu is
mielen osoit@@</w>
mi lais@@</w>
ll isuuden</w>
ky l
k lo
fa ith</w>
expen se</w>
excep tional</w>
elä vä@@</w>
do w
cen tr
bel ow</w>
av us
aid s@@</w>
yhteis kunnassa</w>
viime aika@@</w>
tavoitte eseen</w>
peruste ita</w>
parall el</w>
p ö
os sa@@</w>
norma ali@@</w>
ma p</w>
kiel to</w>
johta jien</w>
alloc ation</w>
ymmär tävä@@</w>
valvonn asta</w>
toler ance</w>
tavoitte emme</w>
secre t</w>
prohi b
käytä nnö
kor rup
kann uste@@</w>
ka lli
jo lle@@</w>
hämmä sty@@</w>
enthusi as
Yugosla via</w>
A b
yksi miel
war ning</w>
vähen tämä@@</w>
tuotan toa</w>
thres hold</w>
teh os
tavaro iden</w>
roh kaise@@</w>
pro fi
näke m
ke ll
ha h
h ti@@</w>
er ation</w>
compla ints</w>
bi o@@</w>
Re form</w>
C en
Buiten we
voim ien</w>
vo itta@@</w>
tupa kka@@</w>
tuo ta</w>
tulo kse@@</w>
tu e</w>
to iset</w>
te ista</w>
sää stä@@</w>
s pon
pu ts</w>
luon te@@</w>
judg ment</w>
essa mme</w>
eh kä@@</w>
bann ed</w>
ann osta</w>
tu nne</w>
ri g
refuge e</w>
rans kalais@@</w>
rajo ituksia</w>
pre fer</w>
pid että</w>
per cen
pala a@@</w>
p harma
moni vuot@@</w>
mmä ksi</w>
kesku ksen</w>
jät teen</w>
indika at
fres h</w>
con tamin
ati o@@</w>
Jarzembows ki</w>
8 9</w>
1 5@@</w>
vasta lause@@</w>
tutkim uksia</w>
tulo ksen</w>
suhte ista</w>
sig na
si d
ot telu@@</w>
osoit ti</w>
mal ar
lähen tymis@@</w>
l o@@</w>
isi a@@</w>
hop ed</w>
controversi al</w>
vi able</w>
til as
streng th</w>
sisäll östä</w>
s ty</w>
presen tation</w>
pres sive</w>
o tan</w>
muu nn
merk ki</w>
luv ut</w>
kesk isuu
ir tisan
glob alis
g ar</w>
estima ted</w>
edis tymis@@</w>
e ge</w>
dec entr
an tama@@</w>
accoun ting</w>
Mol d
Jo int</w>
B K
uu tena</w>
transatlan tt@@</w>
so ker
sisä markkina@@</w>
sha dow</w>
see kers</w>
s low</w>
pan tava</w>
näkö kohta</w>
mu kana@@</w>
konserva tiivi@@</w>
justi fication</w>
johta jat</w>
inspec tion</w>
hy gi
hin ta@@</w>
h een</w>
g es
al ia</w>
I L
yhteis ymmärr
wea k</w>
tan gible</w>
sugges tions</w>
strik e</w>
re tain</w>
promo ted</w>
pitkä aikais@@</w>
oulo u</w>
lis ts</w>
liik ku@@</w>
l an</w>
jouko t</w>
jal kapa
is land</w>
hank etta</w>
ex ic
c ities</w>
bro ader</w>
ad a</w>
M exic
tre at</w>
teks tiin</w>
t less</w>
no ista</w>
modern isation</w>
miel uu
kyken e@@</w>
ki inte
hon est</w>
gradu ally</w>
el o@@</w>
educ ational</w>
alis mi@@</w>
toimenpite istä</w>
suos ituksia</w>
sulj e@@</w>
show ing</w>
regu late</w>
passeng er</w>
no tes</w>
neuvottelu ihin</w>
mm assa</w>
mieluu mmin</w>
inc redi
fe asi
elin ikä@@</w>
c ity</w>
Pat ten@@</w>
Lan no
A d
väestö stä</w>
ty my@@</w>
resurs seja</w>
oike isto@@</w>
näky mien</w>
no ti
ma ch
li e</w>
laatu i@@</w>
l are</w>
keskisuu ri@@</w>
esite ttävä</w>
el l</w>
ainut laatui@@</w>
Na tional</w>
: stä</w>
8 7</w>
ä r
under lying</w>
tä isi</w>
tor ture</w>
säännös tön</w>
stric tly</w>
si tes</w>
sci ent
pää tö@@</w>
per mitted</w>
ol der</w>
muu to@@</w>
larg er</w>
kan taa@@</w>
i re
b attle</w>
au tojen</w>
CN @@</w>
C oll
vä hä
uud en@@</w>
u ksille</w>
sh r
s essa</w>
päte v
pre limin
popu lations</w>
minis tere
maan tie@@</w>
ex ha
author ised</w>
Ukra ine</w>
S ou
Mon ti</w>
Isla mic</w>
top ical</w>
tieto kone@@</w>
tekn is@@</w>
ris ki@@</w>
ratkais tava</w>
mpa an</w>
mi lla</w>
m unity</w>
m p</w>
luottamu s</w>
inn on</w>
infrastruc tures</w>
hi ll
heng essä</w>
h our</w>
clear er</w>
br id
appar ent</w>
Ser bia@@</w>
J os
An d
Alger ia</w>
0 5@@</w>
varmuu tta</w>
val tion
uudis tukset</w>
työn sä</w>
tulo ksiin</w>
tila päis@@</w>
tied us
sit e</w>
pla cing</w>
ky ky</w>
fores ts</w>
don ors</w>
asiantun te
ar res
aihe ita</w>
ad e</w>
a u</w>
W i
Su om@@</w>
S af
I T</w>
vaih e</w>
uh ka</w>
tuot tajien</w>
taso a</w>
syyttä jä@@</w>
seur an@@</w>
käy ty</w>
kriteer it</w>
k ong
il i</w>
ignor e</w>
ei gh
dic tion</w>
Husse ini@@</w>
w age</w>
varau tumis@@</w>
tain s</w>
syy t@@</w>
suos itus</w>
sol di
re conc
prelimin ary</w>
par ann
olem assaolo@@</w>
mi ä@@</w>
maan sa</w>
luonno ksen</w>
jeopar dis
isra eli
hinn at</w>
g all
con ten
Wall ström</w>
Palestin e</w>
yhd @@</w>
w o
vih re@@</w>
ulkominis teri@@</w>
tul osten</w>
ttä vissä@@</w>
toteu tettu</w>
til a</w>
sen ding</w>
reti rement</w>
preven tive</w>
o ted</w>
edusta jan@@</w>
direktii villä</w>
decad es</w>
dec lare</w>
custom s</w>
c overs</w>
amb ition</w>
Val ko</w>
var mas
varmas ti@@</w>
un certainty</w>
tulk it@@</w>
tietosuo ja@@</w>
san at</w>
jätte iden</w>
jo ihin@@</w>
incorpor ate</w>
ge ted</w>
esit tämä</w>
e ja</w>
contrac t</w>
au te@@</w>
as teen</w>
aj assa</w>
aid o@@</w>
E l</w>
6 1</w>
void aan@@</w>
van sa</w>
ti ous</w>
tele ma@@</w>
suunnitel mien</w>
pys ty
pohj im@@</w>
po tila
muka is@@</w>
lääkke itä</w>
ku ussa</w>
jä te@@</w>
israeli lais@@</w>
isi llä</w>
il ta
har ha
hait taa</w>
for tunately</w>
contac ts</w>
candid ates</w>
alterna tives</w>
N o
vuo ti
voima kkai@@</w>
ven ä
tasol u@@</w>
repe ated</w>
r ass
p iste
on z
medic inal</w>
liitto valtio@@</w>
kan tasolu@@</w>
k op
es te
conven i
al on
al ed</w>
S tra
Pu ola@@</w>
M ul
I II</w>
G 8</w>
Euro just</w>
E EC</w>
CN S</w>
B ou
valtuus kunta</w>
val id</w>
tie to</w>
talou dessa</w>
sijo itus@@</w>
qu iry</w>
ot ti@@</w>
ne ta@@</w>
ne arly</w>
luettel o</w>
käyttä jä@@</w>
käyte ttävissä@@</w>
ks een@@</w>
keskustel tu</w>
iv an
ilta päivä@@</w>
i tava</w>
hen keä</w>
edellyty ksiä</w>
del e
appar ently</w>
Pak istan@@</w>
Bulgar ia</w>
8 6</w>
ä t@@</w>
viranoma isia</w>
valiokunn alle</w>
val toihin</w>
ttä isi</w>
sisäll y
m ere</w>
kää mme</w>
kehit tymis@@</w>
kas vi@@</w>
extra ordinary</w>
com mit</w>
civil ian</w>
ase tettu@@</w>
y our
your self</w>
vapau t@@</w>
van ho
vaike u@@</w>
uno hd@@</w>
transatlan tic</w>
re r</w>
physi cal</w>
monito red</w>
lea der</w>
kolleg a@@</w>
keskustel tava</w>
expen sive</w>
conser vation</w>
bu y</w>
P la
F rid
í a</w>
valmis tele@@</w>
teri or
tarpe isiin</w>
ra ises</w>
paran tu@@</w>
olosuhte issa</w>
la ki@@</w>
ke mik
ite ta@@</w>
hund red</w>
de terior
bec ame</w>
W og
7 3</w>
0 5
vaatimu ksiin</w>
under line</w>
under ing</w>
te ema@@</w>
rejec tion</w>
regar dless</w>
pursu ed</w>
näkö kohta@@</w>
negoti ate</w>
käynn in</w>
ksi di@@</w>
kokouks esta</w>
beli ef</w>
V ar
B lo
wid es
w as
sisäl tö</w>
sano ja</w>
rohke utta</w>
ranga ista@@</w>
ol ders</w>
nim i@@</w>
neuvosto on</w>
laito ksen</w>
kä si</w>
ke mi
hallit se
Ukra ina@@</w>
Mon ter
8 1</w>
wides pread</w>
vasta isia</w>
mieli pide</w>
meno ja</w>
mas sa@@</w>
huomio i@@</w>
h ous
fun ctions</w>
dis agree</w>
compromis es</w>
ag gres
Monter re
D @@</w>
välin een</w>
vaale issa</w>
tribu te</w>
t te@@</w>
su gar</w>
re vised</w>
ponnistelu ja</w>
per inn
myönnet ty</w>
min kä@@</w>
m ou
kiis ta
kau h
im munity</w>
esimer kin</w>
endeav our</w>
e able</w>
dea ths</w>
chec ks</w>
Mon day</w>
tote aisi@@</w>
su ver
sp here</w>
sol ved</w>
re a</w>
og @@</w>
mi ell
ki lled</w>
is tics</w>
indic ate</w>
huom is@@</w>
b lack</w>
Bel ar
tun tuva@@</w>
pos ts</w>
ponn is@@</w>
na utti@@</w>
n ar
mean time</w>
k kä
e ihin</w>
aihe ista</w>
vaike utta@@</w>
u ksi
tti vat</w>
to ols</w>
sympa thy</w>
se ar
pro pa
kohte ena</w>
is t@@</w>
ig no
ess alon
edusta jan</w>
dra w
disap pointed</w>
declar ations</w>
de dic
cor por
contain ing</w>
alo it@@</w>
aihe ena</w>
HV K@@</w>
y den</w>
torjunn assa</w>
te on</w>
te i@@</w>
standar de
sor kka
ref used</w>
puite direktiivi@@</w>
pl ur
perspec tives</w>
on i</w>
ol ot</w>
näkem ystä</w>
men ted</w>
lu ot
kes ä@@</w>
kalli i@@</w>
inspec tions</w>
hor iz
elämä ä</w>
cap ita
bureauc racy</w>
accompan ied</w>
C ulture</w>
C osta</w>
Bosni a</w>
voima an
un like</w>
tiedon anto</w>
resis tance</w>
poikke uksia</w>
pati ents</w>
onnettomuu ksien</w>
mil taan</w>
l ov
kysel y@@</w>
järke vä</w>
ite ms</w>
ehdo tuksiin</w>
direc ted</w>
Th essalon
Ser bia</w>
Me ksi
G onz
var y</w>
thou sand</w>
sovit telu
sovel tama@@</w>
ra ce</w>
poliitt isiin</w>
obser ve</w>
mon i</w>
ker @@</w>
kalta isia</w>
g ri
del ta</w>
approxima tely</w>
Cen tre</w>
yhtiö iden</w>
tä isiin</w>
tut kinta@@</w>
tu ber
toimen pide</w>
ten sä</w>
summ a@@</w>
sopim uksista</w>
sincer ely</w>
ob je
määritel ty</w>
min e</w>
l taan</w>
kaup an@@</w>
isi en</w>
inv ite</w>
in ese</w>
fail ing</w>
el a</w>
disc over
cu ts</w>
aset tu@@</w>
ai e@@</w>
S ter
Ch inese</w>
v olu
uut is@@</w>
taxpay ers</w>
ryh mit
ra ja
ra han
kunn ia</w>
ko ostu@@</w>
ic k</w>
elintarv ikke@@</w>
col on
b oun
anti bio
Mer cos
L ud
C E</w>
7 2</w>
5 9</w>
4 .</w>
yh dellä</w>
uudell een
us ually</w>
shar ing</w>
palj asta@@</w>
op etta@@</w>
ol et@@</w>
oikeudell isesti</w>
obje ktiiv@@</w>
ny ttä</w>
mp ään</w>
liik e</w>
kuun tele@@</w>
kalta isten</w>
extre mis
es sani</w>
elec toral</w>
conclu des</w>
can cell
ac ted</w>
Jap an</w>
Eurosta t</w>
Bas que</w>
vir he</w>
vas tus@@</w>
tal ked</w>
respec ting</w>
re mo
pre dic
po ik
otta malla</w>
onnettom uuden</w>
obser vers</w>
la cking</w>
iv o@@</w>
fre ely</w>
four th</w>
f lu
ell ut</w>
distribu ted</w>
bo ost</w>
Fre e</w>
säh kö
sa i
ris ki</w>
presid ent</w>
perus sopimus@@</w>
occur red</w>
muu kala
muukala is
lisä arvo@@</w>
it ly</w>
equi valent</w>
ent re
da tes</w>
ann u@@</w>
aiko o@@</w>
Ster ck
S om
P lan</w>
6 4</w>
voit to@@</w>
valtio ille</w>
under stand
tek op
tekop yh@@</w>
tapahtu mia</w>
ta ak
rä jä
pre text</w>
lisään tyvä@@</w>
less ons</w>
la ki</w>
kiel ten</w>
infor mal</w>
hyvä ksi@@</w>
enfor cement</w>
digi tal</w>
c a</w>
b it
T E
Belar us</w>
9 3</w>
täyden tävä@@</w>
selv itys@@</w>
s par
pää t
promis e</w>
priva tis
opis keli@@</w>
mis e</w>
maks uja</w>
levi ä
la j
ko ina</w>
is sä@@</w>
in ha
hä n
g est</w>
fron ti
M @@</w>
Ang ola@@</w>
1 50</w>
tähd en</w>
tta minen</w>
tois tu@@</w>
s ty
rapor t
pet tymy@@</w>
oikeus perusta</w>
me ihin</w>
lap set</w>
isuu det</w>
i va</w>
explan ations</w>
eri lais@@</w>
T ali
Scot land</w>
C hi
Ang ola</w>
yhd estä</w>
vihd oin</w>
ved ot@@</w>
ve y</w>
tta vissa</w>
pun is
prov ing</w>
liikku ma
joukko tuho
help ful</w>
den ied</w>
compar ison</w>
as ente
alo ittama@@</w>
T ime</w>
val toja</w>
toimi va</w>
ti vity</w>
ta u@@</w>
stic k</w>
soldi ers</w>
so f
siv uutta@@</w>
siir tymis@@</w>
reag o
kunn asta</w>
ita li
intellec tual</w>
ik enne@@</w>
exclu sively</w>
econom ically</w>
di e</w>
d ul
cer ti
alue isiin</w>
V AT</w>
Egyp ti@@</w>
ulottu vuus</w>
tety istä</w>
teho kkaa
syste matic</w>
päiv inä</w>
puol uste@@</w>
pre mi
offic es</w>
o to@@</w>
o itu@@</w>
o ille</w>
nn ä
maa perä@@</w>
keske istä</w>
joukkotuho ase@@</w>
ilma ista@@</w>
de vasta
am a</w>
S en
Gonz á
vuor isto@@</w>
vi e</w>
te re@@</w>
ta miseen</w>
sa ve</w>
ro ati
pyy nti@@</w>
pur ch
puhu jan</w>
ple d
pel i@@</w>
pa ys</w>
ore t</w>
näky y</w>
nou s
ne ena</w>
määrää mis@@</w>
menetel mä</w>
lea ves</w>
ki ista@@</w>
ikä vä</w>
idä ssä</w>
f arms</w>
en shr
eil is@@</w>
e z</w>
dra maatt@@</w>
asiakirj at</w>
arvo t</w>
Echel on</w>
E L</w>
D avi
8 2</w>
vas sa</w>
uni que</w>
työjärjesty s@@</w>
tote ama@@</w>
suo tu
poliitt isessa</w>
ot on</w>
lä he
l i@@</w>
ku mo
komissi oon</w>
kansa llis
is tö</w>
impe tus</w>
fru it</w>
e ten
commer ce</w>
P as
us kon
ty minen</w>
tekn isen</w>
tapa amis@@</w>
t one</w>
syrjä ytymis@@</w>
sugges ts</w>
py ysi</w>
pr ene
pos ti
on ta@@</w>
ohjel miin</w>
occu r</w>
no tice</w>
menettel ystä</w>
liikke elle</w>
kka us@@</w>
ken tä
initi ally</w>
d ary</w>
cho ices</w>
b lin
att is@@</w>
aiko jen</w>
ab an
Equ al</w>
viitta si@@</w>
suhd e</w>
s w
resul ted</w>
pain ostus@@</w>
järke vi@@</w>
jul kais
is itte</w>
ilma piiri@@</w>
hen gen</w>
epä rö
enna koi@@</w>
elämä n@@</w>
e ability</w>
da ted</w>
ava in@@</w>
J er
5 .</w>
tiet yn</w>
tekn olog@@</w>
te tta</w>
tarkistuks een</w>
sy ven
scient ists</w>
promis es</w>
prepar atory</w>
otta vat</w>
olo jen</w>
n ine</w>
mili tar
loo ks</w>
kunnio itettava</w>
kulje tusten</w>
integra te</w>
ikään ty@@</w>
du mp
advoc ate</w>
Lud for
E ras
vi ll
tuot ta
sta ges</w>
sovittelu komitea@@</w>
roh ka
nu oret</w>
mp iin</w>
miet ti@@</w>
me mor
man t
lis tened</w>
journ alists</w>
j ina</w>
f ers</w>
entre prene
cle an</w>
cat ch</w>
c ur
avar uus@@</w>
A nn
2 .</w>
vaati musta</w>
tuotan to</w>
tran sit</w>
sää tä@@</w>
si kä
s low
restric tive</w>
recogn ises</w>
re mar
programm ing</w>
mon en</w>
mma ksi</w>
luvu lla</w>
la kien</w>
kohte eksi</w>
isla milais@@</w>
il @@</w>
fal us
excep t</w>
compli ed</w>
be gun</w>
arvo ista</w>
aja tuksen</w>
a. m</w>
Lam falus
Her z
9 7</w>
työ ryhmän</w>
tiu kko@@</w>
tarpe esta</w>
suo ja</w>
soci o</w>
sa vings</w>
s pring</w>
pris on</w>
perus kirja@@</w>
lu ja@@</w>
histor ian</w>
execu tive</w>
even tually</w>
O b
K ur
ver ko
tä vien</w>
tun ne
trac eability</w>
toimi valta</w>
toimeen pano@@</w>
terveyden huolto@@</w>
ship ping</w>
rj @@</w>
päästö jä</w>
per inte
paran neta@@</w>
offer ing</w>
mul ti</w>
luo kan</w>
la kia</w>
ksi llä</w>
kirjo itta@@</w>
ik o@@</w>
examin ation</w>
es it@@</w>
ase tettu</w>
Guine a</w>
vaale ja</w>
tarkistu ksiin</w>
s kan
näky v@@</w>
nor meja</w>
l l</w>
keske yttä@@</w>
it us
hal un
effici ently</w>
d atory</w>
ce u
ajoneu vojen</w>
accep ting</w>
9 @@</w>
vet o@@</w>
vastu s
vasta kka@@</w>
täh tää
tit ude</w>
tekn ologia@@</w>
sit ova@@</w>
sisälly tetty</w>
sh o
ris ki
raho itet@@</w>
palvel un</w>
merk in
mattom at</w>
mani pu
kohd ista@@</w>
join ing</w>
istu s</w>
hyväksy mä@@</w>
harmon ise</w>
halun nee@@</w>
edus tettu@@</w>
dow n
cul ti
credi ble</w>
bru tto
b reach</w>
Gre at</w>
va ka@@</w>
uni lateral</w>
työ paikka@@</w>
tar geted</w>
si vis
n esses</w>
kuluttajan suoja@@</w>
kokon a
han kala@@</w>
etu t</w>
eh ty@@</w>
concentra tion</w>
arv on
aj at</w>
U T
I tä
GM O</w>
EU :
ud u</w>
ttä vät</w>
tek isi</w>
tapa usta</w>
syy ttä@@</w>
sijo it@@</w>
prote st</w>
pr ime</w>
poli tan
pien entä@@</w>
pes u@@</w>
peruste et</w>
pan ema@@</w>
paino t@@</w>
m n</w>
kehity sa
johta ja@@</w>
inc en
fir ms</w>
emm at</w>
e mis@@</w>
co al
bor ne</w>
T o
Na politan
Mar t
Kolumb ia@@</w>
z en</w>
vaka us</w>
usko a</w>
tähd en@@</w>
tur ha@@</w>
torjunn an</w>
sääd e@@</w>
solida ar
re me
pää s@@</w>
pus h</w>
percen tage</w>
markkino ihin</w>
lip pu@@</w>
ku van</w>
kokouks issa</w>
ko os
kiell on</w>
j antai@@</w>
hankke et</w>
dis mant
des t</w>
cover ing</w>
asia miehen</w>
S an</w>
z io</w>
uks essa@@</w>
tarpe ita</w>
represen ting</w>
periaatte eseen</w>
per jantai@@</w>
o vat@@</w>
naudan liha@@</w>
min or</w>
käyttööno tto</w>
kumppan uuden</w>
kel po@@</w>
jär ke@@</w>
itse määräämis@@</w>
inha bi
inc iden
haavo it
elimin ate</w>
el v
beg an</w>
atta ched</w>
an ia</w>
al t
Saf ety</w>
K or
1 20</w>
väär in
väärin käytö
työvoim an</w>
työn antaja@@</w>
tu kahd
tor i</w>
teks ti@@</w>
ta ppa@@</w>
re ported</w>
rasis min</w>
proses si@@</w>
ph ilos
maan antai@@</w>
leng th</w>
käytä ntö</w>
kesk @@</w>
järjesty stä</w>
investoin tien</w>
integro i@@</w>
in ter</w>
con stra
virhe e@@</w>
u ttava@@</w>
ty istä</w>
tuo re@@</w>
syö pä@@</w>
summ a</w>
sel v@@</w>
red und
oh @@</w>
mp ;</w>
menesty s</w>
ma il</w>
lik ed</w>
kansa a</w>
jalkapa llo@@</w>
inflaati o@@</w>
in n@@</w>
im posing</w>
frequ ently</w>
er b
dos si
cul tures</w>
bre ak
aban don
a p</w>
T it
Jer us
Coton ou</w>
&a mp;</w>
visi ted</w>
viest innän</w>
u ista</w>
täys i</w>
toim in</w>
roh kea@@</w>
ot ten</w>
os as
o sien</w>
näy ttävä@@</w>
maan osa@@</w>
li ity</w>
ken ta@@</w>
jud ge</w>
issu t</w>
gi a</w>
esite llä</w>
ehdotuks ella</w>
con fron
cl oning</w>
av usta</w>
E duc
. 30</w>
vero tuksen</w>
valtion tuki@@</w>
työjärjestys puheenvuoro@@</w>
sisäll ön</w>
raken teiden</w>
par ad
p. m</w>
ot tu@@</w>
o it@@</w>
n it
muut osten</w>
merk it@@</w>
mer ellä</w>
kumo a@@</w>
koro sti</w>
hou kut
g otten</w>
ehdo tu
va pa@@</w>
tä hän
tähän ast@@</w>
ter i</w>
ta li
sc en
sai rau
rou te</w>
pres sing</w>
pass ing</w>
pa llo@@</w>
neu v
myötä tunto@@</w>
käs itys</w>
ks @@</w>
kau pan
kahd essa</w>
k asta</w>
ima ge</w>
hi u@@</w>
f arm</w>
edell y@@</w>
dis tance</w>
buil dings</w>
au tu@@</w>
ala iset</w>
aja tukse@@</w>
a pol
Yor k</w>
K u
J ac
H ol
Commun ist</w>
yty neen</w>
th ro
tel e</w>
talou desta</w>
sall ittu@@</w>
ryh mään</w>
rahas to</w>
pää oman</w>
presiden tin</w>
pharma ceu
pa ted</w>
out lined</w>
os to@@</w>
mattom uus</w>
laus ek
kulttu uri
ku mo@@</w>
inc in
ic als</w>
hallit ukselle</w>
8 3</w>
viranoma inen</w>
var attu</w>
uu ksia</w>
use a
ur an
union s</w>
toim illa</w>
skan da
sche dul
s cre
oma ksu
off ences</w>
occu pi
lin gu
ins pi
huomau tuksen</w>
fi a@@</w>
erro r</w>
el taan</w>
critic ised</w>
connec ted</w>
character istics</w>
Y ear</w>
R ü
Con serva
qu anti
pako tte
onni a</w>
laajen tamis@@</w>
konflik @@</w>
ka d
juris diction</w>
itte e@@</w>
hun ger</w>
e ti
de pri
bla me</w>
as te@@</w>
anta jien</w>
I S
I CA
Educ ation</w>
A ug
7 4</w>
vin ce</w>
tarkoit ukse@@</w>
sa cri
sacri fic
recycl ing</w>
re placed</w>
rati fy</w>
rahoit ukse@@</w>
quali fications</w>
pa ha@@</w>
maan tieteellis@@</w>
k la
järjestö jä</w>
el er
edus tukse@@</w>
dispu tes</w>
co oper
accep tance</w>
Medi a</w>
9 4</w>
sel viä</w>
ro per
reg ul
rangaistu s@@</w>
o sia</w>
muukalais viha@@</w>
merk itsisi</w>
lif el
lifel ong</w>
la k
käytäntö jä</w>
k it
is in@@</w>
ir lantilais@@</w>
incen tive</w>
houkut tele@@</w>
flo ws</w>
ent in@@</w>
edel tä@@</w>
convic tion</w>
assess ments</w>
arvio itava</w>
an ces</w>
absta ined</w>
Tali ban</w>
Nor dic</w>
EU: hun</w>
vel ka@@</w>
suos tu
safeguar ding</w>
quar ters</w>
qu ota</w>
olog i@@</w>
mat kan</w>
läh teiden</w>
lu van</w>
is saan</w>
io ksidi@@</w>
hen k@@</w>
haaste isiin</w>
for gotten</w>
f an
con vince</w>
com it
coll ap
b ile</w>
aati o</w>
Galic ia</w>
G r
voima varoja</w>
vis a</w>
viol ent</w>
victi m</w>
tekn inen</w>
tan ala@@</w>
so tila@@</w>
scru tiny</w>
sa dly</w>
propa gan
mo bile</w>
ministeri en</w>
maanviljeli jä@@</w>
kiis tanala@@</w>
for ma
d op
ala isten</w>
ys ä
wh ole
whole hear
w oman</w>
vacc ination</w>
tä nyt</w>
tu ksi</w>
tel mä@@</w>
tehtä viin</w>
tau ti</w>
t onnia</w>
syy te@@</w>
rik ka
po istu@@</w>
meren kulku@@</w>
loc ation</w>
jo illa@@</w>
e vi
e tin</w>
democ rat
bio diversity</w>
ann o@@</w>
alkoh oli@@</w>
aik o@@</w>
affor d</w>
S P</w>
O S
Meksi ko@@</w>
Feir a</w>
Corbet t</w>
Aus tr
7 8</w>
yksimiel isyys</w>
trad itions</w>
toi missa</w>
terä s@@</w>
tarkas ta@@</w>
tapa uksen</w>
tahd on</w>
suure mpi@@</w>
rau ho
palvelu iden</w>
pa kko@@</w>
oll a@@</w>
määritel tävä</w>
myönnet tävä@@</w>
lähet ys
lois tava@@</w>
la undering</w>
käynniste t@@</w>
invi ted</w>
ih met
hark ittava</w>
espan j
chap ter</w>
ch @@</w>
ceil ing</w>
acces sible</w>
absur d</w>
Tur kki@@</w>
K ab
8 4</w>
w in</w>
threa tened</w>
tarpe iden</w>
taho t</w>
t wel
suoj ella@@</w>
s la
s ista</w>
pää dy@@</w>
privatis ation</w>
perustusla ki</w>
parlia men
onn ittelu@@</w>
luettel on</w>
lause kke
ja kelu@@</w>
e mission</w>
com mis
voimaan tulo@@</w>
varha is@@</w>
univers ities</w>
tunne tu@@</w>
tu ma@@</w>
tro ops</w>
teknologi an</w>
te eseen</w>
ta var
rik osten</w>
ratkais u
pro ves</w>
ll isuus</w>
ll eni</w>
kalta iset</w>
jo ista@@</w>
ito ja</w>
gro w</w>
gener ations</w>
exemp tion</w>
espanj alais@@</w>
disab ilities</w>
des per
coal ition</w>
campaig ns</w>
ajan jakso@@</w>
W e</w>
T im
Coton ou@@</w>
Conc iliation</w>
Co x</w>
ymmärre ttävä@@</w>
va ted</w>
tunn in</w>
terro ri</w>
tapahtu mista</w>
ta vien</w>
ta van@@</w>
ta isin</w>
sul jet
sair a@@</w>
res ear
qu es</w>
na lla</w>
mor ator
mm @@</w>
me al</w>
manag ing</w>
järjestely jä</w>
j illa</w>
inte roper
im min</w>
ex changes</w>
esittä miä</w>
es teet</w>
elintarv ike
ed ly</w>
def ending</w>
de part
aik ana@@</w>
Mor ill
E r
tekni iko
tehtävä nsä</w>
tehos t@@</w>
te t@@</w>
te ction</w>
se as</w>
sal es</w>
ra jan</w>
pres cri
nor mien</w>
län si
järky t@@</w>
inter nation
ilma ilu@@</w>
il man@@</w>
ih me@@</w>
hall itse@@</w>
examin ing</w>
enter ing</w>
dis par
den y</w>
R and
wh en
viid enne@@</w>
ul @@</w>
ty neet</w>
tu i</w>
tro us</w>
ter @@</w>
tau lu
sh oul
pää se</w>
pr ud
ne z</w>
naapu ri
lan n
kriteer ien</w>
istun to
hä v
comit ology</w>
Feir a@@</w>
Bla ir</w>
when ever</w>
vaikutel ma@@</w>
suo jan</w>
subsequ ent</w>
re porting</w>
ras kaa@@</w>
pel asta@@</w>
kunn ia@@</w>
ko e@@</w>
ker ä@@</w>
fr ustra
fo rec
chem icals</w>
askel een</w>
asem asta</w>
approac hes</w>
Rand zio</w>
ulottu vuuden</w>
th ers</w>
terroris mi</w>
teoll isuutta</w>
taso illa</w>
tah to@@</w>
sop e
sig ning</w>
sev ere</w>
ratka ista@@</w>
puheenjohta j
particip ating</w>
par asta</w>
ot si
llis essa</w>
liitt ol
käyttä jien</w>
ki in</w>
k ku@@</w>
heik en@@</w>
he ads</w>
f loo
direktiiv ejä</w>
consisten tly</w>
bio technology</w>
An ne
: lla</w>
yhdis tämis@@</w>
vastu us
vastuus een</w>
vastaav an@@</w>
tö män</w>
tra in</w>
ten tion</w>
te isiin</w>
shi ft</w>
rele ased</w>
pyy ntö</w>
pyrkim yksiä</w>
puol i
perfec t</w>
may be</w>
maanviljeli jö@@</w>
l un
kan a
inte ri
es ään
criteri on</w>
bor n</w>
big gest</w>
Aug ust</w>
äänesty kset</w>
y ksiin</w>
wher ever</w>
vauhd itta@@</w>
vakuu t@@</w>
tur @@</w>
pysä yttä@@</w>
proced ural</w>
ov ar
monopol y</w>
mm ille</w>
li io
katastrof i</w>
itali alais@@</w>
dead lines</w>
clas s</w>
O l
K ong
ylik ansa
ylikansa ll@@</w>
yhte yksiä</w>
v yö
u ksilla</w>
tö ön</w>
tu lle
toge en@@</w>
ti lis
tekni ikka</w>
t tämä
ro olin</w>
piir te@@</w>
op a
muun togeen@@</w>
lop e@@</w>
käyte ttävä@@</w>
kur ssi@@</w>
ki istä@@</w>
investig ations</w>
har ass
coordin ate</w>
a jo
K ati
A R
xenopho bia</w>
vahin kojen</w>
va kiinn
turvapaik an@@</w>
tom ia</w>
tes ted</w>
te am</w>
sil ence</w>
rangais tuksen</w>
posti palvelu@@</w>
otta mista</w>
olosuh teet</w>
occu pation</w>
luonn on
li ghts</w>
kyv y
kustann uksista</w>
k rat
inte gr
integr ity</w>
il y@@</w>
har m</w>
for m
f it</w>
esit tele@@</w>
edistys askel</w>
e ä@@</w>
demo krat
de par
ase e@@</w>
ar i
Eura tom</w>
Egy pt</w>
2 1@@</w>
ve tä@@</w>
ter inary</w>
strugg le</w>
s y</w>
s ly</w>
pan osta@@</w>
näky vä@@</w>
ku vaa</w>
korva uksia</w>
kon e
exc use</w>
epä suora@@</w>
con sci
character ised</w>
analy ys
Kati for
Galic ia@@</w>
Afgh an</w>
u k@@</w>
tosi aan</w>
tar @@</w>
saas tu@@</w>
raa ka</w>
puheenjohta j@@</w>
periaatte esta</w>
pel k@@</w>
os u
myönn et@@</w>
muunn ettu@@</w>
mu kse@@</w>
läsnä olo@@</w>
liikku mis@@</w>
käy vä@@</w>
ir respective</w>
hen ki@@</w>
for est</w>
finan ces</w>
exper tise</w>
ch ers</w>
arri ved</w>
al at</w>
acc used</w>
Y outh</w>
P ir
ME P</w>
Diamantop oulou</w>
äl kää@@</w>
ves to
tutkim ukset</w>
ti mely</w>
tekn ise@@</w>
suhte issa</w>
sel y</w>
saastu tta@@</w>
ma lli@@</w>
llis eksi</w>
kaup asta</w>
k is</w>
inevi tably</w>
huoma ta</w>
huom io</w>
human ity</w>
gener ous</w>
fe ars</w>
f yys@@</w>
di es
broad ly</w>
adequ ately</w>
G is
E sta
vara puheenjohtaja</w>
uh kaava@@</w>
tu issa</w>
tekijä n@@</w>
tais telua</w>
sol id</w>
satell i
sa d</w>
regis ter</w>
re unification</w>
rakente ita</w>
practic ally</w>
pidet ty</w>
n tö@@</w>
määrit tely@@</w>
mean ing
m mista</w>
käsit tämät@@</w>
kka asta</w>
jälle en@@</w>
ha b
epä toivo@@</w>
dra matic</w>
co ast</w>
atten d</w>
acknowled ged</w>
YM P@@</w>
Indones ia@@</w>
Frid ay</w>
Bur ma</w>
väli in
vä ite@@</w>
vapa utu@@</w>
van hen
vaike udet</w>
ul ko
tyy pi@@</w>
toim e
to s</w>
to o@@</w>
tapahd u</w>
pa peri@@</w>
maa taloutta</w>
ma tta@@</w>
lis tening</w>
ka pi
johta isi</w>
is esti@@</w>
in en@@</w>
hir v
gra phic</w>
four thly</w>
fas hi
envis aged</w>
collec tion</w>
al uksen</w>
O EC
M it
M ag
Li thu
Kre ikka</w>
6 00</w>
yksityis tämis@@</w>
viik koina</w>
vig il
vapa us@@</w>
vallan ku
vahvis tettu</w>
ur i</w>
ul f</w>
uks esta@@</w>
tyyd yttä@@</w>
toim een</w>
s ole</w>
resol ving</w>
ras ka@@</w>
pr o</w>
pilar in</w>
pi in</w>
mu s</w>
mis to@@</w>
lingu istic</w>
kunn alle</w>
kohd iste@@</w>
kasvi huone@@</w>
jat kuva</w>
ite tty</w>
hyl kää@@</w>
foun dations</w>
expres sly</w>
enhan ced</w>
b ad
asiantunte mu@@</w>
ad m
T a
SE @@</w>
0 9</w>
väline enä</w>
val vo
tre mend
tou ch</w>
tekst istä</w>
surpris e</w>
su ms</w>
sov ittu</w>
sitou du@@</w>
schedul ed</w>
ran ging</w>
raken ne
ques tion
man datory</w>
luonte eltaan</w>
la bor
l tään</w>
kärsi my@@</w>
kr it
kalas tusta</w>
jec tive</w>
inciden tally</w>
im port</w>
hom os
gh ly</w>
fall ing</w>
emm in@@</w>
answ ered</w>
ad @@</w>
a ys</w>
Taiw an</w>
Stra te
Mc Car
L eh
C u
BK T@@</w>
1 1.
va ali
tö r
tä ni</w>
twel ve</w>
ton ight</w>
ti ll@@</w>
ten d</w>
suunnitel tu</w>
stra ight</w>
seud u
ryhmit ty
pursu ing</w>
necess ity</w>
monopol ies</w>
mel ko@@</w>
mal till@@</w>
lu va@@</w>
ku ole
kohtal o@@</w>
kiinti ö@@</w>
ing ent</w>
haaste e@@</w>
gu il
gre en
ga ined</w>
div ide</w>
a hd
US D</w>
R oth
Portug ali</w>
Niger ia</w>
Jap ani@@</w>
Har bour</w>
Anne x</w>
valmistelu kunta@@</w>
te rally</w>
sikä li</w>
sig ns</w>
politiikka mme</w>
perin pohja@@</w>
p is
o lle</w>
kiel e@@</w>
kauh istu
hankke isiin</w>
explic itly</w>
de pl
arvos @@</w>
appa lling</w>
ab uses</w>
Maastrich t</w>
Li et
8 .</w>
väes tö</w>
venä läis@@</w>
uskon to@@</w>
ta hol
sy t</w>
ryhmä ä</w>
prov en</w>
pien en</w>
perhe iden</w>
ne essa</w>
n ope@@</w>
ks enne</w>
koh taa@@</w>
ke ksi@@</w>
järjes tettävä@@</w>
is e
insta ll
fi xed</w>
ehkäis evä@@</w>
byrokra attis@@</w>
atta ch</w>
W ar</w>
T anska</w>
Sol ana@@</w>
S yy
O p
Gis card</w>
ympäris tö</w>
verk on</w>
v ei
tois esta</w>
ti gh
suos it
subsi dis
struc k</w>
sta tions</w>
se x</w>
ri a@@</w>
refer ences</w>
oso itettu</w>
man tere@@</w>
luo tetta@@</w>
loukka u@@</w>
leviä mis@@</w>
kertom uksesta</w>
instituu tio@@</w>
esity ksessä</w>
el ek
con fin
c lu
ass ets</w>
abol ition</w>
Vietna m@@</w>
Bro k@@</w>
äänesty s
ympä ri@@</w>
te i</w>
ste el</w>
ri gorous</w>
res or
päätö ksiin</w>
mis sing</w>
ma g
k ar@@</w>
gradu al</w>
et u</w>
es ite@@</w>
des ired</w>
conveni ence</w>
ca tastro
ase tukseen</w>
ar bit
Ti i
Si xth</w>
S IS</w>
Mexic o</w>
B a
7 .</w>
v että</w>
tur k
tuot taja@@</w>
tu lleet</w>
tta viin</w>
taho jen</w>
si a@@</w>
sec tions</w>
pidä t@@</w>
mih in@@</w>
men tation</w>
maa pallo@@</w>
los ses</w>
liev entä@@</w>
kyken e</w>
kiel tä</w>
inves tors</w>
indic ation</w>
im per
h ost</w>
gg ing</w>
fac ility</w>
en ci
destro y</w>
ac tors</w>
Niger ia@@</w>
Kre ikassa</w>
Bulgar ia@@</w>
yd estä</w>
työllis yys</w>
ty s</w>
tuot teen</w>
tuke a@@</w>
totu us</w>
su d
safegu ards</w>
s syt</w>
objec tions</w>
mu t
länsi ma@@</w>
kom it
k ent
exha us
e kin</w>
draf t
des tin
avoid ed</w>
ala kohta@@</w>
al ukset</w>
aid s</w>
R oth</w>
Pro secu
é s</w>
ti läis@@</w>
recommen ded</w>
rahan pesu@@</w>
poliitt is@@</w>
per pet
menetel mien</w>
markkino ista</w>
la ying</w>
käsitel @@</w>
kapi talis
julkilausu ma</w>
esitteli jö@@</w>
disas trous</w>
ci ally</w>
be it</w>
armei jan</w>
al beit</w>
aja ksi</w>
Mc K
Ma es</w>
Kes ki@@</w>
y n
valio kuntien</w>
uks emme</w>
tie teen</w>
ter n
ten ance</w>
te ttav@@</w>
tal ity</w>
sh oc
sc ep
saavu tettav@@</w>
sa at
re conciliation</w>
rahoit uksesta</w>
pyyntö ä</w>
prote s
pa ir</w>
oikeus asia
nou su@@</w>
lo ans</w>
in her
hyväksy ntä@@</w>
fran kly</w>
co w</w>
blo ck</w>
val i@@</w>
tais telu</w>
re ver
p onnistu@@</w>
organis mi@@</w>
mää ris
mer en@@</w>
la tes</w>
ide al</w>
h s</w>
ge ous</w>
energi an@@</w>
em @@</w>
Yor k@@</w>
V el
M é
tu ne</w>
sta ting</w>
s ch</w>
rea ktio@@</w>
p tion</w>
out break</w>
näkö kohdista</w>
materi aali@@</w>
lu ku</w>
la issa</w>
juu ta
jun ction</w>
ir a</w>
fall en</w>
di ffer</w>
consisten cy</w>
be l</w>
aj aa</w>
acc us
Maastrich t@@</w>
Euroop alla</w>
A S</w>
0 6@@</w>
y ö@@</w>
ud u
tunn ista@@</w>
ttä misestä</w>
ter most</w>
tavoitte @@</w>
sop us
seik an</w>
ra tional</w>
pre va
ot e</w>
origin ally</w>
liik enne</w>
it i@@</w>
interi m</w>
han kal
ed uista</w>
b et</w>
audiov isu
asiantunti joiden</w>
Prosecu tor</w>
M ai
Ber g</w>
B end
väär @@</w>
u rement</w>
u ha
tutk ittava</w>
tun tu@@</w>
suunnitel maa</w>
sih teer
sens iti
rea ff
reaff ir
r yö
päätöks estä</w>
puh een</w>
näky miä</w>
m ala@@</w>
kuu nn@@</w>
kuningas kunta</w>
kompromis se@@</w>
interpre ted</w>
in quiry</w>
ide ologi@@</w>
f e</w>
eläim iä</w>
digi taali@@</w>
cy cle</w>
c ast</w>
as pi
ard ous</w>
aloitte iden</w>
Res olution</w>
Li ban
Irlan ti</w>
Colom bia</w>
y a</w>
work place</w>
väl itys@@</w>
väki valta</w>
vi ip
vaiku tus@@</w>
tähtää vä@@</w>
tunn ustus@@</w>
to inti@@</w>
suunnitel @@</w>
sa ava@@</w>
ryhmä ssä</w>
piir issä</w>
ou termost</w>
no tic
määritel mä</w>
mm asta</w>
mit ting</w>
markkina järjestely@@</w>
lin ja</w>
kyky ä</w>
ka ksi
haz ardous</w>
fulfi lled</w>
explan atory</w>
au tom
arri ve</w>
Val enci
0 6
valti osta</w>
vall an@@</w>
ulkominis teri</w>
reven ue</w>
pp i@@</w>
or @@</w>
merkitse vä@@</w>
mattom asti</w>
low est</w>
l a</w>
ku olle@@</w>
kollega a@@</w>
it u</w>
interoper ability</w>
ha j
fle ets</w>
f ate</w>
ehdotuks issa</w>
e tä@@</w>
do ors</w>
dec line</w>
co inc
audiovisu aali@@</w>
ar ities</w>
Mart í
Kong o@@</w>
ään esti</w>
välin että</w>
viitta u@@</w>
turs ka@@</w>
tunn eli@@</w>
tu onn
tote amu@@</w>
te eksi</w>
qu alities</w>
päivä än</w>
politiik alle</w>
pet ition</w>
pan k
ol ic</w>
nyky aikaista@@</w>
kuun ne
kulttuur i</w>
koke musta</w>
ker ää@@</w>
jul istu@@</w>
is taan</w>
inc idents</w>
evalu ate</w>
ap pointed</w>
ansa itseva@@</w>
W ed
E A
Coh n</w>
Bal tic</w>
vi isa@@</w>
valti ossa</w>
va ino@@</w>
tä neet</w>
työttömyy den</w>
sear ch</w>
saa ma@@</w>
ris kit</w>
reinfor ce</w>
reac hes</w>
p has
os aan</w>
kertom usta</w>
isuu tensa</w>
green house</w>
ga me</w>
dis tur
compon ent</w>
bac king</w>
a z
NAT O@@</w>
välia ika@@</w>
void e@@</w>
vaih to@@</w>
tö mien</w>
toiv eita</w>
teki vät</w>
str ingent</w>
seura amu
se g
sata mien</w>
sanot tava@@</w>
puu t@@</w>
provid ers</w>
neuvo tella</w>
na lle</w>
monen la@@</w>
m ol
lähetys tö@@</w>
kiel toa</w>
ed ustus@@</w>
de ad</w>
as enne</w>
Wed nes
W eg
Mai j</w>
H un
F on
E v
Ca ud
CF P</w>
B eh
9 .</w>
yhte yksissä</w>
viit taa</w>
uks in</w>
th i
sur plus</w>
sopus o
puhemieh istö@@</w>
open ly</w>
morator ium</w>
mi gra
ma hta@@</w>
liikente essä</w>
l ent
jur id@@</w>
is ite</w>
inc ident</w>
im pien</w>
eiv ed</w>
dictator ship</w>
cor responding</w>
S ve
P en
Le ban
yl pe
yks en@@</w>
vis ing</w>
vehic le</w>
uu ksien</w>
tw ice</w>
sukupol vi@@</w>
standar dis
sa aj
partici pan
muka isten</w>
menetel män</w>
mani f
luku ja</w>
ita tive</w>
is en
foot ball</w>
en n@@</w>
decid ing</w>
critic ise</w>
cos me
bad ly</w>
Kar as</w>
G ra
ve ge
tou gh</w>
tab les</w>
remar kable</w>
reg ularly</w>
ra w</w>
pres sed</w>
philos oph
pharmaceu tical</w>
min ds</w>
ks a</w>
ke ä@@</w>
ke mpi@@</w>
jo ka
j ne</w>
is ti</w>
intellig ence</w>
ins ec
fe ed
fail s</w>
ent h</w>
democra tically</w>
au tu
abol ish</w>
B ag
yl ä@@</w>
with draw
wa ke</w>
w ars</w>
volu me</w>
vankil a@@</w>
ulkoma alais@@</w>
turk kilais@@</w>
ttä miseksi</w>
suor ite@@</w>
sc ri
p raise</w>
on y</w>
mp s</w>
luov ut@@</w>
komit ologia@@</w>
kann assa</w>
for med</w>
ennalta ehkäisy@@</w>
e e</w>
crimin als</w>
a ka
Wednes day</w>
Sol bes</w>
Geor gia</w>
Beh rend
valtio ista</w>
trans fers</w>
tehtä vistä</w>
tarpe eseen</w>
tarkoit ukseen</w>
tapa ukset</w>
si do@@</w>
remin ded</w>
re pu
re per
pa hi@@</w>
p im
määri en</w>
ll ista@@</w>
kokoon pano@@</w>
julis tuksen</w>
ja ka
inhabi tants</w>
halu t@@</w>
hal usi</w>
h o</w>
f em
ell a
edel tävä@@</w>
alue ista</w>
ad her
accura te</w>
Washing ton</w>
Du isen
C orm
Bus qu
äänesty kseen</w>
vä ä</w>
ver i@@</w>
u ms</w>
tömä nä</w>
tieteell inen</w>
pla ys</w>
om ista</w>
nu o</w>
mukau tu@@</w>
lausun to</w>
la ill
kirj een</w>
kau tta
järjesty kseen</w>
jul ki</w>
highli ghts</w>
esitte lemä@@</w>
enshr ined</w>
differ enti
aihe u@@</w>
Tun isia</w>
Fi f
vuo delta</w>
vetoom u@@</w>
tekn istä</w>
tekn isesti</w>
te kos
tahol ta</w>
tackl ing</w>
syste matically</w>
suotu isa@@</w>
saas tumis@@</w>
pääsihte eri@@</w>
prosess ista</w>
pre jud
oikeuden käynti@@</w>
metsä palo@@</w>
ma ins
lisää vä@@</w>
kanna tu@@</w>
h it</w>
e ista</w>
di ver
comprehen sible</w>
arvon lisä
ASE M</w>
vuo tu@@</w>
voim assaolo@@</w>
vauh tia</w>
uran ium</w>
uh ra@@</w>
tekn isten</w>
tapo jen</w>
sy ksy@@</w>
sisäll ö@@</w>
reper cus
remo val</w>
puolue et</w>
prer equ
occ urr
no tion</w>
neu tra
mon ina@@</w>
matkusta ja@@</w>
main tenance</w>
kuor ma</w>
ka ttava</w>
jouk on</w>
hu oli</w>
fin ish</w>
fi able</w>
e ille</w>
d ä</w>
con junction</w>
ans si@@</w>
aine et</w>
Strate gy</w>
Sa ksa</w>
S ella
3 0
wh el
voim at</w>
tömä sti</w>
tutkim usten</w>
su kla
sopim uksella</w>
simpli fication</w>
set sen
sen tence</w>
se ka@@</w>
se iz
parti al</w>
paik alle</w>
mur ha@@</w>
lear ned</w>
lan g
ki us
ke ks
joka päivä@@</w>
isuu tta@@</w>
integra ting</w>
inno cent</w>
f ought</w>
f low</w>
democrat isation</w>
achiev ements</w>
a h</w>
W H
S ud
M alta</w>
Gonzá lez</w>
198 9</w>
ölj yn</w>
ymmär re@@</w>
won der
vä itte
vir tually</w>
verkos ton</w>
val id
vaa ti</w>
tiedo te@@</w>
tekijö iden</w>
tari ans</w>
tab ling</w>
ta p
ta ka@@</w>
substan tially</w>
selv en@@</w>
repercus sions</w>
rapor tin</w>
pää t@@</w>
peruste e@@</w>
par ents</w>
over whel
moun tain</w>
labe l</w>
j utta@@</w>
hylä tä</w>
hor jutta@@</w>
en nä
elämä ssä</w>
edus tus
dro p</w>
democra cies</w>
del ic
bet @@</w>
ass es</w>
amb itions</w>
Vietna m</w>
Ev ans</w>
0 5</w>
us ly</w>
si ep
seuraamu ksia</w>
ris kien</w>
resear chers</w>
näkökul ma@@</w>
mis ella</w>
mains tre
liikkuma vara@@</w>
kä vi@@</w>
in side</w>
hin toja</w>
experi ences</w>
dama ging</w>
con temp
autu mn</w>
ar gue</w>
al asta</w>
ad mi
a ma
S ö
Lanno ye</w>
In ves
välin pitä
välinpitä mät@@</w>
val itta@@</w>
val it@@</w>
v on</w>
terve ys</w>
tel tava@@</w>
sc ar
on to</w>
occupi ed</w>
mättö män</w>
kump pan@@</w>
kaksin kerta@@</w>
exclu de</w>
es cap
emer ged</w>
do g
di ag
defin itions</w>
dang ers</w>
cu tting</w>
contradic tion</w>
commen d</w>
bi opol
as ser
ar ma
T er
PV C</w>
Mad rid</w>
Lon don</w>
L uc
Gr ön
val ittu</w>
tuomioistu in@@</w>
ti en@@</w>
t is@@</w>
sääntö ihin</w>
sää stö@@</w>
suunn ite
secon dary</w>
rela tive</w>
radio aktiivis@@</w>
radik aali@@</w>
pan nut</w>
onnettom uus</w>
onn istu</w>
mus lim
kollego j
kirj e
ki ite
ittä jä@@</w>
exclu sive</w>
eten e@@</w>
dri ve</w>
d ura
d ras
b an@@</w>
ava utu@@</w>
arvo inen</w>
Kaliningra d</w>
ulottu vuutta</w>
tyyd yttävä</w>
tu keen</w>
talou delle</w>
sustain ed</w>
sosiaal is@@</w>
paket ti</w>
näke mys
ne ed
main itu
mainitu n</w>
liikku vuus</w>
kollegoj eni</w>
kehitysa pu@@</w>
juuta lais@@</w>
johta ma@@</w>
joh ti</w>
istunto jakso@@</w>
is yys@@</w>
hi er
every where</w>
dri ven</w>
contr ast</w>
cond itional</w>
clari fied</w>
biopol ttoaine@@</w>
attemp ting</w>
T setsen
H ul
yo s</w>
wholehear tedly</w>
visi ble</w>
van i</w>
valtuus kunta@@</w>
val inn
uhre ille</w>
sop iva</w>
saman kalta@@</w>
s qu
res ource</w>
radi o@@</w>
pyy nnöstä</w>
puhu ttu</w>
mot or
la ys</w>
hallinno inti@@</w>
gene tic</w>
etu n</w>
ess ence</w>
embr yos</w>
che ap</w>
ava ta</w>
automa tically</w>
appreci ation</w>
apol og
an ne</w>
aloitte et</w>
M ilos
Eng la@@</w>
C han
äl kää</w>
x es</w>
voit taa</w>
viras tojen</w>
uks eksi</w>
tuhan net</w>
tie de
tell essa@@</w>
str an
standarde ja</w>
smo king</w>
simplif y</w>
she ep</w>
rakenn e</w>
os uutta</w>
on ia</w>
oll essa</w>
my ys@@</w>
kann attama@@</w>
im massa</w>
ik a</w>
hyl käsi</w>
fi res</w>
experienc ing</w>
don or</w>
dis semin
contribu ting</w>
consolid ate</w>
br itti@@</w>
CF SP</w>
ä y
y ti
voima kas</w>
var ti
vapa uksia</w>
un it</w>
uh @@</w>
the tic</w>
tarkas tuksia</w>
tar i@@</w>
syven tä@@</w>
sitou musten</w>
rajoit ukset</w>
r id@@</w>
positi ivi@@</w>
pane utu@@</w>
our se</w>
määris tä</w>
moot tori@@</w>
min ent</w>
men ot</w>
lehd is
kim mä@@</w>
jänn itte@@</w>
jäl kimmä@@</w>
is ena@@</w>
ir regul
hoid e@@</w>
fundamen tally</w>
f @@</w>
ess or</w>
dikta tuuri@@</w>
decad e</w>
autonom y</w>
as sembly</w>
U EN</w>
L ag
Go eb
ää ni@@</w>
yrity ksistä</w>
yhtenä istä</w>
ydin voima@@</w>
withdraw al</w>
työttö myys</w>
ty illä</w>
tied osta@@</w>
terro r</w>
tapa usten</w>
show ed</w>
saas te@@</w>
raken teen</w>
pää tettävä</w>
puol ta@@</w>
pra g
o ihin</w>
o eu
mos p
lähd e@@</w>
lu paa</w>
käsitte en</w>
kysymyks een@@</w>
kutsu ttu@@</w>
kiel täy
igno red</w>
hä tä
huomau tuksen@@</w>
harass ment</w>
fe els</w>
f lights</w>
en ite
em an
de ple
commis sion
cho col
at mosp
Tii bet@@</w>
Mac Corm
viip y@@</w>
varmuu s</w>
tulo jen</w>
ttö miä</w>
sus pic
ri c</w>
ra han</w>
puhe en@@</w>
or i@@</w>
mieli valta@@</w>
mak ro@@</w>
lu ki@@</w>
lu c
ll isuudesta</w>
laus es</w>
köyh yys</w>
infring ement</w>
ik un
goro usly</w>
g ers</w>
explo it</w>
etta isi@@</w>
conc e
as een</w>
ar ticles</w>
EI B</w>
yrity ksiin</w>
yhtiö t</w>
y an
vir a@@</w>
valtio ihin</w>
vaka us
tu na</w>
sään tö</w>
suunn it
seura am@@</w>
re act</w>
raho ja</w>
pu n</w>
per heen</w>
pat ri
ow ners</w>
organ ic</w>
oll y</w>
oeu v
no tably</w>
nau re
myr s
minuu tti@@</w>
ma ture</w>
käsity ksen</w>
kulutta jia</w>
ko i</w>
ki in@@</w>
kalas tajien</w>
huu me
er a</w>
d ut</w>
c lauses</w>
au ti
Gi br
valiokun taan</w>
tä en</w>
tremend ous</w>
toim ia@@</w>
sof tw
päätel missä</w>
pol tto@@</w>
poikke us</w>
pl as
pet osten</w>
paragrap hs</w>
muu hun</w>
mieh i@@</w>
man oeuv
maan i</w>
los ing</w>
lin ing</w>
kautta kulku@@</w>
iti ves</w>
ha jau
endor sed</w>
embr y
eh tojen</w>
deliver ed</w>
compet e</w>
Hu gh
Direc torate</w>
B ang
: h
vei ll
veill ance</w>
valtu ut@@</w>
val in@@</w>
une mp
unemp loyed</w>
travell ing</w>
tiet yn@@</w>
thir ty</w>
te ise@@</w>
ta ne
s o@@</w>
olo ja</w>
mielipite itä</w>
miel essä@@</w>
men t@@</w>
lo og@@</w>
ku rj@@</w>
krit isoi@@</w>
kiel teise@@</w>
kehitys maa@@</w>
kar i@@</w>
kapasite et
ka ap
jul m@@</w>
is to</w>
is tettiin</w>
ille g
e ast</w>
critic isms</w>
clos ure</w>
ati iv@@</w>
V ig
S ac
G AT
y outh</w>
w estern</w>
vesto ck</w>
velvoitte ita</w>
tta isi@@</w>
tra tion</w>
ti le</w>
tan ces</w>
sy ö@@</w>
sov ittu@@</w>
softw are</w>
siv uu@@</w>
re productive</w>
päätel mien</w>
oh jaus@@</w>
läh te
li vestock</w>
lausu ma@@</w>
ket j
in to@@</w>
graph y</w>
fea tures</w>
elta essa</w>
d oma
believ ed</w>
assu rance</w>
as et@@</w>
am ing</w>
ag eing</w>
Democ ratic</w>
yleis sopimus</w>
witn essed</w>
vi ite@@</w>
tä vi@@</w>
tuot tava@@</w>
tu ttava</w>
toimi va@@</w>
tiu kenta@@</w>
sur veillance</w>
presen ts</w>
luo tettava@@</w>
lou kkaa@@</w>
l uu@@</w>
käsitel tävi@@</w>
ky t
kustann us@@</w>
kos ki@@</w>
ker too</w>
keino teko@@</w>
kah della</w>
itte dly</w>
in toler
huomau tuksia</w>
e issa</w>
de voted</w>
charac ter</w>
au tta
adm ittedly</w>
S port</w>
Op portun
N is
A ct</w>
Ä ä
tou ris
tiet ty</w>
tarkka ilija@@</w>
se es</w>
ras ismi@@</w>
organis oi@@</w>
ohj e@@</w>
määrä stä</w>
mot e</w>
mielipite en</w>
merk itse</w>
kel e@@</w>
kan to@@</w>
guil ty</w>
gra titude</w>
forma lly</w>
feasi ble</w>
ero ava@@</w>
eas tern</w>
di en</w>
deman ded</w>
classi fication</w>
chocol ate</w>
c ros
bro ken</w>
benefic i
ambigu ous</w>
ad vis
Su u</w>
F lor
D o
C ash
Bur un
viiv yt@@</w>
vi enn
vahvis ti</w>
vahin koja</w>
tule va</w>
trans ferred</w>
sub jec
sa ali
renew ed</w>
paten ts</w>
ous ness</w>
organis ms</w>
lainsäädä nnöstä</w>
kiista t@@</w>
is a</w>
ilmi ö@@</w>
horiz on
hiil id
dossi er</w>
constra ints</w>
concep ts</w>
ch ann
bac ks</w>
asiakirj aa</w>
af rik
advan ced</w>
administra tions</w>
R ap
Opportun ities</w>
Nis tic
Mad rid@@</w>
Fisch ler@@</w>
Ch ris
B re
with drawn</w>
wea ken
väliin tulo@@</w>
vakiinn utta@@</w>
usea mpi@@</w>
ur @@</w>
tehokkuu s</w>
tapa uksesta</w>
take ita</w>
siir re
re mote</w>
päätöks istä</w>
produc tivity</w>
pan tu</w>
oper aatio@@</w>
neg lec
ma r</w>
ku ilu@@</w>
isuudes sa@@</w>
ilmais ema@@</w>
hoito a</w>
har ta@@</w>
gre en</w>
g ir
euro s</w>
detri ment</w>
defic i
continu ation</w>
compu ter</w>
chann els</w>
brutto kansan@@</w>
br it
b i@@</w>
arres ted</w>
analys e</w>
am es</w>
alue esta</w>
Gar c
wonder ful</w>
vääris tä@@</w>
vaatimu ksista</w>
tulle eksi</w>
tta maan</w>
terve tulleeksi</w>
ta pana</w>
ser ves</w>
scen ar
reli ef</w>
rapor toi@@</w>
norma lly</w>
mu si
maks ut</w>
l enn
jälke en@@</w>
foun dation</w>
foc using</w>
enab led</w>
ar ises</w>
appe ar
ap pointment</w>
US A@@</w>
S yri
Proc ess</w>
Med ina</w>
Lithu ania</w>
Liet tua@@</w>
Hau tal
H IV</w>
Gal e
y lä
y iel
vi et
vanhen tu@@</w>
valvonn assa</w>
v yyden</w>
tit le</w>
tion ally</w>
pit o
participan ts</w>
omin a
net ty</w>
mietinnö istä</w>
merk ki@@</w>
lausun toja</w>
h ers</w>
elä mä@@</w>
claim ed</w>
blin d</w>
adver se</w>
V ene
M ill
Inves tment</w>
I z
z u</w>
z u
under p
tuomioistuim essa</w>
toteu t@@</w>
thorou ghly</w>
tais tamis@@</w>
tackl ed</w>
speci fied</w>
selvity ksen</w>
sa masta</w>
rikoll isuutta</w>
ope tus@@</w>
odo tetta@@</w>
obsta cle</w>
m ic
käsi tettä</w>
jälleen rakennus@@</w>
ilma isi</w>
hä viä@@</w>
hiilid ioksidi@@</w>
hall @@</w>
g i@@</w>
dump ing</w>
dis advanta
conf ident</w>
ci gar
assess ing</w>
air port</w>
add itives</w>
accoun tability</w>
Wh ite
Tsetsen ia@@</w>
T hor
Slova kia@@</w>
Maa ilman@@</w>
Du pu
yksikö t</w>
vaatimu ksen</w>
ura ani@@</w>
ul ous</w>
työ tä@@</w>
tu ella</w>
threa tening</w>
tell ing</w>
suos ituksen</w>
saa pu
re turned</w>
rau hall@@</w>
korrup tio@@</w>
isuu ksien</w>
ilmais u@@</w>
hyödyn tämä@@</w>
hd y@@</w>
dre am</w>
air space</w>
T hea
S lov
M ü
Feder ation</w>
F rass
A cc
wr ite</w>
ty stä</w>
ty r
tr y
tore ita</w>
tom ien</w>
s ale</w>
pil ot</w>
organis ing</w>
moni arvois@@</w>
isemm an</w>
internation ally</w>
differ ently</w>
dec reas
Wog au</w>
Ob jective</w>
Dupu is</w>
B ow
B i
Ar men
vari ety</w>
valti ovar
tta ja</w>
to ja@@</w>
su ju@@</w>
su b</w>
strategi asta</w>
st one</w>
saavu tettu@@</w>
reci tal</w>
re mit</w>
rannik on</w>
päätöslausel mia</w>
plan et</w>
ohjel misto@@</w>
moot tor
man n</w>
lains ää
la ivan
ks e</w>
kka iden</w>
ka mis@@</w>
i vä@@</w>
i or</w>
gra ve</w>
foot ing</w>
elintarvikke ita</w>
edustus to@@</w>
di ox
defin itive</w>
com position</w>
benefic ial</w>
arvonlisä vero@@</w>
Tun isia@@</w>
T or
O omen</w>
Migu é
G ros
Dubl in</w>
ydin ase@@</w>
ttom at</w>
toimis to@@</w>
tilante ita</w>
tieteell isen</w>
t tyä</w>
siir tämis@@</w>
rejec ting</w>
reduc tions</w>
re viewed</w>
radi o</w>
puol ta</w>
pel kkä@@</w>
osoit uksen@@</w>
os uuden</w>
om u@@</w>
muu tto@@</w>
me ets</w>
marg in</w>
kuu kausi</w>
kohta isen</w>
kohe esi
kkä is@@</w>
ki ris
kalta inen</w>
ir s</w>
ing dor
inevi table</w>
in appropriate</w>
han kin
es ittävä@@</w>
eri arvois@@</w>
elä mä</w>
ef e</w>
comple tion</w>
char ter</w>
bir th</w>
asiakirjo ihin</w>
alis tis@@</w>
Slova kia</w>
P ur
Mic he
Liban on@@</w>
Bar ingdor
yri te@@</w>
uni la
u is@@</w>
ttom ien</w>
tta ma</w>
transa ctions</w>
ta i@@</w>
riko ksia</w>
ra tions</w>
r is</w>
qui er
quant ity</w>
pill ars</w>
pen ding</w>
os issa</w>
näky mät</w>
no lla</w>
n is
mo del
model s</w>
menetel mää</w>
maail maan</w>
maahanmuu ttaja@@</w>
lu pa</w>
le viä@@</w>
kong res
kemi all@@</w>
kasva va@@</w>
k ill</w>
itta is@@</w>
interven tions</w>
huomau tus@@</w>
globalis aatio@@</w>
ex tradition</w>
esti mate</w>
embar go</w>
elim iin</w>
consis ts</w>
ad ding</w>
Vene zu
L om
Garc ía</w>
Coun cils</w>
valtuu ksien</w>
täys istunto@@</w>
työs sä@@</w>
tehtä isi@@</w>
te e@@</w>
tari at</w>
ta ito@@</w>
stric ter</w>
sor kka@@</w>
soci ally</w>
sijo itta
sel l</w>
qu al
public ly</w>
poten tially</w>
pop ular</w>
ne esta</w>
mä ä@@</w>
kiinn ittämä@@</w>
kaks o
jun a@@</w>
is ual</w>
hä iri
han kinta@@</w>
fif th</w>
fea ture</w>
drin king</w>
compar able</w>
brea king</w>
boo k</w>
arran gement</w>
al ing</w>
Syy ria@@</w>
Pu tin</w>
Iz quier
20 .</w>
wis hed</w>
viik ko</w>
vallanku mou
tun nel</w>
toteu tettu@@</w>
til i@@</w>
tied ossa</w>
tekn iset</w>
tehtävä än</w>
realis ed</w>
re iden</w>
parliamen tarians</w>
ob taining</w>
la des
käytäntö jen</w>
kaksin kerta
hä mmen
elim ille</w>
collap se</w>
arvio i</w>
abor tion</w>
Ira k</w>
E P</w>
199 2</w>
0, @@</w>
vaati mu@@</w>
työ ryhmä</w>
ty mät@@</w>
tta nut</w>
tar jon
selven tää</w>
roko t@@</w>
rajo issa</w>
politiik at</w>
oun ds</w>
määräraho ista</w>
mukau ttamis@@</w>
ma illa</w>
koh telua</w>
kes kus</w>
jö ste
in ess</w>
i ha
huom an
horizon tal</w>
het ken</w>
ell ään</w>
delic ate</w>
d ness</w>
b ases</w>
assess ed</w>
alis oi@@</w>
T sa
S jöste
Can ada</w>
C un
Ar ticles</w>
yste m</w>
yrity ksissä</w>
yhd yt@@</w>
wor ried</w>
vall asta</w>
tun tia</w>
tul ta@@</w>
tig e@@</w>
tele viestintä@@</w>
ta ka
t teen</w>
strik es</w>
si iv@@</w>
selke yttä@@</w>
s tory</w>
reflec tion</w>
pää ll
our ing</w>
osapuol en</w>
oikeu tu@@</w>
lah jo
l oma@@</w>
kö yhdyt@@</w>
kollego ja</w>
kirjan pito@@</w>
investig ate</w>
indic ates</w>
c ope</w>
at z
aal i</w>
Pres tige@@</w>
Gu ate
yd y@@</w>
war m</w>
vaihe eseen</w>
va gue</w>
un a@@</w>
t in@@</w>
sur ma@@</w>
sie tämät@@</w>
pal uu@@</w>
packa ging</w>
osoitta utu
on e@@</w>
myönn yty
mur hen
murhen äy
m usta@@</w>
kul ke
koordin aatio@@</w>
join ed</w>
isyy dessä</w>
in put</w>
imper ative</w>
hos pi
hoita ma@@</w>
her ra@@</w>
fa ult</w>
d ä@@</w>
aff ir
Lam ass
H ag
Cancú n@@</w>
ty vät</w>
toim ikun
säh k
sähk ön</w>
shoul der</w>
ro ot</w>
resurs sien</w>
remain ed</w>
proc urement</w>
pp i</w>
ot tu</w>
lou ka@@</w>
liik keen</w>
kohd issa</w>
kier rä@@</w>
kat sa
ja ko</w>
istu im
initi ated</w>
im prison
id ak
gener ated</w>
entreprene ur
c k@@</w>
assu red</w>
arti fic
aloitte eseen</w>
ag ents</w>
ad a@@</w>
a u@@</w>
Y UT
T em
M at
Li ika@@</w>
ö i@@</w>
yd in</w>
wor th
w on</w>
vyö hy
taid o@@</w>
rul ing</w>
pysy vä</w>
prof ound</w>
perusoikeus kirja</w>
persu ade</w>
p inta@@</w>
ol et
n ö
mer it</w>
luonno s</w>
lin jaa</w>
laaj am
laajam ittais@@</w>
l ista</w>
ku t@@</w>
kiinnos tava@@</w>
k yy
ir responsible</w>
f light</w>
dre w</w>
contro lling</w>
civil ians</w>
char ged</w>
ac qui
Mar @@</w>
3 1.</w>
väki valla@@</w>
vil ta</w>
ve täyty@@</w>
ur t
tekniik kaa</w>
teh tyä</w>
tavo ittele@@</w>
tarkis tettava</w>
suur u@@</w>
suojel tava</w>
sol d</w>
ser ved</w>
ru ots
ruots alais@@</w>
rec ourse</w>
rec eption</w>
re plied</w>
quant ities</w>
pahen ta@@</w>
na mes</w>
kuoleman tuomio@@</w>
koulu tta@@</w>
ja ettu</w>
inn ä
ilu ala@@</w>
heik kene@@</w>
ga ther
em ed</w>
ear ning</w>
coun try
c attle</w>
audiov isual</w>
arvois en</w>
Ru ij
P eij
Na pol
Jac ks
G od</w>
F är
voima vara@@</w>
vi ha
viha miel@@</w>
val inta</w>
tömyy den</w>
tonn ik
to tali
tasa vallassa</w>
tarkka ava@@</w>
tapa uksista</w>
suo tu@@</w>
per secution</w>
näkö kohtiin</w>
nor mit</w>
ne y</w>
na inen</w>
mu isto@@</w>
ll er</w>
käynn isty@@</w>
kump i@@</w>
kri isistä</w>
koke ilu@@</w>
jouk koja</w>
he e@@</w>
han ded</w>
fam ous</w>
estima tes</w>
em paa@@</w>
ed u@@</w>
descri be</w>
dela yed</w>
cel eb
ce ase</w>
ben ch
ar t</w>
an ta</w>
alo ille</w>
Mé ndez</w>
Migué lez</w>
Li ik
La w</w>
K la
Bang lades
yty nyt</w>
y lis
wh olly</w>
up hold</w>
tä vät</w>
ty mään</w>
tom uudesta</w>
to x
sisä istä</w>
seka annu@@</w>
r u@@</w>
politiik alla</w>
onn an</w>
mis sible</w>
ministeri al</w>
merkin tö
liitt ou
la ito@@</w>
kur di@@</w>
is tettu@@</w>
inter n
ins truc
ih m@@</w>
ic ing</w>
hinn an</w>
govern ed</w>
for th</w>
el e@@</w>
availa bility</w>
Ti bet</w>
Taiw an@@</w>
O s
Milos evi
McK enna</w>
Buitenwe g</w>
Belgi a</w>
15 .</w>
työ t@@</w>
tr o</w>
teoll isuudelle</w>
te en@@</w>
sup plies</w>
suhte isiin</w>
strategi a@@</w>
seko itta@@</w>
s s</w>
ref us
rahoit ukseen</w>
quic k</w>
prote in</w>
pa an</w>
p al</w>
muod o@@</w>
mo i@@</w>
ma ito@@</w>
m iddle</w>
l ta@@</w>
koros ti@@</w>
kirjo it@@</w>
kaupan käynti@@</w>
k kää
ir o</w>
impor ted</w>
ilmas to@@</w>
identi fication</w>
hylkää mis@@</w>
gras s</w>
exper t</w>
enna k
elo kuva@@</w>
coordin ating</w>
conc essions</w>
an en</w>
alu ksia</w>
aik uis@@</w>
adjus tment</w>
ab and
Syri a</w>
S ala
O os
B our
yksik kö
vastu un
tää n@@</w>
täy ttävä@@</w>
toim ittama@@</w>
thin ks</w>
tel uun</w>
suunnitel mat</w>
suunn at@@</w>
sub scri
sinc ere</w>
simpli fied</w>
sensiti vity</w>
rinna lla</w>
respon ses</w>
respon ds</w>
reg imes</w>
raken tama@@</w>
pyy nnö
proportion ate</w>
prior it
periaatte ista</w>
kor jat
kohta ama@@</w>
kin tä@@</w>
kemik aali@@</w>
k ti@@</w>
investo inn
integro itu@@</w>
ih imme</w>
huume iden</w>
halua va@@</w>
fla gs</w>
el u@@</w>
disadvanta ged</w>
atz idak
addres ses</w>
abol ished</w>
S ten
S ar
Miche l</w>
In formation</w>
H atzidak
G M</w>
E l
B @@</w>
yl pe@@</w>
vuo delle</w>
vai vaa</w>
va j
tö myys</w>
täy nn@@</w>
tuot e</w>
terveyden hoito@@</w>
tek isi@@</w>
syrjä yty@@</w>
summ its</w>
r ar
pyy ntö@@</w>
profes sions</w>
par a
pa k
oikeu tettu</w>
occ up
kilpail uun</w>
keh ystä</w>
kansallis valtio@@</w>
jät tämä@@</w>
järky ttävä@@</w>
investoinn it</w>
in ven
in direct</w>
hyök kä
explic it</w>
el a@@</w>
derog ation</w>
depend ence</w>
b ul
Sve itsi@@</w>
Mercos ur</w>
Indones ia</w>
CO 2</w>
yksikö iden</w>
yhdeks än</w>
voima kas@@</w>
voim alo
voim a</w>
viljelijö itä</w>
u tilis
tuhan sien</w>
to isten</w>
sä te
sup ran
recogn ising</w>
r é
por tation</w>
pollu ter</w>
ph one</w>
mil tä</w>
meas u
lin ja@@</w>
lausun n
kas vien</w>
kalas tajat</w>
juh la@@</w>
huomio ita</w>
g n</w>
fal se</w>
eläkke iden</w>
elo ku@@</w>
ap s</w>
any where</w>
ali jäämä@@</w>
ak ko@@</w>
S ci
Guine a@@</w>
C us
z ero</w>
viis aa@@</w>
us sa@@</w>
tuleva isuuden@@</w>
tu m</w>
toim en</w>
tiiv istä@@</w>
ter ly</w>
tarkoit uksessa</w>
tar mo@@</w>
ta ite
t osta</w>
t itte</w>
survi ve</w>
s mu
s co
resurs sit</w>
re pression</w>
re moving</w>
ratkais tu</w>
pö yd
pro secution</w>
p ia</w>
myyd estä</w>
mer ki@@</w>
lää kintä@@</w>
le vo
kunnio ita@@</w>
kol mas
kiinte ä@@</w>
ka u@@</w>
järjestel miin</w>
huomau tus</w>
harjo ittava@@</w>
ero a</w>
d un</w>
bot tom</w>
atten ded</w>
W urt
Tou l
ä ä</w>
yksik ön</w>
w ai
vahvis tettu@@</w>
va kaa</w>
us ka
tur ns</w>
take et</w>
swi f
suos itus@@</w>
san ktio@@</w>
proble matic</w>
pidä ttä
ob ject</w>
news paper</w>
lop pu</w>
kid u
isim pien</w>
is tettu</w>
ing redi
ha ku@@</w>
elv yttämis@@</w>
ele men
ehd y@@</w>
e x</w>
deple ted</w>
demonstra tions</w>
alue elta</w>
O ly
N ev
Cong o</w>
8 00</w>
yleis sopimus@@</w>
vastus tu@@</w>
van ha</w>
val in
uks ista@@</w>
tro u
taa kse</w>
ta ku
spec u
slau ghter</w>
regis tration</w>
re z</w>
puu @@</w>
progres sive</w>
princi pal</w>
prefer red</w>
parann us@@</w>
pan os</w>
paik at</w>
o ika
määrä is@@</w>
multin ation
laito kset</w>
kriteer ejä</w>
kohd @@</w>
irregul arities</w>
inn u@@</w>
ilahd uttava@@</w>
i ä@@</w>
fo od
epä määräis@@</w>
cle an
bi ological</w>
arm ing</w>
Y K</w>
U gan
T R
Sen eg
Ri o</w>
Pro tection</w>
Or teg
Liik anen</w>
K o
For um</w>
yhteen veto@@</w>
välis issä</w>
vasta isessa</w>
v uudesta</w>
tunte ma@@</w>
ratifio inti@@</w>
mur der</w>
multination als</w>
mm illa</w>
markkino inti@@</w>
m its</w>
läh entä@@</w>
lis ted</w>
lap si
käyttä yty@@</w>
kokemu ksia</w>
ken en@@</w>
ition ally</w>
irtisan omis@@</w>
intoler able</w>
im plies</w>
hin taan</w>
fooru mi</w>
fer ences</w>
fav oured</w>
fashi on</w>
exer t</w>
accep ts</w>
R ec
Pla th</w>
Oos tlan
Mal m
Izquier do</w>
yksil ö@@</w>
verta is@@</w>
vaale ihin</w>
uu den
ty nee@@</w>
toim ille</w>
to wn</w>
tilo jen</w>
sääd ö@@</w>
sy iden</w>
sop eu
seik oista</w>
puh u</w>
n ur
määritel ty@@</w>
mä töntä</w>
koh telu</w>
interven tio@@</w>
integra l</w>
indus tri
incin eration</w>
id s</w>
hu i
hava inn@@</w>
gro ss</w>
fla g</w>
esään tö@@</w>
enterpris e</w>
ban a
b un
b @@</w>
arvo isia</w>
arvi on</w>
alo itettava</w>
alo ihin</w>
ajat telu@@</w>
aband on</w>
Feder al</w>
Bur ma@@</w>
2 1.</w>
voima varojen</w>
valmi it</w>
ur ged</w>
ur ch</w>
työ ohjelma@@</w>
statis tical</w>
smu gg
seik kojen</w>
saavu tu@@</w>
radio active</w>
pää lle
pyrkim ykset</w>
pi mis@@</w>
per he</w>
pakola isia</w>
op pon
op pimis@@</w>
ne isiin</w>
mieli pidettä</w>
luettel oa</w>
kuljet tajien</w>
kul j
kalas tus
inter ference</w>
in dis
gra de</w>
enthusias m</w>
enn us
enab les</w>
S ev
Mul der</w>
Kaliningra d@@</w>
J e
I NI</w>
I N
B SE@@</w>
0 7</w>
yks essä</w>
x 01
x01 7
x017 E</w>
tuotte ista</w>
tais tele@@</w>
s essions</w>
päivä stä</w>
philosoph y</w>
ot to</w>
mo ther</w>
min es</w>
jä te
itta v@@</w>
isku jen</w>
hyvä ksi
huon on@@</w>
hava ittav@@</w>
feed ing
ex posed</w>
em ä
ehdotuks emme</w>
doma in</w>
c ked</w>
bi an</w>
M au
K ir
Duisen berg</w>
viol ated</w>
vaali piiri@@</w>
tömä ksi</w>
tupa koi@@</w>
tuks @@</w>
tu ille</w>
tta miseksi</w>
teur as
tava lla@@</w>
ta la
suur en
suuren mo@@</w>
sa ving</w>
ruu h
refus al</w>
prerequ isite</w>
palvelu ihin</w>
olet taa</w>
nä ke@@</w>
lähd e</w>
luku isa@@</w>
käyte tty@@</w>
käy nti</w>
kulttuuri a</w>
kieli ä</w>
kid ut@@</w>
järjestel yt</w>
ikä vä@@</w>
heav ily</w>
ff ers</w>
en ted</w>
ell inen</w>
di verse</w>
compon ents</w>
c ture</w>
ali arvioi@@</w>
al enn
vähen n@@</w>
voca tes</w>
vat pa</w>
valmis televa@@</w>
u us
si ll
sana muoto@@</w>
rid ic
ras isti@@</w>
päte vä@@</w>
priorite etti@@</w>
poikke a@@</w>
on y
occu pa
mov es</w>
mo tor</w>
m it@@</w>
kollego ille@@</w>
kier rä
jau ho@@</w>
hon es
gu ard</w>
expen ses</w>
etene e</w>
ehdokas @@</w>
d il
brit tiläis@@</w>
adap ted</w>
a pe
a ms</w>
Var ela</w>
L in
J ean</w>
H o
G ra@@</w>
Bend it</w>
1 37</w>
val itsema@@</w>
un ta@@</w>
to dell
tiiv istä</w>
thou ghts</w>
terroris te@@</w>
suva itseva@@</w>
survi val</w>
suojel uun</w>
rac ist</w>
puol elle</w>
pro vo
pre gn
poten ti
pid entä@@</w>
part ner
mo ittee@@</w>
mis takes</w>
mahdoll isuudesta</w>
lo ck</w>
kre ikkalais@@</w>
kannus ti
ka ksi@@</w>
incredi bly</w>
in sul
ihmet tele@@</w>
guid ance</w>
e gu
dis placed</w>
d or</w>
comb ine</w>
all ies</w>
acqu ire</w>
Sch ro
Mau ri
I T
Bas ki
2 .
yksilö ll@@</w>
tyy tymät@@</w>
tu minen</w>
trans lation</w>
tin i</w>
sair astu@@</w>
renew al</w>
redund an
päälle kkäis@@</w>
pl ing</w>
pes si
os taa</w>
ope tuksen</w>
off ence</w>
määritel mää</w>
mo dest</w>
mis sed</w>
mar king</w>
lai va@@</w>
kulutta jan</w>
kollego jen</w>
jälj itet@@</w>
jus t@@</w>
i on
heiken ty@@</w>
er ra</w>
du ly</w>
contamin ation</w>
condem nation</w>
bann ing</w>
asu in@@</w>
ala isia</w>
a tu@@</w>
Y R
Pe ter
OS CE</w>
M O
In stitu
F YR
w ood</w>
vi ita@@</w>
vall it@@</w>
täsmen tä@@</w>
su o@@</w>
stra i
sihteer istö@@</w>
rikkom is@@</w>
re vi
ra dic
r het
rhet or
pa he
os aa@@</w>
ne eksi</w>
messa ges</w>
mas ta@@</w>
luettel oon</w>
lehd essä</w>
kollego ita@@</w>
ide ological</w>
histor ia</w>
ha itta@@</w>
f sta
enjo yed</w>
end ang
cre d
con sent</w>
asia an
aikataul u</w>
ad vocates</w>
Ste ven
19 .</w>
vir us</w>
vi id@@</w>
us er</w>
ulti mate</w>
tuotan toon</w>
te tä</w>
tavo ite@@</w>
tarv itsisi</w>
sähkö posti@@</w>
sano ista</w>
s pli
spli t</w>
rup t</w>
rec ru
ra c</w>
preced ent</w>
poliitik kojen</w>
paran e@@</w>
nn y@@</w>
nn ille</w>
nes ty</w>
mieh istö@@</w>
mat ch</w>
kulu n</w>
koheesi or
j os@@</w>
ho fsta
har mi@@</w>
fos si
fem ale</w>
exac erb
ern á
eir a</w>
dec ou
bio fuels</w>
as enn
am paa</w>
ag ing</w>
Ver hofsta
Napolitan o</w>
M as
Lon too@@</w>
G il</w>
Co de</w>
Cancú n</w>
A leg
1 3
wit z
va kiin
vakiin tu@@</w>
ur ities</w>
tuotann osta</w>
tuomioistuim een</w>
tuh outu@@</w>
te idät</w>
tah to</w>
ta ges</w>
sään tö@@</w>
ris ing</w>
r inna@@</w>
pää ssä</w>
psy ch
on er</w>
oikeudell iset</w>
näy ttö@@</w>
lää ke
l tä@@</w>
järjesty ksessä</w>
in va
im men
es teiden</w>
epärö i@@</w>
des ign</w>
communic ate</w>
comb ination</w>
ca mps</w>
ase et</w>
ak ko
Sing le</w>
Ludfor d</w>
Euro just@@</w>
Cas tro</w>
1 3.</w>
vis as</w>
vir he@@</w>
ven ture</w>
v yyttä</w>
une qui
unequi voc
tu uri</w>
tra ined</w>
toimis ton</w>
tieteell isesti</w>
ten sion</w>
tapahd u@@</w>
suhta utu
stran ge</w>
satis fy</w>
ri isu@@</w>
re verse</w>
rauhan turva@@</w>
pur kamis@@</w>
pec ted</w>
omaksu ma@@</w>
oikeusasia mies</w>
näke mä@@</w>
menetel mät</w>
luonn e</w>
lu e@@</w>
lo gi
liit tymä@@</w>
liikente estä</w>
ilmo itus@@</w>
ill i
haki joiden</w>
epäil evä@@</w>
ehkä istä</w>
di j
alle vi
Weg gen</w>
V all
ECH O@@</w>
B e
yks istä@@</w>
ve terinary</w>
tul vi@@</w>
ther to</w>
tau tien</w>
tap pi
säännös töä</w>
suh te@@</w>
rä ike
rakenn u@@</w>
pyrkim ys</w>
priva cy</w>
pla t
perhe en
palk innon</w>
palj astu@@</w>
pal jo@@</w>
ohjel mista</w>
notic ed</w>
miel tä@@</w>
mi ta@@</w>
ma lle</w>
kur in@@</w>
kollego ja@@</w>
kl and</w>
ke utu@@</w>
kats ottu@@</w>
hi therto</w>
guid ed</w>
bre ast</w>
balan ces</w>
auth or</w>
alli ance</w>
al koi</w>
aika taulu
acqui red</w>
ab road</w>
Washing ton@@</w>
T ob
Ques tions</w>
Morill on</w>
Kan ada@@</w>
Geor gia@@</w>
EM U</w>
Dec ision</w>
Alban ian</w>
7 00</w>
199 0</w>
é @@</w>
w ages</w>
val ittu@@</w>
uu sio@@</w>
un g</w>
tu g
toiminn a@@</w>
tekos yy@@</w>
tarkistu ksilla</w>
soverei gn</w>
reconc ile</w>
punis hment</w>
pessi mis
partner ships</w>
oh jaa@@</w>
nos te@@</w>
mma lle</w>
miel een</w>
men nä@@</w>
mean while</w>
läh en@@</w>
lor ries</w>
lob b
kunn issa</w>
kos k
kamp pa
itse va</w>
isi in@@</w>
hallit us@@</w>
h re
fores try</w>
consolid ation</w>
asia in</w>
Sch rö
P ri
Mauri tan
Man n</w>
Blo kland</w>
An der
y mp
val iko
vaik ke@@</w>
un its</w>
tuho isa@@</w>
toimintasuunnitel ma</w>
te is@@</w>
tarjo ttava</w>
surpris ing</w>
refor ming</w>
r ase</w>
ohjel missa</w>
määrä t</w>
mättö miä</w>
malar ia</w>
li fer
kokemu s</w>
kilomet ri@@</w>
kiel en</w>
keski viikko@@</w>
kein ona</w>
kaun i@@</w>
kats e@@</w>
kanna lla</w>
järjestel y</w>
erná ndez</w>
en ni
ear marked</w>
dedic ated</w>
de te
d u</w>
clos ing</w>
ch e</w>
car riers</w>
b al</w>
arbit r
T AC
Mon te
Ad ministra
30 .</w>
200 0@@</w>
vasta iseen</w>
täy den@@</w>
ty ksi</w>
tu v@@</w>
th row</w>
subjec ted</w>
solidaar isuus@@</w>
shar eh
selvi tettävä</w>
sata missa</w>
päätel miä</w>
puhe aika@@</w>
n an</w>
mis tään</w>
mekanis meja</w>
la je
käsitte e@@</w>
kun taa</w>
kau as
ja ko@@</w>
instituu ti
install ations</w>
ik enne</w>
hä ly
ge eni@@</w>
ensu red</w>
en dij
elä ker
el is</w>
der iv
der egu
consul tations</w>
centr alised</w>
ar isen</w>
adjus tments</w>
Sterck x</w>
Sala fran
Oly mp
Lag endij
Cong ress</w>
2 ,
yllä ttävä@@</w>
yhd ys@@</w>
vero ja</w>
val ku
vakau tta@@</w>
vaih tele@@</w>
up date</w>
tulo t</w>
teke mä</w>
te ty@@</w>
seem ed</w>
ro man
prof ile</w>
por tug
paik ka
paikka ansa</w>
paik alla@@</w>
p ity</w>
no issa</w>
mer gers</w>
meaning ful</w>
lin jo
kuunne lla</w>
kritiik kiä</w>
kehity ksessä</w>
ite tta@@</w>
hava itse@@</w>
fra me</w>
ent istä@@</w>
determin ing</w>
decentr alised</w>
con science</w>
cau ght</w>
ajat teli@@</w>
aj autu@@</w>
Si erra</w>
Sev es
S peci
Mag hre
Isra elis</w>
yleis maail
yleismaail ma
yleismaailma ll@@</w>
yhteisö ön</w>
wit ness</w>
w ns</w>
w all</w>
vastaan otto@@</w>
valmis ta
val ppa@@</w>
vaihto ehdo@@</w>
vahingo t</w>
tiu k
ten d
tech ni
te nne</w>
te ko</w>
takais in
riko ksista</w>
recor ded</w>
rakenn etta</w>
optimis tic</w>
mietinnö t</w>
mi ks
l y@@</w>
köyh ä@@</w>
käyte tä</w>
ku k
kolleg o@@</w>
indis pensa
harmon ising</w>
gener ate</w>
emphas ises</w>
discipl ine</w>
demokrat is
d ating</w>
coura geous</w>
consul t</w>
com for
aikataulu a</w>
acc eler
a pa
R ad
yllä t@@</w>
vil pi@@</w>
vas tin
var us
valuu tan</w>
tömä t</w>
tasa valta</w>
tai pu
sää nn
struc tured</w>
sto pped</w>
sopuso innu@@</w>
so vi
so oner</w>
ris ke
rinna k
rinnak kais
reinfor ced</w>
reac tions</w>
päästö t</w>
need less</w>
ne llä@@</w>
määrä yksen</w>
muodo t</w>
mietintö jä</w>
manoeuv re</w>
m id@@</w>
la ud
kaup pi
julk ista@@</w>
johdon mukaista</w>
is ations</w>
in vo
elin keino@@</w>
discover ed</w>
conven tional</w>
contribu tes</w>
a kti
L y
H aid
Gen oa</w>
yhden vertais@@</w>
witz er
witzer land</w>
vaihd on</w>
vai l</w>
täy tä</w>
tava a</w>
tarkka ilu@@</w>
suver enite
separ ation</w>
sad an</w>
run s</w>
ro mahta@@</w>
rangaistu s</w>
rajo ittava@@</w>
palk ki
on ic</w>
oikeu ksia@@</w>
näh tä@@</w>
neuvot tele@@</w>
mukau te@@</w>
mi xed</w>
manif es
maa talous</w>
lo i@@</w>
law yers</w>
laito ksia</w>
kumppan e
ksi ä@@</w>
koti ma@@</w>
kokemu kset</w>
ju oma@@</w>
j aan</w>
integra atio@@</w>
in ju
ik ko@@</w>
huolestu ttava</w>
hu olen</w>
harjo ittamis@@</w>
har @@</w>
h ec
forec as
ex act</w>
endeav ours</w>
civil isation</w>
any way</w>
S witzerland</w>
J a@@</w>
Cu ban</w>
Cas ac
Baski maa@@</w>
ympä ri</w>
yhtey det</w>
wee ken
vo ters</w>
van kien</w>
ud i</w>
toi vat</w>
te ra
tar tun
taa kseni</w>
ta g
suunnitel ma@@</w>
suor ittama@@</w>
suljet tu@@</w>
sel viä@@</w>
se lle</w>
saf er</w>
requ iring</w>
reme dy</w>
puol is
produc er</w>
pre vail</w>
pop ul
onnettomuu ksia</w>
ne istä</w>
meth od
lääkä ri@@</w>
lou d</w>
laad usta</w>
l es
käytäntö ä</w>
kalta isen</w>
juu r
jat @@</w>
itte lemä@@</w>
in ten</w>
ilmen tä@@</w>
identite etti@@</w>
human e</w>
hand led</w>
fooru min</w>
es ion</w>
dis gra
depen ding</w>
advoc ated</w>
Vitorin o@@</w>
Speci al</w>
So vi
J acqu
Coh esion</w>
A F
äänestys sel
y tun
vied ä@@</w>
vastu sta</w>
vaih televa@@</w>
ut ti</w>
tutkim uksessa</w>
tu misen</w>
tu lla@@</w>
trans position</w>
sy vällis@@</w>
summ ary</w>
subsi dy</w>
sorkka tauti@@</w>
se ats</w>
roh ke@@</w>
rannik o@@</w>
pyy tämä@@</w>
puhemi es@@</w>
osa valtio@@</w>
mu tte
l ike
kysel ytun
kal tais
johd u</w>
jo ilta</w>
ingredi ents</w>
ill ä@@</w>
gro wn</w>
gi d</w>
floo ds</w>
en forced</w>
eläker ahasto@@</w>
ehkäis emis@@</w>
e ko</w>
distor tions</w>
comple x
com pris
attrac tive</w>
an na
aktiiv inen</w>
aff air</w>
Sovi et</w>
Par is</w>
Nic hol
E R</w>
Araf at@@</w>
ä is@@</w>
wis hing</w>
vuoti a
usko ttava@@</w>
tuber ku
ttömä t</w>
tor @@</w>
taa kse@@</w>
säte ily@@</w>
suunn it@@</w>
suun taa</w>
super visory</w>
sun luu@@</w>
ri gid</w>
regula ting</w>
pyy d
plur alism</w>
mul a</w>
mi grants</w>
like wise</w>
kalastus laivasto@@</w>
jul kaise@@</w>
indispensa ble</w>
gir ls</w>
gen ous</w>
exemp tions</w>
enn etty</w>
eng ine
en tal</w>
eläim et</w>
edellyty sten</w>
doll ar</w>
broad cas
Sch mid@@</w>
Sa udi</w>
Leban on</w>
L earning</w>
Erik a@@</w>
äänes täjä@@</w>
väes töä</w>
ver en</w>
uudelleen järjestely@@</w>
u teen</w>
u or
tuomioistu inten</w>
techn ically</w>
tan s
symb oli@@</w>
su t</w>
sta nne</w>
sit te</w>
rekisterö i@@</w>
pay anna
ma kers</w>
lu otto@@</w>
lu omis@@</w>
legiti imi@@</w>
kulke va@@</w>
kulje tuksia</w>
j ilta</w>
is lands</w>
ic ation</w>
hyök käy@@</w>
hous es</w>
harjoitta jien</w>
hallinn an</w>
get ing</w>
food stuffs</w>
feeding stuffs</w>
fac es</w>
f ar
expres ses</w>
ex pe
epä selvä@@</w>
demo graphic</w>
da c</w>
Sch ul
Par agrap
Pa payanna
L IF
K ou
Euro dac</w>
välis istä</w>
vastuun tunto@@</w>
ud es</w>
typ ical</w>
tuot tajat</w>
tukahd u@@</w>
todis tus@@</w>
teac hers</w>
tari ff</w>
t tämä@@</w>
swif tly</w>
suunn ittele@@</w>
suor a</w>
suojel ema@@</w>
sub stitu
so il</w>
si xth</w>
se at</w>
resor t</w>
re luc
ras it@@</w>
rahoit us
puoli väli@@</w>
periaatte isiin</w>
per ip
pan i@@</w>
paino arvo@@</w>
p yh
p ir
overwhel ming</w>
or ia@@</w>
odo tuksia</w>
ob struc
luok it@@</w>
kulutta ja</w>
ik e</w>
formu lated</w>
derog ations</w>
confir ms</w>
com mod
brea ks</w>
be ars</w>
asiantunti jat</w>
as en
alue ella@@</w>
alis tu@@</w>
afrik kalais@@</w>
YUT P@@</w>
yty s@@</w>
vä n
voim an@@</w>
ver kko@@</w>
velvo ite@@</w>
uvos to</w>
tut kin
tta vista</w>
to pic
t kö</w>
stor age</w>
sit ova</w>
reg iste
registe red</w>
positi vely</w>
perip her
palvelu ista</w>
paket tia</w>
omis ta
nö yr
multi annual</w>
mieh ille</w>
lo gic</w>
lo ading</w>
ll isiksi</w>
liikente eseen</w>
le vi@@</w>
korkea taso@@</w>
koke musten</w>
ko tou
kannatta ja@@</w>
inte rac
in directly</w>
fas ter</w>
explo ited</w>
esit teli</w>
emer ging</w>
edusta ma@@</w>
den oun
conclu ding</w>
comple ment</w>
alu lle</w>
alo ittamis@@</w>
aika ista</w>
ad here</w>
Seves o</w>
D e@@</w>
Commun ities</w>
A la
ylpe ä</w>
yhti ön</w>
yhti ö</w>
wh ite</w>
w est</w>
vä ll@@</w>
vetoom uksen</w>
ven e@@</w>
täy te@@</w>
toteu tettava@@</w>
toimin nalle</w>
til an</w>
tarkas tajien</w>
slow ly</w>
se ed</w>
s sä
s pa
reser ves</w>
r an@@</w>
qual itative</w>
p act</w>
oso itettu@@</w>
määrä aika</w>
muslim i@@</w>
mon ella</w>
min im
llis istä</w>
llis ina</w>
liittol ais@@</w>
li ene
le illa</w>
klo on
ka h@@</w>
k ris
julis tuksessa</w>
inves ted</w>
hou kut@@</w>
ehdo ista</w>
edusta va@@</w>
e tää
doc tors</w>
disap pointment</w>
differ ing</w>
destro ying</w>
der i
asbes ti@@</w>
ala ista</w>
ai empi@@</w>
San ders</w>
Mo z
L e</w>
L ang
L @@</w>
Jacqu es</w>
Gale ote</w>
EI P@@</w>
yhteen sopi@@</w>
worth while</w>
ug ab
tu neet</w>
supple ment</w>
stre am
ssä ni</w>
sod asta</w>
sa toja</w>
rou tes</w>
rikka iden</w>
ri er</w>
puol usta
parad o
pa kkaus@@</w>
p ör
optimis ti@@</w>
oike an
oikean suunta@@</w>
nation ality</w>
mom en
mme kö</w>
met sien</w>
mahdollisuu ksista</w>
kä de@@</w>
kil pa@@</w>
kiintiö iden</w>
ito jen</w>
it ä
häv ittämis@@</w>
fos ter</w>
cot ton</w>
continu ity</w>
av un@@</w>
au l</w>
V @@</w>
T š
S il
Ne uvosto@@</w>
N @@</w>
M ugab
Ki ina</w>
Jos é</w>
Hag ue</w>
F IF
Esta ing</w>
Ca uc
Bosni a@@</w>
viik kojen</w>
valtiovar ain
täy tty@@</w>
tur vaa</w>
tul o</w>
tu mista</w>
trou ble</w>
te o
s ysä
ro mu@@</w>
relation ships</w>
ran kaise@@</w>
määr ittelemä@@</w>
mu iden@@</w>
mis el
lause ke</w>
kumppan uus</w>
kka ampaa</w>
kes to@@</w>
kauas kanto@@</w>
johdon mukais@@</w>
jal ostus@@</w>
it ään</w>
ilmas ton
il misel
[...]
