the 949006
, 677425
. 480303
of 444506
to 425609
and 347104
in 299758
that 227547
a 214991
is 213416
we 148290
this 141571
for 141115
I 138485
on 130880
it 116873
be 115917
are 96149
as 91808
have 90483
not 86520
which 86128
with 81694
@-@ 68630
by 68162
European 65932
will 65591
has 58817
Mr 54115
at 48399
Commission 46698
an 44761
would 43774
all 42130
also 40914
&apos; 40618
- 40549
but 39425
should 38528
our 38378
President 38002
from 37978
must 37918
there 34720
been 34472
you 32207
Parliament 30546
or 29719
can 29642
Union 29389
these 29228
Council 28474
was 28142
&apos;s 27959
they 27612
do 27603
more 27599
its 26990
report 26495
what 26348
like 26345
if 25913
States 25419
their 25270
Member 24307
one 24047
so 23798
very 23699
countries 22180
my 21940
s 21802
other 20652
us 20521
Europe 20445
about 20000
who 19586
only 19232
no 19055
need 18283
up 18193
time 17740
people 17738
now 17673
because 17534
) 17476
policy 17423
( 17347
? 17219
therefore 17036
: 17033
important 16619
out 16426
new 16240
am 16169
such 15609
take 15605
when 15598
however 15493
make 15463
work 15288
EU 14989
those 14855
any 14746
some 14739
into 14493
between 14482
being 14428
support 14305
way 14128
Commissioner 13927
first 13483
made 13323
them 13197
proposal 13125
were 12969
than 12949
political 12870
believe 12454
say 12346
point 12109
many 12092
fact 11854
issue 11819
rights 11811
debate 11592
Committee 11517
/ 11510
just 11346
against 11250
able 11247
even 11159
does 10754
question 10688
two 10601
well 10528
right 10514
order 10251
economic 10236
had 10191
here 10079
; 10037
want 9995
public 9991
years 9985
how 9888
development 9873
could 9848
un@@ 9833
social 9824
me 9820
Mrs 9814
think 9811
cannot 9799
situation 9695
same 9627
possible 9616
re@@ 9587
said 9579
part 9572
ing 9558
within 9558
where 9552
future 9538
too 9446
country 9435
human 9427
year 9421
already 9410
es 9372
today 9300
Community 9262
over 9259
most 9251
measures 9186
much 9176
still 9061
clear 9059
ted 9042
view 9002
directive 8942
market 8927
ed 8848
use 8826
he 8816
why 8799
course 8780
both 8647
national 8641
under 8626
then 8621
taken 8564
know 8527
common 8449
vote 8411
his 8400
hope 8369
good 8295
case 8288
t 8239
last 8125
your 8094
own 8042
citizens 8009
see 8006
in@@ 7978
may 7918
world 7886
particular 7870
amendments 7748
system 7741
place 7730
process 7728
thank 7723
agreement 7648
rapporteur 7639
number 7623
before 7607
cooperation 7592
information 7517
international 7469
means 7467
without 7405
given 7376
example 7375
ting 7292
position 7276
area 7274
issues 7250
put 7240
level 7186
United 7179
great 7156
end 7149
ensure 7137
action 7116
&quot; 7088
problem 7074
far 7018
House 7000
give 6941
financial 6848
since 6810
regard 6791
gentlemen 6742
ladies 6691
problems 6652
proposals 6640
matter 6633
through 6580
set 6575
long 6550
% 6505
legal 6463
again 6456
whether 6346
necessary 6321
decision 6303
aid 6265
b@@ 6263
particularly 6226
Members 6223
law 6211
ts 6193
after 6181
s@@ 6181
areas 6175
certain 6163
basis 6075
adopted 6049
further 6003
present 5982
women 5905
respect 5900
budget 5874
c@@ 5831
legislation 5816
next 5780
done 5778
e 5771
resolution 5769
programme 5754
terms 5694
security 5676
different 5656
er 5643
behalf 5632
concerned 5596
protection 5551
y 5543
ation 5516
rules 5496
making 5469
wish 5434
subject 5422
opinion 5416
ask 5406
group 5394
services 5339
role 5339
framework 5332
let 5320
safety 5289
S@@ 5278
come 5266
something 5261
State 5247
going 5223
quite 5206
Group 5185
proposed 5157
few 5142
three 5114
sector 5106
second 5105
whole 5092
shall 5083
principle 5079
working 5068
dis@@ 5059
health 5040
progress 5038
clearly 5035
go 5010
enlargement 5005
specific 4983
agree 4980
another 4975
used 4945
down 4924
institutions 4862
2001 4855
better 4854
continue 4848
g@@ 4803
result 4761
Convention 4744
Presidency 4721
No 4714
every 4703
once 4701
approach 4690
rather 4687
forward 4658
favour 4591
general 4591
regulation 4589
did 4585
welcome 4577
environmental 4561
current 4542
employment 4541
transport 4536
during 4531
state 4507
towards 4497
Treaty 4478
together 4471
million 4468
needs 4427
committee 4424
e@@ 4419
Madam 4410
based 4397
especially 4381
ated 4369
account 4349
itself 4347
greater 4343
importance 4338
finally 4338
conditions 4330
points 4329
A@@ 4322
help 4321
Affairs 4310
d@@ 4299
least 4294
each 4293
trade 4293
yet 4280
2000 4273
responsibility 4266
less 4265
third 4264
really 4257
deal 4248
having 4238
although 4216
provide 4190
resources 4144
authorities 4139
C@@ 4131
taking 4105
find 4100
peace 4096
industry 4095
serious 4093
become 4079
al 4078
indeed 4076
fully 4074
opportunity 4062
increase 4055
products 4051
including 4028
o 4028
always 4003
various 3999
government 3996
EUR 3982
amendment 3978
ate 3956
achieve 3946
regions 3939
control 3929
allow 3922
research 3916
reform 3909
policies 3908
procedure 3901
words 3884
call 3872
large 3858
2002 3850
high 3841
society 3840
difficult 3834
competition 3829
de@@ 3825
term 3822
interests 3808
her 3804
hand 3797
negotiations 3794
reason 3789
involved 3784
concerns 3782
access 3777
m 3769
fundamental 3766
1 3762
form 3748
l 3747
money 3741
major 3734
back 3730
things 3728
essential 3722
change 3706
certainly 3699
following 3699
get 3696
decisions 3695
small 3695
environment 3686
field 3683
democratic 3683
real 3679
extremely 3670
accept 3666
companies 3649
while 3636
concern 3627
initiative 3621
D@@ 3610
positive 3607
aware 3605
effective 3601
look 3576
attention 3572
consider 3565
implementation 3557
democracy 3552
objectives 3531
Article 3516
ers 3503
an@@ 3499
full 3497
quality 3490
im@@ 3490
Office 3464
ro@@ 3442
food 3441
majority 3434
a@@ 3425
objective 3423
M@@ 3414
simply 3410
internal 3395
efforts 3395
p@@ 3394
might 3387
step 3384
energy 3362
freedom 3348
f@@ 3345
free 3335
ating 3324
open 3323
day 3314
t@@ 3311
often 3307
voted 3305
tions 3296
upon 3294
interest 3291
tion 3290
strategy 3287
feel 3285
agreements 3275
mentioned 3270
text 3268
solution 3266
line 3260
called 3241
h@@ 3232
perhaps 3229
others 3216
terrorism 3213
questions 3210
economy 3210
Government 3203
R@@ 3197
developing 3187
ar@@ 3183
recent 3178
meeting 3173
risk 3155
best 3144
ago 3141
war 3139
programmes 3138
en@@ 3138
groups 3129
start 3110
ity 3109
actually 3105
dialogue 3095
power 3093
bring 3091
available 3088
w@@ 3082
T@@ 3080
P@@ 3079
force 3065
2003 3064
k 3062
life 3060
secondly 3057
management 3048
workers 3045
Amendment 3038
responsible 3029
thing 3022
themselves 3019
understand 3005
appropriate 3002
funds 2999
d 2996
agricultural 2996
matters 2993
concerning 2988
B@@ 2985
Rights 2983
members 2978
F@@ 2976
fight 2975
cases 2969
currently 2963
doing 2961
region 2953
reports 2952
relations 2951
create 2947
parties 2938
single 2917
G@@ 2914
ti@@ 2912
context 2905
2 2905
firstly 2896
regional 2888
Court 2873
months 2863
te 2847
draft 2837
improve 2816
ab@@ 2805
mis@@ 2798
standards 2798
due 2797
reasons 2790
nothing 2789
states 2764
systems 2763
production 2757
main 2756
kind 2749
final 2748
i@@ 2745
children 2745
over@@ 2743
ent 2741
non 2733
period 2731
longer 2730
! 2723
th@@ 2713
as@@ 2705
education 2702
mean 2701
ds 2697
though 2693
legislative 2683
local 2678
achieved 2676
compromise 2669
principles 2668
governments 2668
regarding 2661
moment 2660
results 2658
y@@ 2655
prevent 2650
little 2649
organisations 2642
al@@ 2641
ge 2634
congratulate 2632
ex@@ 2623
joint 2615
agenda 2612
sustainable 2605
military 2601
communication 2601
tomorrow 2597
lead 2588
aspects 2585
enough 2579
relation 2579
E@@ 2577
past 2576
above 2576
effect 2575
for@@ 2575
tabled 2571
comes 2568
candidate 2568
crisis 2565
true 2558
growth 2555
o@@ 2554
L@@ 2542
regards 2527
makes 2525
apply 2524
needed 2522
agreed 2518
ding 2517
idea 2514
priority 2512
sure 2509
commitment 2498
individual 2494
lack 2484
off 2477
key 2476
3 2472
costs 2472
furthermore 2466
Turkey 2465
Iraq 2464
excellent 2462
N@@ 2455
ourselves 2455
activities 2452
m@@ 2450
discussion 2445
water 2441
ter 2439
play 2437
she 2435
until 2435
everyone 2434
guarantee 2433
special 2428
act 2423
red 2410
u@@ 2409
Conference 2406
ra@@ 2403
er@@ 2401
fishing 2401
co@@ 2400
provided 2399
despite 2398
ad@@ 2397
funding 2394
ous 2393
unfortunately 2392
Party 2390
accession 2389
ded 2388
seen 2387
on@@ 2377
projects 2374
him 2365
several 2363
service 2362
balance 2357
i 2355
practice 2354
contribution 2353
technical 2352
plan 2350
include 2350
presented 2349
adopt 2349
ten 2346
held 2334
crucial 2333
sense 2330
short 2327
share 2316
ta@@ 2314
ch@@ 2311
civil 2310
impact 2304
addition 2299
aim 2298
provisions 2297
conflict 2295
express 2290
carried 2286
li@@ 2274
immigration 2273
stage 2271
ri@@ 2269
consumers 2263
con@@ 2262
promote 2261
significant 2257
tive 2255
statement 2255
nor 2255
population 2252
soon 2251
1999 2250
procedures 2249
either 2245
UN 2245
euro 2241
never 2239
p 2237
transparency 2237
according 2234
de 2230
integration 2226
item 2215
ma@@ 2214
or@@ 2214
fisheries 2209
try 2209
everything 2207
foreign 2206
age 2198
Summit 2197
nature 2194
I@@ 2194
la@@ 2190
seems 2188
asked 2188
ations 2185
markets 2180
remain 2178
response 2171
border 2170
saying 2169
old 2166
colleagues 2166
reading 2165
mind 2164
move 2164
Minister 2164
benefit 2163
consumer 2159
000 2158
H@@ 2157
budgetary 2147
answer 2143
11 2135
expressed 2126
A5 2126
actions 2126
required 2123
15 2120
basic 2119
using 2113
raised 2112
voting 2110
existing 2109
global 2106
el@@ 2105
request 2104
thus 2104
speak 2103
ic@@ 2100
throughout 2086
is@@ 2085
5 2084
pay 2076
led 2076
farmers 2076
training 2068
task 2068
establish 2062
success 2059
instead 2054
poverty 2054
Policy 2051
ly 2047
increasing 2046
established 2044
pleased 2040
closed 2036
data 2033
list 2033
prepared 2022
cultural 2021
labour 2017
4 2014
n@@ 2013
previous 2008
be@@ 2008
young 2002
light 2002
effort 2002
five 2001
business 2000
road 1999
reached 1998
di@@ 1998
tax 1994
criteria 1993
application 1990
Lisbon 1986
re 1984
changes 1983
namely 1982
initiatives 1981
coming 1979
ment 1976
equal 1976
10 1975
requirements 1972
asylum 1972
decided 1971
ever 1967
among 1965
O@@ 1964
12 1962
approved 1959
waste 1959
pre@@ 1955
doubt 1954
justice 1954
project 1952
consequences 1948
regulations 1945
men 1944
values 1942
close 1940
representatives 1940
presidency 1940
stability 1939
around 1936
implemented 1935
included 1931
whose 1928
moreover 1927
relating 1922
four 1919
Russia 1917
week 1917
rule 1916
French 1911
2@@ 1910
monitoring 1909
recently 1907
n 1907
note 1905
draw 1903
illegal 1901
mention 1900
Nations 1897
coordination 1897
g 1895
face 1894
honourable 1891
September 1888
Mediterranean 1885
external 1885
cost 1884
keep 1884
community 1880
ol@@ 1880
extent 1877
ec@@ 1868
amount 1865
private 1865
completely 1865
nevertheless 1864
tes 1863
defence 1863
thanks 1860
es@@ 1859
table 1857
East 1857
date 1856
develop 1855
violence 1855
K@@ 1853
est 1852
times 1851
address 1851
assistance 1850
cause 1847
z@@ 1846
priorities 1845
res 1843
practical 1843
elections 1843
guidelines 1841
crime 1839
solidarity 1834
ally 1831
powers 1831
France 1830
conclusion 1826
precisely 1823
absolutely 1823
strong 1823
res@@ 1821
pressure 1819
20 1816
took 1812
protect 1811
ac@@ 1809
talking 1809
live 1808
le 1806
ap@@ 1806
almost 1806
nuclear 1806
giving 1804
fellow 1802
Spanish 1800
connection 1800
investment 1799
jobs 1797
meet 1793
te@@ 1792
le@@ 1789
follow 1789
creation 1786
takes 1782
across 1782
received 1777
value 1775
considered 1775
2004 1773
levels 1770
focus 1769
air 1768
capacity 1768
reduce 1764
tell 1763
show 1761
he@@ 1761
per@@ 1760
demand 1759
experience 1756
turn 1756
id@@ 1752
scope 1751
quickly 1750
discussed 1749
left 1749
specifically 1746
trans@@ 1746
r@@ 1745
increased 1744
ise 1740
6 1736
direction 1736
reality 1735
under@@ 1733
found 1733
rate 1731
lo@@ 1728
als 1727
talk 1726
applied 1723
behind 1723
Nos 1721
document 1720
self 1720
reference 1719
liberalisation 1718
ges 1713
implement 1710
si@@ 1709
accordance 1707
reach 1706
borders 1705
away 1705
days 1699
der 1695
unacceptable 1695
victims 1694
movement 1692
job 1690
instruments 1690
ence 1688
V@@ 1687
knowledge 1686
conclusions 1685
brought 1684
h 1681
add 1678
ters 1678
up@@ 1676
parliamentary 1675
stated 1672
proper 1671
discussions 1671
developed 1670
late 1669
en 1667
assessment 1665
ful 1664
k@@ 1663
oil 1660
opportunities 1657
effects 1656
relevant 1654
Brussels 1651
ha@@ 1651
Nice 1651
animal 1650
direct 1648
criminal 1647
sectors 1647
enable 1647
December 1646
forms 1646
American 1643
side 1642
known 1641
events 1640
discuss 1633
op@@ 1632
propose 1630
comments 1629
instrument 1629
tic 1629
considerable 1624
ings 1623
possibility 1620
WTO 1619
tra@@ 1617
along 1617
type 1616
heard 1614
30 1613
overall 1612
reforms 1610
outside 1608
review 1606
agriculture 1606
ying 1601
7 1599
treatment 1599
additional 1594
price 1594
supported 1591
et 1590
circumstances 1589
ve 1589
tors 1588
Directive 1587
authority 1583
ten@@ 1582
participation 1581
creating 1581
carry 1580
family 1573
motion 1572
referred 1571
consideration 1571
l@@ 1571
General 1568
tri@@ 1563
sh@@ 1559
myself 1559
yesterday 1559
Israel 1559
ies 1558
trying 1558
affected 1557
model 1557
land 1555
avoid 1553
speaking 1552
00@@ 1552
pi@@ 1551
ble 1550
provision 1548
Justice 1548
accepted 1546
fair 1544
50 1542
World 1540
content 1538
animals 1536
W@@ 1534
US 1533
king 1532
stand 1531
difficulties 1528
ans 1526
half 1525
wanted 1525
huge 1522
se@@ 1522
complete 1521
total 1520
Palestinian 1520
encourage 1516
cohesion 1514
purpose 1513
obviously 1513
ir@@ 1511
qu@@ 1510
Charter 1509
views 1507
goes 1506
25 1503
active 1503
humanitarian 1500
confidence 1499
hard 1499
party 1499
genuine 1498
documents 1498
ban 1497
ways 1493
begin 1493
allowed 1491
administrative 1490
plans 1489
per 1489
sion 1486
x 1485
poor 1485
urgent 1481
potential 1481
care 1481
structural 1480
discrimination 1478
six 1477
Africa 1477
ability 1476
Security 1474
anything 1473
sa@@ 1470
rightly 1467
death 1466
inter@@ 1466
ary 1466
billion 1466
sufficient 1464
Italian 1464
partners 1463
building 1462
8 1462
gu@@ 1461
event 1461
looking 1461
offer 1461
Ireland 1460
ag@@ 1458
intended 1457
beginning 1457
sort 1455
ments 1455
damage 1452
method 1452
forces 1448
setting 1446
session 1445
demands 1445
dealing 1444
limited 1443
organisation 1442
Regulation 1442
status 1441
vital 1440
B5 1440
lot 1439
implementing 1439
America 1438
to@@ 1437
scientific 1436
remind 1435
paid 1435
regime 1434
refer 1433
car@@ 1431
ic 1431
v@@ 1430
broad 1428
remains 1428
ality 1427
ance 1423
1@@ 1422
stress 1420
Republic 1419
combat 1418
receive 1418
expect 1416
su@@ 1414
minimum 1413
commitments 1413
vi@@ 1412
Germany 1412
return 1411
Bank 1411
police 1410
comment 1409
A 1408
definition 1407
sta@@ 1406
committed 1405
at@@ 1403
risks 1400
summit 1398
measure 1395
lines 1394
cross 1394
speech 1391
seriously 1391
medium 1391
pa@@ 1391
19@@ 1391
directives 1388
effectively 1388
establishing 1387
Paper 1386
prevention 1384
Amendments 1383
sitting 1382
acceptable 1382
reduction 1380
Middle 1380
pointed 1379
institutional 1379
no@@ 1374
ce 1373
sometimes 1370
Environment 1370
strengthen 1368
directly 1368
package 1368
com@@ 1367
decide 1366
living 1366
ian 1366
beyond 1365
staff 1364
personal 1362
Agreement 1362
created 1358
bo@@ 1357
technology 1356
message 1355
rec@@ 1355
highly 1354
pro@@ 1353
stop 1353
Irish 1352
improving 1351
ant 1349
British 1347
contribute 1346
organised 1346
ci@@ 1345
us@@ 1344
Prodi 1344
happen 1343
ine 1343
providing 1343
requires 1343
applies 1341
respond 1340
related 1338
hold 1335
alone 1334
ll@@ 1332
recognise 1332
limit 1331
activity 1330
MEPs 1330
maintain 1330
traffic 1328
provides 1328
balanced 1328
J@@ 1327
developments 1326
bodies 1325
Development 1324
ks 1323
aspect 1322
ism 1322
word 1320
discussing 1320
annual 1319
ensuring 1318
delegation 1318
fish 1317
9 1314
Human 1314
shown 1313
r 1313
ty 1313
ter@@ 1312
expenditure 1312
et@@ 1311
outcome 1309
June 1309
businesses 1309
parliaments 1308
Ministers 1307
earlier 1306
emphasise 1306
weapons 1306
produced 1305
Spain 1305
alised 1304
contrary 1304
language 1304
regret 1303
tan@@ 1303
produce 1303
tor 1302
later 1299
concept 1299
lastly 1298
successful 1296
body 1295
analysis 1292
calls 1292
independent 1292
urge 1291
caused 1291
China 1291
13 1290
closely 1288
Democrats 1287
Rules 1286
leave 1286
require 1286
exist 1286
man 1284
International 1284
ins 1282
early 1279
ins@@ 1279
similar 1278
entire 1277
natural 1276
ia 1276
culture 1275
par@@ 1273
C5 1271
laid 1271
increasingly 1270
study 1269
whom 1268
positions 1267
naturally 1265
networks 1264
consultation 1264
reply 1264
lives 1263
flexibility 1260
useful 1258
rural 1258
adoption 1258
join 1257
happened 1257
challenge 1256
press 1254
sensitive 1254
fall 1252
Swedish 1252
probably 1250
Central 1248
Foreign 1248
appear 1247
product 1246
solutions 1246
il@@ 1245
history 1245
scale 1244
responsibilities 1243
ates 1242
parts 1240
colleague 1240
ur@@ 1239
person 1239
Greece 1236
properly 1235
capital 1232
sanctions 1231
thought 1230
fi@@ 1229
steps 1228
morning 1228
paragraph 1227
dangerous 1227
gives 1227
thinking 1227
dealt 1222
resolutions 1219
attempt 1219
wrong 1217
company 1217
board 1217
achieving 1216
prices 1216
co 1216
partnership 1215
goods 1214
calling 1214
home 1212
wants 1212
thirdly 1211
os@@ 1211
low 1209
drawn 1208
manner 1207
ms 1206
na@@ 1205
rest 1204
disease 1204
ver@@ 1203
Fund 1203
network 1203
ical 1200
convinced 1199
Mar@@ 1198
pension 1198
May 1197
ground 1196
consensus 1194
elements 1193
critical 1193
em@@ 1193
Afghanistan 1192
actual 1190
tu@@ 1190
benefits 1189
C 1187
higher 1187
b 1186
South 1186
name 1186
Social 1183
met 1182
spirit 1182
becoming 1182
administration 1181
promoting 1181
weeks 1181
rapporteurs 1178
neither 1178
improved 1177
conclude 1177
else 1177
Procedure 1176
duty 1176
equality 1175
om@@ 1175
addressed 1174
introduced 1172
cut 1172
iting 1171
.@@ 1170
inc@@ 1170
laws 1166
min@@ 1166
failure 1165
Health 1164
gh@@ 1164
combating 1164
represent 1163
submitted 1162
introduction 1162
relationship 1162
terrorist 1162
har@@ 1161
whilst 1160
ents 1158
introduce 1158
ch 1158
hear 1157
desire 1150
seek 1149
el 1149
involving 1148
it@@ 1147
alisation 1147
January 1146
recognition 1146
judicial 1146
central 1145
rail 1144
sound 1144
informed 1144
ently 1143
methods 1142
ess 1141
run 1140
The 1140
says 1138
ked 1138
evidence 1137
supply 1135
va@@ 1134
opening 1133
understanding 1132
competitive 1131
ou@@ 1131
efficient 1130
refugees 1130
Italy 1126
UK 1126
14 1125
happy 1124
fication 1124
wide 1124
otherwise 1124
media 1123
alternative 1122
intervention 1120
substantial 1120
nonetheless 1119
unable 1118
bear 1117
industrial 1116
entirely 1115
raise 1115
asking 1115
differences 1114
Pact 1114
sea 1113
exactly 1113
shows 1112
threat 1112
disaster 1111
supporting 1111
financing 1110
intention 1110
enormous 1107
operation 1106
Constitution 1105
01@@ 1104
mainly 1104
big 1104
ought 1103
Economic 1102
ously 1100
Internet 1100
degree 1099
substances 1099
recognised 1098
remember 1097
mon@@ 1095
trafficking 1095
totally 1094
lation 1094
Public 1094
ge@@ 1093
ness 1093
trust 1093
establishment 1092
commercial 1091
repeat 1088
leaders 1087
cor@@ 1086
ones 1086
debates 1086
March 1084
ling 1084
closer 1083
danger 1083
02@@ 1083
statements 1082
anyone 1081
speakers 1080
getting 1080
anti 1080
choice 1079
Intergovernmental 1078
plenary 1077
reject 1077
ul@@ 1076
conference 1075
fund 1074
worked 1074
Funds 1073
In@@ 1071
influence 1070
mission 1070
ahead 1069
tly 1068
opposition 1068
structure 1067
seem 1067
member 1066
People 1066
reducing 1065
safe 1064
her@@ 1063
ports 1062
unemployment 1062
signed 1062
adopting 1061
3@@ 1061
meetings 1060
COM 1059
Structural 1059
med 1059
added 1058
former 1058
pollution 1058
contains 1057
immediately 1057
works 1055
extend 1055
November 1054
read 1054
cover 1054
les 1053
simple 1052
discharge 1052
O 1051
sc@@ 1051
told 1050
subsidies 1050
emissions 1050
out@@ 1047
climate 1046
Kingdom 1046
ged 1046
appears 1046
correct 1045
putting 1043
rates 1043
ised 1043
send 1042
wishes 1042
ship 1042
40 1042
ep@@ 1042
strategic 1039
reasonable 1039
ising 1038
seeking 1038
merely 1037
subsidiarity 1036
Greek 1036
criticism 1036
rise 1035
exchange 1035
origin 1035
managed 1034
vo@@ 1034
liber@@ 1033
elected 1030
Austria 1030
ed@@ 1029
recommendation 1029
pen@@ 1029
tation 1028
rejected 1026
exercise 1024
ideas 1023
ambitious 1023
resolve 1021
consequently 1019
improvement 1019
attitude 1017
chance 1017
ships 1014
enterprises 1014
German 1012
yes 1011
EC 1011
mo@@ 1011
constitutional 1010
acts 1009
evaluation 1009
recommendations 1008
impossible 1008
covered 1007
20@@ 1006
speed 1006
amongst 1005
thousands 1005
Legal 1005
port 1005
integrated 1000
fear 999
harmonisation 998
proposing 998
Treaties 996
03@@ 996
sub@@ 995
Al@@ 995
build 994
th 994
me@@ 993
situations 993
opposed 993
intend 992
Trade 991
constructive 991
forget 991
reduced 991
conciliation 991
comply 990
ar 990
ist 990
peoples 990
c 989
ho@@ 989
fraud 989
complex 988
figures 988
aimed 988
dimension 986
Kosovo 986
transparent 984
fin@@ 983
institution 983
arms 982
sent 981
greatest 981
affairs 981
granted 980
controls 977
ill@@ 975
guarantees 974
obligations 974
2006 972
constitution 972
represents 971
ck 971
Europeans 971
easy 970
compensation 970
Prime 968
Christian 967
grounds 966
arrangements 966
October 966
mandate 966
came 966
18 965
starting 965
&apos;@@ 964
Barcelona 964
series 962
applause 962
gra@@ 962
challenges 961
gi@@ 960
competence 960
man@@ 959
practices 959
defined 958
aims 958
continuing 957
mi@@ 957
bringing 957
appeal 956
declaration 955
supports 954
comprehensive 954
1998 953
mutual 953
efficiency 952
16 951
sized 951
Portugal 949
changed 949
ad 948
strongly 948
temporary 948
se 947
drugs 947
immigrants 946
votes 944
structures 944
involve 943
office 943
July 942
infrastructure 942
official 942
initial 942
North 940
attacks 940
detailed 939
payments 939
employees 938
pl@@ 938
original 935
Danish 935
child 932
end@@ 928
diversity 927
appropriations 927
approval 927
designed 927
lu@@ 927
ru@@ 926
fied 926
languages 925
whatever 924
ically 924
war@@ 924
export 924
globalisation 923
Stability 923
targets 922
territory 922
Green 922
Portuguese 921
den 921
ely 921
competitiveness 920
failed 919
x@@ 919
representative 919
highlight 917
month 916
ors 916
likely 916
Turkish 915
carefully 914
lost 914
agencies 913
pe@@ 912
pensions 912
explain 911
grateful 911
unless 910
presence 910
ren@@ 909
adequate 909
proposes 909
negative 908
Sweden 907
mar@@ 907
facing 907
lated 905
Cyprus 905
producers 904
Chamber 904
lled 903
apart 902
justified 902
detail 902
Israeli 902
limits 901
delay 900
men@@ 900
Russian 900
Patten 900
involvement 899
tasks 898
personally 896
ture 895
enter 895
consistent 894
ys 894
Strasbourg 893
flexible 893
generally 893
od@@ 893
dec@@ 893
round 892
willing 892
bu@@ 891
contributions 891
suffering 891
persons 890
faced 890
do@@ 890
fying 889
resolved 889
po@@ 889
happening 888
mechanisms 888
beings 888
strengthening 887
please 886
interesting 886
tal 886
spent 884
floor 883
ke 883
followed 881
bad 881
element 881
range 881
income 880
bur@@ 878
sur@@ 878
inform 877
concrete 877
alism 876
fail 875
insurance 875
Belgian 874
growing 873
immediate 873
obvious 871
includes 870
lan@@ 870
serve 869
sides 869
stocks 869
NATO 869
binding 867
6@@ 867
perspective 866
cr@@ 864
distribution 864
operations 864
gave 864
ish 863
tor@@ 862
occasions 862
advantage 862
Chechnya 862
des@@ 861
all@@ 861
currency 859
Programme 859
wa@@ 858
causes 856
por@@ 856
ACP 856
via 854
forced 854
leading 854
fa@@ 854
Rule 853
attack 852
letter 851
ging 851
compliance 851
linked 849
keeping 848
communities 848
wing 846
ste@@ 845
han@@ 845
j@@ 844
standard 844
existence 844
maritime 844
H 843
tobacco 843
Consumer 842
maximum 839
participate 839
expression 839
fy 839
types 837
Monetary 837
fishermen 837
noise 837
ving 836
equally 836
pla@@ 836
committees 836
5@@ 835
lies 835
ps 834
affect 834
heart 833
Copenhagen 833
tical 832
ws 831
grant 830
difference 830
USA 830
alist 830
Research 829
factor 829
obtain 828
destruction 828
started 827
impose 826
p.m. 826
secure 826
Agency 826
goal 825
realise 824
forthcoming 824
17 822
test 822
rapid 821
planning 820
families 820
drawing 819
promotion 817
April 817
sive 816
am@@ 816
respected 815
Fundamental 815
visit 813
mu@@ 812
obligation 812
White 810
pass 808
sign 808
factors 808
expected 807
ni@@ 807
ming 807
cu@@ 807
read@@ 806
hu@@ 806
travel 806
protecting 805
ne@@ 805
numerous 805
played 804
vis@@ 804
worse 803
interested 803
campaign 803
endorse 802
link 802
moving 802
4@@ 801
shared 801
ill 800
tic@@ 800
ious 800
Euro 800
defend 800
Agriculture 798
nations 798
farming 797
u 797
purposes 796
Auditors 796
politics 795
lower 794
worth 794
taxation 794
mer@@ 794
briefly 793
requirement 793
gen@@ 793
knows 792
experts 792
thereby 792
Budgets 791
finance 791
space 790
truly 789
sup@@ 789
fighting 789
ultimately 789
U@@ 788
dra@@ 786
ition 786
professional 786
officials 785
conduct 785
demonstrated 784
ready 783
ide 783
super@@ 783
reaching 783
ita@@ 783
bi@@ 783
Commissioners 783
accidents 781
cing 781
improvements 781
ig@@ 781
Market 781
P 781
PPE 780
burden 780
contained 779
surely 778
ative 778
mp@@ 778
tried 778
instance 776
conc@@ 775
timetable 774
lling 774
source 774
entitled 774
diseases 774
represented 773
material 773
continued 772
historic 772
é@@ 772
ders 772
conflicts 772
ets 771
continues 771
Internal 771
continent 771
passed 771
Balkans 771
reflect 770
monitor 770
holding 770
imposed 769
treated 769
extended 768
citizen 768
qualified 767
legitimate 766
Protocol 765
electronic 763
opinions 762
&#93; 762
mass 762
DE 761
genuinely 761
Liberal 761
separate 761
front 760
ties 760
guaranteed 760
conf@@ 760
&#91; 759
talks 759
confirm 757
ministers 757
suggest 756
Amsterdam 755
ca@@ 753
precise 753
ure 753
meat 753
peaceful 751
wor@@ 751
sources 751
traditional 751
Organisation 750
hed 749
ries 749
FR 749
penalty 748
ot@@ 748
ities 747
demonstrate 746
brief 746
speci@@ 746
voluntary 745
NGOs 745
considering 744
emergency 744
crimes 743
delighted 743
Budget 743
emphasis 742
nation 742
concluded 741
gener@@ 741
dignity 741
19 740
hence 740
evening 740
examine 739
amounts 739
the@@ 739
credibility 739
option 739
hing 738
manage 738
ver 738
21 738
monetary 737
operators 737
dependent 736
z 736
restrictions 736
60 736
we@@ 735
labelling 734
clarify 733
operate 733
allowing 733
politicians 733
fe@@ 733
codecision 733
intends 732
Kyoto 732
tar@@ 732
vessels 731
African 731
permanent 730
ves 730
ency 730
Laeken 729
regulatory 728
gender 728
stands 727
impression 726
involves 726
S 726
van 725
80 725
noted 725
placed 724
phase 724
Common 724
somewhat 723
iti@@ 723
cha@@ 723
happens 722
vehicles 721
technologies 721
modern 721
election 721
perfectly 720
ard 720
night 720
applying 720
determination 720
written 720
disc@@ 719
tant 719
undertaken 719
voice 719
occasion 718
waters 718
Denmark 717
Netherlands 716
centre 716
examples 716
24 716
requested 715
fleet 715
du@@ 715
assure 715
payment 715
hands 715
capable 714
minority 713
agency 712
tragic 712
association 712
oral 711
Transport 710
liability 710
felt 710
define 709
sed 708
ens 708
proceed 707
bly 707
bilateral 707
religious 707
isation 706
bar@@ 706
encouraging 706
places 706
approve 705
exists 705
top 705
ry 704
nationals 704
revision 703
gone 703
insist 703
os 702
latter 702
ven@@ 702
post 701
hours 701
pr@@ 701
pre 701
II 701
23 700
che@@ 700
facilitate 699
bit 698
strict 698
pillar 697
operating 697
awareness 697
solve 697
assu@@ 697
entry 696
tackle 696
BSE 696
signal 694
pu@@ 693
sing 693
innovation 693
welcomed 692
negotiating 692
Latin 692
ards 691
i.e. 690
ned 690
Car@@ 690
membership 690
freedoms 690
spending 689
oun@@ 689
safeguard 689
Home 689
mechanism 689
easier 688
welfare 688
proceedings 688
fac@@ 688
target 688
sp@@ 687
lose 687
primary 687
base 686
individuals 686
ys@@ 686
tr@@ 685
F 685
learn 684
processes 683
scheme 683
coun@@ 682
sor@@ 682
protected 682
ily 681
tin@@ 681
court 681
debt 681
den@@ 680
preparing 679
fine 679
ob@@ 679
tives 678
Zimbabwe 678
22 677
foot 677
contracts 676
Authority 676
operational 676
reconstruction 676
condemn 676
room 675
tourism 675
acc@@ 675
gain 674
rich 673
Energy 673
considers 673
convention 673
wonder 672
ev@@ 672
100 672
hol@@ 672
def@@ 671
ice 671
believes 669
February 669
declared 669
firm 669
IGC 669
0@@ 668
described 668
independence 666
implications 666
politically 666
Assembly 666
confirmed 665
century 664
pos@@ 664
Heads 664
urgency 663
explanation 662
Employment 662
users 662
planned 662
Fisheries 662
au@@ 661
maintaining 661
ght 661
spoken 661
Industry 660
sensible 660
tered 659
union 659
ite 659
ines 659
Saddam 658
preventing 657
allocated 657
consumption 657
details 656
satisfied 656
stu@@ 656
extension 655
decisive 655
substance 654
referring 654
kept 653
tively 653
wait 653
effectiveness 653
glad 652
Per@@ 652
eds 651
alise 650
got 650
E 650
changing 649
studies 649
D 649
turning 649
medicines 649
texts 648
recovery 648
zone 648
pursue 648
condition 647
ethnic 647
transfer 647
relates 646
average 646
published 646
Europol 646
Schengen 646
ass@@ 645
introducing 645
exclusion 645
valuable 645
normal 645
mark 645
sexual 645
governance 645
Ma@@ 643
27 643
prove 642
contain 642
70 642
clause 641
compulsory 641
learning 641
associated 640
considerations 640
il 639
remarks 639
accident 638
afternoon 638
hor@@ 638
seeks 638
bom@@ 637
competences 637
tur@@ 636
friends 636
ell@@ 635
satisfactory 635
OLAF 635
equipment 635
mobility 635
speaker 634
compared 634
requests 633
elsewhere 633
essentially 633
paper 633
eng@@ 633
Z@@ 633
Socialists 632
uses 632
cl@@ 632
oc@@ 631
... 631
feed 631
ck@@ 630
Iran 630
disasters 629
suggested 629
overcome 629
electricity 629
seeing 629
goals 628
Greens 628
courage 628
eg@@ 627
coherent 627
announced 627
8@@ 626
uni@@ 625
legally 624
highest 624
contact 624
PT 624
maintained 623
ably 623
opposite 623
prepare 622
wards 622
understood 622
submit 622
twenty 622
supplementary 622
behaviour 621
fore@@ 621
careful 621
bility 621
category 621
gas 621
facts 620
amended 620
excessive 620
pas@@ 620
racism 620
possibly 619
competent 619
ire 619
sport 619
standing 619
daily 619
argument 619
minorities 619
04@@ 619
investments 618
generation 618
noon 618
ours 617
proof 617
determined 617
statistics 617
ga@@ 617
sus@@ 617
allows 616
finding 616
domestic 616
arguments 616
31 616
abuse 616
dly 615
thanking 615
obstacles 615
arise 614
rac@@ 614
exploitation 614
constitu@@ 614
vision 614
latest 613
Solana 613
Iraqi 613
Regional 612
largely 611
running 610
plants 610
referendum 610
spoke 609
reiterate 609
fulfil 609
ons 609
double 609
basically 607
cy 607
constantly 607
firmly 606
conver@@ 606
helping 606
expectations 606
collective 606
Presidents 605
millions 604
assume 603
ind@@ 603
enc@@ 603
advantages 603
ow@@ 602
counter 602
ists 602
construction 602
advice 601
7@@ 601
waiting 601
cies 601
record 600
heading 600
function 600
GMOs 600
ess@@ 599
producing 599
succeed 599
modified 599
san@@ 599
Macedonia 599
chairman 598
tory 598
sen 598
taxes 598
cooperate 597
obliged 597
da@@ 597
sha@@ 597
constitute 597
saw 597
indicated 595
purely 595
southern 595
ger 595
eding 594
truth 594
blood 594
ential 593
28 593
acknowledge 592
ile 591
claim 591
playing 591
fla@@ 591
disposal 591
sions 590
mouth 590
lin@@ 589
ved 589
choose 589
partly 588
fields 588
Fischler 588
primarily 588
ences 588
Ombudsman 587
formal 586
figure 586
ants 586
ve@@ 585
ban@@ 585
imagine 584
12@@ 584
etc 584
concentrate 584
technological 584
treaty 584
armed 584
chan@@ 583
communications 583
ase 583
seven 583
actively 583
ff@@ 583
CAP 583
highlighted 582
ery 582
united 582
realistic 581
inadequate 580
becomes 580
inclusion 580
profit 579
appreciate 579
poorest 579
functioning 579
difficulty 579
absolute 578
ce@@ 578
universal 578
assess 577
brings 577
passengers 577
ches 576
built 576
carrying 575
Morocco 575
debating 574
External 574
bs 574
foremost 574
quotas 574
Ch@@ 574
amending 573
trading 572
suffer 572
sets 572
television 571
necessarily 571
Geneva 571
species 571
parliament 570
ka@@ 570
leads 570
meant 569
relatively 569
economies 569
our@@ 569
tragedy 569
exception 568
Socialist 568
sufficiently 568
undoubtedly 568
Citizens 568
Gu@@ 568
Asia 568
fuel 568
1997 567
minutes 567
willingness 567
extensive 567
societies 567
tw@@ 567
options 567
aside 567
path 566
issued 566
lic@@ 566
arrest 566
Johannesburg 566
bro@@ 565
acting 565
refers 565
car 565
industries 564
Re@@ 564
Britain 564
reaction 564
attempts 563
R 563
processing 563
employed 562
illustra@@ 562
Thursday 561
equ@@ 561
ear@@ 561
urgently 561
New 561
proved 560
Secretary 560
stressed 560
Freedoms 560
ses 560
accounts 560
ov@@ 559
ars 559
remove 559
26 559
Framework 559
Western 558
Constitutional 558
strategies 557
migration 557
hopes 557
nobody 557
fer@@ 556
SMEs 556
follows 556
greatly 555
railways 555
stock 555
ial 555
tics 555
head 554
core 554
answers 554
Hussein 554
Lan@@ 553
unanimously 553
stable 553
himself 553
aircraft 553
went 552
advance 552
tool 552
inten@@ 552
liberal 552
head@@ 552
cy@@ 551
ethical 551
preparation 550
offers 550
1.@@ 550
ph@@ 550
absence 550
eight 550
proportion 549
High 549
Defence 549
violations 548
transitional 548
mm@@ 548
materials 547
emphasised 547
ering 547
um 546
mil@@ 546
negotiation 546
mental 546
ECB 546
identified 546
Erika 545
delays 545
governing 545
openness 545
35 544
wider 544
minister 544
Pro@@ 544
ke@@ 544
Belgium 543
regular 543
multi@@ 543
offered 543
imports 543
elderly 543
resulting 542
ages 542
pul@@ 542
charges 542
exports 542
Qu@@ 541
incorporated 541
version 540
uniform 540
An@@ 540
preparations 540
Euro@@ 540
railway 540
significance 539
sight 539
completed 539
ther 539
ology 539
airlines 539
died 538
ator 538
ay 538
bloc@@ 538
terrorists 538
stance 538
0.@@ 538
solely 537
Control 537
tro@@ 537
budgets 537
Eastern 536
pose 536
loss 536
Vice 535
restructuring 535
indic@@ 535
fra@@ 535
ide@@ 535
ris@@ 535
br@@ 535
patent 535
Bush 535
ongoing 534
opened 534
deals 534
ak@@ 534
ces 533
prosperity 532
friendly 532
duties 532
release 532
renewable 531
schemes 531
extending 531
2005 530
deserves 530
code 530
Luxembourg 530
near 530
falls 530
author@@ 530
founded 528
honour 528
sovereignty 528
prefer@@ 528
gs 528
subjects 527
resid@@ 527
complicated 526
extra 526
news 524
acquis 524
sustainability 524
unfair 524
plant 524
protocol 524
listen 523
looked 523
ese 523
alising 523
debated 522
ching 522
moral 522
wh@@ 522
neighbours 522
mid@@ 522
background 521
off@@ 521
remaining 521
leg@@ 521
Minutes 520
none 520
For@@ 520
ced 519
speeches 519
Financial 519
considerably 518
profits 518
legitimacy 518
massive 518
dered 518
fire 517
importantly 517
guaranteeing 517
citizenship 517
partner 517
Statute 517
links 516
justify 516
Association 516
suffered 515
heavy 515
eye 515
someone 514
presenting 514
restricted 514
prior 513
aring 513
employers 513
Korea 513
Palestinians 513
drug 513
depth 512
st@@ 512
lay 512
Dutch 511
sorry 511
marketing 510
law@@ 510
fifteen 510
medical 510
Cuba 510
Ar@@ 509
granting 509
coherence 509
quote 509
identity 509
previously 508
Con@@ 508
45 508
intentions 507
respects 507
regulated 507
dynamic 507
spend 506
ot 506
representation 506
Sch@@ 506
satisfaction 505
enlarged 505
launched 505
familiar 504
lis@@ 504
piece 504
tional 504
wording 503
Tourism 503
interpretation 503
property 503
collec@@ 503
spread 503
undertakings 503
stake 503
COD 502
bearing 502
whereas 502
ession 502
investigation 502
Budgetary 502
fies 502
encies 502
fewer 501
90 501
deficit 501
matic 500
Americans 500
coordinated 500
reservations 499
hes 499
enjoy 499
barriers 499
outstanding 499
fairly 499
trac@@ 499
facilities 499
postal 499
possibilities 498
size 498
sum 498
Gothenburg 498
addressing 498
organise 497
calcu@@ 497
topic 497
numbers 497
courts 496
usual 496
gap 496
loc@@ 496
drafting 496
ine@@ 496
affects 496
accordingly 496
welcomes 496
Finland 495
stipu@@ 495
ils 494
tre@@ 494
feeling 494
roads 494
powerful 494
cent 494
Stockholm 494
ali@@ 494
easily 494
spe@@ 494
break 494
win@@ 494
multilateral 494
Parliamentary 494
worst 493
innovative 493
hundreds 493
shortcomings 492
Tampere 491
ics 491
ratified 491
prec@@ 491
14@@ 490
Austrian 490
favourable 490
bra@@ 490
forum 490
evident 490
ishing 490
diplomatic 490
ining 490
29 490
milk 490
drivers 489
condemned 489
mistake 489
prisoners 489
trial 489
summer 488
neighbouring 488
pleasure 487
couple 487
credit 487
crops 487
cells 487
tures 486
oppose 486
bound 486
chosen 486
Van 486
intervene 486
cars 486
ran@@ 485
dicta@@ 484
pping 484
trans 484
pensioners 484
examined 483
Berlin 483
helped 483
strengthened 483
interpre@@ 483
id 483
beef 483
penalties 482
9@@ 482
wealth 482
West 482
bing 482
terrible 481
removed 481
Criminal 481
desirable 481
sen@@ 481
Doha 481
schools 480
applications 480
suitable 480
ang@@ 480
deeply 479
identify 479
raising 479
ric@@ 479
Report 479
interinstitutional 479
explo@@ 478
Sea 478
south 478
ration 478
historical 478
500 478
correctly 477
unnecessary 477
thorough 477
excluded 477
vers@@ 477
vulnerable 477
feder@@ 477
duc@@ 477
AIDS 477
school 476
smo@@ 476
launch 476
Growth 476
clarity 475
prospects 475
students 475
add@@ 474
rapidly 474
ratification 474
lating 473
supposed 473
meaning 472
so@@ 472
funded 472
var@@ 472
deep 472
Bo@@ 472
mid 471
centres 471
controlled 471
G 471
applicant 471
dian 471
appe@@ 470
entered 470
01 470
Democrat 470
precautionary 470
minute 469
hearing 469
depends 469
conducted 469
ched 468
applicable 468
financed 468
ingly 468
testing 468
recall 467
indicators 467
ba@@ 467
domin@@ 467
ished 466
Rural 466
players 466
utmost 466
formu@@ 465
drafted 465
hear@@ 465
exc@@ 464
37 464
ecological 464
driving 464
Li@@ 464
alcohol 464
Palacio 463
unanimous 463
convergence 463
uc@@ 463
manufacturers 463
constant 463
Left 463
ler 462
atory 462
promised 462
cal@@ 462
whereby 461
UN@@ 461
1996 460
demanding 460
sol@@ 460
residence 460
og@@ 459
handling 459
cre@@ 459
significantly 459
reflected 458
tion@@ 458
tically 458
obtained 458
healthy 458
prosecu@@ 457
ose 457
article 457
od 457
harmful 456
banks 456
Food 456
replace 456
Arab 456
aviation 455
ress 455
modi@@ 455
determine 455
ei@@ 455
Czech 455
recommend 454
fo@@ 454
geographical 453
paying 453
10@@ 453
Question 453
freight 453
agrees 452
disabled 452
warmly 452
Ro@@ 452
Northern 452
airports 452
ale 452
legisla@@ 451
focused 451
tests 451
check 450
iling 450
largest 450
hardly 450
everybody 450
succ@@ 449
pped 449
198@@ 449
ning 449
extreme 449
sto@@ 449
gro@@ 449
genetically 449
distinction 449
Cooperation 449
unanimity 448
Ber@@ 447
succeeded 447
contributed 447
yer 447
da 447
Ser@@ 447
supervision 446
iled 446
suspended 446
tonnes 446
elec@@ 446
leadership 446
insufficient 445
observation 445
worldwide 445
undertaking 445
kinds 444
depend 444
dro@@ 444
shor@@ 444
division 444
medi@@ 444
prospect 444
pollu@@ 444
shares 444
hos@@ 444
ati@@ 443
itation 443
threats 443
outset 443
mes 443
ns 442
telecommunications 442
widely 442
Action 442
violation 442
Mon@@ 442
posed 441
Le@@ 441
Del@@ 441
inspectors 441
repeatedly 441
congratulations 441
Women 441
smaller 440
certainty 440
commen@@ 440
regarded 440
separ@@ 440
worthy 440
ners 440
surprised 440
settlement 440
stem 440
2010 440
relate 439
dering 439
army 439
fast 439
restore 439
ff 439
Romania 439
explained 438
ological 438
deserve 438
pun@@ 438
deliver 438
jointly 438
fu@@ 438
stre@@ 438
Alliance 438
divided 437
00 437
enti@@ 436
persis@@ 436
ber@@ 435
moved 435
corruption 435
bed 435
IC@@ 435
admit 434
ared 434
harmonised 434
section 434
stay 434
expressing 433
der@@ 433
des 433
subsequently 432
heritage 432
constitutes 432
consequence 432
Declaration 432
treaties 431
logical 431
friend 431
dic@@ 431
deep@@ 431
experienced 431
doubts 431
coastal 431
suggestion 431
observed 430
vast 430
ship@@ 430
sought 430
turned 430
combined 430
warrant 430
unfortunate 429
tal@@ 429
0s 429
pursuant 428
track 428
clarification 428
withdraw 428
cod 428
reg@@ 427
territorial 427
roots 427
delegations 427
engage 427
tac@@ 427
Representative 427
increases 427
Rome 427
comple@@ 426
reserve 426
vir@@ 426
Chairman 426
Vitorino 426
afraid 426
northern 425
transition 425
leaving 425
undertake 425
proud 425
environmentally 425
statute 425
congratulating 425
intergovernmental 425
bus@@ 425
picture 425
worrying 424
categories 424
compatible 424
periods 424
contrac@@ 424
st 423
writing 423
rela@@ 423
ner 423
pan@@ 423
itors 423
amend 422
atten@@ 422
associations 422
cru@@ 422
wi@@ 422
moun@@ 422
Brok 422
causing 421
ately 421
enabling 421
shortly 421
sake 421
33 421
Bureau 421
destroyed 420
é 420
chi@@ 420
engaged 420
correc@@ 420
governmental 420
English 420
regrettable 420
spite 420
tual 420
religion 420
urban 419
obser@@ 419
cap@@ 419
undermine 419
prevented 419
Helsinki 419
reac@@ 419
stor@@ 418
fic@@ 418
GDP 418
phenomenon 418
alongside 418
crises 418
cul@@ 418
receiving 417
cement 417
spo@@ 417
75 417
rou@@ 416
perc@@ 416
permit 416
demonstrates 416
incentives 416
radical 416
stronger 416
selec@@ 416
consulted 416
Atlantic 416
reflects 416
negotiated 416
tations 416
pace 416
refuse 415
ped 415
ordin@@ 415
successfully 415
racy 415
intensive 415
proc@@ 415
lls 415
emb@@ 415
pet@@ 415
go@@ 415
cancer 415
inflation 415
son 414
skills 414
shape 414
with@@ 414
deadline 413
assist 413
qui@@ 413
frag@@ 413
whatsoever 412
vely 412
marked 412
reliable 412
claims 412
confusion 412
personnel 412
une@@ 411
chain 411
mod@@ 410
bla@@ 410
encouraged 410
conventions 410
charge 410
achievement 410
assis@@ 409
weight 409
lly 409
collaboration 409
territories 409
Poland 409
advertising 408
north 408
teen 408
tals 408
.5 408
hopefully 408
adapt 408
observations 408
pil@@ 408
200 408
32 408
similarly 408
ual 407
arising 407
bank 406
exceptions 406
restrict 406
pe 406
embar@@ 406
hi@@ 406
defining 406
ats 406
Agenda 406
tants 406
slightly 405
evalu@@ 405
count 405
mic 405
Su@@ 405
Seville 405
creates 404
belong 404
fiscal 404
ne 404
ring 404
motions 404
India 404
movements 404
chemical 404
Petitions 404
eyes 403
invest 403
bureaucratic 403
tering 403
tely 403
Sa@@ 403
marine 403
eradic@@ 403
resumed 402
dispute 402
fil@@ 401
mor@@ 401
infec@@ 401
definitely 401
Par@@ 401
f 401
ong 401
origin@@ 400
authorisation 400
surrounding 400
alleg@@ 400
enhance 399
lasting 399
affecting 399
preserve 399
door 399
trend 399
mobil@@ 399
expense 398
below 398
performance 398
exceptional 398
faith 398
some@@ 398
experi@@ 398
allocation 397
parallel 397
descri@@ 396
wn 396
productive 396
ements 396
Yugoslavia 396
ators 396
secret 396
tolerance 396
Cor@@ 396
threshold 395
warning 395
prohib@@ 395
complaints 395
doub@@ 394
sion@@ 394
puts 394
banned 394
T 394
Pol@@ 394
judgment 394
adap@@ 393
direc@@ 393
exerc@@ 393
Reform 393
Com@@ 393
lim@@ 393
prefer 393
lif@@ 393
fresh 393
refugee 393
broad@@ 392
controversial 392
hoped 392
presentation 391
viable 391
estimated 391
accounting 391
ker 391
strength 391
Joint 391
justification 390
slow 390
ue 390
shadow 390
counter@@ 390
plan@@ 390
inspection 390
seekers 390
assa@@ 390
ud@@ 390
mb@@ 389
hal@@ 389
weak 389
cities 389
strike 389
island 389
aw@@ 389
suggestions 389
ens@@ 389
broader 389
retain 389
tangible 389
ases 389
lists 389
Bolkestein 389
promoted 389
tless 388
oper@@ 388
modernisation 388
reli@@ 388
gradually 388
honest 388
educational 388
treat 387
regulate 387
showing 387
tens 387
passenger 387
notes 387
acy 387
ala@@ 386
cro@@ 386
National 386
strictly 385
ty@@ 385
permitted 385
underlying 385
noti@@ 385
older 385
torture 385
larger 385
battle 385
sites 385
pain@@ 384
populations 384
ple@@ 384
compla@@ 384
Ukraine 384
Islamic 384
topical 383
veri@@ 383
infrastructures 383
clearer 383
authorised 383
apparent 383
hour 383
Y@@ 383
soci@@ 383
sively 383
city 382
site 382
forests 382
ends 382
Pakistan 382
placing 382
donors 382
Na@@ 382
ward 381
ignore 381
mp 381
tains 380
wage 380
preliminary 380
ices 380
ir 380
U 380
Palestine 380
one@@ 380
declare 379
eigh@@ 379
mach@@ 379
ambition 379
conten@@ 379
decades 379
manufac@@ 379
nation@@ 379
customs 379
preventive 379
sending 379
retirement 379
covers 379
Sta@@ 379
incorporate 378
uncertainty 378
lie 378
inn@@ 378
contract 378
fortunately 377
contacts 377
alternatives 377
olog@@ 377
unity 377
repeated 376
CNS 376
science 376
candidates 376
EEC 376
medicinal 376
valid 375
apparently 375
viol@@ 375
nearly 375
contradic@@ 375
ron@@ 375
construc@@ 374
commit 374
extraordinary 374
mere 374
civilian 374
gg@@ 374
conservation 373
yourself 373
pri@@ 373
monitored 373
physical 373
buy 373
expensive 373
transatlantic 373
ton 372
leader 372
raises 372
hundred 372
became 372
05@@ 372
belief 371
rejection 371
pursued 371
regardless 371
underline 371
negotiate 371
star@@ 371
ing@@ 370
imp@@ 370
ECHO 370
blo@@ 370
NL 370
nu@@ 369
functions 369
compromises 369
ky 369
widespread 369
disagree 369
deaths 368
Monday 368
Poettering 368
ises 368
15@@ 368
eable 368
endeavour 368
tribute 368
checks 368
Ex@@ 368
revised 368
immunity 368
sugar 368
ral 367
sphere 367
solved 367
killed 367
black 367
esses 367
bre@@ 367
meantime 366
pres@@ 366
ene 366
38 366
posts 366
indicate 366
mentary 366
containing 365
alists 365
rig@@ 365
len@@ 365
sympathy 365
disappointed 365
ement 365
declarations 365
bureaucracy 364
tools 364
was@@ 364
mented 364
ena 364
di 364
refused 364
inspections 364
fre@@ 364
cle@@ 364
perspectives 364
resistance 363
syn@@ 363
accompanied 363
unlike 363
directed 363
ger@@ 363
eva@@ 363
ana 363
items 363
patients 363
observe 362
val@@ 362
approximately 362
thousand 362
race 362
Culture 362
invite 361
sincerely 361
failing 361
dep@@ 361
reas@@ 361
cuts 361
don@@ 361
isi@@ 360
rely 360
SA@@ 360
stra@@ 360
taxpayers 360
poses 360
B 360
48 360
Japan 359
back@@ 359
acted 359
Basque 359
concludes 359
Chinese 359
ques@@ 359
usually 359
extremis@@ 359
electoral 359
cancell@@ 359
vation 358
lacking 358
boost 358
respecting 358
fourth 358
predic@@ 358
talked 358
freely 358
observers 358
occurred 357
dates 357
distributed 357
equivalent 357
enforcement 356
hin@@ 356
lessons 356
informal 356
Verheugen 356
pretext 356
Belarus 356
keen 355
55 355
mise 355
promise 355
kes@@ 355
president 355
He@@ 355
she@@ 355
land@@ 355
kers 355
mer 355
pass@@ 354
explanations 354
consul@@ 354
hon@@ 354
Scotland 354
sit 354
digital 354
attrac@@ 353
spar@@ 353
ust 353
comparison 353
1995 353
42 353
Free 353
helpful 353
Prestige 353
exclusively 352
certi@@ 352
tric@@ 352
rer 352
eded 352
intellectual 352
VAT 352
stick 352
opt 352
soldiers 352
economically 352
ma 352
offices 351
systematic 351
fl@@ 351
denied 351
purch@@ 350
del@@ 350
pays 350
Ca@@ 350
farms 350
pled@@ 350
leaves 350
impetus 349
summ@@ 349
fruit 349
02 349
unique 349
mine 349
Centre 349
Lamy 349
initially 348
suggests 348
notice 348
save 348
occur 348
ordinary 348
lations 348
sharing 348
choices 348
commerce 347
resulted 347
dated 347
ore 347
Time 347
Nielson 347
Plan 347
looks 346
classi@@ 346
advocate 346
promises 346
scientists 346
integrate 346
discrimin@@ 346
preparatory 346
can@@ 346
nine 345
listened 345
clean 345
stages 345
ians 345
journalists 345
transit 344
coll@@ 344
programming 344
ai@@ 344
tone 344
ening 344
restrictive 344
gri@@ 344
except 344
begun 344
recognises 344
complied 344
a.m 344
eventually 343
spring 343
savings 343
socio 343
prison 343
Serbia 343
examination 342
pati@@ 342
executive 342
ased 342
offering 342
die 342
shipping 342
traceability 342
secre@@ 342
36 342
fis@@ 342
hom@@ 342
memor@@ 341
multi 341
efficiently 341
accepting 341
Di@@ 341
34 340
95 340
breach 340
ined 340
down@@ 340
remin@@ 340
credible 340
joining 340
harmonise 340
pol@@ 339
concentration 339
fav@@ 339
ech@@ 339
mur@@ 339
unilateral 339
prime 338
targeted 338
gn@@ 338
cur@@ 338
firms 338
borne 338
ze 338
lob@@ 338
sson 338
protest 338
ta 337
percentage 337
acknowled@@ 337
tradition 337
toler@@ 337
ina 337
push 337
covering 337
Great 337
teri@@ 337
Safety 336
cou@@ 336
attached 336
minor 336
representing 336
eliminate 336
began 336
tas@@ 336
las@@ 335
reported 335
length 335
frequently 334
liked 334
accor@@ 334
distor@@ 334
cultures 334
flo@@ 334
cop@@ 334
Algeria 334
imposing 334
visited 333
sho@@ 333
judge 333
pra@@ 333
expec@@ 333
.30 333
confron@@ 333
Man@@ 333
cloning 333
bri@@ 332
break@@ 332
buildings 331
route 331
passing 331
distance 331
ory 331
image 331
Communist 331
pressing 331
sis 331
ELDR 330
outlined 330
deb@@ 330
pat@@ 330
tured 330
Cotonou 330
connected 329
thro@@ 329
criticised 329
ading 329
inf@@ 329
lined 329
offences 329
characteristics 329
unions 329
mail 329
Year 329
mas@@ 329
mal@@ 329
error 329
p.m 328
farm 328
blame 328
inter 328
jurisdiction 328
V 328
41 328
hunger 328
tain 327
acceptance 327
replaced 327
house 327
disputes 327
qualifications 327
tary 327
sacrific@@ 327
recycling 327
mption 326
ratify 326
44 326
assessments 326
cen@@ 326
abstained 326
incentive 326
Nordic 326
conviction 326
flows 326
lifelong 326
quota 325
critic@@ 325
quarters 325
safeguarding 325
om 325
convince 325
pic@@ 325
forgotten 325
ances 325
und@@ 325
violent 324
sadly 324
ip@@ 324
scrutiny 324
fuels 324
by@@ 324
victim 324
mobile 324
afford 323
biodiversity 323
location 323
marks 323
ety 323
respective 323
woman 323
ser@@ 323
iv@@ 323
visa 323
Education 323
vaccination 323
eption 323
Berlusconi 323
anne@@ 322
chapter 322
accessible 322
Barnier 322
invited 322
laundering 322
absurd 322
ceiling 322
traditions 322
catch 322
inves@@ 321
ell 321
arm 321
privatisation 321
39 321
threatened 321
emission 321
universities 320
manag@@ 320
pointing 320
proves 320
grow 320
exemption 320
neg@@ 320
We 320
dri@@ 320
generations 320
disabilities 320
desig@@ 320
campaigns 320
troops 320
Feira 320
Conciliation 320
Bar@@ 319
vari@@ 319
moti@@ 319
vated 319
managing 319
influ@@ 319
lea@@ 319
defending 319
edly 319
exchanges 319
coalition 319
meal 319
entering 318
seas 318
vity 318
examining 318
sales 318
prescri@@ 318
deny 318
str@@ 318
PSE 317
comitology 317
elimin@@ 317
ures 317
prud@@ 317
Angola 317
whenever 316
proce@@ 316
subsequent 316
gue 316
concentra@@ 316
dy 316
frustra@@ 316
ES@@ 316
Bulgaria 316
approaches 316
reporting 316
chemicals 316
Tur@@ 316
consistently 315
dele@@ 315
ered 315
ast 315
arity 315
heads 315
signing 315
participating 315
thers 315
65 315
severe 315
biotechnology 315
Sharon 315
ths 314
gre@@ 314
criterion 314
perfect 314
istic 314
shift 314
fications 314
released 314
train 314
maybe 314
biggest 314
49 314
monopoly 313
procedural 313
deadlines 313
born 313
compet@@ 313
rid@@ 313
federal 313
wherever 313
York 313
August 313
ili@@ 312
alloc@@ 312
affor@@ 312
investigations 312
coordinate 312
ro 312
div@@ 312
hes@@ 312
Arafat 312
comb@@ 312
silence 311
ported 311
mat@@ 311
log@@ 311
tested 311
class 311
harm 311
mation 311
flu@@ 311
occupation 311
integrity 311
Egypt 311
wise 311
xenophobia 311
ES 311
compli@@ 310
arily 310
excuse 310
characterised 310
team 310
que 310
consci@@ 310
struggle 310
accused 309
1994 309
public@@ 309
ration@@ 309
arrived 309
expertise 309
MEP 309
finances 309
tom@@ 309
forest 309
irrespective 309
300 309
compar@@ 309
vacc@@ 309
ghter 308
gar@@ 308
fit 308
vers 308
broadly 308
timely 308
adequately 308
inevitably 308
humanity 308
hy@@ 308
fears 308
thir@@ 308
sely 308
generous 308
ori 308
resu@@ 307
Friday 307
attend 307
practically 307
acknowledged 307
solid 307
dramatic 307
coast 307
sad 307
sw@@ 307
reunification 307
Afghan 307
af@@ 306
listening 306
envisaged 306
fourthly 306
register 306
repe@@ 306
collection 306
Youth 306
til@@ 306
nel 305
sole 305
expressly 305
enhanced 305
win 305
rup@@ 305
institu@@ 305
resolving 305
Watson 305
foundations 305
linguistic 305
Mugabe 305
answered 304
question@@ 304
sums 304
scheduled 304
incidentally 304
ranging 304
mandatory 304
consolid@@ 304
Direc@@ 304
falling 304
touch 304
11.@@ 304
sla@@ 304
surprise 304
import 304
tonight 303
pursuing 303
straight 303
monopolies 303
USD 303
gained 303
Annex 303
necessity 303
twelve 303
explicitly 302
terally 302
tend 302
signs 302
intensi@@ 302
abuses 302
depl@@ 302
cir@@ 302
divide 302
time@@ 302
appalling 302
attach 301
EC@@ 301
N 301
fixed 301
moder@@ 301
Kinnock 301
proven 301
War 301
COS 300
struck 300
99 300
pus@@ 300
tigh@@ 300
abolition 300
references 300
sin@@ 300
assets 300
stations 300
subsidis@@ 300
catastro@@ 299
els 299
gradual 299
desired 299
steel 299
convenience 299
missing 299
rigorous 299
Sixth 299
hab@@ 299
prac@@ 299
ful@@ 298
sections 298
indication 298
gging 298
losses 298
investors 298
TE@@ 298
dies 298
host 298
mentation 298
clu@@ 298
destroy 298
actors 298
sex 298
avoided 297
presid@@ 297
publis@@ 297
exhaus@@ 297
reve@@ 297
Eurojust 297
Galicia 297
ended 297
safeguards 297
objections 297
ju@@ 297
destin@@ 297
51 297
rea@@ 296
recommended 296
scand@@ 296
perpet@@ 296
tent 296
facility 296
disastrous 296
cond@@ 296
laying 296
Maastricht 296
peace@@ 296
tability 296
albeit 296
ques 296
paten@@ 296
progres@@ 296
Labour 296
reconciliation 295
scep@@ 295
pair 295
frankly 295
block 295
tou@@ 295
shoc@@ 295
loans 295
protes@@ 295
tality 295
rever@@ 294
lates 294
ideal 294
Mexico 294
tern@@ 294
differ 293
consistency 293
tune 293
fallen 293
ption 293
stating 293
objec@@ 293
outbreak 293
originally 292
interim 292
preva@@ 292
43 292
contro@@ 292
Prosecutor 292
rational 292
execu@@ 291
interpreted 291
inquiry 291
lev@@ 291
accus@@ 291
EP@@ 291
reaffir@@ 291
Resolution 291
cast 291
outermost 290
explanatory 290
mitting 290
fulfilled 290
oured 290
06@@ 290
cycle 290
workplace 290
arrive 290
hazardous 290
coinc@@ 289
ulf 289
revenue 289
lowest 289
fate 289
commun@@ 289
atta@@ 289
tis@@ 289
doors 289
ent@@ 289
decline 289
Byrne 289
fleets 289
interoperability 289
termin@@ 288
pro 288
Can@@ 288
xi@@ 288
aff@@ 288
incidents 288
Co@@ 288
promp@@ 288
Ne@@ 288
appointed 288
consis@@ 288
evaluate 288
gh 288
reinforce 287
distur@@ 287
game 287
ion 287
L 287
greenhouse 287
component 287
search 287
backing 287
stringent 286
cli@@ 286
petition 286
yed 286
dead 286
rev@@ 286
pec@@ 286
CFP 286
providers 286
Colombia 286
vol@@ 285
corresponding 285
v 285
openly 285
gan@@ 285
vised 285
incident 285
eived 285
à 285
dictatorship 285
MEDA 285
surplus 285
Baltic 285
badly 284
distribu@@ 284
criticise 284
football 284
arri@@ 284
vehicle 284
twice 284
deciding 284
jo@@ 284
minds 283
enth 283
á@@ 283
democratically 283
fails 283
abolish 283
tough 283
Pe@@ 283
remarkable 283
regularly 283
pressed 283
tables 283
intelligence 283
inv@@ 283
pharmaceutical 283
raw 283
moratorium 283
ka 282
acqu@@ 282
Wednesday 282
volume 282
praise 282
itions 282
ach 282
contin@@ 282
tened 282
wake 282
formation 282
criminals 282
formed 282
Minis@@ 282
aries 282
wars 282
Bosnia 282
Taliban 282
reminded 281
accurate 281
inhabitants 281
holds 281
isions 281
transfers 281
adher@@ 281
doc@@ 281
respon@@ 281
plays 280
differenti@@ 280
wid@@ 280
envis@@ 280
sever@@ 280
highlights 280
repu@@ 280
enshrined 280
urr@@ 280
rul@@ 280
ums 280
tackling 279
hit 279
systematically 279
investig@@ 279
poin@@ 279
Govern@@ 279
finish 278
occurr@@ 278
maintenance 278
conjunction 278
uranium 278
Strategy 278
Bon@@ 278
notion 278
innocent 277
diver@@ 277
extra@@ 277
integrating 277
fought 277
partial 277
learned 277
achievements 277
flow 277
seiz@@ 277
sentence 277
Fin@@ 277
simplification 277
removal 277
Aznar 277
democratisation 277
Se@@ 276
Swoboda 276
expan@@ 276
simp@@ 276
reser@@ 276
fri@@ 276
scru@@ 276
ambitions 276
repercussions 276
tabling 276
Equal 276
virtually 276
drop 276
substantially 276
democracies 276
label 276
mountain 276
parents 276
admi@@ 275
damaging 275
temp@@ 275
Eurostat 275
contemp@@ 275
tell@@ 275
inside 275
experiences 275
insis@@ 275
vice 275
autumn 275
commend 274
definitions 274
contradiction 274
asser@@ 274
scar@@ 274
aggres@@ 274
argue 274
cutting 274
vic@@ 274
exclude 274
emerged 274
dangers 274
occupied 274
researchers 274
Guinea 274
relative 273
drive 273
exclusive 273
secondary 273
emo@@ 273
cle 273
Burma 273
dras@@ 272
clarified 272
everywhere 272
contrast 272
Schreyer 272
val 272
recommen@@ 272
sustained 272
tence 272
conditional 272
attempting 272
driven 272
Jarzembowski 272
after@@ 271
appreciation 271
lays 271
onto 271
analys@@ 271
wholeheartedly 271
automatically 271
essence 271
resource 271
As@@ 271
realis@@ 271
visible 271
cheap 271
motor@@ 271
genetic 271
Mus@@ 271
embryos 271
smoking 270
appeared 270
xes 270
contributing 270
consolidate 270
experiencing 270
sli@@ 270
simplify 270
stri@@ 270
è@@ 270
dissemin@@ 270
CFSP 270
rian 270
46 270
donor 270
sheep 270
fires 270
bor@@ 269
08 269
decade 269
fundamentally 269
essor 269
unit 269
autonomy 269
minent 269
appreci@@ 269
assembly 269
thetic 269
compe@@ 268
Barón 268
standardis@@ 268
justi@@ 268
vel@@ 268
von 268
terror 268
tage 268
spon@@ 268
feels 268
wo@@ 268
showed 268
commission@@ 268
Sou@@ 268
ignored 268
Haarder 268
withdrawal 268
harassment 268
flights 268
ri 267
net 267
ur 267
exploit 267
squ@@ 267
infringement 267
articles 267
suspic@@ 267
EIB 267
conce@@ 267
vis 267
dura@@ 267
ki@@ 266
mag@@ 266
react 266
clauses 266
dle 266
owners 266
67 266
71 266
Madrid 266
Nigeria 266
Da@@ 266
endorsed 265
delivered 265
losing 265
Directorate 265
compete 265
tremendous 265
lining 265
notably 265
paragraphs 265
organic 265
London 264
unemployed 264
criticisms 264
closure 264
ric 264
east 264
travelling 264
thirty 264
El 264
tile 263
youth 263
tances 263
features 263
los@@ 263
ken 263
assurance 263
believed 263
Democratic 263
ageing 263
western 263
reproductive 263
livestock 263
annu@@ 262
Crespo 262
pal@@ 262
thy 262
witnessed 262
presents 262
character 262
tening 262
admittedly 262
devoted 262
En@@ 262
hypo@@ 262
surveillance 262
92 262
Sport 262
software 262
tionary 262
advis@@ 261
classification 261
feasible 261
ambiguous 261
formally 261
turing 261
guilty 261
Lu@@ 261
demanded 261
gratitude 261
chocolate 261
eastern 261
sees 261
Coll@@ 260
advanced 260
administrations 260
Sec@@ 260
cros@@ 260
jun@@ 260
constraints 260
concepts 260
transferred 260
dossier 260
endor@@ 260
embry@@ 260
backs 260
renewed 260
Opportunities 260
organisms 260
ition@@ 260
Posselt 260
La@@ 260
patents 260
channels 259
withdrawn 259
eless 259
remote 259
productivity 259
analyse 259
continuation 259
detriment 259
weaken@@ 259
suspen@@ 259
euros 259
neglec@@ 259
oll@@ 259
computer 259
arrested 259
Chan@@ 259
broken 259
ames 259
Fatuzzo 259
respec@@ 258
foundation 258
serves 258
cho@@ 258
enabled 258
focusing 258
normally 258
appointment 258
relief 258
Lithuania 258
arran@@ 258
ino@@ 258
arises 258
jour@@ 258
Process 258
ensu@@ 257
tionally 257
rated 257
Taiwan 257
yiel@@ 257
ef@@ 257
participants 257
blind 257
claimed 257
Investment 257
title 257
confident 256
obstacle 256
assessing 256
dama@@ 256
Bra@@ 256
stimu@@ 256
accountability 256
thoroughly 256
adverse 256
dumping 256
clari@@ 256
imag@@ 256
underp@@ 256
additives 256
airport 256
tackled 256
allow@@ 256
specified 256
era 256
Washington 256
wonderful 256
cigar@@ 256
ut@@ 255
telling 255
ffici@@ 255
ending 255
dream 255
returned 255
ght@@ 255
eting 255
threatening 255
Federation 255
airspace 255
bio@@ 255
hau@@ 255
mitted 255
olu@@ 255
oura@@ 255
Fran@@ 255
write 254
dr@@ 254
ignor@@ 254
internationally 254
Objective 254
differently 254
decreas@@ 254
organising 254
pilot 254
sale 254
complic@@ 254
hel@@ 253
prov@@ 253
beneficial 253
onal 253
remit 253
ert 253
Monti 253
stone 253
recital 253
mic@@ 253
variety 253
char@@ 253
grave 253
sub 253
diox@@ 253
definitive 253
footing 253
composition 253
planet 253
completion 252
inevitable 252
fai@@ 252
resolu@@ 252
birth 252
margin 252
reviewed 252
ods 252
ol 252
approac@@ 252
green 252
inappropriate 252
meets 252
irs 252
ping 252
Wallström 252
emp@@ 252
47 252
rejecting 252
reductions 252
Herz@@ 252
interventions 251
pillars 251
models 251
pending 251
alis@@ 251
adding 251
Councils 251
consists 251
estimate 251
perfor@@ 251
ee 251
quantity 251
ba 251
transactions 251
extradition 251
Vietnam 251
aling 250
embargo 250
arrangement 250
book 250
fifth 250
publicly 250
socially 250
feature 250
57 250
comparable 250
stricter 250
breaking 250
charter 250
drinking 250
popular 250
spec@@ 250
tariat 250
De@@ 250
hil@@ 250
potentially 250
enjo@@ 250
tuna 250
Kaliningrad 250
card 249
obtaining 249
exclu@@ 249
wished 249
cos@@ 249
realised 249
prof@@ 249
guar@@ 249
1992 249
collapse 249
Acc@@ 249
ried 249
sett@@ 249
parliamentarians 249
sell 249
kill 249
Galileo 249
abortion 249
horizontal 248
assessed 248
Articles 248
M 248
inde@@ 248
delicate 248
tance 248
bases 248
Wor@@ 248
ounds 248
Canada 248
missions 248
fle@@ 248
Gra@@ 248
dness 248
Ha@@ 248
tunnel 247
indicates 247
ouring 247
story 247
worried 247
reflection 247
cles 247
investigate 247
rati@@ 247
vig@@ 247
strikes 247
continu@@ 247
sign@@ 247
cope 247
Nor@@ 246
fault 246
valid@@ 246
packaging 246
vague 246
imperative 246
hospi@@ 246
affir@@ 246
preven@@ 246
joined 246
input 246
warm 246
ov 246
generated 245
entrepreneur@@ 245
root 245
initiated 245
procurement 245
remained 245
agents 245
identi@@ 245
shoulder 245
imprison@@ 245
San@@ 245
assured 245
wat@@ 245
irresponsible 244
ruling 244
charged 244
77 244
civilians 244
won 244
profound 244
controlling 244
connec@@ 244
persuade 244
flight 244
Bur@@ 244
bru@@ 244
quantities 243
hid@@ 243
tative 243
reinfor@@ 243
served 243
recourse 243
400 243
gather@@ 243
ions 243
52 243
ox@@ 243
tes@@ 243
names 243
replied 243
reception 243
lor@@ 243
expla@@ 243
sold 243
Dan@@ 243
cattle 243
audiovisual 243
66 242
describe 242
cease 242
persecution 242
famous 242
handed 242
celeb@@ 242
AR@@ 242
confir@@ 242
inti@@ 242
God 242
estimates 242
Law 242
missible 241
instruc@@ 241
distingu@@ 241
exten@@ 241
delayed 241
pon@@ 241
governed 241
forth 241
sal@@ 241
76 241
uphold 241
gets 241
announ@@ 241
availability 241
ministerial 241
wholly 241
tox@@ 241
tt@@ 241
icing 241
Georgia 241
quick 240
regre@@ 240
1993 240
grass 240
concessions 240
ker@@ 240
adjustment 240
coordinating 240
io@@ 240
grants 240
glob@@ 240
identification 240
Tibet 240
iness 240
supplies 240
expert 240
Syria 240
tra 240
civil@@ 240
Or@@ 240
imported 240
ore@@ 240
protein 240
priorit@@ 239
disadvantaged 239
simplified 239
2007 239
Po@@ 239
thinks 239
essing 239
addresses 239
flags 239
sensitivity 239
sincere 239
abolished 239
refu@@ 239
middle 239
subscri@@ 239
responses 239
proportionate 239
Information 239
responds 239
polic@@ 239
explicit 238
62 238
indirect 238
professions 238
regimes 238
docu@@ 238
occup@@ 238
53 238
derogation 238
summits 238
onia 238
utilis@@ 237
judic@@ 237
Mor@@ 237
ude 237
polluter 237
anywhere 237
fan@@ 237
bud@@ 237
false 237
recognising 237
patri@@ 237
lik@@ 237
zero 236
thly 236
int 236
removing 236
attended 236
survive 236
prosecution 236
bottom 236
aps 236
bel 236
merit 236
produc@@ 236
tries 236
newspaper 235
object 235
fran@@ 235
entr@@ 235
ite@@ 235
ound 235
ther@@ 235
depleted 235
problematic 235
repression 235
demonstrations 235
dependence 235
turns 235
Congo 235
obli@@ 234
preferred 234
principal 234
specu@@ 234
hun@@ 234
Protection 234
clean@@ 234
registration 234
Liikanen 234
radi@@ 234
progressive 234
biological 234
slaughter 234
oh@@ 234
Pi@@ 234
accepts 233
intolerable 233
fashion 233
favoured 233
irregularities 233
implies 233
multinationals 233
listed 233
exert 233
murder 233
Ecofin 233
itionally 233
ete 233
gross 232
Federal 232
accom@@ 232
integral 232
alities 232
industri@@ 232
flag 232
town 232
abandon 232
enterprise 232
lla 232
ley 232
incineration 232
radio 232
Tunisia 232
urged 231
grade 231
wea@@ 231
sco@@ 231
interference 231
porting 231
Dublin 231
statistical 231
enables 231
plied 231
56 231
enthusiasm 231
Media 231
smugg@@ 231
radioactive 231
ney 231
INI 231
tioned 230
human@@ 230
philosophy 230
exposed 230
clos@@ 230
rid 230
eve 230
sessions 230
cked 230
mother 230
sig@@ 230
bench@@ 230
responding 230
mines 230
aud@@ 229
EA@@ 229
fel@@ 229
saving 229
heavily 229
ffers 229
components 229
prerequisite 229
wed 229
foun@@ 229
refusal 229
­ 229
violated 229
part@@ 229
Corbett 229
diverse 229
moves 228
adapted 228
persu@@ 228
cture 228
oth 228
hones@@ 228
ols 228
ots 228
Act 228
guard 228
motor 228
loy@@ 228
communic@@ 228
deal@@ 228
ambigu@@ 228
De 228
expenses 228
137 228
sible 228
guidance 227
ez 227
ult 227
2.@@ 227
infring@@ 227
survival 227
thoughts 227
lock 227
protec@@ 227
bas@@ 227
ft 227
insul@@ 227
vill@@ 227
mistakes 227
acquire 227
racist 227
combine 227
incredibly 227
displaced 227
allies 227
modest 226
missed 226
renewal 226
substan@@ 226
banning 226
stud@@ 226
pects 226
marking 226
kis 226
contamination 226
ids 226
bul@@ 226
condemnation 226
dings 226
translation 226
duly 226
OSCE 226
pregn@@ 226
offence 226
enjoyed 225
advocates 225
endang@@ 225
ideological 225
Malta 225
stabil@@ 225
bian 225
messages 225
arma@@ 225
cra@@ 225
consent 225
Forum 225
ya 225
dil@@ 224
ih@@ 224
exacerb@@ 224
ultimate 224
69 224
Code 224
distinc@@ 224
user 224
recru@@ 224
power@@ 224
aging 224
cred@@ 224
match 224
rupt 224
deser@@ 224
precedent 224
biofuels 224
drew 223
ero@@ 223
ton@@ 223
radic@@ 223
fas@@ 223
volun@@ 223
communicate 223
rising 223
combination 223
psych@@ 223
camps 223
split 223
tages 223
female 223
allevi@@ 222
satisfy 222
unequivoc@@ 222
tension 222
reverse 222
absta@@ 222
won@@ 222
design 222
pect 222
ghts 222
strange 222
appla@@ 222
visas 222
comm@@ 222
í@@ 221
trained 221
Decision 221
balances 221
hitherto 221
author 221
abroad 221
noticed 221
1990 221
ref@@ 221
veterinary 221
Questions 221
acquired 221
54 221
Albanian 221
alliance 221
ama@@ 221
DA 221
ator@@ 221
guided 221
bels 221
privacy 221
breast 221
lorries 220
ster@@ 220
w 220
of@@ 220
consolidation 220
punishment 220
partnerships 220
sovereign 220
art 220
forestry 220
venture 220
meanwhile 220
wages 220
Du@@ 220
plat@@ 220
reconcile 220
domain 220
urch 220
marg@@ 219
closing 219
oning 219
units 219
ges@@ 219
discre@@ 219
heal@@ 219
reforming 219
pected 219
dete@@ 219
58 219
earmarked 219
dedicated 219
bun@@ 219
Single 219
small@@ 219
prag@@ 219
surprising 219
Ra@@ 219
carriers 219
mill@@ 218
spi@@ 218
ensured 218
centralised 218
argu@@ 218
arisen 218
Rec@@ 218
deriv@@ 218
consultations 218
installations 218
68 218
rats 218
adjustments 218
subjected 218
deregu@@ 218
Tit@@ 218
mas 218
Congress 218
Harbour 218
Cancún 218
pity 217
profile 217
decentralised 217
meaningful 217
papers 217
iden@@ 217
frame 217
seemed 217
determining 217
03 217
Israelis 217
tally 217
conscience 217
eag@@ 217
ides 217
caught 217
otti 217
update 217
63 217
HIV 217
harmonising 216
generate 216
emphasises 216
bel@@ 216
mergers 216
recorded 216
econom@@ 216
discipline 216
comfor@@ 216
witness 216
acceler@@ 216
ern@@ 216
consult 216
divid@@ 216
courageous 216
dating 216
ony 216
optimistic 216
techni@@ 216
needless 215
sooner 215
reactions 215
manoeuvre 215
discovered 215
stopped 215
GUE 215
reinforced 215
contributes 215
invo@@ 215
inven@@ 215
wall 215
Genoa 215
air@@ 215
wee@@ 215
na 215
conventional 215
Cox 214
character@@ 214
revi@@ 214
anyway 214
quali@@ 214
endeavours 214
Kar@@ 214
exact 214
onic 214
structured 214
Switzerland 214
mixed 214
challeng@@ 214
ain@@ 214
ller 214
inju@@ 214
dor 214
separation 214
manifes@@ 214
civilisation 214
runs 214
map 214
Cuban 214
disgra@@ 213
safer 213
unila@@ 213
harmon@@ 213
isations 213
Cohesion 213
loud 213
method@@ 213
throw 213
remedy 213
advocated 213
bir@@ 213
iring 213
handled 213
requiring 213
beg@@ 213
Special 213
voters 213
prevail 213
ber 213
eli@@ 213
depending 213
priva@@ 213
humane 213
producer 213
enforced 212
distortions 212
compris@@ 212
subsidy 212
ular 212
lawyers 212
transposition 212
grown 212
Paris 212
van@@ 212
floods 212
ingredients 212
affair 212
attractive 212
summary 212
avoid@@ 212
organis@@ 212
idence 212
seats 212
Soviet 212
ut 212
ege 211
supervisory 211
recor@@ 211
indispensable 211
exemptions 211
dollar 211
wishing 211
regulating 211
likewise 211
engine@@ 211
rigid 211
Lebanon 211
migrants 211
ase@@ 211
girls 211
bal 211
ika 211
IL@@ 211
broadcas@@ 211
prin@@ 211
pluralism 211
expe@@ 210
faces 210
compensa@@ 210
demographic 210
islands 210
plen@@ 210
ko@@ 210
K 210
ental 210
there@@ 210
foodstuffs 210
ace 210
technically 210
sche@@ 210
feedingstuffs 210
Slovakia 210
alia 210
invi@@ 210
geting 210
houses 210
Vi@@ 210
expresses 210
Administra@@ 210
ouse 210
EP 210
GM 210
rin@@ 209
obstruc@@ 209
reluc@@ 209
sixth 209
substitu@@ 209
85 209
itable 209
confirms 209
bears 209
derogations 209
makers 209
fe 209
swiftly 209
formulated 209
breaks 209
overwhelming 209
seat 209
commod@@ 209
soil 209
typical 209
Democ@@ 209
teachers 209
multiannual 208
adhere 208
logic 208
interac@@ 208
bour@@ 208
ex 208
concluding 208
faster 208
voc@@ 208
indirectly 208
Communities 208
loading 208
trage@@ 208
denoun@@ 208
storage 208
hec@@ 208
complement 208
registered 208
positively 208
fur@@ 208
oted 208
Costa 208
exploited 208
resort 208
amb@@ 208
79 208
shar@@ 208
emerging 208
Roman@@ 207
insta@@ 207
ira 207
reserves 207
slowly 207
legiti@@ 207
pact 207
differing 207
invested 207
employ@@ 207
doctors 207
tural 207
ond 207
Her@@ 207
disappointment 207
qualitative 207
convic@@ 207
pur@@ 207
destroying 207
west 207
seed 207
meas@@ 207
white 207
sibility 206
worthwhile 206
routes 206
stream@@ 206
cotton 206
nationality 206
foster 206
negoti@@ 206
continuity 206
ital 206
militar@@ 206
supplement 206
Diamantopoulou 206
Indonesia 205
definite 205
relationships 205
sti@@ 205
ket 205
CO2 205
demonstration 205
ues 205
col@@ 205
eth@@ 205
trouble 205
airline 205
Sahar@@ 205
tariff 205
96 204
approxima@@ 204
talis@@ 204
lengthy 204
invitation 204
isolation 204
quantitative 204
auth@@ 204
stresses 204
complaint 204
revolution 204
web@@ 204
shame 204
NGL 204
empty 204
limiting 204
introduc@@ 204
orien@@ 204
abol@@ 204
officers 204
contradictory 204
dog@@ 204
suppor@@ 204
mul@@ 204
distinguish 204
Wal@@ 203
taining 203
deliber@@ 203
Hol@@ 203
understandable 203
asing 203
Karas 203
eb@@ 203
hypocrisy 203
convincing 203
chapters 203
rier 203
belongs 203
Institu@@ 203
punished 203
corporate 203
supranational 203
atives 203
stimulate 203
helps 203
Cambo@@ 203
isolated 203
electorate 203
ah 203
veto 203
Yugoslav 203
Som@@ 203
knowing 202
ole 202
responded 202
Hague 202
capabilities 202
everyday 202
new@@ 202
Euratom 202
revealed 202
devastating 202
finished 202
postponed 202
asks 202
journ@@ 202
rap@@ 202
acti@@ 202
ef 202
pornography 202
intelligent 202
remark 202
oma 202
miss 202
cas@@ 202
phrase 202
illegally 202
inva@@ 202
tised 202
Blair 202
execution 201
refusing 201
pac@@ 201
presu@@ 201
enforce 201
solving 201
ied 201
circulation 201
accountable 201
forming 201
crimin@@ 201
1991 201
tendency 201
wood 201
licences 201
sy@@ 201
victory 201
ensive 201
jeopardis@@ 201
insisted 201
manipu@@ 201
fundamentalism 201
Evans 200
postpon@@ 200
disparities 200
backed 200
mann 200
acu@@ 200
wave 200
unsatisfactory 200
aiming 200
uring 200
wanting 200
zones 200
partici@@ 200
prejudice 200
signals 200
settlements 200
discriminatory 200
topics 200
disregard 200
Cypri@@ 200
Chechen 200
64 199
theory 199
ign 199
sun@@ 199
ath 199
bill@@ 199
touched 199
whe@@ 199
dual 199
mes@@ 199
deri@@ 199
formula 199
condemning 199
GMO 199
ung 199
Scot@@ 199
vices 199
Bou@@ 199
agement 199
long@@ 198
approving 198
inequalities 198
individu@@ 198
use@@ 198
prisons 198
insecurity 198
anticip@@ 198
film 198
expl@@ 198
98 198
gall@@ 198
apologise 198
fores@@ 198
satellite 198
senior 198
chair 198
audit 198
outline 198
scandal 198
ede 198
nomin@@ 198
Je@@ 198
weekend 198
coexistence 198
agreeing 198
tious 198
deliberate 198
ium 198
sid@@ 198
61 198
Buitenweg 198
main@@ 197
defin@@ 197
lesson 197
Rap@@ 197
sec@@ 197
hoping 197
lun@@ 197
mber 197
ply 197
sex@@ 197
focuses 197
deliberately 197
ow 197
stand@@ 197
Area 197
sentences 197
IS@@ 196
profitable 196
departments 196
expansion 196
insu@@ 196
excessively 196
preference 196
eligible 196
hea@@ 196
feelings 196
yr@@ 196
rar@@ 196
conven@@ 196
un 196
catches 196
suddenly 196
sports 196
bes 195
has@@ 195
person@@ 195
measured 195
custom@@ 195
dominant 195
weaknesses 195
Ri@@ 195
publication 195
wrec@@ 195
Christmas 195
bill 195
postpone 195
neutral 195
ison 195
emerge 195
aged 195
perform 195
cultivation 195
regula@@ 195
Ger@@ 195
university 195
deficits 195
good@@ 195
banking 195
senten@@ 194
findings 194
itionality 194
inequality 194
minis@@ 194
sectoral 194
ownership 194
interven@@ 194
protection@@ 194
threaten 194
alu@@ 194
books 194
cooperative 194
career 194
securing 194
colon@@ 194
draftsman 194
valu@@ 194
entities 194
automatic 194
narrow 194
72 194
compl@@ 194
Paragraph 194
Argent@@ 194
decid@@ 193
adv@@ 193
page 193
fill 193
73 193
ball@@ 193
unprecedented 193
abandoned 193
tig@@ 193
vessel 193
III 193
sh 193
proactive 193
orientation 193
copyright 193
belonging 193
nic@@ 193
datab@@ 193
Communication 193
scrap@@ 193
Lannoye 193
spa@@ 193
advisory 193
bran@@ 193
Ta@@ 193
ceful 192
functional 192
esi@@ 192
customers 192
discrepan@@ 192
conferences 192
compatibility 192
In 192
incompatible 192
nings 192
ision 192
intermedi@@ 192
restriction 192
recipi@@ 192
halt 192
Ab@@ 192
malaria 192
Isla@@ 192
refunds 192
located 191
Ann@@ 191
dear 191
spre@@ 191
orders 191
euro@@ 191
redundancies 191
dead@@ 191
hide 191
pick 191
appearance 191
olders 191
officially 191
atmosphere 191
dimensions 191
instability 191
epide@@ 191
autonomous 191
interc@@ 191
modes 191
asbestos 191
beneficiaries 190
reiterated 190
entails 190
kil@@ 190
reci@@ 190
ood 190
reassure 190
margin@@ 190
bene@@ 190
work@@ 190
speedy 190
nutr@@ 190
Caucasus 190
holid@@ 190
permits 190
ational 190
screening 190
tiny 190
parame@@ 190
tually 190
inner 190
counterfe@@ 190
destabil@@ 190
charging 190
artis@@ 190
indigenous 190
mili@@ 190
ferred 189
tankers 189
evol@@ 189
89 189
insofar 189
Coun@@ 189
await 189
confined 189
nor@@ 189
restoring 189
mini@@ 189
ridiculous 189
oth@@ 189
swift 189
beli@@ 189
privileged 189
ony@@ 189
entirety 189
eman@@ 189
tin 189
besides 189
presidential 189
Bus@@ 189
omin@@ 188
eas@@ 188
tru@@ 188
deprived 188
rance 188
3.@@ 188
exp@@ 188
wrong@@ 188
constituency 188
boun@@ 188
multinational 188
ation@@ 188
rust 188
capitalist 188
deterior@@ 188
barbar@@ 188
adver@@ 188
PVC 188
opponents 188
ard@@ 188
gates 188
concentrated 188
visi@@ 188
stabilisation 188
G8 188
intense 188
workable 187
appropri@@ 187
gran@@ 187
anybody 187
classes 187
awaiting 187
ct 187
inning 187
homes 187
nt 187
sibly 187
returning 187
cial 187
genocide 187
knew 187
wei@@ 187
ord 187
Bi@@ 187
nit@@ 187
salaries 187
FYROM 187
supporters 187
therapeutic 187
rating 186
preserving 186
sement 186
attempted 186
distortion 186
informing 186
abor@@ 186
judges 186
judgement 186
stead@@ 186
disciplinary 186
07@@ 186
lli@@ 186
farm@@ 186
earth 186
reformed 186
Asian 186
ud 186
launching 186
duplic@@ 186
reasonably 186
tex@@ 186
suppli@@ 186
ene@@ 186
take@@ 186
pressu@@ 186
olive 186
rejects 185
requesting 185
Wogau 185
modern@@ 185
theme 185
watch 185
teams 185
worker 185
és 185
workforce 185
migratory 185
proportion@@ 185
assent 185
ounded 185
quarter 185
tained 185
bot@@ 185
Putin 185
occupational 185
chair@@ 184
analyses 184
financially 184
brid@@ 184
endeav@@ 184
optimism 184
shortage 184
17@@ 184
immense 184
merits 184
provisi@@ 184
stakeh@@ 184
forecasts 184
wai@@ 184
equip@@ 184
elin@@ 184
scour@@ 184
refra@@ 184
prerog@@ 184
gaining 184
plas@@ 184
adjus@@ 184
newspapers 184
deterioration 184
impor@@ 184
IP@@ 184
Bas@@ 184
medicine 184
regrettably 184
Mozambique 184
reconsider 183
retained 183
Conservative 183
ener@@ 183
eline 183
scenario 183
jec@@ 183
aus@@ 183
compensate 183
alous 183
ple 183
pure 183
dispu@@ 183
witn@@ 183
incorrec@@ 183
tus 183
countryside 183
comp@@ 183
profession 183
Ang@@ 183
selling 183
announcement 183
coal 183
underway 183
tariffs 183
ALE 183
secrecy 183
quar@@ 182
insi@@ 182
entail 182
towns 182
lear@@ 182
sis@@ 182
delivery 182
complying 182
shap@@ 182
disagreement 182
translated 182
poss@@ 182
xing 182
ks@@ 182
exceeded 182
breaches 182
Uni@@ 182
oms 182
concer@@ 182
frontier 182
encoun@@ 182
CO@@ 182
departure 182
cosmetics 182
Echelon 182
Monterrey 182
lau@@ 181
stret@@ 181
transportation 181
employ 181
enfor@@ 181
emphasising 181
supplements 181
viewed 181
bridge 181
devote 181
viability 181
reason@@ 181
weakness 181
Th@@ 181
compare 181
transnational 181
disappointing 181
IN@@ 181
swit@@ 181
identifying 181
fol@@ 181
aspirations 181
settled 181
transfer@@ 181
facilitating 181
antly 181
sky 181
dens 181
complexity 181
enty 181
port@@ 181
cell 181
curr@@ 181
Catal@@ 181
González 180
cold 180
owing 180
poorer 180
81 180
demonstra@@ 180
tan 180
itu@@ 180
dismantling 180
150 180
momentum 180
coordin@@ 180
pursuit 180
secu@@ 180
avoiding 180
opposing 180
Rio 180
refer@@ 180
England 180
Fifteen 180
slaugh@@ 180
dt 180
premium 180
dimin@@ 179
Az@@ 179
appropriately 179
specify 179
jeopardise 179
shareholders 179
evid@@ 179
tensions 179
bour 179
Confederal 179
argued 179
sympa@@ 179
processed 179
disability 179
exceed 179
fifty 179
residents 179
cautious 179
counts 179
flou@@ 179
spective 179
defe@@ 179
councils 179
Muslim 179
horri@@ 179
ild 179
diag@@ 179
degra@@ 179
exce@@ 179
confused 178
umb@@ 178
advances 178
Peter@@ 178
retro@@ 178
adul@@ 178
bid 178
limitations 178
ints 178
speaks 178
coast@@ 178
93 178
expand 178
Scientific 178
ous@@ 178
bia 178
dia 178
teaching 178
station 178
admap 178
decoupling 178
communautaire 177
incomes 177
ita 177
escape 177
macro@@ 177
vigorously 177
six@@ 177
rhetoric 177
deemed 177
precedence 177
centr@@ 177
encouragement 177
Maritime 177
vention 177
less@@ 177
circu@@ 177
enhancing 177
tribu@@ 177
Thessaloniki 177
Interinstitutional 177
dying 177
errors 177
recti@@ 177
ho 177
reserved 177
Kore@@ 177
welcoming 177
remun@@ 177
massa@@ 177
Maes 177
Verts 177
fisher@@ 177
Mercosur 177
Pas@@ 177
ennium 176
ha 176
Finnish 176
transposed 176
capacities 176
lessly 176
altogether 176
Liberals 176
capita@@ 176
propor@@ 176
lying 176
97 176
tourist 176
enorm@@ 176
fruitful 176
rehabilitation 176
ER 176
gent 176
warn 176
cash 176
bone 176
caution 176
Albania 176
ör@@ 176
tarian 176
arbitrary 176
persecu@@ 176
council 176
trad@@ 176
Chile 176
+ 176
antibio@@ 176
Partnership 176
killing 176
Milosevic 176
escal@@ 176
Sterckx 176
award 176
guide 175
view@@ 175
onally 175
convey 175
disadvantage 175
phasing 175
interfere 175
EMU 175
iry 175
initiate 175
finds 175
formity 175
promising 175
confine 175
unification 175
clas@@ 175
Go@@ 175
flying 175
excell@@ 175
hygiene 175
pan 175
straightforward 175
Dis@@ 175
ction 175
Croati@@ 175
diplomacy 175
incomprehensible 175
hou@@ 175
ate@@ 175
dation 175
ceilings 175
securities 175
2008 175
Iranian 175
pleasant 174
decentr@@ 174
energies 174
wrote 174
attaches 174
87 174
highlighting 174
his@@ 174
privilege 174
aled 174
plus 174
System 174
itt@@ 174
issuing 174
beauti@@ 174
rus@@ 174
frequ@@ 174
mainstreaming 174
oppression 174
premature 174
transmission 174
avi@@ 174
accura@@ 174
alarming 174
existed 174
evil 174
AL@@ 174
short@@ 174
matically 174
professionals 174
Ludford 174
cere@@ 174
Regions 173
aded 173
decent 173
proliferation 173
simplifying 173
lesser 173
inspired 173
xed 173
operates 173
Ps 173
ti 173
lobb@@ 173
archite@@ 173
box 173
incorporating 173
Hungary 173
thresholds 173
reciproc@@ 173
demonstrating 173
coins 173
Prize 173
objection 172
justifiable 172
xious 172
awarded 172
rances 172
Cha@@ 172
preservation 172
shipow@@ 172
boundaries 172
ub@@ 172
selection 172
dable 172
ethics 172
suited 172
undermined 172
repressive 172
judged 172
ited 172
bank@@ 172
pesticides 172
bon 172
vegetable 172
petitions 172
org@@ 172
mese 172
Tuesday 171
mentioning 171
quoted 171
remember@@ 171
inherent 171
minimal 171
tement 171
simultane@@ 171
tel@@ 171
pros@@ 171
utterly 171
tian 171
relevance 171
dist@@ 171
cking 171
pers 171
continually 171
ski@@ 171
attitudes 171
promotes 171
pel@@ 171
59 171
ozone 171
osis 171
Patent 171
sporting 171
premi@@ 171
hake 171
adjourned 170
Tun@@ 170
partially 170
educ@@ 170
tape 170
accumu@@ 170
corner@@ 170
expos@@ 170
artificial 170
frequent 170
ll 170
120 170
breeding 170
ou 170
weap@@ 170
wisdom 170
defended 170
mentions 170
74 170
warran@@ 170
cus@@ 170
Kurdish 170
Beijing 170
seriousness 170
ICA@@ 170
Lamfalussy 170
permission 169
anticipated 169
diversi@@ 169
survey 169
eliminating 169
ez@@ 169
courses 169
tue 169
guiding 169
Islands 169
Ti@@ 169
symbolic 169
vable 169
dare 169
SIS 169
detention 169
tab@@ 169
Ethiop@@ 169
striking 169
Napolitano 169
manufacture 169
feeding 169
promptly 169
anti@@ 169
revising 169
letters 169
Erasmus 169
lacks 168
peripheral 168
trends 168
establishes 168
accommo@@ 168
88 168
prohibited 168
deplo@@ 168
implic@@ 168
rob@@ 168
archy 168
internally 168
Mulder 168
Berg 168
Ara@@ 168
mining 168
Jerusalem 168
replies 168
owe 168
neo 168
spectrum 168
checked 168
Solbes 168
and@@ 168
tain@@ 168
ij@@ 168
aston@@ 167
abs@@ 167
82 167
fail@@ 167
raft 167
foc@@ 167
met@@ 167
ong@@ 167
conges@@ 167
Olympic 167
contamin@@ 167
regis@@ 167
crew 167
telephone 167
warm@@ 167
compu@@ 167
resto@@ 167
Cam@@ 167
Regu@@ 167
strive 167
Res@@ 167
fly 167
acade@@ 167
Thir@@ 167
tari@@ 167
stood 167
restricting 167
silent 167
Pensioners 167
sa 167
kilomet@@ 167
salary 167
Sol@@ 167
incapable 167
mate 167
suicide 167
diesel 167
94 166
vocational 166
ike 166
essive 166
gr@@ 166
receives 166
frontiers 166
disappeared 166
boats 166
dule 166
lift 166
91 166
rious 166
Rü@@ 166
abund@@ 166
creative 166
exempt 166
unite 166
aqu@@ 166
exer@@ 166
plying 166
commit@@ 166
sulphur 166
imperialist 166
Spring 166
advoc@@ 165
consum@@ 165
tran@@ 165
acceding 165
love 165
deficiencies 165
nowadays 165
unified 165
unclear 165
lived 165
forese@@ 165
itte@@ 165
modernise 165
vigilant 165
backwards 165
hur@@ 165
impressive 165
enthusias@@ 165
itical 165
misleading 165
legislator 165
lap@@ 165
servan@@ 165
Moscow 165
incorporation 165
score 165
m. 165
desperate 165
Mill@@ 165
contraven@@ 165
colonial 165
emphatically 165
realities 165
fic 165
excise 165
wan@@ 165
Tra@@ 165
suggesting 164
shif@@ 164
coas@@ 164
X@@ 164
champ@@ 164
weaken 164
dyna@@ 164
undermining 164
cover@@ 164
TAC@@ 164
unrealistic 164
undeni@@ 164
a.@@ 164
aper 164
than@@ 164
safeguar@@ 164
Moldova 164
loyed 163
vary 163
saf@@ 163
blu@@ 163
Un@@ 163
mber@@ 163
applic@@ 163
condem@@ 163
hd@@ 163
Is@@ 163
eration 163
ination 163
vil 163
Latvia 163
munic@@ 162
dar@@ 162
San 162
oblig@@ 162
provo@@ 162
ini 162
prostitu@@ 162
ilities 162
adop@@ 161
ghted 161
ick 161
aer@@ 161
gras@@ 161
pated 161
encoura@@ 161
reflec@@ 161
IV 161
sty@@ 161
tter 161
deliver@@ 161
sci@@ 161
EDF 161
Geor@@ 161
Kab@@ 161
AP@@ 161
sel 160
Castro 160
employe@@ 160
semin@@ 160
aids 160
Fi@@ 160
tioning 160
600 160
kl@@ 160
reconc@@ 160
altar 160
ME@@ 160
haz@@ 160
incredi@@ 160
hand@@ 159
ED@@ 159
mom@@ 159
yste@@ 159
soft 159
IM@@ 159
occur@@ 159
Ath@@ 159
ovina 159
bil@@ 158
adequ@@ 158
ü@@ 158
corpor@@ 158
Randzio 158
Plath 158
eseen 158
hous@@ 158
Soci@@ 158
campaig@@ 158
govern@@ 158
84 158
Morillon 158
itive 157
compromis@@ 157
dismant@@ 157
fulfi@@ 157
politic@@ 157
Blokland 157
Christi@@ 157
opti@@ 156
occasi@@ 156
supple@@ 156
olution 156
Q@@ 156
mi 156
associ@@ 156
non@@ 156
propaganda 156
neutr@@ 156
ô@@ 156
mar 155
gy 155
specific@@ 155
che 155
subsidi@@ 155
proving 155
congratu@@ 155
io 155
concep@@ 155
loyment 155
independ@@ 155
Fir@@ 155
AN 155
Tim@@ 155
upp@@ 155
judg@@ 155
hoc 154
desper@@ 154
86 154
gence 154
Ru@@ 154
drin@@ 154
Katiforis 154
mos@@ 154
Green@@ 154
excep@@ 153
78 153
packa@@ 153
understand@@ 153
flic@@ 153
red@@ 153
ette 153
IS 153
ired 153
ner@@ 153
oli@@ 153
Mit@@ 153
inal 153
Mol@@ 153
berg 153
itoring 153
Pirker 153
ASEM 153
attle 152
McCar@@ 152
taxpay@@ 152
resis@@ 152
tag@@ 152
equi@@ 152
serva@@ 152
cell@@ 152
emer@@ 152
hat@@ 152
Moro@@ 152
iz@@ 152
virus 152
tol@@ 152
fron@@ 152
83 151
struc@@ 151
posing 151
mus@@ 151
laim@@ 151
zen 151
18@@ 151
Giscard 151
Tem@@ 151
av@@ 150
Roth 150
benef@@ 150
eping 150
op 150
popu@@ 150
tuber@@ 150
commer@@ 150
Mann 150
Savary 149
hment 149
devasta@@ 149
travell@@ 149
ben@@ 149
regi@@ 149
pid 149
thern 149
lo 149
Rus@@ 149
tini 149
mies 149
Do@@ 149
McKenna 149
Lehne 149
impe@@ 148
legis@@ 148
dre@@ 148
mal 148
conflic@@ 148
conduc@@ 148
homos@@ 148
Equ@@ 148
-@@ 147
strong@@ 147
enta@@ 147
restruc@@ 147
big@@ 147
sel@@ 147
sym@@ 147
them@@ 147
representa@@ 147
RE@@ 147
inen 147
preser@@ 147
OECD 147
Estaing 147
fif@@ 146
Conserva@@ 146
gorous 146
innova@@ 146
TV 146
preci@@ 146
dedic@@ 146
Ter@@ 146
EUR@@ 146
ened 146
El@@ 146
ensi@@ 146
discover@@ 146
Armen@@ 146
treat@@ 146
No@@ 145
mark@@ 145
ak 145
ump@@ 145
culti@@ 145
tention 145
Por@@ 145
Valenci@@ 145
Kor@@ 145
DP 145
rend@@ 144
wal@@ 144
jur@@ 144
Wi@@ 144
certain@@ 144
Bösch 144
fair@@ 144
princi@@ 144
diplom@@ 144
eing 144
Pa@@ 144
Maij 144
Weggen 144
accoun@@ 144
Cohn 144
Bendit 144
Kur@@ 144
oure 144
ulture 144
Alger@@ 144
nesses 144
stres@@ 143
Duisenberg 143
zz@@ 143
thin@@ 143
hier@@ 143
restor@@ 143
ón 143
enna 143
musi@@ 143
dow 143
Bag@@ 143
tun@@ 142
Ad@@ 142
inspec@@ 142
Shar@@ 142
Cus@@ 142
dictator@@ 142
depend@@ 142
Caudron 142
far@@ 142
5.@@ 142
sia 142
Pos@@ 142
amo 141
detri@@ 141
arch@@ 141
Rob@@ 141
rought 141
Busquin 141
abandon@@ 141
democ@@ 141
199@@ 141
Mo@@ 141
aver@@ 141
WHO 141
Ramos 141
1989 140
vigil@@ 140
deleg@@ 140
deta@@ 140
emerg@@ 140
Har@@ 140
depri@@ 140
popul@@ 140
lec@@ 140
hap@@ 140
rea 140
fundamen@@ 140
ra 140
appa@@ 140
prosper@@ 139
prob@@ 139
mend@@ 139
Behrendt 139
Balkan 139
practic@@ 139
ECO@@ 139
plu@@ 139
ays 139
Varela 139
Chirac 139
Sella@@ 139
Tran@@ 138
threa@@ 138
reite@@ 138
youn@@ 138
Bö@@ 138
alogue 138
Michel 138
hen@@ 138
fr@@ 138
Sud@@ 137
uh@@ 137
Hul@@ 137
itor@@ 137
dam 137
neighbour@@ 137
claim@@ 137
trus@@ 137
Ban@@ 137
slow@@ 137
Kauppi 137
Rothley 137
Burun@@ 137
ew 136
exemp@@ 136
cri@@ 136
reti@@ 136
poll@@ 136
Medina 136
IT@@ 136
form@@ 136
omis@@ 135
vent 135
earli@@ 135
opp@@ 135
To@@ 135
yl@@ 135
aul 135
Staes 135
Gibr@@ 135
gic 135
Fra@@ 135
Mac@@ 135
canc@@ 135
tise 135
MacCormick 135
Egyp@@ 135
low@@ 134
decisi@@ 134
Goebbels 134
ann@@ 134
FIF@@ 134
Izquierdo 134
sou@@ 134
ga 134
ean 134
Gar@@ 134
ross 134
nur@@ 134
Mas@@ 134
dop@@ 134
ian@@ 133
Fontaine 133
Reding 133
cooper@@ 133
Schmid 133
punis@@ 133
nar@@ 133
García 133
IMO 132
anno@@ 132
iver 132
Slov@@ 132
kid@@ 132
oles@@ 132
GAT@@ 132
poor@@ 132
Hughes 132
Ferber 132
Vigo 132
emplo@@ 132
ples 132
Wh@@ 131
cla@@ 131
kno@@ 131
eder@@ 131
Cashman 131
Pac@@ 131
Perry 131
burg 130
Wynn 130
ion@@ 130
vie@@ 130
ris 130
inspi@@ 130
itor 130
mun@@ 130
Hautala 130
Dupuis 130
scre@@ 130
Maaten 130
terri@@ 129
tunn@@ 129
SE@@ 129
tau@@ 129
Theato 129
opol@@ 129
doll@@ 129
ug@@ 129
Frassoni 129
fos@@ 129
cow 129
zu 129
precau@@ 129
categor@@ 129
Indones@@ 129
ade 129
Ba@@ 129
Fer@@ 129
Whitehead 129
Miguélez 129
tem@@ 128
Rad@@ 128
ala 128
comprehen@@ 128
ras@@ 128
amoun@@ 128
strugg@@ 128
Thor@@ 128
Lom@@ 128
peri@@ 128
asi@@ 128
develop@@ 128
ye@@ 128
hard@@ 128
ETA 128
Oomen 128
rs 127
lands 127
entity 127
Val@@ 127
capa@@ 127
Galeote 127
Sjöstedt 127
Be@@ 127
collabor@@ 127
Kyi 127
ign@@ 127
Belder 127
traffic@@ 127
Nisticò 127
ven 126
feasi@@ 126
Peij@@ 126
parad@@ 126
Purvis 126
nal 126
Sy@@ 126
perman@@ 126
efe 126
Baringdorf 126
ved@@ 126
illi@@ 126
Annan 126
Australia 126
Sac@@ 126
Götebor@@ 126
Cun@@ 125
sev@@ 125
chec@@ 125
tia 125
Os@@ 125
ré@@ 125
Suu 125
jud@@ 124
Venezu@@ 124
ham@@ 124
quanti@@ 124
promo@@ 124
reme@@ 124
weak@@ 124
symb@@ 124
inclu@@ 124
inher@@ 124
alo@@ 124
ima@@ 124
brea@@ 124
circum@@ 124
Banglades@@ 124
eive 123
Hatzidakis 123
oph@@ 123
depart@@ 123
Guate@@ 123
dign@@ 123
Presid@@ 123
immi@@ 123
800 123
arres@@ 123
deter@@ 123
rez 123
Lamass@@ 123
row 122
Bre@@ 122
even@@ 122
Jackson 122
secon@@ 122
totali@@ 122
plur@@ 122
ran 122
nos@@ 122
Lucas 122
cer@@ 122
Á@@ 122
optimis@@ 122
amm@@ 122
tonn@@ 122
Seneg@@ 122
Tob@@ 121
ca 121
uro 121
stic@@ 121
entit@@ 121
ich 121
Am@@ 121
rass@@ 121
chet 121
Macedon@@ 121
Ruij@@ 121
Learning 121
syner@@ 120
ken@@ 120
Ka@@ 120
bac@@ 120
ele@@ 120
susta@@ 120
rak@@ 120
cal 120
Ortega 120
Bel@@ 120
Sar@@ 120
Méndez 120
consu@@ 120
Toul@@ 120
Fär@@ 120
pp@@ 119
Bourlanges 119
Ste@@ 119
initi@@ 119
happ@@ 119
isol@@ 119
Tsa@@ 119
facilita@@ 119
Ugan@@ 119
profi@@ 119
ura@@ 119
prohi@@ 119
Galic@@ 119
ota@@ 119
Kla@@ 119
Nev@@ 119
dispar@@ 118
Tor@@ 118
atic 118
Inter@@ 118
ash@@ 118
pt 118
AF@@ 118
Pack 118
ball 118
la 118
infor@@ 118
CA@@ 118
Bos 118
omet@@ 118
gla@@ 117
ik@@ 117
05 117
tably 117
nen 117
olic 117
audi@@ 117
Gil 117
teur 117
Velzen 117
acces@@ 117
13@@ 117
Fu@@ 117
lus 117
Wurtz 116
nific@@ 116
ves@@ 116
este@@ 116
stan@@ 116
det@@ 116
cel@@ 116
ope 116
Eurodac 116
mple 116
Environ@@ 116
atte@@ 116
anz@@ 116
vising 115
pain 115
declar@@ 115
labor@@ 115
pation 115
Sen@@ 115
boo@@ 115
reduc@@ 115
ep 115
macy 115
Oostlander 115
tte@@ 115
Verhofstadt 115
lar@@ 114
dom 114
tele@@ 114
fossi@@ 114
les@@ 114
tments 114
xenopho@@ 114
demo@@ 114
va 114
UEN 114
essed 114
sad@@ 114
religi@@ 114
Colom@@ 114
prehen@@ 113
700 113
Papayanna@@ 113
pli@@ 113
privil@@ 113
emit@@ 113
clear@@ 113
arly 113
Maghreb 113
imperi@@ 113
overs 112
ava@@ 112
rele@@ 112
David 112
NG@@ 112
Hu@@ 112
cially 112
contribu@@ 112
200@@ 112
chil@@ 112
gen 112
Martin 112
isla@@ 112
han 112
Monte@@ 112
Lagendij@@ 112
organ@@ 112
Steven@@ 112
multila@@ 112
Mauritan@@ 112
confin@@ 111
perio@@ 111
au 111
fru@@ 111
dest 111
dem@@ 111
tunate 111
kin 111
dela@@ 111
recover@@ 111
rene@@ 111
elines 111
ko 111
labe@@ 111
Ander@@ 111
LIFE 111
sil@@ 111
vege@@ 111
ernández 111
Jen@@ 111
cam@@ 111
Hau@@ 111
Aleg@@ 111
uu@@ 110
efly 110
accompan@@ 110
craft 110
tar 110
fal@@ 110
vel 110
pessimis@@ 110
Freed@@ 110
func@@ 110
fir@@ 110
tempor@@ 110
Gor@@ 109
hi 109
phic 109
deli@@ 109
OP@@ 109
ino 109
geograph@@ 109
reven@@ 109
Ver@@ 109
survi@@ 109
IT 109
jo 109
Bla@@ 109
Secre@@ 109
row@@ 109
neigh@@ 109
Nichol@@ 109
achi@@ 109
expres@@ 109
Seveso 109
Schroed@@ 108
redund@@ 108
Vall@@ 108
itely 108
ela 108
Salafranca 108
Haid@@ 108
Mad@@ 108
scho@@ 108
Sierra 108
Jean 108
Sw@@ 108
Saudi 108
Nic@@ 108
enia 108
Bud@@ 107
bes@@ 107
Casac@@ 107
answ@@ 107
very@@ 107
Paul@@ 107
fro@@ 106
rat@@ 106
ject 106
ility 106
ros@@ 106
histor@@ 106
undermin@@ 106
fiable 106
fare 106
tras@@ 106
Schul@@ 106
Hun@@ 106
ome 106
tty 106
phenom@@ 106
onom@@ 106
Pr@@ 106
hop@@ 106
pression 106
Men@@ 106
Ly@@ 105
nez 105
terr@@ 105
kar@@ 105
kable 105
Le 105
suring 105
lia@@ 105
gres@@ 105
Andalu@@ 105
Wu@@ 105
reaches 105
Sanders 105
comprehensible 104
ffice 104
Bal@@ 104
norm@@ 104
ö@@ 104
ld 104
enhan@@ 104
horiz@@ 104
establis@@ 104
isi 104
emm@@ 103
Ribeiro 103
floo@@ 103
Mic@@ 103
Alavan@@ 103
four@@ 103
ST@@ 103
draft@@ 103
opa@@ 103
Malmström 103
Karaman@@ 103
José 103
Bu@@ 103
Martínez 103
Sil@@ 103
Ku@@ 102
Sep@@ 102
seg@@ 102
physi@@ 102
Agre@@ 102
Schrö@@ 102
forec@@ 102
cosme@@ 102
ody 102
Liber@@ 102
ki 102
Söder@@ 101
vil@@ 101
teac@@ 101
Gaz@@ 101
Ortuondo 101
OT@@ 101
ruption 101
AC@@ 101
Gah@@ 101
tre 100
torate 100
entreprene@@ 100
Howit@@ 100
thi@@ 100
stric@@ 100
mechan@@ 100
ghting 100
balan@@ 100
Fif@@ 100
Me@@ 100
levi@@ 100
Staun@@ 100
satisfac@@ 99
provid@@ 99
pä@@ 99
sop@@ 99
mly 99
tax@@ 99
visory 99
Grossetê@@ 99
X 99
my@@ 99
nec@@ 99
ilo@@ 99
mately 99
ight 99
lamen@@ 99
eir@@ 99
amon@@ 99
uri@@ 98
ï@@ 98
Jacques 98
Pen@@ 98
09 98
incin@@ 98
succe@@ 98
cour@@ 98
graph@@ 98
enter@@ 98
pit@@ 98
sud@@ 98
referendu@@ 98
tment 97
appro@@ 97
pay@@ 97
pus 97
escap@@ 97
Jord@@ 97
eties 97
ç@@ 97
igno@@ 97
pris@@ 97
Es@@ 97
tising 97
Mü@@ 97
Vietna@@ 97
guid@@ 96
istan 96
autom@@ 96
laud@@ 96
graphic 96
sus 96
alas 96
Hi@@ 96
Brenn@@ 96
Ni@@ 96
Å@@ 96
06 95
contain@@ 95
04 95
Cas@@ 95
unfor@@ 95
Pow@@ 95
Jos@@ 95
oli 95
uclear 95
tiveness 95
cand@@ 95
antici@@ 95
imit@@ 95
phas@@ 95
jan 95
ratic 95
Wall@@ 95
jus@@ 95
oul@@ 95
Deprez 95
Redon@@ 94
tiet@@ 94
inging 94
versity 94
sand 94
Amnesty 94
HC@@ 94
aller@@ 94
Schmit@@ 94
Plooij 93
cally 93
destruc@@ 93
siz@@ 93
quic@@ 93
tivity 93
bet@@ 93
don 93
Mi@@ 93
lar 93
AT@@ 93
Pé@@ 93
dor@@ 93
fusion 93
Leg@@ 93
ologies 93
FA@@ 93
Slova@@ 93
satis@@ 92
Nogueira 92
Robert 92
mature 92
yh@@ 92
Ing@@ 92
ord@@ 92
defici@@ 92
lle 92
Di 92
anta@@ 92
techn@@ 92
telec@@ 92
Kir@@ 92
prote@@ 92
Canc@@ 92
dic 91
Bir@@ 91
Ju@@ 91
Kou@@ 91
aspi@@ 91
believ@@ 91
surpris@@ 91
avo@@ 91
Singa@@ 91
nne 90
110 90
Ko@@ 90
resor@@ 90
Mal@@ 90
lov@@ 90
gorously 90
qualities 90
sy 90
Erit@@ 90
ousness 90
McN@@ 90
ffic@@ 90
meaning@@ 90
blin@@ 90
exis@@ 90
EMAS 90
Paasil@@ 90
Lamber@@ 90
asses 89
UC@@ 89
awar@@ 89
enn@@ 89
verse 89
migra@@ 89
350 89
foot@@ 89
usta@@ 89
ops 89
ema 89
Mexic@@ 89
terinary 89
ls 89
Qa@@ 89
07 88
juris@@ 88
Br@@ 88
yll@@ 88
loo@@ 88
nes@@ 88
tom 88
ja@@ 88
gradu@@ 88
æ@@ 88
Matthe@@ 88
ante@@ 87
aid@@ 87
enlarg@@ 87
Ge@@ 87
vings 87
may@@ 87
wer 87
let@@ 87
Trans@@ 87
bureauc@@ 87
advan@@ 87
iel@@ 87
exha@@ 87
Bow@@ 87
net@@ 87
transpar@@ 87
iran@@ 87
Andreas@@ 87
Linkoh@@ 87
Lo@@ 86
att@@ 86
una 86
ghtly 86
wis@@ 86
Anton@@ 86
oulo@@ 86
mel@@ 86
onn@@ 86
tech@@ 86
eu@@ 86
TRIPS 86
Margall@@ 86
Sal@@ 86
turally 85
tedly 85
oppos@@ 85
insec@@ 85
success@@ 85
tos 85
jar@@ 85
Gen@@ 85
Coel@@ 85
Gas@@ 85
sian 85
Moll@@ 85
touris@@ 85
lop@@ 85
ads 85
AS 85
Migu@@ 85
tane@@ 84
lit@@ 84
Davi@@ 84
ossa 84
uro@@ 84
Wat@@ 84
tie 84
quiry 84
Figueire@@ 84
Bull@@ 84
busin@@ 83
gements 83
vell@@ 83
hall@@ 83
Floren@@ 83
install@@ 83
fun@@ 83
eh@@ 83
incorpor@@ 83
mat 83
draw@@ 83
veness 83
Hel@@ 83
EL@@ 83
Med@@ 83
esti@@ 82
pin@@ 82
Alban@@ 82
consi@@ 82
opportun@@ 82
ise@@ 82
Krat@@ 82
Stenmar@@ 82
asu@@ 82
gene@@ 82
bers 82
ASE@@ 82
mina 82
EN 81
bin@@ 81
strength@@ 81
ans@@ 81
enda 81
Bol@@ 81
Char@@ 81
suffer@@ 81
Hans 81
remo@@ 80
parado@@ 80
Ric@@ 80
infr@@ 80
hagen 80
tera@@ 80
real@@ 80
cot@@ 80
consequ@@ 80
itious 80
alle@@ 80
elo@@ 80
materi@@ 79
titude 79
yo@@ 79
determin@@ 79
Gre@@ 79
profession@@ 79
rah@@ 79
prejud@@ 79
recycl@@ 79
arbit@@ 79
Gi@@ 79
Niger@@ 79
mia 79
truc@@ 79
tamin@@ 79
ori@@ 78
plic@@ 78
environ@@ 78
0 78
ear 78
pois@@ 78
sear@@ 78
geous 78
SE 78
unds 78
Pat@@ 78
advanta@@ 78
set@@ 78
signa@@ 78
MO@@ 78
Zimbab@@ 78
conveni@@ 77
examin@@ 77
Lang@@ 77
thre@@ 77
itative 77
prim@@ 77
shi@@ 77
aan 77
nis@@ 77
kin@@ 77
ó 77
atmosp@@ 77
Conc@@ 77
volu@@ 77
ér@@ 77
offic@@ 76
Ob@@ 76
Rom@@ 76
gement 76
mit 76
aj@@ 76
collap@@ 76
EB@@ 76
ona 76
sing@@ 76
orities 76
imes 76
ò@@ 76
ky@@ 76
ry@@ 76
tarv@@ 76
ace@@ 76
fore 75
constra@@ 75
dary 75
candid@@ 75
avai@@ 75
Parlia@@ 75
scenar@@ 75
artific@@ 75
tilis@@ 75
roun@@ 75
del 75
numer@@ 75
Ol@@ 75
laborator@@ 75
agu@@ 75
fficient 74
dossi@@ 74
,@@ 74
Lam@@ 74
Leban@@ 74
eva 74
ã@@ 74
inis@@ 73
fashi@@ 73
apolog@@ 73
mainstre@@ 73
í 73
eni 73
Al 73
elf 73
ava 73
sch 72
Jap@@ 72
shoul@@ 72
tern 72
ups 72
situ@@ 72
ternal 72
wit@@ 72
cat@@ 72
ECH@@ 72
iti 72
scen@@ 72
Ac@@ 72
ari@@ 72
parliamen@@ 72
kas 72
eEurope 72
accep@@ 71
benefici@@ 71
ø@@ 71
alter@@ 71
dea@@ 71
quot@@ 71
cent@@ 71
hope@@ 71
CE 71
ida 71
pill@@ 70
manif@@ 70
Grön@@ 70
sustain@@ 70
ola 70
sit@@ 70
enshr@@ 70
itional 70
isely 70
tection 70
Afric@@ 70
ja 70
beha@@ 70
phone 70
administra@@ 70
Kre@@ 70
Napol@@ 70
rations 70
gible 70
grow@@ 70
Mu@@ 70
sequ@@ 70
dos@@ 70
monella 70
effec@@ 69
appar@@ 69
notic@@ 69
gy@@ 69
ea 69
lou@@ 69
disap@@ 69
surroun@@ 69
valent 69
Sc@@ 69
än@@ 68
pleas@@ 68
discipl@@ 68
draf@@ 68
mou@@ 68
ystem 68
gani 68
harm@@ 68
Mc@@ 68
Flor@@ 68
kell@@ 68
redi@@ 67
typ@@ 67
ket@@ 67
ron 67
mot@@ 67
cks 67
tod@@ 67
tit@@ 67
conclu@@ 67
overwhel@@ 67
appear@@ 67
fundamentalis@@ 67
ella 67
suffici@@ 67
Ki@@ 67
iden 66
eler@@ 66
emed 66
vulner@@ 66
cc@@ 66
Bro@@ 66
run@@ 66
ó@@ 66
tali@@ 66
goti@@ 66
Frid@@ 66
Brit@@ 65
degre@@ 65
ulous 65
ende@@ 65
Commun@@ 65
terly 65
restric@@ 65
trag@@ 65
ada 65
alco@@ 65
top@@ 65
medic@@ 65
Itali@@ 65
Iraq@@ 65
flexi@@ 64
requ@@ 64
aming 64
ority 64
Agricul@@ 64
ambi@@ 64
partic@@ 64
avar@@ 64
fers 64
á 64
thou@@ 63
where@@ 63
gration 63
J 63
propos@@ 63
will@@ 63
oulou 63
ap 63
kel@@ 63
asy@@ 63
ía 63
preced@@ 63
mn 63
lent@@ 63
forma@@ 63
tilin@@ 63
Turk@@ 62
transa@@ 62
instru@@ 62
ama 62
lum 62
illeg@@ 62
nut 62
eness 62
vall@@ 62
maj@@ 62
und 62
Swed@@ 62
parall@@ 62
dren 62
Bri@@ 62
pharma@@ 62
Er@@ 61
Cour@@ 61
buil@@ 61
rish 61
dispos@@ 61
geo@@ 61
voca@@ 61
remar@@ 61
ganis@@ 61
ua 61
ost 60
jeopar@@ 60
ution 60
Comm@@ 60
graphy 60
din@@ 60
asion 60
rann@@ 60
apol@@ 60
tso@@ 60
consen@@ 60
ñ@@ 60
arming 60
country@@ 60
inte@@ 60
anta 60
differ@@ 60
Col@@ 60
agre@@ 60
yan@@ 60
olo@@ 59
minim@@ 59
streng@@ 59
contra@@ 59
heav@@ 59
Mos@@ 59
contac@@ 59
ania 59
consisten@@ 59
um@@ 59
sof@@ 59
figu@@ 59
gentle@@ 59
Ir@@ 59
laim 58
ek 58
luc@@ 58
ista 58
kly 58
yd@@ 58
din 58
Chi@@ 57
care@@ 57
regul@@ 57
recy@@ 57
edy 57
Dec@@ 57
OS@@ 57
Sö@@ 57
Afgh@@ 57
need@@ 57
phen@@ 57
isite 56
monopol@@ 56
Kosov@@ 56
rimin@@ 56
budsman 56
famili@@ 56
mps 56
tum 56
pa 56
oso@@ 56
Fa@@ 56
Austri@@ 56
mit@@ 56
anu@@ 56
percen@@ 56
dow@@ 56
remain@@ 56
credi@@ 56
intern@@ 56
erb@@ 56
internation@@ 56
Econom@@ 56
portation 56
ade@@ 56
za@@ 56
inhabi@@ 55
Regi@@ 55
Europe@@ 55
achiev@@ 55
olen 55
tting 55
itly 55
dump@@ 55
pian 55
bab@@ 55
arities 55
absur@@ 55
kop@@ 55
occupi@@ 55
ali 55
sincer@@ 54
Os 54
ime 54
ú@@ 54
essions 54
gun 54
pressive 54
tta@@ 54
ero 54
Cong@@ 54
entra@@ 53
Ech@@ 53
LA@@ 53
philosoph@@ 53
je@@ 53
phy@@ 53
ittees 53
ist@@ 53
parti@@ 53
Represen@@ 53
ê@@ 53
lak@@ 53
feed@@ 53
Myan@@ 53
Tre@@ 53
commis@@ 53
ova 53
nou@@ 53
tial 53
&amp; 53
Mer@@ 53
dus@@ 53
progra@@ 53
Bulgar@@ 53
wholehear@@ 52
Pal@@ 52
vita@@ 52
derly 52
statis@@ 52
arm@@ 52
pid@@ 52
az@@ 52
join@@ 52
Jun@@ 52
prison@@ 52
endu@@ 52
lish 52
philos@@ 52
Summ@@ 52
electron@@ 51
ules 51
yers 51
spen@@ 51
further@@ 51
diction 51
oon 51
fea@@ 51
Cz@@ 51
mma@@ 51
EM@@ 51
intellec@@ 51
sensiti@@ 51
Lat@@ 51
een 51
Min@@ 51
Americ@@ 51
ilu@@ 51
satelli@@ 51
tige 51
essa@@ 50
prepar@@ 50
So@@ 50
gers 50
Blo@@ 50
UT@@ 50
jective 50
min 50
cau@@ 50
Span@@ 50
esty@@ 50
depar@@ 50
manoeuv@@ 50
odo@@ 50
turers 50
yn@@ 50
prerequ@@ 49
tila@@ 49
ior 49
arti@@ 49
Aud@@ 49
empha@@ 49
Jo@@ 49
high@@ 49
olin 49
undering 49
OM 49
facil@@ 49
ghly 48
hers 48
stran@@ 48
crat 48
mys@@ 48
bit@@ 48
dou@@ 48
urs@@ 48
Ag@@ 48
thu@@ 48
holl@@ 48
seud@@ 48
refor@@ 48
eil@@ 48
sens@@ 48
amen@@ 48
sman 48
rhetor@@ 48
alli@@ 48
Lithu@@ 48
DR 47
Ur@@ 47
Pla@@ 47
ulti@@ 47
pharmaceu@@ 47
univers@@ 47
vit@@ 47
etta 47
pling 47
30@@ 47
SP 47
appli@@ 47
Stra@@ 47
issu@@ 47
gir@@ 47
call@@ 47
Bos@@ 47
..@@ 46
imple@@ 46
discus@@ 46
poli@@ 46
bann@@ 46
imper@@ 46
Sci@@ 46
democrat@@ 46
servic@@ 46
titu@@ 46
urement 46
dang@@ 46
inst 46
Stock@@ 46
otto 46
renew@@ 45
strate@@ 45
Oc@@ 45
worl@@ 45
vas@@ 45
ah@@ 45
olo 45
inno@@ 45
sioners 45
si 45
Pak@@ 45
ET@@ 45
abo@@ 45
Cu@@ 44
teer@@ 44
Den@@ 44
affec@@ 44
resear@@ 44
mall@@ 44
stru@@ 44
Si@@ 44
harass@@ 44
tron@@ 44
sin 43
erous 43
pursu@@ 43
Mat@@ 43
ams 43
arbitr@@ 43
mits 43
qual@@ 43
lights 43
oppon@@ 43
post@@ 43
coher@@ 43
adm@@ 43
fall@@ 43
scri@@ 43
kon@@ 43
occupa@@ 43
Mag@@ 43
ually 43
py@@ 43
Lin@@ 43
Austr@@ 43
decou@@ 43
kas@@ 43
gative 42
rau@@ 42
Jac@@ 42
tak@@ 42
dom@@ 42
guil@@ 42
analy@@ 42
pow@@ 42
sul@@ 42
ss@@ 42
meta@@ 42
subjec@@ 42
measu@@ 42
terroris@@ 42
Pri@@ 42
urities 42
Ε@@ 42
alterna@@ 41
strai@@ 41
destro@@ 41
nn@@ 41
ferences 41
gest 41
proper@@ 41
tus@@ 41
Lis@@ 41
ajan@@ 41
intellig@@ 41
propa@@ 41
jen@@ 41
apua 41
simi@@ 40
Län@@ 40
coura@@ 40
peripher@@ 40
Kau@@ 40
pub@@ 40
seem@@ 40
are@@ 40
uno@@ 40
programm@@ 40
desira@@ 40
demon@@ 40
nau@@ 40
era@@ 40
burea@@ 40
aste 40
ön@@ 40
nesty 40
tremend@@ 39
du 39
thorou@@ 39
ader 39
pol 39
edes 39
immen@@ 39
forth@@ 39
derog@@ 39
till 39
TR@@ 39
kor@@ 39
Fre@@ 39
paper@@ 39
mples 39
fem@@ 39
Martí@@ 39
AT 39
scient@@ 39
geted 39
Tai@@ 39
koski 39
Develop@@ 39
union@@ 39
vani 39
olumb@@ 39
shareh@@ 39
lle@@ 38
W 38
pers@@ 38
simil@@ 38
Progra@@ 38
para@@ 38
Cub@@ 38
ridic@@ 38
istics 38
udes 38
Fis@@ 38
extre@@ 38
perfec@@ 38
enopho@@ 38
mbers 38
polit@@ 38
Saf@@ 38
ote 38
sm@@ 37
circumstan@@ 37
oman 37
unti@@ 37
rally 37
Sten@@ 37
pes@@ 37
vin@@ 37
datory 37
toma@@ 37
recogn@@ 37
ith 37
Au@@ 37
Tu@@ 37
Mé@@ 37
ented 36
solid@@ 36
EL 36
integra@@ 36
estima@@ 36
Chris@@ 36
É@@ 36
Gro@@ 36
Pres@@ 36
ani 36
Gö@@ 36
ffer 36
irregul@@ 35
het@@ 35
resul@@ 35
ame 35
dell@@ 35
redundan@@ 35
oi 35
laun@@ 35
ly@@ 35
veto@@ 35
vei@@ 35
leng@@ 35
bilities 35
state@@ 35
Daphne 35
kim@@ 35
worth@@ 35
territor@@ 35
Ukra@@ 35
sama 35
Mem@@ 34
tos@@ 34
chers 34
esta 34
supran@@ 34
wns 34
eman 34
aste@@ 34
minister@@ 34
ID@@ 34
dit 34
yn 34
pite 34
shr@@ 34
Kal@@ 34
elin 34
asia 34
Gener@@ 33
iliation 33
enni@@ 33
especi@@ 33
deple@@ 33
syste@@ 33
Zim@@ 33
tackl@@ 33
aut@@ 33
show@@ 33
follow@@ 33
tlan@@ 33
Fisch@@ 33
0,@@ 33
Op@@ 33
oin 33
olos@@ 32
mendation 32
ape@@ 32
lic 32
Gr@@ 32
earning 32
privatis@@ 32
conser@@ 32
inciden@@ 32
radio@@ 32
pop@@ 32
mol@@ 32
ant@@ 32
Cen@@ 31
belong@@ 31
complex@@ 31
isms 31
mone@@ 31
disas@@ 31
particip@@ 31
doma@@ 31
suic@@ 31
ester@@ 31
rete 31
Olymp@@ 31
ech 31
mem@@ 31
Finan@@ 31
viel@@ 31
q 31
infrastruc@@ 30
Poh@@ 30
unda@@ 30
ye 30
iso 30
ole@@ 30
PP@@ 30
forecas@@ 30
alan 30
eij@@ 30
kle 30
interoper@@ 30
eri@@ 30
rke@@ 30
sie@@ 29
dless 29
tration 29
ffs 29
heik@@ 29
Ö 29
Ö@@ 29
US@@ 29
easi@@ 29
apa@@ 29
eiv@@ 29
intoler@@ 29
eira 29
alle 29
mak@@ 29
essenti@@ 29
mentally 29
Í@@ 29
Kos@@ 29
Diaman@@ 29
bal@@ 29
oples 29
him@@ 29
Gros@@ 29
kan 28
Pu@@ 28
prior@@ 28
tury 28
ark@@ 28
ould 28
fruit@@ 28
open@@ 28
soldi@@ 28
larg@@ 28
nic 28
dru@@ 28
mpa@@ 28
toral 28
echan@@ 28
pom@@ 28
dimen@@ 28
ctions 28
ira@@ 28
hs 28
swi@@ 27
inary 27
tarians 27
urg@@ 27
£ 27
Belgi@@ 27
iture 27
mus 27
Nov@@ 27
participan@@ 27
tta 27
its@@ 27
delic@@ 27
know@@ 27
ei 27
Auth@@ 27
see@@ 27
Vel@@ 27
Guine@@ 27
Ô@@ 27
tisan@@ 27
utu@@ 26
Mul@@ 26
teful 26
get@@ 26
tute 26
ourse 26
vels 26
prog@@ 26
simpli@@ 26
Sto@@ 26
Y 26
vul@@ 26
tein 26
basi@@ 26
itiveness 26
duce 26
tu 26
som@@ 26
convinc@@ 26
uran@@ 26
kke@@ 26
.e@@ 26
oni 25
kir@@ 25
dez 25
any@@ 25
Organis@@ 25
led@@ 25
schedul@@ 25
ille 25
ularly 25
teur@@ 25
swif@@ 25
presen@@ 25
teral 25
hein@@ 25
Indus@@ 25
improv@@ 25
ellow 24
mean@@ 24
lain 24
adic@@ 24
1,@@ 24
explic@@ 24
ette@@ 24
prolifer@@ 24
deni@@ 24
lingu@@ 24
Strate@@ 24
foll@@ 24
lip@@ 24
food@@ 24
Fren@@ 24
victi@@ 24
olly 24
Consu@@ 24
undoub@@ 24
Kan@@ 24
fer 23
ingredi@@ 23
mely 23
anim@@ 23
expen@@ 23
outh 23
ito 23
raid 23
ference 23
pestic@@ 23
acqui@@ 23
vet@@ 23
kit@@ 23
iger@@ 23
liberalis@@ 23
aph@@ 23
yli@@ 23
tingu@@ 22
dish 22
Bosni@@ 22
hir@@ 22
stuffs 22
aman@@ 22
interi@@ 22
orrow 22
resol@@ 22
llis@@ 22
nee 22
atly 22
adjour@@ 22
Mold@@ 22
limin@@ 22
isa 22
lifer@@ 22
charac@@ 22
atedly 21
telecommunic@@ 21
ivi@@ 21
pensa@@ 21
ku@@ 21
wel@@ 21
trou@@ 21
exac@@ 21
aving 21
à@@ 21
genous 21
fec@@ 21
trous 21
lateral 21
ien 21
Yugosla@@ 21
finan@@ 21
Ho@@ 21
mov@@ 21
Buiten@@ 21
dikta@@ 21
Italia 21
dy@@ 21
Medi@@ 21
rit 21
wr@@ 21
acco 21
osa 21
psy@@ 21
gar 21
estic 21
oma@@ 21
ni 20
vier 20
feeding@@ 20
neu@@ 20
knowled@@ 20
bet 20
ots@@ 20
spea@@ 20
sem@@ 20
flec@@ 20
ucle@@ 20
depen@@ 20
profess@@ 20
humanita@@ 20
vious 20
ek@@ 20
erro@@ 20
EI@@ 20
orm@@ 20
digi@@ 20
aka@@ 20
tere@@ 19
inha@@ 19
IF@@ 19
roman@@ 19
ä@@ 19
ito@@ 19
Moz@@ 19
compul@@ 19
gal 19
kr@@ 19
Constitu@@ 19
Citiz@@ 19
gia 19
kit 19
ß 19
j 19
dul@@ 19
trum 19
kan@@ 19
Ï 19
autonom@@ 19
viour 19
osta 19
Schro@@ 19
rj@@ 19
wonder@@ 18
Pet@@ 18
Syri@@ 18
conv@@ 18
Yor@@ 18
ere 18
2,@@ 18
twel@@ 18
diploma@@ 18
vement 18
taire 18
etti 18
ources 18
coal@@ 18
sill@@ 18
syr@@ 18
q@@ 18
enne 17
OLA@@ 17
performan@@ 17
icy 17
opho@@ 17
tenance 17
proble@@ 17
disadvanta@@ 17
Niel@@ 17
ndez 17
ingent 17
risti@@ 17
ingdom 17
ication 17
porno@@ 17
nes 17
Vä@@ 17
Hus@@ 17
Finn@@ 17
Lag@@ 17
ji@@ 17
kon 17
Commis@@ 17
Iran@@ 17
teo@@ 17
ström 17
paran@@ 17
through@@ 17
alta 17
interes@@ 17
sty 17
rase 17
norma@@ 17
secution 17
amma@@ 17
maiden 16
sovereign@@ 16
fres@@ 16
Proc@@ 16
Eas@@ 16
exper@@ 16
essan@@ 16
sar@@ 16
minu@@ 16
pim@@ 16
ommunic@@ 16
IG@@ 16
compan@@ 16
controversi@@ 16
bad@@ 16
teho@@ 16
tro 16
rac 16
Paragrap@@ 16
solu@@ 16
actu@@ 16
2. 16
nette 16
dical 15
now@@ 15
ale@@ 15
green@@ 15
tall@@ 15
implemen@@ 15
ident 15
Bang@@ 15
vina 15
ilo 15
Cy@@ 15
eft 15
Cauc@@ 15
· 15
Tam@@ 15
tend@@ 15
gratu@@ 15
indis@@ 15
telev@@ 15
li 15
ough 15
pis@@ 15
vied@@ 15
mman 15
ire@@ 15
elle 15
occu@@ 15
vie 15
1. 15
weeken@@ 15
NI 15
Ó 15
ussa 15
tte 14
Atlan@@ 14
junction 14
ssa@@ 14
tres@@ 14
opu@@ 14
nel@@ 14
NAT@@ 14
$ 14
osia 14
kia 14
teurs 14
morator@@ 14
recom@@ 14
testa@@ 14
itage 14
effici@@ 14
other@@ 14
iddle 14
vi 14
eli 14
Esta@@ 14
Part@@ 14
pir@@ 14
ß@@ 14
ulk@@ 14
Malm@@ 14
zio 14
withdraw@@ 14
fig@@ 13
Sala@@ 13
omen 13
Q 13
exa@@ 13
Lab@@ 13
gn 13
gent@@ 13
bec@@ 13
jne 13
lan 13
Var@@ 13
Ì@@ 13
Om@@ 13
alth 13
Af@@ 13
Fisher@@ 13
necess@@ 13
tit 13
tto@@ 13
icals 13
hygi@@ 13
Sev@@ 13
rism 13
Miche@@ 13
mis 12
entre@@ 12
horizon@@ 12
emphas@@ 12
Luxembour@@ 12
tois@@ 12
contr@@ 12
dise@@ 12
mula 12
phenomen@@ 12
citizen@@ 12
rail@@ 12
Anne@@ 12
Cres@@ 12
illa 12
thousan@@ 12
Gal@@ 12
äl@@ 12
ä 12
ville 12
ittle 12
ö 12
invol@@ 12
itta 12
offer@@ 12
luo@@ 12
Α@@ 12
enterpris@@ 11
Contro@@ 11
Associ@@ 11
incenti@@ 11
help@@ 11
historian 11
lova@@ 11
intro@@ 11
tto 11
Johan@@ 11
strik@@ 11
harma@@ 11
ceu@@ 11
kis@@ 11
slau@@ 11
eged 11
hol 11
kus 11
toi@@ 11
perus@@ 11
Z 11
ffec@@ 11
overty 11
jan@@ 11
Eco@@ 11
tie@@ 11
occ@@ 11
elit@@ 11
ede@@ 11
aga@@ 11
ingra@@ 11
subsi@@ 11
refus@@ 11
° 11
Belar@@ 11
sory 10
reds 10
delta 10
Dem@@ 10
uska@@ 10
tark@@ 10
indi@@ 10
itations 10
proced@@ 10
Thurs@@ 10
langu@@ 10
expend@@ 10
Hag@@ 10
CN@@ 10
å@@ 10
anto 10
tee 10
vations 10
itta@@ 10
kal@@ 10
taka@@ 10
hic 10
ourable 10
Eura@@ 10
hill@@ 10
asian 10
Dub@@ 10
Dut@@ 10
Sad@@ 10
apu@@ 10
jet@@ 9
Ü@@ 9
itten 9
kki 9
laa@@ 9
teg@@ 9
bited 9
lead@@ 9
û@@ 9
mpi 9
Eng@@ 9
luke@@ 9
straight@@ 9
dipl@@ 9
Tou@@ 9
po 9
inevi@@ 9
tyr@@ 9
ú 9
fam@@ 9
rehabil@@ 9
genoc@@ 9
aar@@ 9
oa 9
meth@@ 9
É 9
pend@@ 9
news@@ 9
rik@@ 9
dik@@ 9
nim@@ 9
roh@@ 9
º@@ 8
EU@@ 8
cipl@@ 8
otta@@ 8
oton@@ 8
topic@@ 8
itus 8
tho@@ 8
kra@@ 8
quota@@ 8
max@@ 8
arz@@ 8
aband@@ 8
rement 8
Oly@@ 8
asbes@@ 8
Ê@@ 8
evel@@ 8
usly 8
kul@@ 8
mme 8
copy@@ 8
osa@@ 8
oner 8
propagan@@ 8
Fon@@ 8
pala@@ 8
ë@@ 8
toon 8
ause 8
ership 8
cris@@ 8
3. 8
iri@@ 8
lj@@ 8
ku 8
ffic 8
comit@@ 8
ente@@ 8
elta 8
Feder@@ 7
jects 7
mos 7
enness 7
wha@@ 7
itives 7
consider@@ 7
lare 7
rying 7
Vitor@@ 7
º 7
Luc@@ 7
ny@@ 7
Inves@@ 7
Lud@@ 7
mme@@ 7
poten@@ 7
rai@@ 7
urt@@ 7
gotten 7
absolu@@ 7
tien 7
haps 7
assa 7
iro 7
Eurosta@@ 7
roper@@ 7
enthusi@@ 7
kel 7
moni@@ 7
Def@@ 7
Aug@@ 7
PV@@ 7
manu@@ 7
oni@@ 7
fronti@@ 7
aban@@ 7
län@@ 7
imin@@ 7
potenti@@ 7
nolle 7
mant@@ 7
kou@@ 7
onz@@ 7
tap@@ 7
Struc@@ 7
try@@ 7
ttoman 7
Husse@@ 7
agricul@@ 7
ymp@@ 7
hun 7
alon@@ 7
dations 6
incen@@ 6
phu@@ 6
rappor@@ 6
ete@@ 6
ksen 6
Commission@@ 6
Ev@@ 6
Pub@@ 6
rapid@@ 6
hund@@ 6
isual 6
ffer@@ 6
tila 6
promis@@ 6
etta@@ 6
therapeu@@ 6
este 6
Ø@@ 6
å 6
tricity 6
Corm@@ 6
Pur@@ 6
Amster@@ 6
Demo@@ 6
iki 6
sten 6
usi 6
Luxem@@ 6
ippu@@ 6
kö@@ 6
Ener@@ 6
kka 6
cohes@@ 6
pun 6
lang@@ 6
Vene@@ 6
receiv@@ 6
pal 6
urity 6
Jer@@ 6
ussels 6
arab@@ 6
disab@@ 6
uri 6
ural 6
Thessalon@@ 6
aja@@ 6
rejec@@ 5
rety 5
Aus@@ 5
â@@ 5
viously 5
p.@@ 5
ille@@ 5
chocol@@ 5
egu@@ 5
tice 5
inti 5
vin 5
vey 5
sala@@ 5
asta 5
recog@@ 5
ilies 5
etu@@ 5
speec@@ 5
ebru@@ 5
CF@@ 5
eability 5
indispensa@@ 5
itte 5
plies 5
Mone@@ 5
aty 5
aim@@ 5
esterday 5
sly 5
how@@ 5
fin 5
Prosecu@@ 5
AID@@ 5
ynn 5
firs@@ 5
jel@@ 5
erra 5
Afghan@@ 5
yri@@ 5
anal@@ 5
ï 5
Mauri@@ 5
Proced@@ 5
Gonz@@ 5
kri@@ 5
ù@@ 5
Erik@@ 4
smu@@ 4
ece 4
Ala@@ 4
mille 4
osto@@ 4
tele 4
anne 4
And@@ 4
ü 4
Wednes@@ 4
compati@@ 4
Speci@@ 4
tences 4
tosi@@ 4
mains@@ 4
amer@@ 4
constan@@ 4
ologi@@ 4
ù 4
chem@@ 4
ksi@@ 4
kom@@ 4
edings 4
sov@@ 4
esim@@ 4
usko 4
Iz@@ 4
Tali@@ 4
prelimin@@ 4
inste@@ 4
iste@@ 4
â 4
Bul@@ 4
ng 4
momen@@ 4
Indon@@ 4
kun@@ 4
ile@@ 4
too@@ 4
issa 4
eri 4
dun 4
tuna@@ 4
Helsing@@ 4
offici@@ 4
ì@@ 4
opin@@ 4
cil 4
topi@@ 4
messa@@ 4
anen 4
Goth@@ 4
tun 4
GM@@ 4
@ 4
Jacqu@@ 4
alta@@ 4
eti@@ 4
AK@@ 4
vero 4
atz@@ 4
Alli@@ 4
Ν@@ 4
Τ@@ 4
laimin@@ 4
itali@@ 3
usta 3
oi@@ 3
goro@@ 3
î@@ 3
mut@@ 3
µ@@ 3
exec@@ 3
æ 3
sugges@@ 3
reau 3
Afr@@ 3
incor@@ 3
Coh@@ 3
½ 3
Å 3
yy@@ 3
amend@@ 3
iko@@ 3
member@@ 3
eto@@ 3
pring 3
happen@@ 3
vara 3
apeu@@ 3
sani 3
jos@@ 3
tug@@ 3
EK@@ 3
mpia 3
decad@@ 3
estin@@ 3
Mai@@ 3
vista 3
ako 3
Ï@@ 3
positi@@ 3
tote@@ 3
idents 3
Educ@@ 3
= 3
Ire@@ 3
,5 3
Jus@@ 3
rans@@ 3
tai@@ 3
void@@ 3
lah@@ 3
thusi@@ 3
iten@@ 3
Coton@@ 3
Eti@@ 3
prene@@ 3
habil@@ 3
requi@@ 3
mä@@ 3
addres@@ 3
Mau@@ 3
Declar@@ 3
Nogu@@ 3
Pir@@ 3
enburg 3
vocates 3
airs 3
ika@@ 3
ingness 3
vat@@ 3
unpreced@@ 3
ò 3
osen 3
immedi@@ 3
iha@@ 3
tiu@@ 3
Gis@@ 3
standar@@ 3
enab@@ 3
voi@@ 3
kla@@ 3
Chechny@@ 3
riski@@ 3
è 3
Ο 3
sels 3
kre@@ 3
öö@@ 2
Portugu@@ 2
sembly 2
etty 2
¾ 2
alem 2
iten 2
Bour@@ 2
olem@@ 2
vince 2
isu@@ 2
ople 2
ilma@@ 2
Lamfalus@@ 2
isen@@ 2
mani@@ 2
versi@@ 2
sovi@@ 2
Tues@@ 2
Lon@@ 2
orig@@ 2
communau@@ 2
betw@@ 2
een@@ 2
atu 2
mien 2
ella@@ 2
isten 2
vang@@ 2
riers 2
clar@@ 2
uo@@ 2
tially 2
terran@@ 2
repercus@@ 2
pointment 2
alla 2
Ý@@ 2
jö@@ 2
aa 2
tut@@ 2
Leh@@ 2
ource 2
genu@@ 2
itur@@ 2
isin 2
terro@@ 2
Á 2
Maro@@ 2
genuin@@ 2
toge@@ 2
nar 2
assess@@ 2
ows@@ 2
alue 2
Â@@ 2
evi@@ 2
terranean 2
vu@@ 2
oton 2
tann@@ 2
maid@@ 2
tkin 2
_ 2
tot 2
Beh@@ 2
olet@@ 2
kys@@ 2
pyr@@ 2
mote 2
edon@@ 2
malar@@ 2
lause@@ 2
tti 2
tob@@ 2
raha 2
pari 2
Minu@@ 2
tori 2
termost 2
sai@@ 2
world@@ 2
rehe@@ 2
saa@@ 2
vos@@ 2
ope@@ 2
reper@@ 2
verk@@ 2
rin 2
hre@@ 2
lai@@ 2
tai 2
keh@@ 2
Fonta@@ 2
Berl@@ 2
rinn@@ 2
mployment 2
istu@@ 2
summa 2
tti@@ 2
genti@@ 2
sio 2
ota 2
alt@@ 2
Bend@@ 2
tule@@ 2
õ@@ 2
Nistic@@ 2
mik@@ 2
rav@@ 2
Mart@@ 2
heng@@ 2
tever 2
\ 2
audiovisu@@ 2
toim@@ 2
haki@@ 2
veillance 2
undertak@@ 2
heug@@ 2
elv@@ 2
suu@@ 2
sod@@ 2
Wed@@ 2
lä@@ 2
Ι@@ 2
asus 2
della 2
hän@@ 1
Nis@@ 1
jina 1
wides@@ 1
9. 1
tulis@@ 1
isem@@ 1
quier@@ 1
White@@ 1
ttom@@ 1
vier@@ 1
hengen 1
conom@@ 1
perip@@ 1
neutra@@ 1
ison@@ 1
kti@@ 1
ticles 1
itä@@ 1
dij@@ 1
äid@@ 1
tava@@ 1
majo@@ 1
¼ 1
simul@@ 1
vies@@ 1
etin 1
aties 1
iku@@ 1
Ù@@ 1
isra@@ 1
hank@@ 1
villa 1
Byr@@ 1
malle@@ 1
sall@@ 1
elek@@ 1
mutte@@ 1
Ira@@ 1
Jarzembows@@ 1
isto 1
activ@@ 1
obje@@ 1
vien@@ 1
À@@ 1
osten 1
ansa 1
vii@@ 1
moot@@ 1
ysten 1
tuzz@@ 1
tyn 1
mie@@ 1
rä@@ 1
klo@@ 1
väl@@ 1
oda 1
kos@@ 1
OEC@@ 1
tei 1
etu 1
istu 1
fsta@@ 1
ardous 1
4. 1
ksa 1
like@@ 1
kala@@ 1
chann@@ 1
ç 1
auti@@ 1
ike@@ 1
umu@@ 1
ittele@@ 1
Ñ@@ 1
pia 1
innan 1
Washing@@ 1
ssa 1
WT@@ 1
pys@@ 1
haas@@ 1
kiel@@ 1
arv@@ 1
Fore@@ 1
ovar@@ 1
aja 1
luet@@ 1
Sovi@@ 1
vira@@ 1
teh@@ 1
ensi 1
kun 1
earch 1
SME@@ 1
Rand@@ 1
xima@@ 1
osan@@ 1
Hung@@ 1
tena 1
õ 1
÷ 1
þ 1
kiitos 1
eta 1
oeuv@@ 1
kland 1
Monter@@ 1
asil@@ 1
ë 1
sivis@@ 1
Figu@@ 1
udu 1
Ì 1
ý 1
ý@@ 1
ð@@ 1
daries 1
olette 1
Portug@@ 1
Mugab@@ 1
Ster@@ 1
jen 1
multination@@ 1
anna@@ 1
yö@@ 1
sti 1
otten 1
Galile@@ 1
WH@@ 1
whel@@ 1
tet@@ 1
more@@ 1
Christ@@ 1
entral 1
selves 1
edus@@ 1
inta 1
hait@@ 1
Milos@@ 1
jon@@ 1
aio 1
when@@ 1
Haar@@ 1
pak@@ 1
thres@@ 1
lun 1
pread 1
Goeb@@ 1
campa@@ 1
taa 1
tenne 1
vasta@@ 1
automa@@ 1
ikan 1
dire@@ 1
osin 1
vail 1
xt 1
stitu@@ 1
pide 1
Oos@@ 1
usk@@ 1
Araf@@ 1
elis 1
oja 1
Balkan@@ 1
kansa@@ 1
kut@@ 1
ittee 1
ì 1
är@@ 1
vä@@ 1
cco 1
tut 1
obsta@@ 1
Diamantop@@ 1
esti 1
Euroop@@ 1
tö 1
GU@@ 1
korke@@ 1
hyö@@ 1
suhteen 1
yt@@ 1
Kes@@ 1
ê 1
sulphu@@ 1
joh@@ 1
ã 1
colleag@@ 1
Opportun@@ 1
kalas@@ 1
partner@@ 1
kot@@ 1
destab@@ 1
Gale@@ 1
lim 1
oeu@@ 1
certa@@ 1
incapa@@ 1
uscon@@ 1
Kati@@ 1
Ky@@ 1
ø 1
ministeri@@ 1
itu 1
gid 1
xem@@ 1
tunne@@ 1
Sterck@@ 1
Fatuzz@@ 1
Α 1
onger 1
Roth@@ 1
tablis@@ 1
ity@@ 1
nsa 1
tella 1
yt 1
opar@@ 1
Amend@@ 1
Eras@@ 1
indus@@ 1
hui@@ 1
Κ@@ 1
Κ 1
bile 1
lauses 1
irman 1
ă@@ 1
¡ 1
riske@@ 1
onta 1
Behrend@@ 1
ο 1
aal@@ 1
Ι 1
hah@@ 1
udi 1
edel@@ 1
amu@@ 1
