, 712481
. 496742
ja 328033
on 286078
a 259248
n 258935
että 165691
in 131013
mme 105944
en 95828
an 95390
ä 89494
ta 84490
kin 82218
t 81882
ei 68753
tä 67873
tä@@ 64726
-@@ 61732
Euroopan 60159
ssa 59374
@ 55949
@@@ 55942
- 53979
ni@@ 52726
en@@ 48819
myös 47803
a@@ 47195
vat 46686
se 46506
si@@ 46103
inen 43856
iden 42491
ovat 41793
sen 39026
sta 38895
arvoisa 37914
ole 37767
ksi 37566
komission 37056
än 36938
jo@@ 36635
ista 35303
nä@@ 33942
lle 33480
nyt 33184
joka 32987
tämä 31866
puhemies 30623
jotka 30207
sti 29919
llä 29322
ten 28909
siitä 28332
ssä 27843
meidän 27099
nut 26773
jäsen 26677
mut@@ 26644
ni 26479
ille 25899
lla 25772
maan 25459
neet 25451
e@@ 25320
stä 24829
minen 24783
parlamentin 24752
kuit@@ 24668
jäsenvaltio@@ 24635
i@@ 24583
an@@ 24417
taan 23943
et 23882
tämän 23731
isesti 23541
ole@@ 23336
isen 23319
kuin 23145
koske@@ 22906
tai 22774
i 22620
va@@ 22550
) 21843
olisi 21839
( 21742
istä 21394
sa@@ 21204
sekä 20914
kun 20367
unionin 20257
esti 19483
: 19309
komissio 19294
jos 19277
? 19152
e 18994
ne 18812
lisä@@ 18811
issa 18711
&quot; 18455
erityis@@ 18436
itä 18398
jen 18152
kuten 17920
voi 17864
kanssa 17853
t@@ 17660
sano@@ 17385
hyvi@@ 17383
isia 17340
koska 17157
olen 17001
hyväksy@@ 16964
n@@ 16799
voi@@ 16079
neuvoston 15981
na 15873
jo 15822
@@ 15736
halu@@ 15719
ta@@ 15656
toimi@@ 15180
jonk@@ 15155
mielestä@@ 15117
tta 15060
todell@@ 14918
taa 14747
u 14649
esi@@ 14589
ia 14492
eri@@ 14452
kaan 14450
o@@ 14428
kaikki@@ 14393
ihin 14382
miseksi 14187
sillä 14112
yhteis@@ 13995
kaikki 13677
isten 13641
oli 13608
haluaisi@@ 13292
vielä 13280
vien 13171
ttava 13032
emme 12987
eivät 12956
ttäin 12786
mitä 12726
tärkeä@@ 12670
on@@ 12517
siihen 12337
in@@ 12289
me 12268
perus@@ 12258
koskeva@@ 12187
kään 12056
olla 11977
sella@@ 11945
suur@@ 11813
saa@@ 11796
illa 11783
ihmis@@ 11768
nsa 11729
nä 11634
työ@@ 11558
iset 11558
hyvä@@ 11524
voidaan 11513
joita 11251
ita 11218
miseen 11164
/ 11089
mista 10993
et@@ 10991
pää@@ 10911
toivo@@ 10904
hän@@ 10811
u@@ 10777
vuoksi 10708
hän 10620
te@@ 10601
tään 10533
is@@ 10402
kansalais@@ 10401
isiin 10222
vaan 10189
mukaan 10132
isi 10129
ä@@ 10129
parlamentti 9962
van 9931
ikä 9911
een 9887
via 9799
vuoden 9638
siksi 9623
yhteisön 9576
y 9574
kaik@@ 9562
tähän 9508
halua@@ 9480
mieltä 9460
ennen 9451
tu@@ 9428
ympäristö@@ 9349
k@@ 9333
nyky@@ 9302
jota 9270
eurooppalais@@ 9263
väli@@ 9255
EU:n 9176
paljon 9163
pitäisi 9121
liitty@@ 9093
is 9086
vasta@@ 9013
mahdoll@@ 9013
ko@@ 9011
ka@@ 8950
nämä 8911
tälla@@ 8851
essa 8816
huomioon 8802
vaikka 8797
ko 8781
ensimmä@@ 8727
ina 8699
ollut 8546
puhu@@ 8484
ti@@ 8460
lta 8449
puolesta 8351
staan 8289
:n 8283
politiikan 8272
malla 8248
kseen 8235
tehdä 8227
pitää 8222
issä 8145
ettei 8109
y@@ 8082
siinä 8076
neuvosto 8075
misesta 8054
täysi@@ 7993
mään 7940
jälkeen 7939
joiden 7907
kansainvälis@@ 7851
yleis@@ 7824
komissio@@ 7818
sitte@@ 7673
usei@@ 7612
he 7602
mikä 7586
s@@ 7581
misen 7531
tetään 7503
ttiin 7492
maiden 7453
essä 7409
ttävä 7407
nne 7397
to@@ 7382
koko 7359
kansallis@@ 7292
lopu@@ 7246
Yhdys@@ 7243
vuonna 7184
ja@@ 7151
olle@@ 7134
iä 7087
kaikke@@ 7085
kyse 7064
juuri 7033
yhteydessä 7026
ma@@ 7022
kuulu@@ 7002
tetaan 6995
asia 6952
iin 6950
vastaan 6915
itse 6910
miten 6850
jäsenet 6848
iseen 6837
viime 6831
sopimuksen 6822
meillä 6816
Eurooppa 6814
euro@@ 6770
saa 6715
eri 6693
ty@@ 6685
valiokunnan 6684
vät 6675
merkiksi 6673
toimia 6627
maa 6626
isiä 6605
asiassa 6573
uuden 6537
myönte@@ 6536
llinen 6534
sosiaali@@ 6523
mistä 6514
ainoa@@ 6505
ku@@ 6493
talousarvio@@ 6471
sa 6446
us@@ 6375
osallistu@@ 6366
itse@@ 6332
s 6282
emmän 6275
osalta 6255
eksi 6254
sisä@@ 6245
moni@@ 6235
tää 6225
it@@ 6188
osoitta@@ 6181
esta 6172
o 6122
ki@@ 6098
uusi@@ 6098
tärkei@@ 6072
A@@ 6065
heidän 6065
yksi 5999
la@@ 5998
esittelijä 5966
elle 5932
epä@@ 5929
asioiden 5908
mietinnön 5888
puheenjohtaja 5884
estä 5882
illä 5879
käy@@ 5871
valta@@ 5862
päätöslauselma@@ 5798
tte 5763
edelleen 5751
kysymys 5730
avulla 5719
mi@@ 5717
ke@@ 5713
joilla 5695
alalla 5677
ti 5637
kannalta 5632
isin 5618
aikana 5561
tänään 5535
mitään 5515
pa 5489
isesta 5486
unioni 5472
; 5465
re@@ 5450
mukaisesti 5449
minun 5417
un 5416
selvä@@ 5396
yhteistyö@@ 5361
hyvä 5360
vastuu@@ 5359
julkis@@ 5348
tarvi@@ 5337
otta@@ 5329
ulko@@ 5325
os@@ 5321
tuleva@@ 5309
oltava 5264
tulee 5239
asiasta 5198
jolla 5189
tapauksessa 5156
ehdo@@ 5148
ase@@ 5144
jä 5138
al@@ 5132
tieten@@ 5131
perusteell@@ 5126
kiittä@@ 5111
h@@ 5110
osa 5072
prosentti@@ 5064
aan 5060
uutta 5053
kyse@@ 5048
pitkä@@ 5035
tuke@@ 5025
mietinnössä 5024
lii@@ 5023
parlament@@ 5016
es@@ 5001
oikeuksien 4986
tärkeä 4984
meille 4978
esittelijä@@ 4966
saada 4949
ottaa 4924
ehdot@@ 4915
henkilö@@ 4905
korosta@@ 4858
oikeus@@ 4846
jä@@ 4846
mietintö 4834
2001 4823
luo@@ 4822
ne@@ 4817
joissa 4804
er@@ 4793
ilman 4785
eli 4782
maa@@ 4763
tehtävä 4762
tieto@@ 4758
liittyvä@@ 4726
varmista@@ 4712
llisesti 4703
pien@@ 4702
v@@ 4689
aikaan 4683
puheenjohtaja@@ 4648
talous@@ 4638
välttämät@@ 4636
ella 4625
kansalaisten 4624
ukset 4602
täällä 4594
ri@@ 4566
P@@ 4547
johta@@ 4538
viä 4538
kaksi 4515
asiaa 4504
saatta@@ 4495
tukea 4479
miljoona@@ 4473
va 4465
määrä@@ 4463
oli@@ 4459
artikla@@ 4454
tiedä@@ 4450
äänestä@@ 4433
S@@ 4432
mmin 4407
se@@ 4345
yhä 4341
hetkellä 4339
as@@ 4332
unioni@@ 4325
kuinka 4325
! 4312
turvallisuus@@ 4294
ltä 4283
toteutta@@ 4283
2000 4279
alan 4263
tekemä@@ 4255
yhtä 4233
ryhmä@@ 4229
esittää 4221
kollegat 4218
toinen 4217
direktiivin 4212
käyttää 4211
enä@@ 4194
muiden 4182
parlamentissa 4179
ryhmän 4171
tilanne 4170
politiikkaa 4164
kseni 4163
seura@@ 4146
rahoitus@@ 4137
koskeva 4136
ehdotuksen 4132
oma@@ 4126
joh@@ 4126
sija@@ 4125
kehitys@@ 4123
vasta 4108
te 4097
nopea@@ 4085
vi@@ 4080
voisi@@ 4064
taa@@ 4062
vahvista@@ 4052
varten 4018
uksia 4015
etu@@ 4014
valitettava@@ 4009
viin 3994
isimman 3992
voida 3990
ratkaise@@ 3987
Euroopassa 3982
mis@@ 3974
parlamentti@@ 3974
ll@@ 3965
asian@@ 3964
vä@@ 3963
ajan 3962
laajentumis@@ 3952
teille 3942
pidä@@ 3942
tie@@ 3941
saavutta@@ 3938
asian 3936
perustamis@@ 3934
vaikutta@@ 3930
joutu@@ 3928
täytyy 3925
varsi@@ 3924
katso@@ 3917
ellä 3915
j@@ 3909
kulu@@ 3892
Yhdisty@@ 3884
vaati@@ 3881
tavalla 3879
käyttöön 3874
ha@@ 3858
arvo@@ 3852
sä 3851
T@@ 3850
2002 3850
tettava 3846
avoin 3845
na@@ 3840
im@@ 3837
jäsen@@ 3818
5 3807
voitaisi@@ 3806
teitä 3805
olemassa 3805
laati@@ 3802
yhdessä 3802
aiheutta@@ 3797
val@@ 3795
kä 3792
kerran 3781
pa@@ 3776
turva@@ 3764
olevan 3760
nimittä@@ 3750
aika@@ 3746
isuutta 3739
otetaan 3725
matta 3723
vista 3718
tus@@ 3717
le@@ 3710
m@@ 3699
oikea@@ 3691
iseksi 3686
keskustelu 3671
amme 3665
maatalous@@ 3662
vahv@@ 3661
ar@@ 3653
ksi@@ 3647
tyytyvä@@ 3640
viime@@ 3637
demokraatti@@ 3634
ala@@ 3632
valmistelu@@ 3626
jatka@@ 3613
tettiin 3612
ehdotus 3596
el@@ 3596
ra@@ 3589
esittä@@ 3583
kunnan 3583
asioita 3577
kilpailu@@ 3573
markkinoiden 3565
ina@@ 3559
l@@ 3554
mien 3553
joista 3553
onnistu@@ 3553
us 3551
selkeä@@ 3544
mahdollista 3543
vuotta 3539
demokratia@@ 3533
ilta 3527
asti 3511
monet 3506
ien 3494
nen 3492
voisi 3489
uudelleen 3482
ttää 3478
ksen 3476
noudatta@@ 3475
neen 3473
muutta@@ 3468
selvästi 3460
r@@ 3459
vähä@@ 3456
d@@ 3449
iksi 3447
nsä 3443
toiminta@@ 3441
pysty@@ 3434
tarkoituksen@@ 3424
ksemme 3423
pide@@ 3423
stään 3420
järjestelmän 3420
silloin 3417
ään 3417
oikeuksia 3416
si 3409
ensinnä@@ 3385
torju@@ 3378
minusta 3370
unionissa 3357
muu@@ 3349
avoim@@ 3341
osa@@ 3340
oikeus 3328
loppu@@ 3324
maissa 3322
oike@@ 3312
miksi 3304
alueen 3301
kehittämis@@ 3289
pyyd@@ 3280
naisten 3273
toiseksi 3255
huolimat@@ 3254
aja@@ 3253
li@@ 3250
tava 3238
uksen 3236
ista@@ 3229
yhteistyötä 3220
E@@ 3218
llista 3210
kset 3205
isessä 3204
Arvoisa 3201
kysy@@ 3196
jälleen 3196
isista 3192
alueella 3192
työtä 3188
tava@@ 3181
ongelmia 3179
toimiin 3179
neiden 3176
pitä@@ 3176
muistut@@ 3172
suuri 3161
un@@ 3150
puheenvuoro@@ 3147
tti 3145
erila@@ 3144
isuuden 3143
mättä 3141
maailman 3138
puheenjohtajavaltio 3137
tarvitse@@ 3129
vastusta@@ 3128
isessa 3119
uskon 3118
ro@@ 3114
pelkä@@ 3112
ön 3097
ö@@ 3097
2003 3073
tasolla 3072
kalastus@@ 3069
oleva@@ 3063
imme 3057
isi@@ 3050
valtioiden 3044
vara@@ 3036
käsi@@ 3035
mia 3034
teho@@ 3033
ryhty@@ 3032
kansan@@ 3032
kiito@@ 3030
määri@@ 3027
tavoitteen@@ 3019
g@@ 3018
tapahtu@@ 3014
kokonais@@ 3003
toisin 3000
puuttu@@ 2998
yli 2997
tarkist@@ 2996
pu@@ 2995
yritysten 2991
täytäntöönpano@@ 2987
syystä 2979
voin 2973
esiin 2967
määrä 2965
tuu 2963
p@@ 2962
ongelma 2961
huomiota 2955
meitä 2947
toisaa@@ 2946
joka@@ 2943
jien 2939
käyttä@@ 2932
misestä 2929
estä@@ 2928
ttaa 2921
esittämä@@ 2919
alueiden 2914
valiokunta 2911
il@@ 2909
lyhy@@ 2906
kohtaan 2893
edellyt@@ 2887
säily@@ 2886
Irak@@ 2883
M@@ 2882
välinen 2880
yksityis@@ 2879
valvo@@ 2875
valtojen 2874
me@@ 2871
vaadi@@ 2863
tö@@ 2863
tarkistuksia 2851
tiin 2848
jot@@ 2847
tule@@ 2844
to 2839
parha@@ 2837
aikaa 2832
tulevaisuudessa 2832
merkittävä@@ 2832
yksimiel@@ 2831
pidä 2828
hei@@ 2824
muita 2824
yn 2821
kehot@@ 2820
K@@ 2820
seuraava@@ 2820
riittävä@@ 2811
jatkuva@@ 2808
kö 2807
keskustelu@@ 2807
myös@@ 2805
usko@@ 2803
kannatta@@ 2800
esityslista@@ 2797
ehdotuksia 2797
llisen 2792
tettu 2790
alka@@ 2789
mennessä 2784
ihmisten 2781
ilo@@ 2776
ansio@@ 2776
lu@@ 2775
edistä@@ 2772
19@@ 2772
ehkä 2767
kulttuuri@@ 2764
mietintöä 2761
� 2753
ehdotusta 2751
otettava 2749
varmasti 2745
ehdokasvaltio@@ 2741
1 2740
joita@@ 2739
pyrki@@ 2737
ys@@ 2737
missä 2735
edisty@@ 2733
tarkoitta@@ 2729
entistä 2728
vastaa@@ 2718
raha@@ 2715
öntä 2714
2 2711
voima@@ 2709
kerta@@ 2705
kauppa@@ 2703
ttu 2702
ensisija@@ 2701
energia@@ 2698
eseen 2692
YK@@ 2688
toista@@ 2685
soveltamis@@ 2685
tarpee@@ 2682
salli@@ 2680
sopimus 2668
C@@ 2666
vähen@@ 2665
Venäjä@@ 2661
H@@ 2651
paremm@@ 2651
mahdollisuus 2650
R@@ 2647
syytä 2638
yksinkerta@@ 2637
keskustelun 2626
vakava@@ 2625
kau@@ 2618
kasvu@@ 2618
kestävä@@ 2616
tasapaino@@ 2609
mä@@ 2608
suora@@ 2607
joihin 2606
lähe@@ 2604
mu@@ 2600
teidän 2599
budjetti@@ 2592
Ranska@@ 2583
vapaa@@ 2578
huomattava@@ 2577
at 2576
valvonta@@ 2576
asetta@@ 2574
politiikka 2574
synty@@ 2570
olisi@@ 2565
tettävä 2562
ksia 2562
EU 2559
lainsäädäntö@@ 2556
muun 2556
laaja@@ 2554
paitsi 2546
lainsäädännön 2545
isenä 2544
kiitä@@ 2541
konkreett@@ 2540
toiminnan 2538
sten 2537
erinoma@@ 2532
ik@@ 2531
kautta 2530
vuoropuhelu@@ 2528
han 2525
llis@@ 2525
ymmärtä@@ 2524
ol@@ 2523
jäsenten 2522
paikallis@@ 2520
I@@ 2520
järjestä@@ 2517
osin 2514
järjestelmä 2513
asiaan 2504
at@@ 2504
muut 2502
liikenne@@ 2497
O@@ 2495
aio@@ 2490
minä 2486
D@@ 2481
ihmisoikeus@@ 2480
alue@@ 2478
tele@@ 2478
jille 2477
temme 2475
ken@@ 2471
1@@ 2470
päätty@@ 2462
Eurooppa@@ 2460
B@@ 2458
tehnyt 2452
yhte@@ 2452
kkaasti 2451
tarjoa@@ 2450
tuo@@ 2449
hyöty@@ 2448
kerto@@ 2445
minkä 2442
uusi 2442
keski@@ 2441
men@@ 2438
erä@@ 2435
toimielinten 2435
mo@@ 2434
teh@@ 2433
tarjo@@ 2433
ks@@ 2432
halua 2430
tta@@ 2430
Turk@@ 2427
vuosi@@ 2426
maksa@@ 2423
kysymyksiä 2422
kolmann@@ 2422
kehityksen 2414
oikeuden 2412
kasva@@ 2410
välisen 2410
pyritä@@ 2404
uus@@ 2404
edistää 2397
poista@@ 2395
asia@@ 2393
tutki@@ 2393
neuvosto@@ 2388
om@@ 2381
tark@@ 2376
kä@@ 2374
keskustelua 2372
toimien 2370
edusta@@ 2369
samoin 2363
jolloin 2363
lopull@@ 2358
olenna@@ 2355
tamaan 2354
yhteisö@@ 2351
tun 2342
taas 2341
sille 2338
talouden 2335
Espanja@@ 2335
sitoutu@@ 2325
paino@@ 2322
kannat@@ 2317
usea@@ 2314
hallituksen 2308
riippu@@ 2305
isuus 2305
pyri@@ 2304
llisia 2301
aloitta@@ 2300
mietinnöstä 2300
F@@ 2298
hieman 2294
isena 2294
aika 2294
keskus@@ 2293
tehdä@@ 2290
luonnoll@@ 2290
turvallisuuden 2285
2@@ 2284
ensi@@ 2280
uu@@ 2279
ohjelman 2278
tuen 2278
suhtautu@@ 2277
tietty@@ 2270
käsiteltävä@@ 2265
1999 2263
alueellis@@ 2253
yli@@ 2251
toimet 2247
huomaut@@ 2243
valiokunnassa 2243
muuta 2242
pian 2237
neuvostossa 2237
takia 2236
vero@@ 2233
poliittinen 2232
ksiin 2230
jota@@ 2225
voimakkaa@@ 2225
jatko@@ 2225
kysymyksen 2224
10 2223
var@@ 2222
kun@@ 2219
valtion 2218
hallitus 2217
taminen 2212
koska@@ 2204
15 2199
kaiken 2197
osta 2196
kuningas@@ 2195
klo 2193
joten 2189
ttomasti 2187
liittymis@@ 2186
nnin 2179
massa 2178
nimenoma@@ 2174
puoli@@ 2173
odotta@@ 2172
L@@ 2168
yhtenäis@@ 2168
vaiheessa 2167
mmat 2166
lait@@ 2165
sin 2164
kolme 2158
utu@@ 2156
ään@@ 2156
muka@@ 2152
pe@@ 2151
raja@@ 2147
saada@@ 2144
vaikea@@ 2143
puolusta@@ 2139
istu@@ 2138
kansa@@ 2138
minulla 2137
pä 2137
kehit@@ 2137
tarkistusta 2134
hyväksi 2134
maan@@ 2131
hu@@ 2131
todeta 2129
au@@ 2128
tu 2127
käsittele@@ 2126
sopimukseen 2122
ia@@ 2120
tarkoitus 2118
pako@@ 2114
sanoi 2112
suu@@ 2111
ulkopuole@@ 2110
tutkimus@@ 2110
toimintaa 2109
vastoin 2108
tietä@@ 2105
alueilla 2102
misessa 2101
tanut 2097
käsitellä 2095
V@@ 2093
tilanteen 2091
vissa 2090
olette 2089
isivat 2087
tilannetta 2084
ryhmä 2083
teen 2082
suhtaudu@@ 2080
tapahtuu 2076
ten@@ 2076
lisää 2076
uksista 2074
kyllä 2070
lento@@ 2069
isestä 2067
tehty 2066
tettu@@ 2064
uuteen 2060
pel@@ 2060
su@@ 2054
Israel@@ 2054
tty 2052
li 2043
ilma@@ 2043
jää@@ 2043
vallan 2042
asioista 2040
iltä 2040
maat 2040
oikeutta 2039
merkitsee 2038
siellä 2032
tekee 2032
asetuksen 2025
täytäntöön 2024
poliittisen 2024
000 2024
perä@@ 2022
miin 2022
liikenteen 2017
pan@@ 2016
aikaväli@@ 2013
edes 2012
isille 2012
työllisyys@@ 2009
käsitellä@@ 2008
ville 2008
minulle 2006
ali@@ 2006
kohd@@ 2005
da 2004
tarkistuksen 2001
korva@@ 2000
huomenna 1997
muuta@@ 1994
ttaisiin 1992
muassa 1992
kar@@ 1991
peruste@@ 1987
inä 1986
noin 1986
jäsenen 1985
kehitystä 1982
van@@ 1977
ttä@@ 1975
selvi@@ 1973
sisällyttä@@ 1973
muutama@@ 1970
kunnioitta@@ 1969
kutsu@@ 1968
Lissabon@@ 1968
kahden 1966
kanta@@ 1966
3 1965
vir@@ 1965
kantaa 1964
J@@ 1964
ma 1963
uudesta 1960
vo@@ 1960
tus 1959
illaan 1958
kan@@ 1956
seuraavan@@ 1956
asiat 1955
sopimusten 1955
maailmanlaaju@@ 1955
asta 1952
kohdalla 1948
pal@@ 1948
säännö@@ 1948
ita@@ 1947
EU@@ 1944
tuki@@ 1944
tut 1944
vai 1941
kuu@@ 1941
ilmoitta@@ 1938
kompromissi@@ 1937
mielessä 1936
mpi 1934
parantamis@@ 1934
kysymystä 1930
palvelujen 1930
anta@@ 1929
tietoja 1929
suuri@@ 1928
tois@@ 1928
it 1928
anne@@ 1927
elintarvike@@ 1927
mikä@@ 1923
vasti 1921
mole@@ 1919
äänestys@@ 1919
ava@@ 1917
viranomaisten 1916
no@@ 1913
ettava 1912
nn@@ 1912
ot@@ 1910
lain@@ 1909
so@@ 1909
00 1906
poliittista 1906
tarpeen 1902
he@@ 1900
meren 1900
lla@@ 1900
elle@@ 1900
terrorismin 1898
sääntöjä 1894
direktiivi 1892
isella 1890
yhden 1888
toja 1885
Italia@@ 1882
oi@@ 1882
aloilla 1881
hallinto@@ 1880
aihe 1879
tasa 1878
kaupan 1876
varoja 1876
lainsäädäntöä 1875
mahdollisuuksia 1875
kas@@ 1874
kolmans@@ 1871
olevien 1867
työntekijöiden 1865
kysymykseen 1864
4 1864
syyskuu@@ 1862
tuotteiden 1860
30 1858
ver@@ 1857
isuuteen 1857
mukaista 1856
prosessin 1856
taloudellis@@ 1855
kuluttaja@@ 1851
ensi 1850
luku@@ 1849
ämme 1848
mat@@ 1842
mällä 1841
ivat 1840
Väli@@ 1836
yksittäis@@ 1836
N@@ 1832
palvelu@@ 1823
vesi@@ 1820
korkea@@ 1816
käytännössä 1815
T 1813
aktiivis@@ 1810
tehdy@@ 1809
tunn@@ 1809
kuntien 1809
asioissa 1807
enn@@ 1807
tetty 1806
järjestelmää 1804
siltä 1803
oman 1801
puolustus@@ 1801
id@@ 1799
äänestys 1798
presidentti 1798
kaa 1796
koko@@ 1793
oikeudet 1793
kala@@ 1793
ul@@ 1792
pi@@ 1785
po@@ 1784
jättä@@ 1783
tti@@ 1781
lainen 1780
heitä 1780
varmiste@@ 1780
toimivalta@@ 1779
aiemmin 1774
kohta 1772
2004 1771
päästä 1770
lähes 1768
kka@@ 1763
neuvottelu@@ 1762
emmin 1762
historia@@ 1760
b@@ 1758
laill@@ 1757
varojen 1757
työn 1757
täydell@@ 1753
Afr@@ 1753
laista 1752
myöntä@@ 1752
kaa@@ 1752
ite@@ 1751
tävä 1749
totea@@ 1745
puolueen 1743
arvoisa@@ 1743
keske@@ 1742
kan 1742
kärsi@@ 1738
teke@@ 1736
pysy@@ 1735
issa@@ 1733
hallitusten 1732
lähi@@ 1731
Saksa@@ 1731
parantaa 1731
syistä 1731
kohdan 1724
laajentu@@ 1724
vaarall@@ 1723
llisten 1721
rikos@@ 1721
sopimusta 1721
ttu@@ 1718
ratkaisu 1717
00@@ 1716
ker@@ 1715
muodosta@@ 1714
vähemmän 1709
itte 1705
myötä 1704
mm@@ 1701
tunnus@@ 1699
tur@@ 1698
3@@ 1698
vuosina 1697
20 1696
ky@@ 1696
maailmassa 1696
kokouksessa 1695
ainoa 1694
tel@@ 1692
iselle 1692
kut 1690
tilanteessa 1690
laatu@@ 1686
löytä@@ 1686
yhteen 1686
puol@@ 1684
ille@@ 1683
menettelyn 1683
meri@@ 1680
tietoa 1680
pöytäkirja@@ 1678
aiheutu@@ 1678
päätökseen 1677
välttä@@ 1677
päin@@ 1675
tin 1673
isemmin 1672
luoda 1671
asu@@ 1670
essaan 1669
keskustele@@ 1668
näyttää 1666
seuraa@@ 1663
aikoo 1662
työstä 1662
onnitell@@ 1659
lle@@ 1659
ikan 1659
teollisuuden 1657
hyödyn@@ 1656
tuomioistuimen 1655
turvallisuutta 1653
kolme@@ 1653
annetaan 1653
ihmisiä 1652
tun@@ 1650
direktiivi@@ 1649
päätös 1645
tilanteesta 1645
hallitusten@@ 1645
tietysti 1643
tavoite 1641
Nizza@@ 1641
joulukuu@@ 1638
isuudesta 1638
elta 1638
mukana 1636
tuotta@@ 1635
kohti 1634
merkittävä 1632
otta 1632
tojen 1632
eteenpäin 1632
kauden 1631
käsittely@@ 1629
aluksi 1629
keskustelussa 1629
oikeudenmuka@@ 1628
vistä 1626
tom@@ 1626
aal@@ 1624
missä@@ 1624
autta@@ 1623
jaka@@ 1623
ydin@@ 1623
johdonmuka@@ 1621
än@@ 1620
sy@@ 1620
tapa 1619
tapa@@ 1618
iste@@ 1618
toiminta 1617
tila@@ 1617
sääntöjen 1612
yhteen@@ 1611
vuoteen 1608
päättää 1607
riippumat@@ 1606
50 1603
poliittisten 1602
ryhmien 1601
op@@ 1600
toimenpiteitä 1598
myöhe@@ 1597
taha@@ 1597
käsittelevä@@ 1597
mielestä 1596
paran@@ 1596
valtio@@ 1596
toteutu@@ 1595
laatima@@ 1594
per@@ 1594
kollega 1592
menettely@@ 1590
elin@@ 1590
ut@@ 1590
20@@ 1590
ryhdy@@ 1589
lä@@ 1588
yhteiskunnan 1588
hoita@@ 1587
rauhan@@ 1585
toisen 1583
maksu@@ 1583
tosi@@ 1583
huomio@@ 1581
minua 1581
etaan 1580
yritykset 1580
yyttä 1580
tietojen 1579
sisältä@@ 1574
maahanmuut@@ 1574
tosiasia@@ 1572
täyttä@@ 1571
teiden 1569
ssakin 1567
ena 1566
FR 1566
vakuuttu@@ 1564
Brysseli@@ 1563
teemme 1563
sähkö@@ 1562
tulisi 1561
ilme@@ 1561
ettei@@ 1559
:ssa 1558
ammatti@@ 1558
sala@@ 1556
onta 1556
merk@@ 1553
neita 1552
syy@@ 1552
ero@@ 1551
tavoitteet 1550
rahoitta@@ 1550
vallat 1549
nim@@ 1548
man@@ 1548
välistä 1548
päätöksen 1547
huoli@@ 1547
tekevä@@ 1546
kauan 1546
käy 1544
vaikea 1544
uksiin 1543
ju@@ 1542
neuvostolle 1541
lähti@@ 1535
uudet 1535
pääse@@ 1534
har@@ 1534
jen@@ 1531
tullut 1530
mene@@ 1530
ongelmat 1529
G@@ 1529
her@@ 1524
jatku@@ 1522
totesi 1520
jäseniä 1519
jia 1519
ve@@ 1515
lliset 1515
maahanmuutto@@ 1513
Ruotsi@@ 1512
Kansa@@ 1512
huole@@ 1511
sel@@ 1511
kanta 1510
:@@ 1506
eivät@@ 1506
kohdistu@@ 1506
päivä@@ 1504
järkevä@@ 1504
vuosi 1504
käytön 1503
z@@ 1502
mahdollisuuden 1502
palestiinalais@@ 1502
markkina@@ 1501
sääntely@@ 1500
ssaan 1499
tar@@ 1499
pyytää 1498
muuttu@@ 1496
päätöksiä 1495
omi@@ 1495
vielä@@ 1495
eni@@ 1495
päivän 1494
ehdotuksesta 1490
kirja@@ 1490
ilmi 1490
tunnusta@@ 1488
tehokka@@ 1488
kor@@ 1486
maita 1485
helpo@@ 1485
johtu@@ 1485
arvio@@ 1485
oleva 1484
kollegani 1482
auttaa 1482
mahdot@@ 1481
vaikutuksia 1481
muuten 1480
laatima 1479
milla@@ 1477
6 1476
johto@@ 1476
kiireell@@ 1475
sia 1475
rajoitta@@ 1474
sotilaallis@@ 1474
humanitaar@@ 1473
merkittäv@@ 1471
tulla 1469
Itä@@ 1468
säännöt 1468
f@@ 1467
emme@@ 1466
ilmoit@@ 1466
lupa@@ 1466
kieltä@@ 1466
kokouksen 1465
vapauden 1465
puitteissa 1464
oma 1463
tapauksissa 1462
apua 1460
periaatteen 1459
ehdotukset 1458
entis@@ 1457
unohta@@ 1457
olisivat 1456
elä@@ 1456
saatava 1455
las@@ 1454
pari@@ 1454
toiv@@ 1453
kannan 1453
seen 1452
sopi@@ 1451
av@@ 1450
puhe@@ 1446
main@@ 1446
B5 1445
toista 1444
tavat 1443
meistä 1443
estää 1442
saatav@@ 1441
kanssa@@ 1440
terveys@@ 1439
edellis@@ 1439
maatalouden 1439
huono@@ 1439
miljardi@@ 1439
ää@@ 1438
osan 1437
tode@@ 1436
ir@@ 1436
perustuva@@ 1436
itus@@ 1433
or@@ 1433
eurooppalainen 1431
tusta 1429
toteuttamis@@ 1428
pikemmin@@ 1428
ttoman 1428
usta 1426
ministeri@@ 1426
yksityiskohta@@ 1421
perinte@@ 1421
koroste@@ 1420
ell@@ 1417
eläinten 1414
pohjalta 1413
isuudessa 1413
hä@@ 1413
asta@@ 1412
isimme 1411
äärimmä@@ 1411
ksesta 1410
vakav@@ 1409
sana@@ 1408
parann@@ 1408
yl@@ 1408
enemmistö@@ 1407
tulo@@ 1406
teollisuus@@ 1406
mpaa 1406
parempi 1405
näkemykse@@ 1405
tavoitteita 1405
tutkimuksen 1404
käytännön 1403
virallis@@ 1403
tiedätte 1402
äänest@@ 1401
12 1401
neuvo@@ 1400
markkinoilla 1396
rakenne@@ 1396
assa 1396
koulu@@ 1394
maailman@@ 1394
toimitta@@ 1393
kon@@ 1392
äskettä@@ 1390
iv@@ 1390
sopimuksia 1389
mainita 1388
inn@@ 1388
mihin 1388
tavan 1387
kuka@@ 1387
Lähi 1387
tämän@@ 1386
hallinnon 1386
uh@@ 1386
de@@ 1385
mahdollista@@ 1384
ohjelma 1384
heti 1382
tason 1381
kuva@@ 1381
sama 1381
mur@@ 1379
käsittelyssä 1378
poliittisia 1378
epäile@@ 1377
käyttö@@ 1377
lo@@ 1375
rautatie@@ 1374
merkitys 1374
Kiina@@ 1374
periaatetta 1373
yhteiskunta@@ 1373
yhtä@@ 1372
kysymyksiin 1371
vapautta@@ 1371
yrittä@@ 1370
isilla 1370
väl@@ 1367
ala 1367
nnut 1366
jäsentä 1365
tarkistus 1365
taloudellisen 1364
laaj@@ 1364
valmis@@ 1362
itta@@ 1361
tiuk@@ 1360
lisää@@ 1359
ensa 1359
aine@@ 1359
asema 1359
väit@@ 1359
de 1358
kke@@ 1358
Portugali@@ 1358
sta@@ 1358
avun 1357
kymmenen 1356
eltä 1353
vastaa 1353
pois 1351
arviointi@@ 1349
merkitystä 1348
päivänä 1345
Irlannin 1345
tarkastele@@ 1344
joiden@@ 1344
viranomaiset 1344
lleen 1343
sopimuksessa 1343
keskustella 1342
miel@@ 1342
em@@ 1342
maassa 1342
hal@@ 1341
valmis 1340
sosiaalisen 1340
mer@@ 1340
isim@@ 1338
neuvottelujen 1338
käyttöä 1338
vapauttamis@@ 1336
aihe@@ 1335
min@@ 1335
annettava 1334
ou@@ 1333
tavoitteiden 1332
epäonnistu@@ 1330
pääasia@@ 1330
rajat 1329
vakaus@@ 1329
sanottu@@ 1328
poliisi@@ 1326
ongelman 1324
olevia 1324
kiel@@ 1324
toim@@ 1323
tuotanto@@ 1323
ka 1323
mattom@@ 1322
koke@@ 1322
kiinni@@ 1322
paik@@ 1319
7 1318
järjestyksen 1317
selv@@ 1315
25 1312
io@@ 1311
turvapaikka@@ 1310
vaatimuksia 1308
osallistumis@@ 1308
ed@@ 1307
pois@@ 1305
suuntaan 1305
tävä@@ 1304
ter@@ 1302
01@@ 1302
isissa 1300
di@@ 1300
C5 1297
takaa@@ 1297
Krei@@ 1297
puheenjohtajavaltio@@ 1296
laadi@@ 1294
uksena 1294
merkitykse@@ 1293
naan 1293
alta 1293
ehdotuksessa 1292
tunte@@ 1290
mon@@ 1289
kysymykset 1288
varo@@ 1288
ssani 1288
torjunta@@ 1288
terve@@ 1287
puolesta@@ 1286
kuluttajien 1285
hyödyll@@ 1284
mietintö@@ 1283
ratkaista 1282
työskentele@@ 1281
jälj@@ 1280
köyhi@@ 1279
politiikkaan 1278
eläin@@ 1278
eh@@ 1277
viikolla 1275
ilta@@ 1275
kunnassa 1275
todennäkö@@ 1274
periaattee@@ 1272
direktiiviä 1269
inno@@ 1268
markkinoille 1267
yksi@@ 1265
vä 1265
vähemmistö@@ 1265
Afganistan@@ 1265
vall@@ 1264
vastuu 1264
soveltaa 1264
päästä@@ 1263
mukainen 1263
teli@@ 1262
tuksen 1261
melko 1261
ttänyt 1261
&apos; 1260
ttä 1259
sesti 1259
alkuperä@@ 1256
han@@ 1256
tilanteeseen 1255
tuho@@ 1255
taloudellista 1255
ih@@ 1255
jatke@@ 1254
lopulta 1254
valmi@@ 1253
valtiot 1252
tehtävä@@ 1252
suunta@@ 1251
ositta@@ 1250
yllä@@ 1250
kiinnostu@@ 1250
kannata@@ 1249
menettelyä 1247
kestä@@ 1246
ttaessa 1245
aiheesta 1245
ur@@ 1244
esitetty 1244
ratkaisu@@ 1244
järjestelmä@@ 1244
päättävä@@ 1243
minkään@@ 1243
mme@@ 1242
ho@@ 1242
rakennerahasto@@ 1242
kunn@@ 1241
matkusta@@ 1241
llaan 1240
kesäkuu@@ 1240
toiseen 1240
liikkuv@@ 1239
alaa 1238
tuista 1238
uudis@@ 1237
ili@@ 1236
telu@@ 1236
kol@@ 1235
Mar@@ 1233
miselle 1233
suosi@@ 1232
mahdollisuutta 1232
Tanska@@ 1232
tul@@ 1231
tuo 1231
etujen 1230
rauhan 1230
sisälly@@ 1229
muista@@ 1228
ksista 1228
maihin 1228
ru@@ 1227
toivottava@@ 1226
tasa@@ 1225
itu@@ 1225
vuositta@@ 1224
ile@@ 1221
tarkas@@ 1220
WTO@@ 1220
käytä@@ 1220
politiikassa 1219
valvontaa 1219
prosessi 1216
loppuun 1216
perustuslaki@@ 1215
ymmärrä@@ 1214
W@@ 1214
öljy@@ 1214
ilmaista 1211
näkö@@ 1211
kka 1210
02@@ 1209
askel 1209
oppi@@ 1209
yhteiskunnallis@@ 1209
muutoksia 1206
oh@@ 1204
ki 1204
enä 1200
tien 1198
tuki 1198
tarvittava@@ 1196
yhteisöjen 1196
masta 1195
riittä@@ 1195
mahdollisuudet 1195
valtio 1195
pidettävä 1193
laaju@@ 1193
.@@ 1192
kehitysyhteistyö@@ 1192
kollego@@ 1191
joudu@@ 1191
vähimmäis@@ 1190
tarvitse 1189
tämä@@ 1189
tan@@ 1188
luonnon@@ 1187
kerro@@ 1187
mietintöön 1186
laajenta@@ 1186
kul@@ 1185
vaaran@@ 1183
käynnistä@@ 1181
ettu 1180
lisäänty@@ 1179
matka@@ 1179
tuloksia 1178
sovellettav@@ 1178
koulutus@@ 1176
alueita 1175
sisältyy 1174
käyttö 1174
seudun 1174
luke@@ 1174
arvos@@ 1173
ohjelmien 1172
toukokuu@@ 1171
perusta@@ 1170
ven@@ 1169
keskusteluun 1168
sen@@ 1167
minä@@ 1166
rik@@ 1166
joissa@@ 1165
5@@ 1165
huolehti@@ 1164
ton 1164
tarkista@@ 1163
ssä@@ 1161
ttömästi 1161
kolmen 1160
nro 1159
jonkin 1158
asioihin 1156
järjestelmien 1155
palaut@@ 1154
ivät 1154
taneet 1154
solidaar@@ 1154
kohdassa 1153
jää 1153
esitä@@ 1152
tiede@@ 1152
aa@@ 1151
perhe@@ 1151
ukseen 1150
ito@@ 1150
tiivii@@ 1150
varma 1149
ttua 1149
ras@@ 1149
alu@@ 1149
inti@@ 1148
set 1148
mat 1148
yhdenmuka@@ 1147
politiikasta 1147
syy 1147
myönne@@ 1145
kansain@@ 1145
toteute@@ 1145
risti@@ 1144
kilpailukyky@@ 1143
vie@@ 1142
vaatimukset 1142
keskitty@@ 1142
eilen 1142
neuvottelut 1140
alue 1139
uksesta 1138
poliittiset 1138
kiitos 1137
muihin 1137
korkea 1136
laske@@ 1134
ajat@@ 1134
uudista@@ 1132
sodan 1131
suunnitel@@ 1130
ossa 1129
am@@ 1129
suhte@@ 1128
aihetta 1128
vähentämis@@ 1126
sovelleta@@ 1126
harjoit@@ 1126
8 1125
miesten 1125
Amerik@@ 1124
toimintaan 1124
nykyisen 1124
puolue@@ 1124
pohti@@ 1123
onne@@ 1123
ties 1122
oikeudellisten 1121
merkille 1120
sovittelu@@ 1119
kehitys 1117
monimuoto@@ 1116
vakuutta@@ 1115
otettu 1114
vuosien 1114
lähettä@@ 1114
etelä@@ 1113
huippukokouksessa 1113
käytävä@@ 1112
strategian 1112
järjes@@ 1112
tammikuu@@ 1110
rakenta@@ 1110
isistä 1110
pä@@ 1108
toimista 1108
kunnianhimo@@ 1106
kiinnittää 1105
ikä@@ 1104
nosta@@ 1103
ttäisiin 1102
aineiden 1102
hi@@ 1102
13 1101
etuja 1099
riko@@ 1098
ikö 1094
ly@@ 1094
joskus 1094
aj@@ 1094
gen@@ 1094
nee@@ 1094
stä@@ 1093
naiset 1093
esimerkki@@ 1093
ministeri 1092
tue@@ 1092
mitta@@ 1092
kuukausi@@ 1091
maista 1090
hyödy@@ 1089
yyden 1089
Belgia@@ 1086
usta@@ 1086
täminen 1086
yrityksiä 1086
ov@@ 1085
vaihtoehto@@ 1085
strateg@@ 1084
vaali@@ 1084
istä@@ 1084
kuulemis@@ 1084
tuksesta 1084
perustus@@ 1083
essa@@ 1082
saira@@ 1082
todeta@@ 1082
määrää 1079
kohta@@ 1079
40 1079
taloudellinen 1078
koordinoi@@ 1078
kulutta@@ 1078
yhteistyö 1077
millä 1077
kehitty@@ 1075
päätökset 1073
kiinni 1073
päätöksenteko@@ 1073
aloitteen 1073
suojelu@@ 1072
vatko 1071
vuodesta 1071
kansalaisjärjestö@@ 1071
keskeinen 1070
ottamaan 1069
erää@@ 1068
tavoitteen 1068
isyyttä 1068
siirty@@ 1067
monimutka@@ 1065
kotimaa@@ 1065
tuomi@@ 1065
virka@@ 1064
käyttämä@@ 1064
PPE 1062
maini@@ 1060
taso@@ 1060
yhdistä@@ 1059
yleensä 1059
yle@@ 1058
6@@ 1058
sanottava 1058
eläke@@ 1058
perusoikeuskirja@@ 1058
0@@ 1057
järjestöjen 1057
politiik@@ 1057
taloudellisia 1057
prosentin 1057
pääministeri 1057
valmiste@@ 1056
lähestymis@@ 1056
osapuolten 1056
laisia 1055
kää@@ 1055
kos@@ 1055
tiedotus@@ 1054
periaate 1053
rajo@@ 1053
maaliskuu@@ 1053
tellen 1053
väkivalta@@ 1052
viimeis@@ 1052
rauta@@ 1052
maille 1051
assa@@ 1050
laaje@@ 1050
vähi@@ 1049
tarkoita@@ 1049
lähestymistapa@@ 1049
tulevaisuuden 1048
huolestu@@ 1048
kohtaa 1048
tiedot 1048
prosessia 1048
vammais@@ 1048
do@@ 1047
vaiku@@ 1047
henkilöiden 1047
pika@@ 1046
kysymyksistä 1046
san@@ 1046
ksen@@ 1045
tuomio@@ 1045
makset@@ 1044
isivät 1044
väline 1043
markkinat 1042
siir@@ 1042
da@@ 1041
lasten 1041
menettely 1040
kansanterveyde@@ 1039
saatu 1038
asemaa 1038
valmista@@ 1036
tulos 1035
liberaali@@ 1035
urheilu@@ 1035
saata@@ 1035
suuren 1035
yhdentymis@@ 1035
noja@@ 1035
vel@@ 1035
tte@@ 1034
tilintarkastus@@ 1034
kes@@ 1032
kann@@ 1032
konflikti@@ 1032
tuoda 1031
eli@@ 1031
marraskuu@@ 1030
hyväksymis@@ 1029
kielte@@ 1028
välineitä 1028
siirtä@@ 1028
telu 1027
toden@@ 1026
laaja 1025
teistä 1024
sivu@@ 1024
Kypro@@ 1022
käydä 1020
ei@@ 1018
ajankohta@@ 1018
mainitse@@ 1018
tyt 1018
itä@@ 1017
saavute@@ 1016
odot@@ 1016
neuvotteluissa 1016
ittä@@ 1016
seuranta@@ 1016
tarkasti 1015
huolenaihe@@ 1015
siviili@@ 1015
läpi 1014
mpien 1014
työn@@ 1013
Kosovo@@ 1013
tausta@@ 1012
kirj@@ 1011
11 1011
ansa 1009
tarkastella 1009
pol@@ 1007
rikko@@ 1006
tiedä 1005
koti@@ 1005
isyy@@ 1005
pohjois@@ 1004
toki 1004
näkökulmasta 1003
ikka@@ 1003
väestö@@ 1002
alussa 1002
oikea 1000
yhteisö 1000
esimerkki 999
rajoit@@ 999
alusten 998
suhteessa 997
teet 997
taistelu@@ 997
tau@@ 997
pyrkim@@ 996
lapsi@@ 996
huippukokouksen 995
valko@@ 995
ongelmaa 995
siirtymä@@ 993
pain@@ 993
järjestön 993
valvonnan 992
03@@ 992
lääke@@ 992
suostu@@ 992
poikkeukse@@ 991
kohtuu@@ 991
kat@@ 990
sijoitta@@ 990
takaisin 990
joille 990
keskity@@ 989
suojele@@ 989
näh@@ 988
sää@@ 988
pahoi@@ 987
itsenäis@@ 987
uudelleen@@ 986
kohtia 986
isto@@ 986
asemassa 986
myy@@ 986
raja 985
konferenssin 984
edustaja 984
yy@@ 983
rooli@@ 982
tärke@@ 981
osuus 981
rajojen 980
määrän 979
ehdotukseen 979
nnan 979
kin@@ 978
ksia@@ 978
ing@@ 977
huippu@@ 977
kas 977
tteko 976
tiedon@@ 976
etta 976
suosion@@ 975
tilaisuus 975
11. 975
toisessa 973
iden@@ 973
olin 973
een@@ 972
sil@@ 972
ran@@ 972
use@@ 970
myöntämis@@ 970
kovin 970
ty 969
ennalta 969
pysty 968
4@@ 968
tehosta@@ 968
2006 968
14 968
korja@@ 967
nähdä 967
kertom@@ 966
kustannukset 966
osta@@ 965
terrorismi@@ 965
llä@@ 964
ttämään 964
alo@@ 964
Etelä 964
empää 964
pakolais@@ 963
luok@@ 962
lähtö@@ 961
aloitte@@ 961
katastrofi@@ 960
hyvän 960
illa@@ 960
voimaan 959
arvioi@@ 959
lan@@ 959
kansan 959
1998 958
ratkaisun 958
suor@@ 957
tukema@@ 957
ponnistelu@@ 956
Al@@ 956
henkilöstö@@ 956
mieli@@ 955
tapahtuva@@ 955
apu@@ 955
valta 955
turvallisuuteen 955
julkilausuma@@ 955
meidät 954
köyh@@ 953
luule@@ 951
toimi 951
osoituksia 950
Barcelona@@ 950
infrastruktuuri@@ 949
alueelle 949
hätä@@ 949
köyhyyden 948
mpia 948
väestön 947
äske@@ 946
helpot@@ 946
mit@@ 945
tunne@@ 945
pankin 945
aseman 944
muutama 944
parhaa@@ 944
tuotteita 944
telleet 943
90 943
työ 942
myöhä@@ 942
suku@@ 942
puite@@ 942
koulutuksen 941
suoja@@ 941
tehty@@ 940
kilpailun 939
luopu@@ 939
par@@ 939
Alanko@@ 938
muissa 938
lokakuu@@ 938
tyssä 938
Palestiina@@ 938
ratifioi@@ 937
den 937
pysyvä@@ 936
mmälle 936
kohde@@ 935
kal@@ 935
talou@@ 935
miä 935
sopimukset 935
aikoina 934
perustelu@@ 934
määrärahoja 934
keinoja 934
selkeä 934
alueet 933
sin@@ 932
syn@@ 931
tarkka@@ 931
rahoitusta 930
periaatteita 929
varma@@ 928
mpää 928
koh@@ 927
lin@@ 927
vapaaehtois@@ 927
aikataulu@@ 927
palveluja 927
läh@@ 926
elimet 926
täsmäll@@ 926
ttava@@ 925
S 924
pala@@ 923
sovell@@ 923
läsnä 922
Pohjois 922
llisiä 922
ksissa 921
tama@@ 921
sovel@@ 921
vastaava@@ 920
llisyyden 920
osaa 919
muuto@@ 919
istetaan 918
verrattu@@ 918
tuomioistuin 918
teki 917
lainsäädäntö 916
annettu 915
usten 915
peri@@ 915
monta 915
sovi@@ 914
väär@@ 914
allekirjoitta@@ 914
panna 913
omaa 912
heinäkuu@@ 911
turvallisuus 911
lis@@ 911
mmeko 911
pääsy@@ 911
edellä 911
enemmistö 910
esitetty@@ 910
mielellä@@ 908
suhteen 908
keskey@@ 907
mi 907
selvä 907
vapautta 907
empi 907
kaiken@@ 906
isuu@@ 905
päätösten 904
vaikuttava@@ 904
ette 904
raha 903
Balkan@@ 903
ksiä 902
kahta 902
esitti 901
KOM 901
uks@@ 900
alku@@ 899
matkailu@@ 899
keskeisi@@ 899
yleissopimuksen 899
muodossa 898
kah@@ 898
kahden@@ 898
poliittisesti 898
avoimuutta 897
hallitukset 897
tin@@ 897
antoi 896
neljä@@ 896
kannusta@@ 896
yhdy@@ 896
hallinnollis@@ 895
direktiivissä 895
velvoll@@ 895
tyä 894
ssa@@ 894
käytöstä 894
inhimillis@@ 894
markkinoita 894
tal@@ 894
idän 894
sivat 893
paikkoja 893
ongelma@@ 893
maks@@ 893
menestykse@@ 892
kumppan@@ 892
riippuva@@ 892
totesi@@ 892
udu@@ 891
haaste@@ 891
väline@@ 891
omaksu@@ 891
äänestyksen 890
edistämis@@ 890
valmiit@@ 889
rooli 889
yty@@ 888
joukko@@ 888
valtion@@ 888
tarkistuksista 887
ch@@ 885
pitävä@@ 885
onnittele@@ 884
yrityksille 884
ästi 884
mieh@@ 884
edustajat 884
tulokset 883
mman 883
viraston 882
lainsäädännö@@ 881
aloitteita 881
saar@@ 881
ani 881
unionia 881
tulle@@ 881
päin 880
säilyttämis@@ 880
kehite@@ 880
ak@@ 880
7@@ 879
tonta 878
toimintasuunnitelma@@ 878
toimielin@@ 878
arvioida 877
ohjel@@ 876
mä 876
politiikkojen 876
ongelmien 876
kään@@ 876
kokous 875
puu@@ 875
käytännö@@ 874
ris@@ 873
uudessa 873
yt@@ 871
jal@@ 871
herättä@@ 870
idemme 869
vastaus 869
käsittelemä@@ 868
yhty@@ 868
päivä 868
liika@@ 867
jonkin@@ 867
tyvä@@ 866
kattava@@ 866
namme 866
nähdä@@ 866
tia 865
etsi@@ 864
taloudellisten 864
ttamis@@ 864
rikollis@@ 864
johdo@@ 863
Britannia@@ 863
odota@@ 863
tekijä 863
kansojen 863
Strasbourg@@ 862
omasta 862
ajattele@@ 862
pyytä@@ 861
vaa 861
laito@@ 861
olo@@ 860
tarvetta 858
vähintä@@ 858
vaikutukset 858
parlamentaaris@@ 858
silti 857
oikeusperusta@@ 857
ttavia 857
muista 857
det 856
paikalla 856
terroristi@@ 855
isellä 854
tasavallan 854
seuraavan 853
é@@ 852
oikeusvaltio@@ 852
ttävä@@ 851
ajo@@ 851
tiedot@@ 851
pane@@ 850
elämän 850
vuo@@ 849
ehdottama@@ 849
missa 849
jou@@ 849
varat 849
sota@@ 849
tuva@@ 848
kuka 846
vienti@@ 845
D 845
kymmen@@ 845
täydentä@@ 845
riida@@ 845
perustaa 844
vaa@@ 844
vihreä@@ 843
nimissä 843
ad@@ 843
väärin 842
tämänhetk@@ 842
työllis@@ 842
käytössä 842
yhtälä@@ 842
onnistunee@@ 842
elim@@ 842
timme 842
komitean 841
hd@@ 841
as 840
alueille 840
llistä 840
suhteell@@ 839
teltiin 839
tehtävänä 839
80 838
kesken 838
aloite 837
menettä@@ 837
arvo 837
kriitt@@ 837
9 837
kko@@ 836
viittaa@@ 836
ajatus 835
prosent@@ 835
Y@@ 835
U@@ 835
kuoleman@@ 833
varsina@@ 833
kkaa@@ 833
sov@@ 833
ollaan 832
naisia 832
essä@@ 831
uus 831
tietävä@@ 831
vuus 830
suhteiden 830
mästä 829
sä@@ 829
H 829
saapu@@ 828
usko 827
d 827
Kööpenhamina@@ 827
kelpo@@ 826
vapauksien 825
neuvotteluja 825
sopimuksesta 825
oikeu@@ 824
täys@@ 824
omia 823
kuul@@ 823
päätöstä 823
elintarvikkeiden 823
katta@@ 823
Internet@@ 822
tuotannon 822
tekstin 821
järjestel@@ 821
sattu@@ 820
käytettävissä 820
kuljetus@@ 820
ut 820
toi@@ 820
työskentely@@ 819
sopiva@@ 819
uudistus@@ 819
amerikkalais@@ 819
ves@@ 818
samanla@@ 818
työstä@@ 817
hyväksytty 817
kö@@ 817
ittava@@ 817
tiedon 817
18 817
paras 816
etta@@ 816
mässä 816
er 816
teillä 815
rakentava@@ 815
vaikutus 815
todiste@@ 815
toimenpiteet 815
isempi 815
tarkistuksessa 815
kokoontu@@ 814
asianoma@@ 814
avaa@@ 813
8@@ 813
kuulu 812
satama@@ 812
kaudella 811
tarkistusten 811
toteuttama@@ 811
yhdenmukaista@@ 810
kuukauden 809
järjestelmään 809
ongelmista 809
velvollisuu@@ 809
eett@@ 809
suhteita 808
iti@@ 808
pitämä@@ 807
taloudelliset 807
täysistunnossa 806
menne@@ 806
syrjä@@ 806
työhön 806
nne@@ 805
tämänpäivä@@ 804
lähte@@ 804
edelleen@@ 804
tetun 804
oikeuteen 804
mietinnössä@@ 803
yksinoma@@ 803
näkökohtia 803
turvaa@@ 802
60 802
varainhoito@@ 802
keino 801
sai 801
strategia 801
kolmas 800
lti 800
vastuuta 799
lämpimä@@ 799
kysymyksessä 799
netään 798
alaan 798
kehittyne@@ 798
isyyden 798
kuulla 798
isyyteen 797
valvonta 797
päättä@@ 797
realist@@ 796
ksessa 796
edustajien 796
luonte@@ 795
paikkojen 795
min 795
yleisö@@ 794
od@@ 794
tutkimusta 793
tely@@ 792
neljä 792
kir@@ 792
yhteispäätös@@ 792
teja 792
toimintaohjelma@@ 792
joki@@ 791
kysymyksissä 791
tajien 791
joustav@@ 789
luovutta@@ 789
kunnoll@@ 788
painopiste@@ 788
noudatettava 788
vakuutus@@ 788
sosialisti@@ 787
äänestyksessä 787
alha@@ 787
ohja@@ 787
sosiaaliturva@@ 787
yhtiö@@ 787
kysymyksestä 786
tekemistä 786
vetoa@@ 786
villa 785
tieteellis@@ 785
seikka@@ 784
kuule@@ 784
ved@@ 784
osoitus 784
llani 783
uksen@@ 783
kesken@@ 783
tamalla 783
mitkä 783
huhtikuu@@ 783
syö@@ 782
väärin@@ 782
kyseisen 782
luotta@@ 781
kaamme 781
käyttävä@@ 781
ratkaisua 781
erotta@@ 780
hallituksi@@ 780
tyypp@@ 779
ehdotusten 779
tetty@@ 779
suojelua 779
vas@@ 779
kulje@@ 778
pyyde@@ 778
vaativa@@ 778
uksien 777
16 776
harki@@ 776
istunto@@ 775
korjaa@@ 775
pid@@ 775
rahoituksen 775
pk 775
järjestö@@ 775
tettaisiin 774
eurooppalaisia 774
tehtävää 774
ttomia 774
varaukse@@ 774
ohjelmaa 773
keh@@ 773
sanoma@@ 773
vaihe@@ 773
samanaika@@ 772
inkin 770
vastuun 770
osapuoli@@ 770
sopimus@@ 769
puolella 769
assosiaatio@@ 769
säädö@@ 768
tetyt 768
ehkäise@@ 768
kaupallis@@ 768
aluetta 767
istettava 767
tömiä 766
tais@@ 766
Amsterdam@@ 766
ristiriita@@ 766
ystävä@@ 765
päätös@@ 765
tys@@ 765
AKT 765
raho@@ 763
ystä 763
ika@@ 763
kehitykseen 762
jan 761
merkkejä 761
isiksi 761
kalta@@ 760
yyteen 760
lähestymistapa 760
ryhmät 759
esta@@ 759
ratkaisuja 759
neitä 758
vissä 758
ino@@ 758
ys 757
toimenpiteiden 757
haita@@ 757
itys@@ 756
toissijaisuus@@ 756
seikka 755
auto@@ 755
valtaa 755
isku@@ 754
ongelmiin 754
edustaja@@ 754
tarkasteltava 753
muoto@@ 753
ksien 753
sulke@@ 752
tuon 752
ohjelmia 751
sotilas@@ 751
DE 751
käydään 751
tukeva@@ 751
hake@@ 751
tarkoita 750
tekniikan 750
koordinointi@@ 750
voitava 749
ksille 749
kk@@ 749
enne@@ 749
tamisesta 749
hiljatta@@ 749
istunnon 748
viivästy@@ 748
puhemiehe@@ 747
yhteenkuuluv@@ 747
tarve 747
1. 746
prosessiin 746
heidät 746
kysymysten 746
toimin@@ 745
leh@@ 745
ku 745
viljel@@ 745
vil@@ 744
kustannuksia 744
rakentee@@ 744
maata 744
polttoaine@@ 744
tapaus 743
evä@@ 742
vallitse@@ 742
määräyksiä 742
kauppaa 742
viisi 741
inti 740
Euroopasta 740
tuvat 740
ede@@ 739
käsittelyyn 738
perustuslain 738
ittu 737
tasapuol@@ 736
lain 736
tuom@@ 736
nope@@ 736
mus@@ 735
tiedotusväline@@ 735
nuorten 735
määrää@@ 735
oikeuksista 735
rahaston 734
tapaa 734
saman@@ 734
ohje@@ 733
halusi@@ 733
mielenkiinto@@ 733
ek@@ 733
huolehdi@@ 732
piiriin 732
ylittä@@ 732
pito@@ 732
tavoitte@@ 730
miten@@ 730
käsit@@ 730
nuori@@ 730
jäsenelle 730
ttom@@ 730
lausunnon 730
l 729
yr@@ 729
etusija@@ 727
esity@@ 727
selke@@ 727
välisessä 727
Itä 726
osoit@@ 726
tuollo@@ 725
aamuna 725
bio@@ 725
yys 724
isyys 724
työmarkkina@@ 724
taakseen 724
vapaus 724
järjestelmiä 723
lentoyhtiö@@ 723
ssamme 722
miehet 722
yhteistyöhön 722
piir@@ 721
riski@@ 720
määrärahojen 720
täy@@ 720
ilmo@@ 720
kaasu@@ 720
periaatteiden 719
12.@@ 719
ylimäärä@@ 719
tor@@ 719
yrittää 719
Prodi 717
löyde@@ 716
jälke@@ 716
ini@@ 716
toman 716
politiikka@@ 715
tymis@@ 715
asetus 715
Kioto@@ 715
Laeken@@ 715
kel@@ 714
syvä@@ 714
Makedonia@@ 714
edessä@@ 713
lli@@ 713
millään 713
rikollisuuden 713
ystä@@ 713
70 713
sitoumukse@@ 713
rauhanoma@@ 712
valo@@ 712
vahingo@@ 712
tymä@@ 712
tarvitseva@@ 712
koon 712
menettelyjä 712
laisen 712
kannattava@@ 711
konferenssissa 711
vai@@ 711
kkä@@ 710
kumma@@ 710
osoite@@ 710
oleell@@ 710
pano@@ 710
eni 709
toisista@@ 709
vakava 709
tehokas 708
uhka@@ 708
vuoro@@ 707
päästö@@ 707
muille 706
viestintä@@ 706
rehell@@ 706
muodostu@@ 706
all@@ 706
milloin 705
mattomia 705
huomaa@@ 704
sota 704
demokraattisen 704
toisin@@ 703
sanottu 703
vakuu@@ 702
korkei@@ 701
lopet@@ 701
jemme 701
nettävä 701
uudessaan 701
tarkoite@@ 701
vaikeuksia 700
taan@@ 700
käyttöön@@ 700
sor@@ 700
Jugoslavia@@ 700
kampan@@ 700
ssään 699
siirre@@ 699
mahdollisuuksien 699
Iso@@ 699
ttäminen 699
silmä@@ 699
aali@@ 699
ana 698
tajia 698
mekanis@@ 698
lisääntymis@@ 698
aiheuttama@@ 697
oiden 697
osalta@@ 697
liit@@ 697
loukka@@ 697
ima@@ 697
sisältyvä@@ 696
noudattama@@ 696
todista@@ 696
nneet 696
neessä 696
lisäämis@@ 695
suojelun 695
Iran@@ 695
tukien 694
edellytykset 694
tapaan 694
Euro@@ 694
eläkeläis@@ 694
alusta 693
laatimis@@ 693
uudistuksia 693
sopim@@ 693
oper@@ 693
mpiä 693
sotila@@ 693
kriisin 693
lisäämä@@ 693
isina 692
lliseen 692
kertomuksen 692
perusteltu@@ 692
suhteet 691
hallit@@ 691
yh@@ 691
perusta 690
heiken@@ 690
yhdis@@ 690
alkuperäis@@ 689
itte@@ 689
menesty@@ 688
hankkeiden 688
tell@@ 688
säännöksiä 688
metsä@@ 688
tehtäviä 687
37 687
taja@@ 687
päätöksen@@ 686
tussa 686
ab@@ 686
prosessissa 686
tavasta 686
tavoitetta 685
verkos@@ 685
mainitsi@@ 685
hyväksy 685
kirjo@@ 685
esite@@ 684
alojen 684
katsoo 684
ajan@@ 683
edessä 683
enta@@ 683
ikka 683
ääri@@ 683
suojella 683
valtioissa 683
rakenn@@ 682
tukset 682
strategiaa 682
ettiin 682
vuuden 681
tee 681
iko@@ 680
lausunto@@ 680
esit@@ 680
menettelyssä 680
keskusteluja 680
seuraa 680
keino@@ 679
pit@@ 679
kumppani@@ 678
paikan 678
arvosta@@ 677
väliaikais@@ 677
aste@@ 677
täysimäärä@@ 677
hankkeita 677
Aasia@@ 677
uden 676
edut 676
teiltä 675
uudistamis@@ 675
valtioita 675
terveyden 675
pelkää@@ 675
vaatimusten 674
taisi 674
heiko@@ 674
muiste@@ 674
institution@@ 674
ksistä 674
kerta 673
noudateta@@ 673
pääoma@@ 672
hankkeen 672
käytettävä 672
sisälty@@ 672
voitu 671
taso 671
17 671
isuus@@ 671
CO@@ 670
nähd@@ 670
kieltäyty@@ 670
kielle@@ 670
kiintiö@@ 670
yhdisty@@ 670
saman 669
velvollisuus 669
kiire@@ 669
maahan 669
valloissa 668
noudat@@ 668
tutkimus 668
asema@@ 668
vastainen 668
suurempi 668
palauttamis@@ 668
ette@@ 668
asiakirjan 667
elää 667
valiokunta@@ 667
aloja 667
yhtenä@@ 667
ksestä 667
yksipuol@@ 666
oll@@ 666
omina@@ 665
esiinty@@ 665
uudistuksen 665
toon 664
ongelmaan 664
uskoa@@ 663
tukseen 663
itsestään 663
ope@@ 662
vaatimu@@ 662
lujitta@@ 662
ilu@@ 662
tää@@ 661
päätöslauselma 661
alla 660
kasvatta@@ 660
vastaista 660
väkivallan 660
m 659
kuuluva@@ 659
vuutta 659
w@@ 659
mietinnöstä@@ 658
suoritta@@ 658
hoid@@ 658
ic@@ 657
helmikuu@@ 657
9@@ 657
teksti 657
Latin@@ 657
koulutusta 655
tarkistuksesta 655
taloudellisesti 655
mukaisia 655
takaa 654
tapahtumat 654
yritys@@ 654
jolla@@ 654
keskustella@@ 654
uudestaan 654
todis@@ 654
Zimbabwe@@ 654
ket@@ 653
tasapaino 653
vaar@@ 653
vakauden 652
omassa 652
asteitta@@ 652
viljelijöiden 652
tuomitse@@ 652
laitosten 652
A 652
tuloksen@@ 652
ity@@ 651
aiheu@@ 651
saavutettu 651
toimenpiteisiin 651
verran 651
ön@@ 651
tilaisuuden 650
vapaa 650
toiminnasta 649
yhd@@ 649
rakentamis@@ 649
der@@ 649
näky@@ 648
yrity@@ 648
tuli 648
talous 648
leik@@ 648
tynyt 648
poh@@ 647
kauka@@ 647
vanh@@ 647
kesk@@ 646
vastaavan 646
pare@@ 646
iten 646
vän 645
hallitusta 645
enimmäis@@ 645
tty@@ 644
toihin 644
yhden@@ 644
tuhoa@@ 644
elimen 643
meno@@ 643
ale@@ 643
kasvu 643
ES 642
pidettävä@@ 642
Maailman 642
äänes@@ 641
rauha@@ 641
taudin 641
ö 640
elo@@ 640
esityksen 639
siirry@@ 639
oni@@ 639
my@@ 638
puutu@@ 638
paten@@ 638
käsittelyä 637
oja 637
anno@@ 637
tavoitteista 636
tarkastella@@ 636
käynnissä 636
jat 636
vilpittöm@@ 635
ise@@ 635
poikkeus@@ 635
tavanoma@@ 635
hyväksyttävä 635
otamme 634
käteen 634
tule 633
uhkaa 633
kom@@ 632
saane@@ 632
ilmaise@@ 632
lailla 632
mainitsi 632
joustava@@ 632
ongelman@@ 632
naapuri@@ 632
alaisen 631
seuraukset 631
epäily@@ 631
askel@@ 631
poistamis@@ 630
työntekijöitä 630
essään 630
väistämät@@ 629
kää 629
oikeutetusti 629
sesta 629
puhuja@@ 629
itettu 628
vina 627
suo@@ 627
jista 627
tomuuden 627
c@@ 627
kantojen 627
saavu@@ 626
toa 626
Kuuba@@ 626
myötä@@ 625
vaikei@@ 625
osapuolet 625
uskonno@@ 625
tilaisuutta 624
tääkseni 624
ettu@@ 624
liitto@@ 624
mainitsema@@ 624
tuh@@ 624
P 624
puheenjohtaj@@ 624
Per@@ 624
ksella 624
kansallista 623
liiton 623
vapa@@ 623
yö@@ 623
ud@@ 622
liittyvä 622
viranoma@@ 621
elinten 621
llään 621
valtuuskunnan 621
ene@@ 620
ilu 620
johd@@ 619
muilla 619
kieli@@ 619
teihin 619
ammati@@ 618
isissä 618
vaihto@@ 618
tällöin 617
tuet@@ 617
hallinto 617
otsakke@@ 617
04@@ 617
tyy@@ 616
15@@ 616
suori@@ 616
yydestä 616
llisesta 616
uuden@@ 616
viranomaisen 616
keskinä@@ 616
huomion 615
astu@@ 615
Ma@@ 615
mahdollisuu@@ 615
teollisuus 615
elimiä 615
Göteborg@@ 615
aiempaa 615
joku 613
tehtiin 613
kasvi@@ 613
hieno@@ 612
rajoja 612
tai@@ 611
pieni 611
mainita@@ 611
ediste@@ 611
teks@@ 611
erään@@ 610
julka@@ 610
aikaansaa@@ 610
laadun 610
tapoja 610
näy@@ 610
kysymyksen@@ 609
edistetä@@ 609
siin 609
varjo@@ 609
pyyntö@@ 608
mattoman 608
velvoitte@@ 608
nais@@ 608
tellyt 607
asianosa@@ 607
lun 607
ottava@@ 607
aio 607
jäte@@ 607
lyh@@ 607
sisämarkkina 607
arkaluonte@@ 607
ai@@ 607
tulokseen 607
ittelu@@ 606
aineita 606
yhdenmukaistamis@@ 606
tiedottamis@@ 606
näkökohdat 606
yhdiste@@ 606
kustannusten 606
oikeutettu@@ 606
uskottav@@ 605
tellut 605
käydy@@ 605
tutustu@@ 604
yksin 604
toteutettava 604
onnettom@@ 603
tuettava 603
käytettä@@ 603
puolueiden 603
tetyn 602
turvallisuudesta 602
llisiin 602
biolog@@ 602
veden 602
ttäviä 602
kokoukseen 602
mille 601
sopimuksiin 601
piti 601
osana 601
periaatteet 601
vaalien 601
ari@@ 601
voitte 600
arvon 600
levittä@@ 600
rauhaa 600
valmistelukunta 600
pyrkivä@@ 599
välisiä 599
muita@@ 599
ehdot 599
terveyttä 598
kkaita 598
tapahtui 598
komitea 597
viiden 597
tunut 597
erään 597
sydäme@@ 597
kansa 597
valiokunn@@ 596
mennä 596
tied@@ 596
otti 596
tis@@ 596
kuukautta 595
yritä@@ 595
hanke 595
vapauteen 595
pyynnön 594
edun 594
sektor@@ 594
päivi@@ 594
ehdotuksista 594
edetä 593
ponnis@@ 593
len@@ 593
ip@@ 593
yhteisvastuu@@ 593
vuod@@ 593
käsiteltävä 592
huolestune@@ 592
aloite@@ 592
hava@@ 592
... 591
tapaa@@ 591
ennakko@@ 591
yks@@ 591
mainittu 591
änsä 590
eet 590
mia@@ 590
omis@@ 590
laivasto@@ 590
ttö@@ 589
harkitse@@ 589
tah@@ 588
oloissa 588
tuksia 588
sääntö@@ 588
huomatta@@ 588
hti@@ 588
erillis@@ 588
viikon 587
välisten 587
hankke@@ 587
terveyden@@ 587
Korea@@ 587
kahteen 586
tehtävän 586
tilante@@ 586
määritel@@ 586
torjunta 586
hyväksi@@ 586
sata@@ 586
ge@@ 586
organisaatio@@ 586
delle 585
puutteell@@ 584
jan@@ 584
nutta 584
uudistus 584
ag@@ 584
tavara@@ 583
ittävä@@ 583
ot 583
mainittu@@ 583
syitä 582
mukaisen 582
elämään 582
yttä 582
tapahtumien 582
Saddam 582
por@@ 581
suunnitelman 581
arvoa 581
vaikutusta 581
ulkoma@@ 581
keinoin 581
utta 581
koulutukseen 581
palvel@@ 579
palvelut 579
menetel@@ 579
tio@@ 579
järjestelmästä 579
aset@@ 579
lääkkeiden 579
hetki 578
Euro 578
hallinnoi@@ 577
liikke@@ 577
matonta 577
V 577
määrärahat 577
harjo@@ 576
,5 576
selvästi@@ 576
nnyt 576
ann@@ 576
tarkoitettu@@ 576
huumausaine@@ 576
äänesti@@ 575
itettava 575
aloitetta 575
tuote@@ 575
välineiden 574
osoittama@@ 574
varoit@@ 574
talousarvio 574
muo@@ 574
puiteohjelma@@ 574
valita 574
isempaa 573
kehityksestä 573
luvun 573
istunto 573
jäsenenä 573
jäsenvaltio 573
os 573
ojen 573
vih@@ 573
vuosikymmen@@ 572
määritellä 572
rajoite@@ 572
ais@@ 572
asiakirja 571
kertomus 571
muutos 571
ajoneuvo@@ 571
järjestöt 571
televisio@@ 570
Prodi@@ 570
isti@@ 570
teltava 570
puuttee@@ 570
ymmärrä 570
jäävä@@ 570
viesti 569
lukuun 569
ttakoon 569
ap@@ 569
kahdesta 569
tena 569
rin@@ 569
keskusteluissa 569
puh@@ 569
Turkki 569
ylittävä@@ 569
uhrien 568
selvittää 568
tuot@@ 568
joukkojen 568
patentti@@ 568
je@@ 567
EY@@ 567
misessä 567
antu@@ 567
direktiiviin 567
vastaava 566
1997 566
suuntaviiva@@ 566
tuet 566
Geneve@@ 566
iva@@ 566
toteutetta@@ 566
päätö@@ 565
yllä 565
dollari@@ 565
puhtaa@@ 565
hank@@ 565
lähtökohta@@ 565
pidet@@ 565
sti@@ 564
isuutemme 564
alalle 563
kiih@@ 563
yksiä 563
nos@@ 563
kyky@@ 563
hyväksyttävä@@ 563
oikeudellisen 563
muodoll@@ 562
tarkistus@@ 562
hin@@ 562
selittä@@ 561
pakko 561
kyvyn 561
es 561
pite@@ 561
ttivät 561
:ta 560
pitäisi@@ 560
vin 560
tot 560
juuri@@ 560
painos@@ 560
järjestely@@ 560
uksissa 559
demokratia 559
Johannesburg@@ 559
toisen@@ 558
yksiselitte@@ 558
jolle 558
oissa 558
synn@@ 558
tety@@ 558
huolta 558
konferenssi 558
mp@@ 558
tarjoama@@ 558
esittämis@@ 557
tuksista 557
luoda@@ 557
maailmaa 557
:tä 556
tekstiä 556
koheesio@@ 556
suojelu 556
suunnitelma 556
seksuaali@@ 556
kohdasta 555
tro@@ 555
asianmukaisi@@ 555
liik@@ 555
itus 555
työskenne@@ 555
tänne 554
keskit@@ 554
otte@@ 554
maton 554
tua 554
22 553
huol@@ 553
sijo@@ 553
ympäristöön 553
tamista 553
vakaa@@ 553
syrjintä@@ 553
kseksi 553
jälleen@@ 553
maasta 552
,@@ 552
21 552
oikeuksiin 552
saavuttama@@ 552
kier@@ 551
rikka@@ 551
vaka@@ 551
laadu@@ 551
tukia 551
valtiota 551
x@@ 551
rehu@@ 551
luettu@@ 550
jiin 550
uksella 550
I 550
esiintyy 550
kaupunki@@ 549
Ber@@ 549
haluaisi 549
valtuudet 549
vapau@@ 549
innovaatio@@ 549
Maroko@@ 549
tiedonannon 548
vaatimus 548
voit@@ 548
II 548
komitea@@ 548
vastausta 548
tahtoa 548
väliset 547
kohtelu@@ 547
ajatusta 547
voida@@ 547
ohella 547
eettisesti 547
melu@@ 547
käsittely 545
tulosta 545
35 545
toimivalla@@ 545
eläkke@@ 545
juu@@ 545
vahingoit@@ 544
ismi@@ 544
kim@@ 544
kyseenalais@@ 544
etnis@@ 544
syyttä@@ 543
mmistä 543
kohtaisesti 543
tuesta 543
menettelyjen 543
ana@@ 543
pohja@@ 543
ansa@@ 543
viljely@@ 543
aseiden 542
ryh@@ 542
viksi 542
työllisyyttä 542
lentokone@@ 542
kannasta 541
ointi@@ 541
poliittisesta 541
vaikutusten 541
kea@@ 541
kauppa 541
14@@ 540
kädessä 540
vaikka@@ 540
konferenssi@@ 540
g 540
ura@@ 540
viesti@@ 540
ylä@@ 539
vierailu@@ 539
puoli 539
palata 538
rikkom@@ 538
taloutta 538
EY 537
eroja 537
ehtoja 537
muualla 537
myönnettävä 537
liitte@@ 536
elämän@@ 536
kohdista 536
pp@@ 536
suunnittelu@@ 535
tavo@@ 535
suositu@@ 535
nime@@ 535
hankki@@ 535
käsity@@ 534
sisäl@@ 534
ke 534
seikkoja 533
muutokset 533
rakennus@@ 533
viranomaisille 533
teri@@ 533
selity@@ 532
isem@@ 532
tivat 532
laajenn@@ 532
Ranska 532
viedä 532
arvoja 532
diplomaatti@@ 532
suunna@@ 532
ehdotuksen@@ 531
varovais@@ 531
ittele@@ 531
talouteen 531
luettel@@ 531
kalastuksen 531
painopistealue@@ 531
C 530
edistykse@@ 530
iselta 530
monista 530
pääs@@ 530
tämme 529
lop@@ 529
voim@@ 529
vaikutuksista 529
työntekijät 529
tahd@@ 529
kriisi@@ 529
tosiaan@@ 528
luota@@ 528
23 528
bi@@ 528
järjet@@ 528
päivää 528
pätee 528
havait@@ 527
vaalit 527
jat@@ 527
korvaa@@ 527
artikla 527
syyllisty@@ 527
Europol@@ 527
sektorin 526
välisestä 526
yys@@ 526
toimis@@ 526
tari@@ 526
met@@ 526
Nato@@ 526
kunnioitu@@ 526
2005 525
edustajia 525
maailmanlaajuistu@@ 525
alis@@ 525
käytetty 525
ike@@ 525
alenta@@ 525
luottamusta 525
vuodeksi 525
kohdat 524
imman 524
määritellä@@ 524
sotaa 524
utuu 524
vetoomus@@ 524
nu@@ 523
kokemu@@ 523
elämä@@ 523
täyden 523
ympäristönsuojelu@@ 523
kaksinkerta@@ 523
tehtävät 522
kis@@ 522
tekijä@@ 522
jär@@ 522
Schengen@@ 522
vastaanotta@@ 522
tia@@ 522
verkkojen 522
vaih@@ 521
nuoriso@@ 521
hoito@@ 521
edull@@ 521
investointi@@ 521
avustus@@ 521
henkilöitä 520
mielipi@@ 520
tilasto@@ 520
liikennettä 520
korvaus@@ 520
19 520
jätte@@ 520
luonno@@ 519
mill@@ 519
toisia@@ 519
puolet 519
huolestuttava@@ 519
koske 519
kuuden 519
ri 518
kuljetta@@ 518
varoista 518
edelly@@ 518
asemaan 518
tarkistuksissa 518
kaksi@@ 517
järjestelmät 517
laisten 517
asettama@@ 517
huippukokous 517
välit@@ 517
kunnioitet@@ 517
pahoittele@@ 516
tuotte@@ 516
painosta@@ 516
vaarassa 516
mielipiteen@@ 515
py@@ 515
avain@@ 515
päässe@@ 515
tella@@ 515
perustuva 515
seuraava 515
asialista@@ 515
järjestö 515
aik@@ 515
poliittiseen 515
NL 515
määräysten 514
daan 514
äni 514
yhteyttä 514
kulke@@ 514
Patten 514
ohjelmaan 514
kuole@@ 513
järjest@@ 513
epäoikeuden@@ 513
tomuutta 513
edellytys 513
taka@@ 513
sosiaalidemokraatti@@ 512
paikkansa 512
kommentoi@@ 512
rapor@@ 512
luotava 512
esitys 512
tö 512
ton@@ 511
näyt@@ 511
llemme 511
yksistä 511
valuutta@@ 511
runsaa@@ 511
kollegamme 511
laiset 511
palkka@@ 511
mar@@ 511
muuttamis@@ 510
avoin@@ 510
pyytäisi@@ 510
sijaitseva@@ 510
100 510
kiin@@ 509
rannikko@@ 509
edistävä@@ 509
kehoteta@@ 509
oita 509
ama@@ 509
Länsi 509
lakeja 508
ehdotettu 508
ryhmiä 508
nopeutta@@ 508
kestävä 508
nou@@ 508
24 508
Le@@ 508
hylkää@@ 508
keinot 508
ba@@ 508
vahvistama@@ 508
92 508
ero 508
tuks@@ 507
määriä 507
tämis@@ 507
tyy 507
tupa@@ 506
vastavuoro@@ 506
puutteita 506
erity@@ 506
oikeuden@@ 505
tapauksia 505
ani@@ 505
Euroopalle 505
Z@@ 505
sisältöä 504
tarkast@@ 504
epäil@@ 504
ehkä@@ 504
toisiin@@ 504
tutkim@@ 504
yhteisössä 504
kannata 504
henk@@ 504
toimijoiden 503
huomattava 503
julista@@ 502
käytävä 502
parempi@@ 502
ankara@@ 502
asetusta 502
lainsäädännössä 502
pet@@ 502
ksilla 502
kalas@@ 502
istuntosali@@ 502
viitata@@ 501
uusiutu@@ 501
tehokkuutta 501
toisenla@@ 501
uudistusta 501
hyvinvointi@@ 501
lia@@ 501
laina@@ 501
suojaa@@ 501
vuoropuhelu 501
lainsäädäntöön 501
ruoka@@ 501
konflik@@ 501
kompromissi 501
pystyvä@@ 500
til@@ 500
kien 500
verotus@@ 500
ine 500
kärsivä@@ 500
käyttöönotto@@ 500
k 499
puhui 499
eiden 499
Tampere@@ 499
häpeä@@ 499
sito@@ 499
tarkastelu@@ 499
menettelyyn 499
OLAF@@ 499
toistuva@@ 498
vaikut@@ 498
otetta@@ 498
hallitse@@ 498
hintojen 498
valin@@ 498
helppo@@ 498
täyden@@ 498
järke@@ 498
tit 498
perin 497
kilpailu 497
osto@@ 497
teli 497
voimia 497
meri 497
vihdoin@@ 496
työvoima@@ 496
muutos@@ 496
kumppanuus@@ 496
jakautu@@ 496
tosiasia 496
tarkastus@@ 496
demokraatit 496
huume@@ 496
herä@@ 495
yhteiskunta 495
johtuva@@ 495
kriisi 495
tön 494
tapahtunee@@ 494
th@@ 494
yrityksen 494
erikois@@ 494
immista 494
yksinkertaista@@ 494
löyty@@ 494
vakautta 494
yhdysvaltalais@@ 494
kuusi 493
pitkä 493
het@@ 493
odote@@ 493
siirto@@ 493
allekirjoit@@ 493
tuotteet 493
vastaisen 493
teknisiä 492
rahasto@@ 492
innan 492
tehokas@@ 492
syyt 492
mista@@ 492
tella 492
puoleen 492
luottamukse@@ 492
kkaat 492
laitte@@ 492
velka@@ 492
kalatalous@@ 492
yliopisto@@ 492
väliseen 491
lau@@ 491
taho@@ 491
vaihtoehtoja 491
uhri@@ 491
isemm@@ 491
ako 490
panna@@ 490
tavoitteisiin 490
mmissa 490
alkio@@ 490
vallan@@ 489
vaihtoehto 489
tiedonanto@@ 489
toi 489
löyd@@ 489
ens@@ 488
kkaammin 488
säännöistä 488
sanan 488
kohdistuva@@ 488
miehiä 488
ruo@@ 488
ohjelmassa 488
töitä 488
toissija@@ 487
lopettaa 487
tiiv@@ 487
kokouks@@ 487
määrittele@@ 486
aihee@@ 486
aa 486
koihin 486
osassa 486
nnissa 486
ist@@ 486
välineet 486
puhd@@ 486
nette 486
ystävällis@@ 486
45 486
pom@@ 485
tyhjä@@ 485
kerä@@ 485
yhtenä 485
Tukholma@@ 485
immat 485
ser@@ 484
muutoksen 484
tettava@@ 484
moja 484
velvo@@ 484
istus@@ 484
ponnistu@@ 484
budjet@@ 484
oikeudellinen 483
rakente@@ 483
velvoit@@ 483
01 483
kulttuurin 483
asetus@@ 483
itsi@@ 483
nnista 483
säännösten 482
du@@ 482
eita 482
pankki@@ 482
kkaa 482
vat@@ 482
varaa 481
harjoittama@@ 481
deksi 481
investointeja 481
kävi 481
arvioinnin 481
menojen 481
laadittu 480
isen@@ 480
määrätietois@@ 480
koulutus 480
vastu@@ 480
mattomien 480
alla@@ 480
puolue 480
täytäntöönpano 479
ansaitse@@ 479
liike@@ 479
käsitelty 479
ensä 479
takana 479
lapsia 479
27 478
viid@@ 478
isilta 478
ber@@ 478
kojen 478
rahoitus 478
tettäisiin 478
perustu@@ 478
hakemu@@ 478
08 477
suunnit@@ 477
tehtävien 477
viitata 477
BSE 477
hallintoa 477
helppo 477
joukossa 476
valtuuksia 476
kana@@ 476
tellä 476
poliittisista 476
miehi@@ 476
tori@@ 475
simme 475
verk@@ 475
llusti 475
aiko@@ 475
monenväl@@ 475
puolen 474
tteja 474
miljoon@@ 474
hyväksytty@@ 473
oista 473
tarpeellise@@ 473
oikeutta@@ 473
hävi@@ 473
kristillis@@ 473
kierrä@@ 473
kehittämä@@ 473
mel@@ 473
lai@@ 472
viikko@@ 472
hid@@ 472
oppositio@@ 472
Doha@@ 472
jäsenistä 471
kesku@@ 471
:lle 471
viras@@ 471
nykyaika@@ 471
päästöjen 471
ulkomaankauppa@@ 471
määräenemmistö@@ 471
ali 470
eva@@ 470
vaura@@ 470
täv@@ 470
syrjinnän 470
parempaa 469
uudella 469
:sta 469
tekijöitä 469
oikeudellista 469
mallin 469
kantoja 469
GMO@@ 469
yksen 468
suuntaviivoja 468
tiedonannossa 468
tyydyttävä@@ 468
Kansain@@ 468
viera@@ 467
pari 467
utunut 467
isempia 467
ttavien 467
neljänne@@ 467
järjestelmässä 467
viittasi 467
lah@@ 467
toivot@@ 467
puolueet@@ 467
pääministeri@@ 467
viestin 466
kustannuksella 466
Berliini@@ 466
malli 466
kuullu@@ 466
teoll@@ 466
yleishyödy@@ 466
virhe@@ 466
sitoumu@@ 466
tes@@ 466
ittava 466
mmät 465
arvioida@@ 465
tensa 465
Luxemburg@@ 465
Van 465
jaa 464
kirjan 464
empi@@ 464
ellä@@ 464
jiä 464
otto@@ 464
män 464
vastus@@ 464
ineen 464
erimiel@@ 463
isuuksia 463
vääristy@@ 462
moraali@@ 462
asiakirjojen 462
investoi@@ 462
torstai@@ 461
yksilö@@ 461
tetut 461
Skotla@@ 461
myynti@@ 461
pääsy 461
ilmatila@@ 461
koski 460
valtuu@@ 460
apu 460
run@@ 460
uudelle 460
tarttu@@ 460
uhreja 460
anto@@ 460
vier@@ 460
itti@@ 460
uksessa 459
mall@@ 459
väärä@@ 459
sijaitse@@ 459
pas@@ 458
asukka@@ 458
kiista@@ 458
virasto 458
tilanteissa 458
tuonti@@ 458
verrat@@ 457
riittämät@@ 457
heikko@@ 457
tekstissä 457
koja 457
oleskelu@@ 457
lykkää@@ 456
ellaan 456
asiakirja@@ 456
kaava@@ 456
kki@@ 456
avusta@@ 456
nyt@@ 455
pelkkä 455
kehyksen 455
lehd@@ 455
sal@@ 455
opi@@ 455
ministerineuvosto@@ 455
konfliktin 455
ikassa 455
etenemis@@ 455
tyissä 454
peruutta@@ 454
kertomuksessa 454
1996 454
isinä 454
myönnä@@ 454
automaatti@@ 454
ymmärrykseen 453
llisuutta 453
entisen 453
purka@@ 453
llisista 453
tuoma@@ 453
vaara 453
asetukseksi 453
Li@@ 453
edistysaskel@@ 453
työjärjestys@@ 453
sopimuksissa 453
minuut@@ 452
seuraam@@ 452
nes 452
illään 452
arvostelu@@ 452
kaupan@@ 452
mallia 452
näl@@ 452
aikoja 451
utuva@@ 451
ymmärrettävä 451
aksi 451
arviointi 451
rä@@ 451
ajoissa 450
teollis@@ 450
lausu@@ 450
luulta@@ 450
Kar@@ 450
alainen 450
siirtolais@@ 450
huippukokous@@ 450
ihmisarvo@@ 450
liikku@@ 449
päätelmä@@ 449
pääosasto@@ 449
muutosta 449
yritys 449
ukselle 449
säännökset 449
tutkimukseen 449
aloitteesta 449
kova@@ 449
kaup@@ 449
pilari@@ 448
utua 447
ha 447
iel@@ 447
Irlannissa 447
ehdotuks@@ 447
hilja@@ 446
kuljet@@ 446
suuntaviivojen 446
monikansa@@ 446
esitystä 446
pakolaisten 446
pidätys@@ 446
via@@ 445
tettyjä 445
korot@@ 445
muut@@ 445
ratkaisuun 445
tunnustamis@@ 445
löytämä@@ 445
one@@ 444
miemme 444
emman 444
tyksen 444
sukupuoli@@ 444
oteta 443
ohjelmasta 443
sisältävä@@ 443
suin@@ 443
tasolle 443
välityksellä 443
tto@@ 443
petty@@ 443
hinta 443
käsittelevä 442
päät@@ 442
menee 442
tavoittee@@ 442
28 442
pohdittava 442
lähesty@@ 442
alais@@ 442
otettiin 442
emm@@ 442
PSE 441
kehy@@ 441
häiri@@ 441
tkin 441
epävarm@@ 441
terrori@@ 441
sanan@@ 441
kehys 441
määräykset 441
dynaam@@ 441
syrji@@ 441
vang@@ 441
vaihta@@ 441
vertailu@@ 441
riskejä 440
suurempa@@ 440
neeseen 440
elin 440
An@@ 440
heikentää 440
La@@ 440
turvautu@@ 440
arvojen 439
työntekijöille 439
saattaisi 439
laadittava 439
valitse@@ 439
monopoli@@ 439
itti 439
julkista 439
kunta@@ 439
tulevaisuus 439
lopettamis@@ 439
hyökkäy@@ 439
tilaa 438
energia 438
terveyteen 438
heij@@ 437
kiinnosta@@ 437
menetelmiä 437
päätä@@ 437
ill@@ 437
enna@@ 437
muoto 437
kommunisti@@ 437
seka@@ 436
reagoi@@ 436
lähet@@ 436
vähene@@ 436
neille 436
muodos@@ 436
synnyttä@@ 436
kalasta@@ 436
neista 436
myöntämä@@ 435
mpänä 435
hyvinvoi@@ 435
muu 435
tehokkuuden 435
tuli@@ 435
emmä@@ 435
arabi@@ 435
ulottuv@@ 435
keskuudessa 435
Romania@@ 435
tujen 434
julki@@ 434
esittelijöitä 434
etene@@ 434
vallitseva@@ 434
vaikutusvalta@@ 434
puolten 434
todettu 434
0,@@ 434
neljän 433
työssä 433
edellyttävä@@ 433
alueeseen 433
luo 433
ELDR 433
tulli@@ 433
500 433
itettava@@ 433
valinta@@ 433
ETY 433
traag@@ 433
oilla 433
asiantuntija@@ 432
maassa@@ 432
valiokuntaa 432
solmi@@ 432
anteeksi 432
kye@@ 432
palk@@ 432
ella@@ 432
ite 431
toiminnassa 431
annettu@@ 431
pyö@@ 431
mpi@@ 431
tarpeet 431
varmoja 431
immä@@ 431
jälki@@ 431
päämäärä@@ 431
varas@@ 431
r 430
vuotis@@ 430
muutettava 430
elimissä 430
ess@@ 430
ajatuksia 430
puheenvuorossa@@ 430
tie 430
llisena 430
byrokratia@@ 429
tiet@@ 429
hylä@@ 429
kysymyks@@ 429
hylät@@ 429
aiheen 429
10@@ 429
esteitä 429
nettiin 428
seik@@ 428
suunnitelmia 428
lasku@@ 428
strategi@@ 428
haaste 428
huono 428
gi@@ 428
kuuli@@ 428
man 428
johdanto 428
testa@@ 427
pitää@@ 427
vaadittava 427
lopulta@@ 427
talouskasvu@@ 427
N:o 427
kunnat 427
sitoumuksia 427
kappale@@ 427
tietä 426
ohjelmat 426
ohj@@ 426
EKP@@ 426
direktiivistä 426
jousta@@ 425
menet@@ 425
vaihd@@ 425
analysoi@@ 425
suuntautu@@ 425
ulo@@ 425
jäädä 425
pil@@ 425
direktiivien 425
vakau@@ 425
näyttä@@ 424
sovitta@@ 424
vahinko@@ 424
kiis@@ 424
della 424
johtava@@ 424
puitteet 424
politiikkoja 424
viisumi@@ 424
mainin@@ 423
maaseutu@@ 423
liiall@@ 423
suojaa 423
virkamies@@ 423
teltu 423
avoimuus 423
tapahtuma@@ 423
komite@@ 423
syyll@@ 423
rauha 423
tyn 423
ehdotettu@@ 422
kiä 422
ksu@@ 422
säännön 422
kahdeksan 422
ituksen 422
Ne@@ 422
ongelmasta 422
tarkoitettu 422
amis@@ 422
menettelyt 422
Rooma@@ 422
kyseenalaista@@ 422
hyödyntämis@@ 422
laatu 422
edus@@ 421
vaiheen 421
innovatiiv@@ 421
tasaverta@@ 421
kovin@@ 421
teta 421
luu@@ 421
valtuus@@ 421
Bush@@ 421
tuhansia 420
laiminlyö@@ 420
paikka 420
feder@@ 420
seuraus@@ 420
henkilöstön 420
reilu@@ 420
viik@@ 420
nouse@@ 419
tely 419
vaara@@ 419
säädetä@@ 419
hark@@ 419
toimija@@ 419
erot 419
ittu@@ 419
johtaja 419
Helsing@@ 419
saastu@@ 419
ota 419
ttämistä 419
yksestä 419
organis@@ 419
keskusteli@@ 418
Mon@@ 418
tömä@@ 418
ekologis@@ 418
kannat 417
mää@@ 417
lykät@@ 417
luottamuksen 417
näkökohtien 417
z 417
ttaisi 417
kokousta 417
tumis@@ 417
tehtä@@ 416
ohjelma@@ 416
tavia 416
29 416
kerra@@ 415
hedel@@ 415
vanha@@ 415
maailma 415
kone@@ 415
käytössä@@ 415
ilmenee 415
taanko 415
suosittele@@ 414
alustava@@ 414
huollon 414
sup@@ 413
jyrk@@ 413
toimintaa@@ 413
muotoja 413
maksujen 413
33 413
yhteys 412
valmistu@@ 412
uudistusten 412
tietoon 412
Italia 412
Algeria@@ 412
työskennellä 412
kuuden@@ 411
aikomu@@ 411
koitu@@ 411
lap@@ 411
ev@@ 411
asiakirjassa 411
rah@@ 411
työntekijä@@ 411
Ruotsi 411
ravinto@@ 411
muotojen 410
keskustel@@ 410
lausun@@ 410
tuoda@@ 410
kuullee@@ 410
oikeudellisia 410
vasemmisto@@ 410
henkilö 410
Keski 410
Sevilla@@ 410
sar@@ 409
odo@@ 409
pen@@ 409
jät 409
olen@@ 409
kirjassa 409
Internet 409
intres@@ 409
virasto@@ 409
inna@@ 409
tejä 409
lais@@ 409
aseita 409
pahe@@ 409
Car@@ 409
käsitel@@ 408
kai@@ 408
seikat 408
sana 408
versio@@ 408
paketin 408
perustan 407
tekemis@@ 407
riittävä 407
puute 407
kevää@@ 407
Sa@@ 407
lehdistö@@ 407
200 407
kanna@@ 407
asetuksessa 407
11.@@ 407
Venäjä 407
pyysi@@ 406
veronmaksa@@ 406
itettu@@ 406
energian 406
melkein 406
ilmaston@@ 406
näkemyksiä 406
Intia@@ 406
el 406
määritelmä@@ 406
käytän 405
annettava@@ 405
suru@@ 405
mmän 405
lakkau@@ 405
vahvistu@@ 405
Atlant@@ 405
jälleenrakentamis@@ 405
tilo@@ 404
isu@@ 404
alta@@ 404
käsite 404
asiakirjoja 404
raken@@ 404
mukaiset 404
menevä@@ 404
joukko 404
yhteensovittamis@@ 403
inta@@ 403
uutensa 403
puheenvuoro 403
isyydestä 403
rav@@ 403
näkemys 403
maailma@@ 403
oin 402
oikeudesta 402
yritetä@@ 402
sorkka@@ 402
toteu@@ 401
pohd@@ 401
sivät 401
osoitettava 401
tarkistamis@@ 400
hitaa@@ 400
ajattelu@@ 400
tuloksista 400
oikeudellis@@ 400
hakija@@ 400
paket@@ 400
Espanja 400
analyysi@@ 399
kuvitella 399
mmä@@ 399
impia 399
paho@@ 399
tarkoituksiin 399
pohdi@@ 399
nnän 399
tekijät 399
koskemat@@ 399
vuus@@ 398
kyl@@ 398
toimenpite@@ 398
teni 398
tarkoit@@ 398
pöytäkirja 398
tomasti 398
seitsemän 398
saksalais@@ 398
llisuuden 398
avus@@ 398
verta@@ 398
75 398
elävä@@ 398
mielenosoit@@ 398
26 398
aids@@ 398
tavoitteeseen 397
meren@@ 397
perusteita 397
kielto 397
ossa@@ 397
johtajien 397
normaali@@ 397
viimeaika@@ 397
yhteiskunnassa 397
hämmästy@@ 396
sien 396
ide@@ 396
ymmärtävä@@ 396
romu@@ 396
valvonnasta 396
kannuste@@ 396
kur@@ 396
jolle@@ 396
tavoitteemme 396
tavaroiden 395
rohkaise@@ 395
vin@@ 395
tuotantoa 395
sty@@ 395
vähentämä@@ 395
tulokse@@ 394
teista 394
annosta 394
ilo 394
voitta@@ 394
omista@@ 394
essamme 394
voimien 394
säästä@@ 394
etti@@ 394
CN@@ 394
tuota 394
toiset 394
tupakka@@ 394
mil@@ 394
monivuot@@ 393
julis@@ 393
vallassa 393
indikaat@@ 393
puheen@@ 393
keskuksen 393
rajoituksia 393
ranskalais@@ 393
lou@@ 393
tunne 393
palaa@@ 393
mmäksi 393
heng@@ 393
priorite@@ 393
jätteen 393
lähentymis@@ 392
tutkimuksia 392
ottelu@@ 392
osoitti 392
ban@@ 392
vastalause@@ 392
ehkäisy@@ 392
tuloksen 392
suhteista 392
Na@@ 392
otan 391
O 391
Ar@@ 391
luvut 391
itys 391
edistymis@@ 391
antama@@ 391
tilas@@ 391
sisällöstä 391
merkki 391
mukana@@ 390
konservatiivi@@ 390
näkökohta 390
johtajat 390
pantava 390
merkit@@ 390
sisämarkkina@@ 390
uutena 390
hinta@@ 390
soker@@ 390
transatlantt@@ 390
pitkäaikais@@ 389
hanketta 389
mät@@ 389
yhteisymmärr@@ 389
joukot 389
turvall@@ 388
tekstiin 388
alismi@@ 388
noista 388
kykene@@ 388
mmassa 387
suosituksia 387
hel@@ 387
hallinta@@ 387
sulje@@ 387
mieluummin 387
Patten@@ 387
etti 387
neuvotteluihin 387
elinikä@@ 387
toimenpiteistä 387
vu@@ 386
keskisuuri@@ 386
esitettävä 386
:stä 386
oikeisto@@ 386
kriteer@@ 386
hallinno@@ 386
väestöstä 386
resursseja 386
kritiik@@ 386
näkymien 386
ainutlaatui@@ 386
ttävissä 385
vaad@@ 385
täisi 385
kantaa@@ 385
tyh@@ 385
säännöstön 385
autojen 385
nor@@ 385
luonn@@ 384
maantie@@ 384
des@@ 384
ministere@@ 384
sessa 384
pätev@@ 384
uksille 384
tietokone@@ 383
Lan@@ 383
hengessä 383
milla 383
vis@@ 383
mpaan 383
ratkaistava 383
luottamus 383
teknis@@ 383
naapu@@ 383
05@@ 383
Serbia@@ 383
02 382
työnsä 382
varmuutta 382
kyky 382
uudistukset 382
tilapäis@@ 382
Kau@@ 382
aiheita 382
Suom@@ 382
tuloksiin 382
tiedus@@ 382
ili 381
tasoa 381
intä@@ 381
kriteerit 381
syyttäjä@@ 381
seuran@@ 381
vaihe 381
tuottajien 381
käyty 381
uhka 381
Husseini@@ 381
syyt@@ 380
luonnoksen 380
miä@@ 380
olemassaolo@@ 380
hun 380
hinnat 380
näkemy@@ 380
suositus 380
maansa 380
varautumis@@ 380
rinnakkais@@ 380
itt@@ 379
direktiivillä 379
tulosten 379
kselle 379
kommen@@ 379
kilpail@@ 379
edustajan@@ 379
vihre@@ 379
toteutettu 379
vaikutus@@ 379
ulkoministeri@@ 379
Valko 379
asteen 378
ajassa 378
empaa 378
joihin@@ 378
esittämä 378
aute@@ 378
eja 378
poliitik@@ 378
kti@@ 378
varmasti@@ 378
aido@@ 378
tulkit@@ 378
tietosuoja@@ 378
sanat 378
jätteiden 378
pohjim@@ 377
kuussa 377
tarkistuks@@ 377
haittaa 377
muod@@ 377
1,@@ 377
isillä 377
suunnitelmien 377
harha@@ 377
vansa 377
israelilais@@ 377
lääkkeitä 377
potila@@ 377
voidaan@@ 377
voimakkai@@ 376
ettava@@ 376
eng@@ 376
kko 376
liittovaltio@@ 376
piste@@ 376
Puola@@ 376
kantasolu@@ 376
tieto 375
edellytyksiä 375
vit@@ 375
henkeä 375
luettelo 375
käytettävissä@@ 375
iltapäivä@@ 375
keskusteltu 375
taloudessa 375
kseen@@ 375
valtuuskunta 375
Pakistan@@ 375
sijoitus@@ 375
otti@@ 375
käyttäjä@@ 375
valiokunnalle 374
asetettu@@ 374
viranomaisia 374
kehittymis@@ 374
suhd@@ 374
sty 374
hyö@@ 374
ksessä 374
kollega@@ 374
ttäisi 374
New 374
ät@@ 374
valtoihin 374
sääde@@ 374
käämme 374
ff@@ 374
vapaut@@ 373
keskusteltava 373
vaikeu@@ 373
tila 373
hill@@ 373
haas@@ 373
unohd@@ 373
opiskeli@@ 373
laki@@ 372
parantu@@ 372
ihin@@ 372
olet@@ 372
valmistele@@ 372
olosuhteissa 372
perin@@ 372
ymmärre@@ 372
rahat 372
tarpeisiin 372
Erika 371
vaatimuksiin 371
näkökohta@@ 371
mielen@@ 371
tusti 371
teema@@ 371
käynnin 371
kokouksesta 371
sisältö 370
rohkeutta 370
nimi@@ 370
ire@@ 370
sanoja 370
laitoksen 370
elintarvikke@@ 370
neuvostoon 370
rangaista@@ 370
Ukraina@@ 370
huomioi@@ 369
menoja 369
mielipide 369
massa@@ 369
vastaisia 369
terveyde@@ 369
välineen 368
myönnetty 368
perinn@@ 368
ponnisteluja 368
minkä@@ 368
isoi@@ 368
esimerkin 368
itsi 368
vaaleissa 368
mies 367
huomis@@ 367
tore@@ 367
toteaisi@@ 367
38 367
miell@@ 367
Mos@@ 367
tt@@ 367
halve@@ 367
eihin 366
kap@@ 366
kaupung@@ 366
tuntuva@@ 366
aiheista 366
ivi@@ 366
atti@@ 366
kohtiin 366
sod@@ 366
nautti@@ 366
kuolem@@ 365
kohteena 365
uksi@@ 365
villä 365
aiheena 365
ttivat 365
vaikeutta@@ 365
HVK@@ 365
edustajan 365
32 365
ona 365
aloit@@ 365
prote@@ 365
nuor@@ 364
alle 364
olot 364
elämää 364
yden 364
näkemystä 364
hajo@@ 364
Kan@@ 364
kallii@@ 364
kesä@@ 364
kuva 364
tei@@ 364
hen@@ 364
teon 364
sopu@@ 364
torjunnassa 364
puitedirektiivi@@ 364
miltaan 363
järkevä 363
onnettomuuksien 363
poikkeuksia 363
ehdotuksiin 363
ristiri@@ 363
sol@@ 363
kysely@@ 363
tiedonanto 363
moni 362
soveltama@@ 362
kaltaisia 362
ny@@ 362
poliittisiin 362
aie@@ 361
ltaan 361
täisiin 361
tensä 361
sopimuksista 361
tutkinta@@ 361
summa@@ 361
koa 361
sis@@ 361
käynn@@ 361
toimenpide 361
määritelty 361
asettu@@ 361
yhtiöiden 361
uutis@@ 360
turha@@ 360
kunnia 360
koostu@@ 360
48 360
harjoitta@@ 360
ET@@ 360
ilmen@@ 359
kuuntele@@ 359
kaltaisten 359
mpään 359
essani 359
liike 359
oikeudellisesti 359
yhdellä 359
paljasta@@ 359
nyttä 359
opetta@@ 359
UN@@ 359
objektiiv@@ 359
onnettomuuden 358
ottamalla 358
virhe 358
ivo@@ 358
ellut 358
ye@@ 358
roko@@ 358
ele@@ 357
ttäessä 357
ah@@ 357
suos@@ 357
aikoo@@ 357
riski 357
lisäarvo@@ 357
tauti@@ 357
perussopimus@@ 357
räjä@@ 356
voitto@@ 356
lisääntyvä@@ 356
ölj@@ 356
huoma@@ 356
laki 356
tekopyh@@ 356
valtioille 356
tapahtumia 356
kielten 356
suojel@@ 356
täydentävä@@ 355
issä@@ 355
selvitys@@ 355
maksuja 355
laj@@ 355
Angola@@ 355
tähden 354
pettymy@@ 354
meihin 354
rohke@@ 354
erilais@@ 354
ain@@ 354
toistu@@ 354
isuudet 354
ttaminen 354
Gu@@ 354
lapset 354
oikeusperusta 354
vihdoin 353
yttävä@@ 353
desta 353
ttavissa 353
aloittama@@ 353
vedot@@ 353
yhdestä 353
ehti@@ 353
päätöslausel@@ 352
attu 352
tune@@ 352
alueisiin 352
siirtymis@@ 352
selven@@ 352
toimiva 352
päi@@ 352
kunnasta 352
Egypti@@ 352
sivuutta@@ 352
valtoja 352
ikenne@@ 352
WTO 352
päivinä 351
oille 351
ulottuvuus 351
keskeistä 351
oitu@@ 351
opp@@ 351
tetyistä 351
suunn@@ 351
tarv@@ 351
puoluste@@ 351
kierro@@ 351
ilmaista@@ 351
maaperä@@ 351
joukkotuhoase@@ 351
näkyy 350
dramaatt@@ 350
nous@@ 350
eilis@@ 350
neena 350
peli@@ 350
iso@@ 350
puhujan 350
tekniik@@ 350
vuoristo@@ 350
asiakirjat 350
idässä 350
arvot 350
ikävä 350
pyynti@@ 350
menetelmä 350
komissioon 349
suun@@ 349
istö 349
ota@@ 349
toteama@@ 349
vassa 349
91 349
poliittisessa 349
menettelystä 348
teknisen 348
tuhan@@ 348
syrjäytymis@@ 348
tyminen 348
1995 348
aikojen 348
pyysi 348
onta@@ 348
liikkeelle 348
mies@@ 348
ohjelmiin 348
tapaamis@@ 348
totu@@ 348
kentä@@ 348
isitte 347
viittasi@@ 347
ennakoi@@ 347
suhde 347
kumo@@ 347
heik@@ 347
järkevi@@ 347
julkais@@ 347
ilmapiiri@@ 347
oton 347
5. 347
painostus@@ 347
kuljetusten 346
tietyn 346
teknolog@@ 346
hengen 346
kunnioitettava 346
olojen 346
á@@ 346
sosi@@ 346
ottavat 346
tarkistukseen 346
hoidon 346
ikäänty@@ 346
nuoret 345
mpiin 345
eläim@@ 345
tarpe@@ 345
rohka@@ 345
Sch@@ 345
poliitt@@ 345
36 345
uni@@ 345
mietti@@ 345
sovittelukomitea@@ 345
avaruus@@ 345
mmaksi 344
säätä@@ 344
jina 344
toimeen@@ 344
vaatimusta 344
luvulla 344
ajatuksen 344
monen 344
lakien 344
arvoista 344
tuotanto 344
kohteeksi 344
islamilais@@ 344
työryhmän 343
tiukko@@ 343
ac@@ 343
hy@@ 343
luja@@ 343
suoja 343
ehdokas@@ 343
peruskirja@@ 343
tarpeesta 343
kirjoitta@@ 342
ksillä 342
asetettu 342
kirja 342
toimivalta 342
paranneta@@ 342
lakia 342
toimeenpano@@ 342
päästöjä 342
tävien 342
istunnossa 342
luokan 342
verko@@ 342
terveydenhuolto@@ 342
näkyv@@ 341
ajoneuvojen 341
tarkistuksiin 341
normeja 341
kät@@ 341
keskeyttä@@ 341
tilin@@ 341
vaaleja 341
hyväksymä@@ 340
halunnee@@ 340
teknologia@@ 340
kohdista@@ 340
tas@@ 340
edustettu@@ 340
sitova@@ 340
rahoitet@@ 340
mattomat 340
ttämä@@ 340
palvelun 340
sisällytetty 340
vastakka@@ 340
etut 339
työpaikka@@ 339
proses@@ 339
hankala@@ 339
huom@@ 339
kuluttajansuoja@@ 339
kokona@@ 339
kyken@@ 339
ehty@@ 339
ajat 339
sit@@ 339
päte@@ 338
perusteet 338
tekisi 338
painot@@ 338
tapausta 338
panema@@ 338
sijoit@@ 338
emmat 338
ttävät 338
johtaja@@ 338
pienentä@@ 338
sivis@@ 338
Kolumbia@@ 338
udu 337
vastaan@@ 337
mät 337
tähden@@ 337
hankkeet 337
kuvan 337
kiellon 337
uskoa 337
toma@@ 337
torjunnan 337
kär@@ 337
asiamiehen 337
markkinoihin 337
kokouksissa 337
vakaus 337
perjantai@@ 336
18@@ 336
tuksessa 336
kumppanuuden 336
uksessa@@ 336
tarpeita 336
tukse@@ 336
käyttöönotto 336
periaatteeseen 336
naudanliha@@ 336
31 336
itsemääräämis@@ 336
ovat@@ 336
maanantai@@ 335
55 335
työnantaja@@ 335
prosessi@@ 335
laad@@ 335
integroi@@ 335
järjestystä 335
investointien 335
teksti@@ 335
työvoiman 335
vie 335
42 335
käytäntö 335
iku@@ 335
rasismin 335
tappa@@ 335
tuore@@ 334
95 334
tyistä 334
menestys 334
virhee@@ 334
kansaa 334
af@@ 334
inflaatio@@ 334
syöpä@@ 334
jalkapallo@@ 334
näyttävä@@ 333
ehdotuksella 333
hait@@ 333
liity 333
esitellä 333
osas@@ 333
viestinnän 333
toimin 333
rohkea@@ 333
osien 333
issut 333
täysi 333
maanosa@@ 333
avusta 333
tori 333
työjärjestyspuheenvuoro@@ 332
sisällön 332
muutosten 332
ehdotu@@ 332
korosti 332
verotuksen 332
valtiontuki@@ 332
ulot@@ 332
keen 332
merellä 332
rakenteiden 332
läp@@ 332
historian 332
summa 332
kumoa@@ 332
49 332
alaiset 331
ajatukse@@ 331
neuv@@ 331
kahdessa 331
puitte@@ 331
tähänast@@ 331
kasta 331
myötätunto@@ 331
hir@@ 331
käsitys 331
hiu@@ 331
ava 330
mattomuus 330
sallittu@@ 330
ytyneen 330
pääoman 330
ryhmään 330
rahasto 330
taloudesta 330
hallitukselle 330
koro@@ 330
presidentin 330
toimilla 329
tuomioistuim@@ 329
sall@@ 329
viranomainen 329
uuksia 329
varattu 329
ve 329
fia@@ 329
huomautuksen 329
Lu@@ 329
antajien 328
laajentamis@@ 328
puolus@@ 328
aste 328
yd@@ 328
pakotte@@ 328
epide@@ 328
onn@@ 327
paha@@ 327
maantieteellis@@ 327
piä 327
päätel@@ 327
ck@@ 327
kell@@ 327
rahoitukse@@ 327
tarkoitukse@@ 327
edustukse@@ 327
pro@@ 327
Fischler 327
järjestöjä 327
merkitsisi 326
houkuttele@@ 326
selviä 326
näke@@ 326
isin@@ 326
edeltä@@ 326
arvioitava 326
käytäntöjä 326
entin@@ 326
irlantilais@@ 326
EU:hun 326
tele 326
muukalaisviha@@ 326
rangaistus@@ 326
kausi 325
haasteisiin 325
net@@ 325
matkan 325
lää@@ 325
aatio 325
luvan 325
issaan 325
lähteiden 325
voimavaroja 324
tekninen 324
inta 324
tajat 324
maanviljelijä@@ 324
eti@@ 324
kiistanala@@ 324
allis@@ 324
ministerien 324
alaisten 324
tuksi 323
tänyt 323
poikke@@ 323
syyte@@ 323
Meksiko@@ 323
joilla@@ 323
poistu@@ 323
so 323
merenkulku@@ 323
telmä@@ 323
tonnia 323
tehtäviin 323
alkoholi@@ 323
tauti 323
peto@@ 322
loistava@@ 322
palveluiden 322
myönnettävä@@ 322
käynnistet@@ 322
ec@@ 322
suurempi@@ 322
teräs@@ 322
määriteltävä 322
tarkasta@@ 322
pakko@@ 322
tapauksen 322
olla@@ 322
pur@@ 322
EK@@ 322
GUE 322
Turkki@@ 322
harkittava 322
tahdon 322
yksimielisyys 322
toimissa 322
Ch@@ 322
onnittelu@@ 321
vaike@@ 321
tarpeiden 321
luettelon 321
jakelu@@ 321
sista 321
päädy@@ 321
viita@@ 321
tahot 321
suojella@@ 321
kop@@ 321
ksellä 321
lausekke@@ 321
39 321
teko@@ 321
perustuslaki 321
nnö@@ 321
teeseen 320
espanjalais@@ 320
ajanjakso@@ 320
voimaantulo@@ 320
tavar@@ 320
teknologian 320
joista@@ 320
lleni 320
kilpa@@ 320
posti@@ 320
tunnetu@@ 320
llisuus 320
rikosten 320
tuma@@ 320
varhais@@ 320
veto 320
kynn@@ 320
kaltaiset 320
jul@@ 320
Cotonou@@ 320
Ko@@ 319
nalla 319
järjestelyjä 319
immin 319
aikana@@ 319
ymmärrettävä@@ 319
esteet 319
tavien 319
jilla 319
tunnin 319
luov@@ 319
tapahtumista 319
taisin 319
terrori 319
esittämiä 319
ilmailu@@ 318
tehtävänsä 318
normien 318
its@@ 318
ongel@@ 318
tehost@@ 318
Par@@ 318
rajan 318
järkyt@@ 318
tet@@ 318
ihme@@ 318
44 318
isuudelle 317
tui 317
kriteerien 317
tyneet 317
viidenne@@ 317
itel@@ 317
toiminn@@ 317
töntä 317
pääse 317
Feira@@ 317
teur@@ 317
vaikutelma@@ 316
kil@@ 316
koe@@ 316
pelasta@@ 316
kustann@@ 316
askeleen 316
raskaa@@ 316
periaatte@@ 316
kunnia@@ 316
suojan 316
asemasta 316
De@@ 316
kunnio@@ 315
:lla 315
tahto@@ 315
teollisuutta 315
etty 315
ylpe@@ 315
parasta 315
kku@@ 315
llisessa 315
käyttäjien 315
ins@@ 315
ratkaista@@ 315
direktiivejä 315
tasoilla 315
myön@@ 315
otsi@@ 315
ulottuvuuden 315
kiin 315
ona@@ 315
imperi@@ 315
terrorismi 315
signa@@ 314
pyrkimyksiä 314
maanviljelijö@@ 314
teisiin 314
vastaavan@@ 314
EL 314
vastuuseen 314
intä 314
innä@@ 314
pyyntö 314
tömän 314
yhdistämis@@ 314
katastrofi 313
mukau@@ 313
yksiin 313
vauhditta@@ 313
tama 313
italialais@@ 313
liio@@ 313
äänestykset 313
vakuut@@ 313
6. 313
mmille 313
pysäyttä@@ 313
syrj@@ 313
kiistä@@ 312
käytettävä@@ 312
tekniikka 312
olosuhte@@ 312
piirte@@ 312
väh@@ 312
liber@@ 312
osia 312
ylikansall@@ 312
armei@@ 312
yhteyksiä 312
lope@@ 312
ste@@ 312
kurssi@@ 312
41 312
roolin 312
uksilla 312
muuntogeen@@ 312
ottamista 311
kustannuksista 311
21@@ 311
vahinkojen 311
rangaistuksen 311
esittele@@ 311
turvapaikan@@ 311
olosuhteet 311
tomia 311
asee@@ 311
veri@@ 311
postipalvelu@@ 311
edistysaskel 311
panosta@@ 310
näkyvä@@ 310
kuvaa 310
vetä@@ 310
epäsuora@@ 310
ilmais@@ 310
ksa@@ 310
Galicia@@ 310
korvauksia 310
liikente@@ 310
taud@@ 310
periaatteesta 309
ter 309
myönnet@@ 309
tosiaan 309
käyvä@@ 309
pelk@@ 309
alat 309
edustus@@ 309
läsnäolo@@ 309
liikkumis@@ 309
mukse@@ 309
muunnettu@@ 309
raaka 309
huomata 308
teknise@@ 308
huomio 308
kou@@ 308
älkää@@ 308
saastutta@@ 308
lliseksi 308
fyys@@ 308
suhteissa 308
malli@@ 308
tutkimukset 308
kaupasta 308
varapuheenjohtaja 307
Indonesia@@ 307
mmista 307
määrittely@@ 307
kkaasta 307
pidetty 307
rakenteita 307
tekijän@@ 307
tuissa 307
R 307
käsittämät@@ 307
taistelua 307
300 307
uhkaava@@ 307
YMP@@ 307
epätoivo@@ 307
inen@@ 306
hirv@@ 306
aluksen 306
pien 306
vaikeudet 306
paperi@@ 306
tapahdu 306
Kreikka 306
tyypi@@ 306
ete@@ 306
matta@@ 306
leviä@@ 306
isesti@@ 306
toime@@ 306
maataloutta 306
selvity@@ 306
väite@@ 306
vapautu@@ 306
johtaisi 306
itetty 305
tyydyttä@@ 305
piin 305
viikkoina 305
toimeen 305
99 305
kohdiste@@ 305
raska@@ 305
asiantuntemu@@ 305
kunnalle 305
uksesta@@ 305
Cor@@ 305
al 305
vahvistettu 305
kasvihuone@@ 305
jatkuva 305
yksityistämis@@ 305
pilarin 305
sovittu 304
luonteeltaan 304
BKT@@ 304
tekstistä 304
välineenä 304
ltään 304
sitoudu@@ 304
urhe@@ 304
kra@@ 304
kalastusta 304
kärsimy@@ 304
34 303
Japani@@ 303
melko@@ 303
haastee@@ 303
suunniteltu 303
Portugali 303
seudu@@ 303
luva@@ 303
kohtalo@@ 303
kit@@ 303
uro@@ 303
maltill@@ 303
tör@@ 303
äänesty@@ 303
ahd@@ 303
ryhmitty@@ 303
sikäli 302
hankkeisiin 302
pyr@@ 302
perinpohja@@ 302
kunta 302
yri@@ 302
vira@@ 302
politiikkamme 302
kaupun@@ 302
kauhistu@@ 302
kiele@@ 302
valmistelukunta@@ 302
hor@@ 301
ryhmää 301
maksi 301
keksi@@ 301
sääd@@ 301
byrokraattis@@ 301
ksenne 301
neessa 301
pienen 301
venäläis@@ 301
väestö 301
sul@@ 301
Solana@@ 301
järjestettävä@@ 301
uskonto@@ 301
perheiden 301
Tanska 301
kohtaa@@ 301
ehkäisevä@@ 301
verkon 300
mantere@@ 300
ympäristö 300
kertomuksesta 300
luotetta@@ 300
liha@@ 300
suosit@@ 300
instituutio@@ 300
osoitettu 300
toisesta 300
leviämis@@ 300
loukkau@@ 300
esityksessä 300
Brok@@ 300
Pi@@ 300
Vietnam@@ 300
asetukseen 299
ympäri@@ 299
lik@@ 299
käytö@@ 299
päätöksiin 299
gra@@ 299
sur@@ 298
tulleet 298
COS 298
mihin@@ 298
yksikö@@ 298
kykene 298
tuksen@@ 298
etu 298
ttaviin 298
maapallo@@ 298
Kreikassa 298
vettä 298
lieventä@@ 298
Bulgaria@@ 298
sia@@ 298
tahojen 298
Israel 298
pidät@@ 298
rahas@@ 298
tuottaja@@ 298
tei 298
kieltä 298
Nigeria@@ 298
ssyt 297
ydestä 297
tuotteen 297
työllisyys 297
alakohta@@ 297
43 297
tukea@@ 297
gu@@ 297
totuus 297
alukset 297
tys 297
luvu@@ 297
kent@@ 297
länsima@@ 297
ekin 297
ajaksi 296
julkilausuma 296
huu@@ 296
esittelijö@@ 296
Keski@@ 296
markkinoista 296
armeijan 296
poliittis@@ 296
toimen@@ 296
NGL 296
ilmi@@ 296
rahanpesu@@ 296
Ecofin 296
menetelmien 296
hyväksyntä@@ 295
pyyntöä 295
uksemme 295
saavutettav@@ 295
standar@@ 295
h 295
rahoituksesta 295
Az@@ 295
nousu@@ 295
valiokuntien 295
saat@@ 295
tieteen 295
pul@@ 294
vali@@ 294
tettävä@@ 294
energian@@ 294
huolto@@ 294
mas@@ 294
York@@ 294
taistelu 294
organismi@@ 294
luku 293
re 293
reaktio@@ 293
vi 293
materiaali@@ 293
Euroopalla 293
ajaa 293
Maastricht@@ 293
laissa 293
06@@ 293
näkökohdista 293
liikenne 292
hankal@@ 292
tunnista@@ 292
asiantuntijoiden 292
kkuu@@ 292
yste@@ 292
ttämisestä 292
seikan 292
eduista 292
päätöksestä 291
suunnitelmaa 291
tuntu@@ 291
kompromisse@@ 291
aloitteiden 291
tutkittava 291
muodo@@ 291
kuunn@@ 291
puheen 291
tuksiin 291
eläimiä 291
ori 291
mala@@ 291
Irlanti 291
käs@@ 291
hallinn@@ 291
ryö@@ 291
kuningaskunta 291
näkymiä 291
ideologi@@ 291
digitaali@@ 291
tämät@@ 290
mmasta 290
1994 290
linja 290
mättö@@ 290
kykyä 290
päätöks@@ 290
tunnustus@@ 290
ryhmässä 290
piirissä 290
määritelmä 290
tähtäävä@@ 290
tointi@@ 290
markkinajärjestely@@ 290
saava@@ 290
ruu@@ 290
häir@@ 290
ranga@@ 290
väkivalta 290
sto@@ 290
ehdotuksissa 289
kollegaa@@ 289
ama 289
etä@@ 289
haj@@ 289
merkitsevä@@ 289
ilija@@ 289
vanhe@@ 289
mattomasti 289
ulkoministeri 289
ppi@@ 289
dy@@ 289
valtiosta 289
kuolle@@ 289
hil@@ 289
audiovisuaali@@ 289
Kongo@@ 289
äänesti 288
tunneli@@ 288
istaan 288
päivään 288
nykyaikaista@@ 288
politiikalle 288
kokemusta 288
välinettä 288
pank@@ 288
viittau@@ 288
itu 288
teeksi 288
tarjou@@ 288
kerää@@ 288
ema@@ 288
kulttuuri 288
ansaitseva@@ 288
pohj@@ 288
julistu@@ 288
toteamu@@ 288
turska@@ 288
työttömyyden 287
viisa@@ 287
kyv@@ 287
täneet 287
kertomusta 287
saama@@ 287
isuutensa 287
NATO@@ 287
riskit 287
vaino@@ 287
osaan 287
pis@@ 287
valtiossa 287
kieltoa 286
puut@@ 286
jö@@ 286
tömien 286
glob@@ 286
uste@@ 286
sanottava@@ 286
voide@@ 286
tusten 286
asenne 286
monenla@@ 286
ena@@ 286
toiveita 286
tekivät 286
neuvotella 286
väliaika@@ 286
lähetystö@@ 286
satamien 286
uksin 285
liikenteessä 285
impien 285
viittaa 285
yhteyksissä 285
rangais@@ 285
jurid@@ 285
pon@@ 285
teltu@@ 285
9. 285
puhemiehistö@@ 285
uut@@ 285
den@@ 284
uuksien 284
saaj@@ 284
mukaisten 284
yksen@@ 284
lukuja 284
huon@@ 284
sukupolvi@@ 284
menetelmän 284
keho@@ 284
ent@@ 283
lause@@ 283
kene@@ 283
nti 283
di 283
pöy@@ 283
isti 283
keä@@ 283
Man@@ 283
att@@ 282
kannassa 282
ennaltaehkäisy@@ 282
not 282
komitologia@@ 282
luovut@@ 282
vankila@@ 282
suorite@@ 282
ttämiseksi 282
yhteyd@@ 282
ida@@ 282
amu@@ 282
udesta 282
ulkomaalais@@ 282
turkkilais@@ 282
Her@@ 282
edeltävä@@ 281
määrien 281
alueista 281
pahi@@ 281
llista@@ 281
tapaukset 281
julistuksen 281
tehtävistä 281
tyvä 281
halut@@ 281
kokoonpano@@ 281
halusi 281
kanso@@ 281
sido@@ 281
valtioista 281
tarkoitukseen 281
direktiiv@@ 281
&amp; 281
tarpeeseen 281
hien@@ 281
kirjeen 280
esittelemä@@ 280
julki 280
tieteellinen 280
lausunto 280
järjestykseen 280
asi@@ 280
tömänä 280
äänestykseen 280
omista 280
stö@@ 280
nuo 280
yttä@@ 280
&#91; 280
&#93; 280
mukautu@@ 280
arvio 280
enia@@ 280
ry@@ 279
eista 279
prosessista 279
teknistä 279
taholta 279
suotuisa@@ 279
kannatu@@ 279
vuodelta 279
oikeudenkäynti@@ 279
Ro@@ 279
vetoomu@@ 279
teknisesti 279
saastumis@@ 279
lisäävä@@ 279
ila@@ 279
IC@@ 279
Solana 279
pääsihteeri@@ 279
65 279
metsäpalo@@ 279
dä 278
huoli 278
voimassaolo@@ 278
monina@@ 278
vauhtia 278
sisällö@@ 278
joukon 278
Saksa 278
matkustaja@@ 278
vuotu@@ 278
kattava 278
aineet 278
sivi@@ 278
tuva 278
tapojen 278
puolueet 278
eille 278
uhra@@ 278
syksy@@ 278
teknisten 278
kuorma 278
president@@ 277
sopimuksella 277
tutkimusten 277
yhdys@@ 277
voimat 277
isuutta@@ 277
suva@@ 277
sukla@@ 277
paikalle 277
tömästi 277
jokapäivä@@ 277
murha@@ 277
tiedote@@ 276
väitte@@ 276
horjutta@@ 276
tekijöiden 276
bel@@ 276
perustee@@ 276
elämässä 276
verkoston 276
öljyn 276
vaati 276
raportin 276
hylätä 276
rat@@ 276
uha@@ 276
Bon@@ 276
ong@@ 276
misella 275
riskien 275
jänn@@ 275
kävi@@ 275
des 275
hintoja 275
oikeudell@@ 275
liikkumavara@@ 275
välis@@ 275
seuraamuksia 275
näkökulma@@ 275
rekisterö@@ 275
siep@@ 275
Verts 275
alasta 275
valitta@@ 274
mättömän 274
valit@@ 274
teltava@@ 274
ati@@ 274
välinpitämät@@ 274
attu@@ 274
matk@@ 274
kans@@ 274
terveys 274
bia@@ 274
rikoll@@ 273
kiite@@ 273
lämp@@ 273
suunnite@@ 273
lähen@@ 273
säästö@@ 273
sääntöihin 273
ittäjä@@ 273
tuomioistuin@@ 273
IT 273
radikaali@@ 273
valittu 273
onnettomuus 273
tien@@ 273
pannut 273
radioaktiivis@@ 273
arvoinen 273
onnistu 273
avautu@@ 273
kirje@@ 273
istuntojakso@@ 272
johtama@@ 272
johti 272
isyys@@ 272
liikkuvuus 272
ulottuvuutta 272
näkemys@@ 272
tyydyttävä 272
ehd@@ 272
sosiaalis@@ 272
taloudelle 272
tukeen 272
kollegojeni 272
ehdotta@@ 272
kehitysapu@@ 272
San@@ 272
mainitun 272
juutalais@@ 272
miehen 272
paketti 272
biopolttoaine@@ 272
pyynnöstä 271
Se@@ 271
avata 271
ini 271
hallinnointi@@ 271
etun 271
lang@@ 271
sopiva 271
puhuttu 271
Engla@@ 271
laa@@ 271
aloitteet 271
uhreille 271
samankalta@@ 271
haa 271
valtuuskunta@@ 271
radio@@ 271
hylkäsi 270
immassa 270
jne 270
ollessa 270
ukseksi 270
tellessa@@ 270
voittaa 270
myys@@ 270
kannattama@@ 270
britti@@ 270
standardeja 270
osuutta 270
älkää 270
rakenne 270
virastojen 270
tuhannet 270
46 270
ori@@ 270
lehdis@@ 269
paneutu@@ 269
moottori@@ 269
isena@@ 269
rans@@ 269
co@@ 269
jälkimmä@@ 269
rajoitukset 269
hoide@@ 269
varti@@ 269
voimakas 269
tarkastuksia 269
haki@@ 269
merki@@ 269
vapauksia 269
sitoumusten 269
positiivi@@ 269
syventä@@ 269
jännitte@@ 269
diktatuuri@@ 269
ALE 269
määristä 269
51 269
menot 269
tapausten 268
kieltäy@@ 268
puolta@@ 268
yhtenäistä 268
työttömyys 268
rakenteen 268
käsitteen 268
huomautuksen@@ 268
saaste@@ 268
lähde@@ 268
kannus@@ 268
lupaa 268
yrityksistä 268
tyillä 268
isla@@ 268
päätettävä 268
Ka@@ 268
tiedosta@@ 268
ydinvoima@@ 268
kysymykseen@@ 268
Tiibet@@ 268
oihin 268
kutsuttu@@ 268
turvapa@@ 268
ääni@@ 268
Agenda 268
ksy@@ 267
köyhyys 267
ttömiä 267
jaks@@ 267
makro@@ 267
llisuudesta 267
varmuus 267
rahan 267
anne 267
asiantunti@@ 267
viipy@@ 267
mielivalta@@ 267
luki@@ 267
tulojen 267
työsken@@ 267
ettaisi@@ 267
minuutti@@ 266
luul@@ 266
rahoja 266
do 266
työttö@@ 266
kohtien 266
mor@@ 266
käsityksen 266
sääntö 266
kuluttajia 266
yhtiöt 266
dut 266
yrityksiin 266
kappal@@ 266
valtioihin 266
perheen 266
kalastajien 266
maani 265
muuhun 265
kauttakulku@@ 265
koros@@ 265
ehtojen 265
hajau@@ 265
poikkeus 265
poltto@@ 265
petosten 265
täen 265
kais@@ 265
valiokuntaan 265
kriis@@ 265
mik@@ 265
päätelmissä 265
toimia@@ 265
:h@@ 265
loog@@ 264
istettiin 264
infrastruk@@ 264
oloja 264
ment@@ 264
tietyn@@ 264
mielipiteitä 264
mielessä@@ 264
kurj@@ 264
atiiv@@ 264
valtuut@@ 264
kaap@@ 264
kritisoi@@ 264
kielteise@@ 264
Gra@@ 264
ij@@ 264
kehitysmaa@@ 264
julm@@ 264
ohjaus@@ 263
ttaisi@@ 263
eltaessa 263
päätelmien 263
sovittu@@ 263
into@@ 263
sivuu@@ 263
ketj@@ 263
tull@@ 263
ttaja@@ 263
lausuma@@ 263
velvoitteita 263
isto 263
edis@@ 263
aat@@ 263
koski@@ 262
kyt@@ 262
kertoo 262
käsiteltävi@@ 262
eissa 262
viite@@ 262
vät@@ 262
kustannus@@ 262
tuttava 262
keinoteko@@ 262
kahdella 262
yleissopimus 262
toimiva@@ 262
tiukenta@@ 262
luotettava@@ 262
huomautuksia 262
ksissä 262
loukkaa@@ 262
tuottava@@ 262
terroris@@ 262
mielipiteen 261
organisoi@@ 261
tietty 261
markkino@@ 261
eroava@@ 261
määrästä 261
enne 261
merkitse 261
mielipite@@ 261
tarkkailija@@ 261
rasismi@@ 261
opis@@ 261
tuleva 260
asiakirjaa 260
ittämä@@ 260
vahinkoja 260
viivyt@@ 260
kiistat@@ 260
Fischler@@ 260
lainsäädännöstä 260
Val@@ 260
este@@ 260
pes@@ 260
ilmiö@@ 260
Madrid@@ 260
vahvisti 260
aatio@@ 260
saali@@ 260
pantu 259
alueesta 259
bruttokansan@@ 259
ilmaisema@@ 259
tehokkuus 259
euro 259
useampi@@ 259
tapauksesta 259
päätöksistä 259
takeita 259
hoitoa 259
tuu@@ 259
pyy@@ 259
harta@@ 259
isuudessa@@ 259
vakiinnutta@@ 259
väliintulo@@ 259
päiv@@ 259
kuilu@@ 259
operaatio@@ 259
vaatimuksista 258
vääristä@@ 258
raportoi@@ 258
aikom@@ 258
maksut 258
ttamaan 258
varau@@ 258
tapana 258
jälkeen@@ 258
tervetulleeksi 258
67 258
saan@@ 258
Liettua@@ 258
lenn@@ 258
USA@@ 258
lausuntoja 257
vanhentu@@ 257
oin@@ 257
netty 257
mietinnöistä 257
vyyden 257
ji@@ 257
our@@ 257
Fran@@ 257
valvonnassa 257
merkki@@ 257
ikke@@ 257
llo@@ 257
olem@@ 257
tulk@@ 256
selvityksen 256
odotetta@@ 256
tuomioistuimessa 256
tr@@ 256
häviä@@ 256
jaa@@ 256
ilmaisi 256
samasta 256
toteut@@ 256
hiilidioksidi@@ 256
satelli@@ 256
Slovakia@@ 256
jälleenrakennus@@ 256
utta@@ 256
rikollisuutta 256
Maailman@@ 256
käsitettä 256
opetus@@ 256
Tsetsenia@@ 256
yksiköt 255
isuuksien 255
tuella 255
pana 255
korruptio@@ 255
tos@@ 255
istö@@ 255
uraani@@ 255
suosituksen 255
työtä@@ 255
rauhall@@ 255
hdy@@ 255
ilmaisu@@ 255
hyödyntämä@@ 255
vaatimuksen 255
tystä 254
isemman 254
toreita 254
tomien 254
71 254
og@@ 254
vos@@ 254
moniarvois@@ 254
strategiasta 253
suju@@ 253
saavutettu@@ 253
kkaiden 253
toja@@ 253
arvonlisävero@@ 253
laivan@@ 253
rannikon 253
moottor@@ 253
elintarvikkeita 253
ivä@@ 253
edustusto@@ 253
päätöslauselmia 253
ohjelmisto@@ 253
kaupa@@ 253
tuon@@ 253
Tunisia@@ 253
kuukausi 252
ituksia 252
Barón 252
esittävä@@ 252
tilanteita 252
kaltainen 252
osoituksen@@ 252
säil@@ 252
eriarvois@@ 252
ttyä 252
asiakirjoihin 252
muutto@@ 252
ttomat 252
omu@@ 252
ntä 252
pelkkä@@ 252
alistis@@ 252
siirtämis@@ 252
tieteellisen 252
ydinase@@ 252
kohtaisen 252
puolta 252
toimisto@@ 252
elämä 252
Libanon@@ 252
E 252
osuuden 252
kiris@@ 252
hankin@@ 252
maailmaan 251
ttomien 251
huomautus@@ 251
nolla 251
osissa 251
lupa 251
yrite@@ 251
rikoksia 251
kasvava@@ 251
elimiin 251
ra 251
Inter@@ 251
menetelmää 251
77 251
maahanmuuttaja@@ 251
globalisaatio@@ 251
kemiall@@ 251
näkymät 251
eg@@ 250
outu@@ 250
juna@@ 250
tee@@ 250
valtuuksien 250
taid@@ 250
taito@@ 250
etty@@ 250
työssä@@ 250
tehtäisi@@ 250
hankinta@@ 250
kiinnittämä@@ 250
mpa@@ 250
paa@@ 250
viis@@ 250
neesta 250
Syyria@@ 250
luovu@@ 250
lija@@ 250
täysistunto@@ 250
rke@@ 250
20. 250
ga@@ 250
and@@ 249
ittävä 249
aan@@ 249
toteutettu@@ 249
tiedossa 249
isty@@ 249
hall@@ 249
tyne@@ 249
tehtävään 249
tili@@ 249
reiden 249
elimille 249
hämmen@@ 249
47 249
Tur@@ 249
viikko 249
p 249
tekniset 249
käytäntöjen 249
arvioi 249
Irak 249
fe@@ 248
ellään 248
ttanut 248
määrärahoista 248
politiikat 248
selventää 248
tarjon@@ 248
huoman@@ 248
mukauttamis@@ 248
keskus 248
yn@@ 248
työryhmä 248
mailla 248
rajoissa 248
alisoi@@ 248
ör@@ 248
hetken 248
rokot@@ 248
kohtelua 248
siiv@@ 247
yrityksissä 247
hyök@@ 247
televiestintä@@ 247
kollegoja 247
loma@@ 247
ammat@@ 247
tuntia 247
uun 247
köyhdyt@@ 247
lahjo@@ 247
vallasta 247
tulta@@ 247
aali 247
osapuolen 247
kirjanpito@@ 247
oikeutu@@ 247
selkeyttä@@ 247
Prestige@@ 247
surma@@ 246
Palacio 246
onom@@ 246
vaiheeseen 246
herra@@ 246
sietämät@@ 246
isyydessä 246
57 246
murhenäy@@ 246
musta@@ 246
dä@@ 246
jouko@@ 246
asio@@ 246
hoitama@@ 246
una@@ 246
ukse@@ 246
ydy@@ 246
paluu@@ 246
koordinaatio@@ 246
osoittautu@@ 246
Cancún@@ 246
ottu 245
jako 245
katsa@@ 245
näkökul@@ 245
iha@@ 245
istuim@@ 245
sähkön 245
resurssien 245
tyvät 245
eb@@ 245
tyr@@ 245
pankki 245
liikkeen 245
Liika@@ 245
levi@@ 245
kohdissa 245
louka@@ 245
aloitteeseen 245
muun@@ 245
palo@@ 244
öi@@ 244
koi@@ 244
kiinnostava@@ 244
ydin 244
kuvi@@ 244
lista 244
laajamittais@@ 244
mes@@ 244
pysyvä 244
pinta@@ 244
luonnos 244
31. 244
linjaa 244
vyöhy@@ 244
taido@@ 244
perusoikeuskirja 244
kyy@@ 244
vilta 243
arvoisen 243
koulutta@@ 243
jos@@ 243
jaettu 243
88 243
suojeltava 243
heikkene@@ 243
tarkistettava 243
vetäyty@@ 243
tavoittele@@ 243
ark@@ 243
iluala@@ 243
pahenta@@ 243
tehtyä 243
suuru@@ 243
tekniikkaa 243
ruotsalais@@ 243
kuolemantuomio@@ 243
Bö@@ 243
väkivalla@@ 243
muisto@@ 242
edu@@ 242
tömyyden 242
normit 242
tarkkaava@@ 242
aloille 242
voimavara@@ 242
tehd@@ 242
tapauksista 242
è@@ 242
nainen 242
kumpi@@ 242
käynnisty@@ 242
vihamiel@@ 242
joukkoja 242
näkökohtiin 242
hee@@ 242
valinta 242
kokeilu@@ 242
kriisistä 242
tasavallassa 242
15. 241
viiv@@ 241
sosiaal@@ 241
ihm@@ 241
tymään 241
onnan 241
politiikalla 241
Taiwan@@ 241
istettu@@ 241
ytynyt 241
järjesty@@ 241
sisäistä 241
merkintö@@ 241
tävät 241
hinnan 241
tomuudesta 241
ros@@ 241
Belgia 241
Ru@@ 241
ylis@@ 241
sekaannu@@ 241
vähe@@ 241
tapo@@ 241
kurdi@@ 241
liittou@@ 241
sekoitta@@ 240
ilmasto@@ 240
hylkäämis@@ 240
aikuis@@ 240
työt@@ 240
korosti@@ 240
teen@@ 240
kirjoit@@ 240
suhteisiin 240
teollisuudelle 240
ennak@@ 240
lta@@ 240
strategia@@ 240
elokuva@@ 240
paan 240
kaupankäynti@@ 240
400 240
aluksia 240
stan@@ 240
kaun@@ 240
x 240
03 240
ittäis@@ 240
rahoitukseen 240
moi@@ 240
maito@@ 240
í@@ 239
haluava@@ 239
tään@@ 239
suunnitelmat 239
suunnat@@ 239
rinnalla 239
rakentama@@ 239
periaatteista 239
täyttävä@@ 239
toimittama@@ 239
pyynnö@@ 239
Mor@@ 239
korjat@@ 239
ihimme 239
of 239
kohtaama@@ 239
yksikkö@@ 239
elu@@ 239
integroitu@@ 239
kemikaali@@ 239
huumeiden 239
kse@@ 238
vuodelle 238
pahen@@ 238
syrjäyty@@ 238
isa 238
tömyys 238
jättämä@@ 238
vaivaa 238
kilpailuun 238
tuote 238
kansallisvaltio@@ 238
ratkais@@ 238
oikeutettu 238
Wi@@ 238
kehystä 238
Ol@@ 238
ine@@ 238
Sveitsi@@ 238
ela@@ 238
tekisi@@ 238
vaj@@ 238
järkyttävä@@ 238
investoinnit 238
täynn@@ 238
terveydenhoito@@ 238
hyökkä@@ 238
vankil@@ 238
abor@@ 238
yksiköiden 237
tömyy@@ 237
pak@@ 237
viljelijöitä 237
kumm@@ 237
voima 237
huomioita 237
linja@@ 237
voimakas@@ 237
tuhansien 237
yhdeksän 237
toisten 237
empia 237
voimalo@@ 237
lausunn@@ 237
juhla@@ 237
miltä 237
demokra@@ 237
kasvien 237
kalastajat 237
vaik@@ 237
eloku@@ 237
alijäämä@@ 237
eläkkeiden 237
Guinea@@ 237
De 236
kunnioita@@ 236
kiinteä@@ 236
titte 236
resurssit 236
myydestä 236
2007 236
v 236
tiivistä@@ 236
allekirjo@@ 236
järjestelmiin 236
harjoittava@@ 236
tarkoituksessa 236
nouda@@ 236
huomautus 236
tulevaisuuden@@ 236
ratkaistu 236
pöyd@@ 236
toimen 236
tarmo@@ 236
lleet 236
eroa 236
viisaa@@ 236
jät@@ 236
taite@@ 236
pidättä@@ 235
ää 235
elvyttämis@@ 235
isimpien 235
suositus@@ 235
K 235
vakaa 235
sanktio@@ 235
takeet 235
alueelta 235
ehdy@@ 235
yksikön 235
loppu 235
pia 235
istettu 235
haku@@ 235
elemen@@ 235
vahvistettu@@ 235
kidu@@ 235
into 234
taku@@ 234
1993 234
oika@@ 234
parannus@@ 234
kriteerejä 234
paikat 234
epämääräis@@ 234
yleissopimus@@ 234
vahvis@@ 234
52 234
laitokset 234
vanha 234
iä@@ 234
panos 234
be@@ 234
uksista@@ 234
der 234
ilahduttava@@ 234
vastustu@@ 234
taakse 234
YK 234
mmilla 233
tähtää@@ 233
lähentä@@ 233
Bra@@ 233
vuudesta 233
yhteenveto@@ 233
välisissä 233
12@@ 233
irtisanomis@@ 233
kokemuksia 233
foorumi 233
hintaan 233
vastaisessa 233
käyttäyty@@ 233
ratifiointi@@ 233
tuntema@@ 233
kenen@@ 233
markkinointi@@ 233
seikoista 232
havainn@@ 232
dun 232
vani 232
toimille 232
arvion 232
määritelty@@ 232
sopeu@@ 232
puhu 232
interventio@@ 232
äl@@ 232
esääntö@@ 232
aloihin 232
liev@@ 232
tynee@@ 232
kohtelu 232
aloitettava 232
21. 232
arvoisia 232
bana@@ 232
syiden 232
jel@@ 232
tilojen 232
vaaleihin 232
Burma@@ 232
mätöntä 232
valmiit 231
kuljettajien 231
ysten 231
seikkojen 231
bour@@ 231
voimavarojen 231
luetteloa 231
ennus@@ 231
neisiin 231
kulj@@ 231
mielipidettä 231
pyrkimykset 231
työohjelma@@ 231
saavutu@@ 231
BSE@@ 231
hui@@ 231
perhe 231
pakolaisia 231
attava 231
oppimis@@ 231
58 231
NI 231
Kaliningrad@@ 231
roh@@ 230
emä@@ 230
päivästä 230
huonon@@ 230
havaittav@@ 230
ehdotuksemme 230
Barnier 230
täyty@@ 230
are@@ 230
yksessä 230
sio@@ 230
So@@ 230
taistele@@ 230
Ra@@ 230
identite@@ 230
# 230
x017E 230
tuotteista 230
iskujen 230
etel@@ 229
ikävä@@ 229
suurenmo@@ 229
palveluihin 229
ellinen 229
käytetty@@ 229
ttamiseksi 229
vaalipiiri@@ 229
tuille 229
järjestelyt 229
tavalla@@ 229
kulttuuria 229
tömäksi 229
lähde 229
ruuh@@ 229
käynti 229
lukuisa@@ 229
olettaa 229
tala@@ 229
Ku@@ 229
aliarvioi@@ 229
teuras@@ 229
kidut@@ 229
tupakoi@@ 229
kieliä 229
alenn@@ 229
yksin@@ 228
poikkea@@ 228
vatpa 228
ntä@@ 228
aar@@ 228
valmisteleva@@ 228
85 228
kein@@ 228
tekijö@@ 228
brittiläis@@ 228
prioriteetti@@ 228
etenee 228
aati@@ 228
kollegoille@@ 228
tieteell@@ 228
ner@@ 228
valuu@@ 228
pätevä@@ 228
piiri@@ 228
rasisti@@ 228
nau@@ 228
sanamuoto@@ 228
vähenn@@ 228
jauho@@ 228
æ@@ 228
Pu@@ 227
tiivistä 227
mahdollisuudesta 227
moittee@@ 227
kl@@ 227
ehkäis@@ 227
ihmettele@@ 227
kreikkalais@@ 227
pidentä@@ 227
unta@@ 227
toa@@ 227
ttama@@ 227
puolelle 227
valitsema@@ 227
terroriste@@ 227
suvaitseva@@ 227
suojeluun 227
tyytymät@@ 226
kollegojen 226
opetuksen 226
alaisia 226
yksilöll@@ 226
tuminen 226
kuluttajan 226
margin@@ 226
maatt@@ 226
äär@@ 226
laiva@@ 226
tod@@ 226
heikenty@@ 226
ito 226
jäljitet@@ 226
ostaa 226
yksissä 226
päällekkäis@@ 226
Fer@@ 226
tamis@@ 226
asuin@@ 226
lev@@ 226
Bolkestein 226
määritelmää 226
sairastu@@ 226
lehdessä 225
19. 225
pysä@@ 225
vallit@@ 225
osaa@@ 225
kollegoita@@ 225
asiaan@@ 225
aikataulu 225
mahd@@ 225
raa@@ 225
täsmentä@@ 225
luetteloon 225
masta@@ 225
haitta@@ 225
neeksi 225
rikkomis@@ 225
historia 225
uska@@ 225
sihteeristö@@ 225
tue 225
Lontoo@@ 224
harmi@@ 224
tuotantoon 224
parane@@ 224
tavoite@@ 224
nnille 224
asenn@@ 224
miehistö@@ 224
poliitikkojen 224
kulun 224
sähköposti@@ 224
tetä 224
tarvitsisi 224
nny@@ 224
sanoista 224
56 224
13. 223
ump@@ 223
vakiintu@@ 223
epäröi@@ 223
tuomioistuimeen 223
iki@@ 223
ltä@@ 223
oikeudelliset 223
jän 223
sop@@ 223
Eurojust@@ 223
rinna@@ 223
tuhoutu@@ 223
pila@@ 223
uud@@ 223
tuotannosta 223
yll@@ 223
aseet 223
järjestyksessä 223
hau@@ 223
päässä 223
kohte@@ 223
tahto 223
näyttö@@ 223
go@@ 223
esteiden 223
teidät 223
liikenteestä 222
epäilevä@@ 222
ykset 222
vyyttä 222
tuuri 222
ilmoitus@@ 222
kalais@@ 222
liittymä@@ 222
purkamis@@ 222
logi@@ 222
tieteellisesti 222
näkemä@@ 222
toimiston 222
oikeusasiamies 222
hakijoiden 222
ECHO@@ 222
riisu@@ 222
luonne 222
menetelmät 222
rauhanturva@@ 222
53 222
lue@@ 222
ehkäistä 222
tapahdu@@ 222
omaksuma@@ 222
Har@@ 222
ohjelmista 221
suhta@@ 221
säännöstöä 221
katsottu@@ 221
paljo@@ 221
86 221
mita@@ 221
kurin@@ 221
ep@@ 221
Kanada@@ 221
palkinnon 221
mieltä@@ 221
kollegoja@@ 221
keutu@@ 221
paljastu@@ 221
tulvi@@ 221
yä 221
rakennu@@ 221
pyrkimys 221
kr@@ 221
alkoi 221
Washington@@ 221
Is@@ 221
malle 221
räike@@ 221
seko@@ 221
yksistä@@ 221
amb@@ 221
tautien 221
ba 221
perheen@@ 221
Galileo 221
Georgia@@ 221
kunnissa 220
uutta@@ 220
noste@@ 220
mieleen 220
69 220
ohjaa@@ 220
mennä@@ 220
mmalle 220
toiminna@@ 220
kosk@@ 220
hallitus@@ 220
kamppa@@ 220
tekosyy@@ 220
tarkistuksilla 220
itseva 220
asiain 220
valittu@@ 220
isiin@@ 220
fi@@ 220
DA 220
määrät 219
2000@@ 219
keinona 219
kannalla 219
kokemus 219
oikeud@@ 219
järjestely 219
tuhoisa@@ 219
st@@ 219
valiko@@ 219
30. 219
ohjelmissa 219
kauni@@ 219
mättömiä 219
kilometri@@ 219
keskiviikko@@ 219
toimintasuunnitelma 219
vaikke@@ 219
teis@@ 219
katse@@ 219
kielen 219
esiin@@ 219
lääkke@@ 219
tarjottava 219
gene@@ 219
satamissa 218
käytäntö@@ 218
päätelmiä 218
uo@@ 218
selvitettävä 218
tyksi 218
laje@@ 218
solidaarisuus@@ 218
häly@@ 218
puheaika@@ 218
energi@@ 218
täh@@ 218
mistään 218
mekanismeja 218
kuntaa 218
käsittee@@ 218
jako@@ 218
geeni@@ 218
vastaiseen 218
79 218
ikenne 218
kuunnella 217
linjo@@ 217
tekemä 217
vaihtele@@ 217
muis@@ 217
kehityksessä 217
paikalla@@ 217
veroja 217
ajatteli@@ 217
itetta@@ 217
noissa 217
ajautu@@ 217
pos@@ 217
tulot 217
havaitse@@ 217
vakautta@@ 217
entistä@@ 217
paikkaansa 217
kritiikkiä 217
yllättävä@@ 217
valku@@ 217
köyhä@@ 216
alle@@ 216
rakennetta 216
valppa@@ 216
inä@@ 216
teko 216
takaisin@@ 216
yleismaailmall@@ 216
sään@@ 216
ittämis@@ 216
rikoksista 216
kuk@@ 216
yhteisöön 216
vahingot 216
meja 216
käytetä 216
aikataulua 216
vaihtoehdo@@ 216
vastaanotto@@ 216
bo@@ 216
mietinnöt 216
Vi@@ 216
demokratis@@ 216
karko@@ 215
mietintöjä 215
elinkeino@@ 215
julkista@@ 215
vilpi@@ 215
säänn@@ 215
tömät 215
Vitorino 215
qu@@ 215
akti@@ 215
varus@@ 215
76 215
tenne 215
bar@@ 215
sopusoinnu@@ 215
määräyksen 215
taipu@@ 215
johdonmukaista 215
yllät@@ 215
valuutan 215
pik@@ 215
vies@@ 215
Irlan@@ 215
muodot 215
päästöt 215
tasavalta 215
katastrof@@ 214
ksiä@@ 214
harjoittamis@@ 214
laitoksia 214
nähtä@@ 214
maatalous 214
romahta@@ 214
kokemukset 214
rajoittava@@ 214
suverenite@@ 214
huolen 214
Baskimaa@@ 214
vaihdon 214
hah@@ 214
sadan 214
up@@ 214
log@@ 214
Ja@@ 214
täytä 214
ron 214
juoma@@ 214
riske@@ 214
oikeuksia@@ 214
jaan 214
tavaa 214
rangaistus 214
kotima@@ 214
kumppane@@ 214
yhdenvertais@@ 214
huolestuttava 214
integraatio@@ 214
ikko@@ 214
mukaute@@ 214
loi@@ 214
neuvottele@@ 214
tarkkailu@@ 214
palkki@@ 214
Poettering 213
neistä 213
onnettomuuksia 213
taakseni 213
houkut@@ 213
ilmentä@@ 213
suunnitelma@@ 213
laadusta 213
käytäntöä 213
selviä@@ 213
juur@@ 213
foorumin 213
Vitorino@@ 213
Ca@@ 213
suorittama@@ 213
ympäri 213
toivat 213
suljettu@@ 213
lääkäri@@ 213
68 213
yhteydet 213
vankien 213
selle 213
identiteetti@@ 213
edellyty@@ 213
kaltaisen 213
tartun@@ 213
Da@@ 213
inter@@ 213
äänestyssel@@ 212
tulla@@ 212
illä@@ 212
eko 212
sie@@ 212
syvällis@@ 212
osavaltio@@ 212
johdu 212
87 212
tumisen 212
pyytämä@@ 212
vaihteleva@@ 212
joilta 212
ranniko@@ 212
ehkäisemis@@ 212
vastusta 212
kyselytun@@ 212
viedä@@ 212
ida 212
Arafat@@ 212
puhemies@@ 212
itsema@@ 212
aktiivinen 212
tutkimuksessa 212
eläkerahasto@@ 212
ing 212
sorkkatauti@@ 212
b 211
ttömät 211
suuntaa 211
66 211
edellytysten 211
taakse@@ 211
tiete@@ 211
Erika@@ 211
vuotia@@ 211
län@@ 211
äis@@ 211
julkaise@@ 211
säteily@@ 211
ation 211
uskottava@@ 211
täm@@ 211
neuvot@@ 211
hinno@@ 211
Schmid@@ 211
eläimet 211
kalastuslaivasto@@ 211
ennetty 211
Nor@@ 210
kuljetuksia 210
luomis@@ 210
väestöä 210
uudelleenjärjestely@@ 210
stanne 210
uor@@ 210
sut 210
tan 210
tans@@ 210
tuomioistuinten 210
uteen 210
epäselvä@@ 210
kysymy@@ 210
rekisteröi@@ 210
hallinnan 210
symboli@@ 210
sitte 210
äänestäjä@@ 210
sill@@ 210
harjoittajien 210
jilta 210
ren@@ 210
kulkeva@@ 210
63 210
luotto@@ 210
legitiimi@@ 210
veren 210
rasit@@ 209
puoliväli@@ 209
painoarvo@@ 209
pani@@ 209
suojelema@@ 209
suora 209
tukahdu@@ 209
välisistä 209
asiantuntijat 209
odotuksia 209
suunnittele@@ 209
lääkä@@ 209
vastuuntunto@@ 209
luokit@@ 209
alueella@@ 209
asen@@ 209
YUTP@@ 209
alistu@@ 209
In@@ 209
periaatteisiin 209
todistus@@ 209
pyh@@ 209
tuottajat 209
telema@@ 209
afrikkalais@@ 209
kuluttaja 209
tutkin@@ 208
velvoite@@ 208
aloittamis@@ 208
ttavista 208
liikenteeseen 208
kokemusten 208
nöyr@@ 208
miehille 208
edustama@@ 208
alulle 208
palveluista 208
sitova 208
pakettia 208
korkeataso@@ 208
tkö 208
llisiksi 208
uvosto 208
voiman@@ 208
ulkomaan@@ 208
kannattaja@@ 208
isuudes@@ 208
vän@@ 208
esitteli 208
verkko@@ 208
tere@@ 208
aikaista 208
ytys@@ 208
kotou@@ 208
alaista 207
määräaika 207
tarkastajien 207
aiempi@@ 207
edustava@@ 207
avu@@ 207
tilan 207
vetoomuksen 207
llisina 207
vene@@ 207
ehdoista 207
yhtiön 207
toiminnalle 207
summ@@ 207
llisistä 207
luon@@ 207
osoitettu@@ 207
täyte@@ 207
toteutettava@@ 207
ylpeä 207
leilla 207
julistuksessa 207
09 207
muslimi@@ 207
trage@@ 207
yhtiö 207
liittolais@@ 207
kris@@ 207
EIP@@ 207
asbesti@@ 207
kiintiöiden 206
rikkaiden 206
määrit@@ 206
Kre@@ 206
oikeansuunta@@ 206
tuneet 206
itojen 206
mahdollisuuksista 206
avun@@ 206
metsien 206
ssäni 206
optimisti@@ 206
hävittämis@@ 206
mmekö 206
Neuvosto@@ 206
satoja 206
pakkaus@@ 206
yhteensopi@@ 206
Bosnia@@ 206
käde@@ 206
Kiina 206
sodasta 206
Bush 206
Tš@@ 206
rau@@ 205
itses@@ 205
kumppanuus 205
viikkojen 205
jalostus@@ 205
ussa 205
kauaskanto@@ 205
epäjohdonmukais@@ 205
rankaise@@ 205
tulo 205
le 205
nimen@@ 205
määrittelemä@@ 205
tumista 205
itään 205
ilmas@@ 205
sysä@@ 205
kesto@@ 205
tav@@ 205
54 205
eroa@@ 205
ankar@@ 205
Qu@@ 205
turvaa 205
demokrati@@ 205
solu@@ 205
valtiovarain@@ 205
kkaampaa 205
muiden@@ 205
täytty@@ 205
lauseke 205
kuolemaan 204
puutteen 204
89 204
vapaakauppa 204
viittaus 204
reita 204
varusta@@ 204
materiaal@@ 204
Dublin@@ 204
kriisiin 204
luvan@@ 204
täsmen@@ 204
piakko@@ 204
vii@@ 204
konflikti 204
Ab@@ 204
Eurostat@@ 204
Grön@@ 204
llisestä 203
ilijoiden 203
tutkija@@ 203
pää 203
matal@@ 203
super@@ 203
standardit 203
To@@ 203
pelas@@ 203
tarvittava 203
tyydy@@ 203
Pohjois@@ 203
resurs@@ 203
lähteitä 203
ennuste@@ 203
sovi 203
tavoitteesta 203
elintärkeä@@ 203
tuotteisiin 203
köön 203
puolueita 203
ksesta@@ 203
tuotteille 203
for@@ 203
levottomuu@@ 203
tautia 203
ley@@ 203
Lamy 203
Watson@@ 203
Mugabe@@ 203
tuilla 202
kehittyvä@@ 202
pea@@ 202
imi@@ 202
laitos 202
standardien 202
ajatuksen@@ 202
varainhoidon 202
kumppanuutta 202
yhmä@@ 202
heh@@ 202
sad@@ 202
ryhmiin 202
kärsiväll@@ 202
väärä 202
tarkoitusta 202
olo 202
ksessä@@ 202
22@@ 202
ttavan 202
Genova@@ 202
tiikka@@ 202
tieli@@ 202
viettä@@ 201
peru@@ 201
itto@@ 201
kipeä@@ 201
kkäästi 201
laadittu@@ 201
kärj@@ 201
nopea 201
yyn 201
takaan 201
arvel@@ 201
IM@@ 201
tarkastaja@@ 201
etä 201
lähes@@ 201
valtaan 201
98 201
mistä@@ 201
aleja 201
vallankumoukse@@ 201
epätasapaino@@ 201
heikko 201
ratkaisujen 201
rintama@@ 201
pakot@@ 201
eta 201
diktaat@@ 201
hankkeeseen 201
Su@@ 201
nnasta 201
korko@@ 201
mmalla 200
aiheutti 200
kkaaseen 200
muutoksiin 200
puhuja 200
edelle 200
kielletty@@ 200
tettua 200
yksilön 200
täytettävä 200
kapasite@@ 200
2,@@ 200
purj@@ 200
yt 200
hämmä@@ 200
uduttava 200
minkään 200
ammu@@ 200
kaud@@ 200
mietinnölle 200
strategiassa 200
kuntia 200
reagoida 200
selki@@ 200
sääs@@ 200
strategiaan 200
pikku@@ 200
Re@@ 200
maahanmuutto 200
sairauksien 200
kongressi@@ 200
alia@@ 200
perustavan@@ 200
luonteen 199
keinojen 199
verkkoja 199
suosituksi@@ 199
käsityksen@@ 199
riskin 199
muutoksista 199
poliitikot 199
karkot@@ 199
sukupol@@ 199
parantava@@ 199
dikta@@ 199
pinta 199
käyttäytymis@@ 199
plan@@ 199
palkkio@@ 199
uskonnon@@ 199
Suomen 198
päätöksellä 198
panee 198
tyyp@@ 198
suunnattu@@ 198
tehokkuu@@ 198
kunnioittava@@ 198
lö@@ 198
inte@@ 198
ymmärsi@@ 198
virkamiehet 198
17.@@ 198
lienee 198
yttämis@@ 198
proje@@ 198
kaudesta 198
yksikkö 198
autonom@@ 198
äid@@ 198
ittama@@ 198
antamasta 198
teita 198
veto@@ 198
jarru@@ 198
ene 198
hinnoittelu@@ 198
yhtenäistä@@ 198
puhta@@ 198
toive@@ 198
savu@@ 198
Palacio@@ 197
uudistuksesta 197
rakenteet 197
luonne@@ 197
ajoista 197
tarkkoja 197
kapasiteetin 197
ponn@@ 197
peruu@@ 197
muodon 197
fuusio@@ 197
muttei 197
konferenssiin 197
lait 197
kaupunge@@ 197
puolisko@@ 197
sattuma@@ 197
mieni 197
jaus@@ 197
voimala@@ 197
kokousten 197
tiedonvälitys@@ 197
tehtävästä 197
Bla@@ 197
rajoilla 197
kapasiteettia 197
puoluetta 197
lakkauttamis@@ 197
tarkastusten 197
pääsihteeri 197
gaani@@ 197
ots@@ 197
Wal@@ 196
reakti@@ 196
kkeen@@ 196
tehottom@@ 196
varm@@ 196
otosta 196
ustava@@ 196
saastuttaja 196
Kaakkois 196
1.@@ 196
vetoom@@ 196
ministerin 196
kalastus 196
tote@@ 196
koolle 196
keja 196
sukupolven 196
ylijäämä@@ 196
vastustava@@ 196
vaaro@@ 196
julistus 196
Sharon@@ 196
rangaistuksia 195
itet@@ 195
järjestys 195
96 195
pir@@ 195
tiukempi@@ 195
luonnon 195
kannanoto@@ 195
mietinnöissä 195
vastine@@ 195
kokou@@ 195
johda 195
stani 195
isempi@@ 195
ostu@@ 195
hö@@ 195
ttavat 195
jien@@ 195
virheitä 195
voitava@@ 195
raportissa 195
vaste@@ 195
kumppani 195
vaikeuksista 195
tekoihin 195
haavoittuv@@ 195
mitätö@@ 195
käsitteli@@ 195
vuokra@@ 195
Sahara@@ 195
rikoksen 195
valloista 195
tekni@@ 195
onnettomuu@@ 194
määräaika@@ 194
koordinointi 194
selkey@@ 194
yksemme 194
hyöd@@ 194
neljäs 194
tarj@@ 194
asem@@ 194
kevät 194
kkä 194
vaikutuksen 194
tuoh@@ 194
tarkastukset 194
linjan 194
tieteellisiä 194
virtojen 194
taistella 194
Albania@@ 194
laajempi 194
sid@@ 194
yhtäkk@@ 194
tekijöistä 194
assaolo 194
lausekkeen 193
miele@@ 193
koheesiorahasto@@ 193
menettelyihin 193
ilahd@@ 193
sovelleta 193
ehdotus@@ 193
tutkijoiden 193
vaihto 193
työntekijö@@ 193
eeni@@ 193
nimi 193
luot@@ 193
psy@@ 193
lainsäätäjä@@ 193
muotoa 193
kriisiä 193
merkitse@@ 193
ryhmän@@ 192
aiheuttama 192
maanviljely@@ 192
tiedoista 192
harjoiteta@@ 192
kauteen 192
parempaa@@ 192
markkina 192
elleet 192
järjestössä 192
valtu@@ 192
herättävä@@ 192
kaksois@@ 192
kadon@@ 192
esitys@@ 192
palkan@@ 192
julkilausu@@ 192
tehtävänä@@ 192
otsa@@ 192
uhattu@@ 192
fooru@@ 192
asto@@ 192
hinn@@ 192
punn@@ 192
kokema@@ 192
vientituki@@ 192
Amer@@ 192
kolmikanta@@ 192
tuloja 191
asukas@@ 191
esitel@@ 191
hankkeista 191
alkuun 191
EM@@ 191
alueilta 191
tömyyttä 191
che@@ 191
perusteltu 191
arvosta 191
piirteitä 191
antama 191
kehu@@ 191
maalle 191
3. 191
sääntely 191
esityksestä 191
hyl@@ 191
pilaantumis@@ 191
evä 191
puhelin@@ 191
ü@@ 191
suuntaus 191
laino@@ 191
matkalla 191
korkealaatu@@ 191
naapurivaltio@@ 191
ydinenergia@@ 191
Kor@@ 191
miksei 190
hallitukseen 190
hol@@ 190
monipuol@@ 190
isemmat 190
edel@@ 190
telun 190
81 190
rinn@@ 190
62 190
utumis@@ 190
laiseen 190
é 190
filoso@@ 190
co 190
vält@@ 190
pyydet@@ 190
07@@ 190
syrjintä 190
kieli 190
16. 190
kirjaime@@ 190
kansoja 190
hallitseva@@ 190
kia 190
tekoja 190
osasta 190
luonto@@ 190
liikkeiden 190
rahastoa 190
tonnikala@@ 190
klo@@ 190
järjestetty 189
puolen@@ 189
llisella 189
rahojen 189
23. 189
ttavaa 189
toivottu@@ 189
mieti@@ 189
kehitykselle 189
kausia 189
hullu@@ 189
Pariisi@@ 189
muissa@@ 189
reiksi 189
ymmärryksen 189
päättymis@@ 189
vanhoja 189
lyhyt 189
kollektiiv@@ 189
selon@@ 189
panoksen@@ 189
ilma 189
piilo@@ 189
palvele@@ 189
taak@@ 189
siv@@ 189
poliittisella 189
tupakan 189
tekemiä 189
59 189
kuvasta@@ 189
Unkari@@ 189
säädös@@ 189
kielletty 188
korkeakoulu@@ 188
rahastojen 188
viljeli@@ 188
arvioinnissa 188
pi 188
palau@@ 188
pidetty@@ 188
usto@@ 188
hoito 188
sanamuodo@@ 188
läis@@ 188
Del@@ 188
teo@@ 188
pyytävä@@ 188
järjestöille 188
kauksia 188
malle@@ 188
kapitalisti@@ 188
juh@@ 188
rekis@@ 188
harvinais@@ 188
ilmaisse@@ 188
kriisien 188
paina@@ 188
suunniteltu@@ 188
kokouksia 188
hämä@@ 188
medi@@ 188
ssi@@ 188
oikeutensa 188
myrky@@ 188
sorto@@ 188
foorumi@@ 188
englann@@ 188
tuomittava 188
jätettä 188
valmistelija@@ 188
istuva 188
nopeu@@ 188
Ha@@ 188
ng 188
G8 188
finanssi@@ 188
kaas@@ 188
paineita 188
luovutus@@ 188
iltu 187
lähtökohta 187
asetusten 187
suunnan 187
vuuteen 187
ilmiselvä@@ 187
ttavuus 187
io 187
välisiin 187
asetuks@@ 187
markkinoilta 187
asente@@ 187
toiste@@ 187
molemmin@@ 187
vero 187
diplomati@@ 187
miljar@@ 187
muka 187
sisälly 187
umpikuja@@ 187
paikka@@ 187
toimintaohjelma 187
lapsen 187
joille@@ 187
tamatta 187
aattori@@ 187
tehtävässä 187
kielellä 187
uutemme 187
llyt 187
vierai@@ 187
Chile@@ 187
anko 187
maailmasta 187
siemen@@ 187
turs@@ 187
pyyntöön 186
ihmishenki@@ 186
itseva@@ 186
tiukka 186
yksellä 186
Malta@@ 186
ED@@ 186
kalastuksesta 186
todellisuus 186
esimerkill@@ 186
12. 186
Komis@@ 186
14. 186
perimmä@@ 186
ttää@@ 186
ammatin@@ 186
teollisuuden@@ 186
auta 186
ind@@ 186
käsitte@@ 186
kokouksiin 186
maid@@ 186
poliittisissa 185
yrittäj@@ 185
kannettava 185
kiiva@@ 185
suuntavii@@ 185
välittöm@@ 185
kielto@@ 185
vaaraa 185
Tä@@ 185
laskel@@ 185
tuntee 185
apuun 185
ympärö@@ 185
tavat@@ 185
kiertä@@ 185
käsitteli 185
kutsuttu 185
sekaantu@@ 185
Itävalta 185
piiri 185
tarjous@@ 185
oikean 185
Norsunluu@@ 185
17. 184
mehän 184
ryhmille 184
poikkeava@@ 184
kuilu 184
käsittel@@ 184
strategioita 184
ysi 184
skandaali@@ 184
kirjaa 184
luonnetta 184
kulku@@ 184
yhteyteen 184
lim@@ 184
monin@@ 184
asun@@ 184
kot@@ 184
osan@@ 184
riistä@@ 184
nis@@ 184
aarinen 184
nnästä 184
mah@@ 184
kohtainen 184
huo@@ 184
tein 184
laajuisen 184
otto 184
seg@@ 184
kalojen 184
udet 184
teot 184
kiinnos@@ 184
näyte@@ 184
edellytyksen@@ 184
En@@ 184
tekijöihin 184
antibio@@ 184
lujit@@ 184
vauhdi@@ 184
ill 184
Argenti@@ 184
Hussein 184
etš@@ 184
seiso@@ 183
paneva@@ 183
suuntaviivoista 183
tävissä 183
kuunteli@@ 183
seitsemä@@ 183
82 183
tek@@ 183
III 183
elma@@ 183
lasta 183
poliisi 183
instituutioiden 183
ohi 183
tiu@@ 183
poiket@@ 183
10. 183
ord@@ 183
lausunnot 183
ore@@ 183
rakentamiseen 183
itava@@ 183
harjoittaja@@ 183
kaiv@@ 183
altti@@ 183
Verheugen 183
osaamis@@ 183
fundamentalism@@ 183
menoista 183
myrsky@@ 182
pyrkimys@@ 182
sopeutu@@ 182
markkinoi@@ 182
taali@@ 182
noud@@ 182
vanhoi@@ 182
saatettu 182
viljelijö@@ 182
hiil@@ 182
tahtoisi@@ 182
tou@@ 182
Nielson 182
mal@@ 182
sson@@ 182
neja 182
profess@@ 182
kiusa@@ 182
24. 182
kampanja@@ 182
allekirjoittama@@ 182
toimit@@ 182
pidättämis@@ 182
voiton 182
toimikunnan 182
tyhj@@ 182
saann@@ 182
ttomuus 182
puhel@@ 182
määräys 182
isempiä 182
arvopaperi@@ 182
päällik@@ 182
Monterrey@@ 182
paa 181
yksinkertaistamis@@ 181
sisältöön 181
voin@@ 181
täjä@@ 181
byrokra@@ 181
ttämällä 181
misesta@@ 181
muistiin 181
väärinkäytöksi@@ 181
tuomari@@ 181
Po@@ 181
ihantee@@ 181
selvenn@@ 181
petoksia 181
uko 181
haluama@@ 181
siitä@@ 181
läpinä@@ 181
mio@@ 181
albaani@@ 181
murh@@ 181
palvelu 181
kierroksen 181
tron@@ 181
vuor@@ 181
laitteiden 181
työvä@@ 181
rannikolla 180
potentiaali@@ 180
käsitystä 180
saarten 180
arvostele@@ 180
du 180
tomiin 180
säännellä 180
ittely@@ 180
Br@@ 180
ormit@@ 180
ig@@ 180
tehokkaampi@@ 180
ehdotuksessa@@ 180
hahmo@@ 180
legitim@@ 180
osapuoli 180
keskuspankki 180
kuri@@ 180
antee@@ 180
osasto@@ 180
ilmiö 180
aja 180
iteta@@ 180
koulutukse@@ 180
mpana 180
budje@@ 180
tartu@@ 180
olympia@@ 180
noudatettu 180
ob@@ 180
haa@@ 180
lajien 180
ruokki@@ 180
liha 180
jäädyttä@@ 180
tykse@@ 180
tiö@@ 180
Haag@@ 180
verkko 180
61 180
son 179
83 179
ksiin@@ 179
mien@@ 179
politiikkoihin 179
hallintoon 179
analyysin 179
73 179
imo@@ 179
mieliku@@ 179
paikasta 179
hedelmäll@@ 179
ytim@@ 179
puutetta 179
kuuluva 179
laivojen 179
naurettava@@ 179
mieleen@@ 179
tilanteisiin 179
eläi@@ 179
hallita 179
palauttama@@ 179
raportti 179
atio@@ 179
tutkimuksesta 179
koordin@@ 179
lois@@ 179
Thessaloniki@@ 179
IL@@ 179
selkkau@@ 179
pornogra@@ 179
Bo@@ 179
ltävä 179
sitoumus 179
ous@@ 179
arvioinnista 179
vakautus@@ 179
hallinta 179
urska@@ 179
myynn@@ 179
viljelijät 179
idän@@ 179
avaa 178
säädöksiä 178
tiukka@@ 178
epätasa 178
haja@@ 178
tomiksi 178
protektion@@ 178
tuotu 178
no 178
93 178
tettyä 178
huolen@@ 178
ennenaikais@@ 178
puhetta 178
M 178
vallalla 178
romani@@ 178
dra@@ 178
telmä 178
Kambod 178
työt 178
lapsille 178
hdys@@ 177
tutk@@ 177
eemme 177
puolueen@@ 177
sävy@@ 177
katoa@@ 177
taisiin 177
ointi 177
tunnettu@@ 177
johtajan 177
bas@@ 177
käs 177
petos@@ 177
perusteiden 177
ban 177
pitk@@ 177
vanhempi@@ 177
saatava@@ 177
F 177
llisin 177
tehtävissä 177
palautetta@@ 177
tilan@@ 177
väestön@@ 177
4. 177
liitto 177
kohtelia@@ 177
hallinnassa 177
oda@@ 177
Afrik@@ 177
komment@@ 177
ääntä 177
alkoholin 177
Bou@@ 177
kynnys@@ 177
Bar@@ 176
ehdottama 176
ripeä@@ 176
saari@@ 176
ottama@@ 176
hiili@@ 176
tappio@@ 176
varmuuden 176
infor@@ 176
kuuluisa@@ 176
luottava@@ 176
ajatukseen 176
epäilyksi@@ 176
ó@@ 176
tunnustuks@@ 176
over@@ 176
ajasta 176
öljy 176
eläinlääkintä@@ 176
määrätty 176
kuol@@ 176
säännellä@@ 176
nähtävä@@ 176
kannustimia 176
pelko@@ 176
yhdy 176
lihan 176
rotu@@ 176
ristiriitoja 176
lukumäärä@@ 176
gen 176
kadu@@ 176
veron 176
nee 176
akate@@ 176
Erasm@@ 176
meriturvall@@ 176
hylkää 175
itävaltalais@@ 175
mietinnöllä 175
ottamisesta 175
toimielin 175
suunnattu 175
pyydetty 175
aineellis@@ 175
vakuuttava@@ 175
San 175
kolmasosa@@ 175
150 175
ytyä 175
hygienia@@ 175
edistää@@ 175
del@@ 175
järjestettävä 175
rauhoitta@@ 175
poik@@ 175
kyvyt@@ 175
tavissa 175
nes@@ 175
kustannuksiin 175
taisteluun 175
äänen@@ 175
vuot@@ 175
kohtu@@ 175
valmistevero@@ 175
opiskelija@@ 175
uoto@@ 175
kaltaisissa 175
puoltava@@ 175
hyökkäys 175
valmistajien 174
elimen@@ 174
kuljetuksen 174
tut@@ 174
lähentämis@@ 174
kannateta@@ 174
yhteenkuulu@@ 174
suhdetta 174
isyyksiä 174
soveltu@@ 174
oikeudellisesta 174
säännöstö 174
stäni 174
pelä@@ 174
B 174
tavoittelu@@ 174
ky 174
dam@@ 174
länt@@ 174
Nielson@@ 174
iik@@ 174
avio@@ 174
ottava 174
esti@@ 174
emmaksi 174
innostu@@ 174
ee@@ 174
kloona@@ 174
Rom@@ 173
kuulla@@ 173
kiinnittä@@ 173
myönnetty@@ 173
analy@@ 173
sulkemis@@ 173
kit 173
viitan@@ 173
men 173
takuu@@ 173
isien 173
yritysneuvosto@@ 173
ilun 173
lampa@@ 173
Verheugen@@ 173
este 173
tulkinta@@ 173
ymmärr@@ 173
oleskele@@ 173
tarvitsema@@ 173
tämään 173
della@@ 173
portugalilais@@ 173
isempää 173
maahantulo@@ 173
kasve@@ 173
kaupungin 173
saavutus 173
tasavalta@@ 173
Bur@@ 173
Napol@@ 173
avar@@ 173
laati 172
mukais@@ 172
hankkeesta 172
vire@@ 172
tehta@@ 172
päämäärä 172
kri@@ 172
aikaista@@ 172
turhautu@@ 172
hallinnosta 172
lipun 172
kohtal@@ 172
kulut 172
voihin 172
vy@@ 172
yer@@ 172
puolustu@@ 172
mutk@@ 172
ilmaistu@@ 172
poliittisen@@ 172
johtava 172
eistä 172
arvostella 172
tyl@@ 172
verojen 172
ilee 172
Pas@@ 172
aw@@ 172
harkinta@@ 171
niuk@@ 171
viranomaisiin 171
pörssi@@ 171
numero@@ 171
tuonnin 171
luotu 171
kyvyttö@@ 171
valtaosa 171
rin 171
kauppia@@ 171
aikoina@@ 171
tyille 171
tekojen 171
toimenpide@@ 171
virallista 171
jouk@@ 171
myönnytyksiä 171
itetty@@ 171
elvy@@ 171
etyssä 171
tehokkaampi 171
Vihreä@@ 171
selvitys 171
ll 171
Pa@@ 171
äänestyksiä 171
22. 171
la 171
malaria@@ 171
tuberkuloosi@@ 171
aloitteessa 170
rahastosta 170
elintaso@@ 170
nnassa 170
jaon 170
78 170
teollisuudessa 170
halu 170
vievä@@ 170
varoihin 170
isuuksiin 170
aloitteisiin 170
aamu@@ 170
tulkitse@@ 170
taari@@ 170
huone@@ 170
nolle 170
istun@@ 170
eläkkeitä 170
etään@@ 170
päätöksessä 170
allianssi 170
poltta@@ 170
uno@@ 170
mii@@ 170
Ba@@ 170
Moldova@@ 170
liiketoimin@@ 170
irakilais@@ 170
lentoli@@ 170
pimeä@@ 170
doping@@ 170
elta@@ 169
tuomittu 169
irti 169
mietinnö@@ 169
säiliö@@ 169
tilasta 169
yhteensovitta@@ 169
esiintyvä@@ 169
suh@@ 169
eil@@ 169
osoitti@@ 169
tettäessä 169
jon@@ 169
lippu@@ 169
miehe@@ 169
muotoilu@@ 169
vapaudesta 169
vastuuvapaus@@ 169
aloitettu 169
osallistu 169
siirtom@@ 169
hyökkäyksen 169
Du@@ 169
koostuva@@ 169
:een 169
ryhtyvä@@ 169
tietoihin 169
Pohjan@@ 169
supista@@ 169
teossa 169
käynti@@ 169
voimaa 169
hyödyt@@ 169
keli@@ 169
yhteiskunnalle 168
kymmentä 168
lyhentä@@ 168
pitkiä 168
vaihtoa 168
ttelu@@ 168
valinnan@@ 168
huuto@@ 168
kiinnit@@ 168
rannik@@ 168
tarkaste@@ 168
mukavuuslippu@@ 168
jäsenyys@@ 168
rann@@ 168
ström@@ 168
28. 168
ttäneet 168
koos@@ 168
osuva@@ 168
lähettil@@ 168
vuodella 168
97 168
neuvottelema@@ 168
viennin 168
tuotannossa 168
leima@@ 168
liet@@ 168
hallituksen@@ 168
uskalta@@ 168
vahin@@ 168
alt@@ 168
muuten@@ 168
Echelon 168
elit@@ 168
teloit@@ 167
ulottuva@@ 167
takaamme 167
kotise@@ 167
kiinnitä@@ 167
laajene@@ 167
täessä 167
useimmiten 167
kumpaa@@ 167
ilmes@@ 167
kunnallinen 167
syrjäy@@ 167
asiakirjo@@ 167
artik@@ 167
taul@@ 167
tion@@ 167
visi@@ 167
juliste@@ 167
tamiseen 167
rikkomus@@ 167
toimenpiteen 167
tuisi 167
laadukka@@ 167
edun@@ 167
säännöstä 167
kattav@@ 167
hallintaa 167
sio 167
Bow@@ 167
suhteita@@ 167
taakan 167
kuulle@@ 167
syytö@@ 167
Mic@@ 167
käytännöt 167
ääni 167
vasten@@ 167
nnä@@ 167
vihreä 167
prosesse@@ 167
kunnossa 167
tetta 167
kolmanteen 167
Äänes@@ 167
olosuhteiden 167
ttuva@@ 167
Kroati@@ 167
ttomasta 167
tekniikoiden 167
osten 167
karjan@@ 167
Ara@@ 167
vieraili@@ 167
Berlusconi@@ 167
aje@@ 166
eseen@@ 166
ttävän 166
tapahtuva 166
asentee@@ 166
tulos@@ 166
yhteyksien 166
myöntävä@@ 166
varmistu@@ 166
horison@@ 166
armo@@ 166
ennennäkemät@@ 166
lievi@@ 166
Schreyer 166
ylö@@ 166
kuun 166
usten@@ 166
120 166
kärsim@@ 166
kahd@@ 166
muodossa@@ 166
vyys 166
altistu@@ 166
epäsuotu@@ 166
laillista 166
väliselle 166
verkosto 166
Eti@@ 166
isaatio@@ 166
Byrne 166
tuomio 166
kannanotto@@ 166
myydä 166
Af@@ 166
saanti@@ 166
tiä 166
yhteyden 166
72 166
Bas@@ 166
Mi@@ 166
äänestettävä 166
keksin@@ 166
Bolkestein@@ 166
vuoti@@ 165
kollegi@@ 165
tiis@@ 165
iko 165
summia 165
viä@@ 165
paikoista 165
hoitoon 165
keskimäärä@@ 165
semin@@ 165
jakoa 165
velvollisuutensa 165
näennäis@@ 165
muutettu 165
teoria@@ 165
liikenn@@ 165
laka@@ 165
sääntele@@ 165
pommi@@ 165
aines@@ 165
Ki@@ 165
tyi 165
johde@@ 165
johtaj@@ 165
poistettu 165
seuranta 165
elektron@@ 165
jäy@@ 165
täysivalta@@ 165
vangittu@@ 165
ler@@ 165
paljon@@ 165
tetystä 165
valla 165
tapahtumiin 165
sivil@@ 165
kriisinhallinta@@ 165
pysähty@@ 165
pu 165
äänestyksestä 165
18.@@ 165
ollis@@ 165
oit@@ 165
hallussa@@ 165
lämm@@ 165
tuotteesta 165
Tim@@ 165
lääk@@ 165
levin@@ 165
27. 165
töiden 164
union@@ 164
ttävää 164
varoitus@@ 164
tulen 164
eder@@ 164
tilais@@ 164
veron@@ 164
pakola@@ 164
uudistuksiin 164
tarkistu@@ 164
televa@@ 164
tall@@ 164
vaamis@@ 164
tarkkaili@@ 164
ov 164
84 164
muistu@@ 163
rai@@ 163
säännös@@ 163
yhdeks@@ 163
varha@@ 163
seja 163
kommun@@ 163
laajen@@ 163
isuud@@ 163
Sahar@@ 163
Rü@@ 163
innon 162
voita@@ 162
vara 162
For@@ 162
ola 162
essan@@ 162
pidettä 162
Pe@@ 162
kki 162
Ju@@ 162
ener@@ 162
Co@@ 162
pros@@ 162
Vä@@ 162
94 161
rj@@ 161
ett@@ 161
itystä 161
+ 161
pö@@ 161
Posselt 161
Kab@@ 161
avi@@ 161
monen@@ 160
ituksi@@ 160
Bel@@ 160
Aznar 160
kirjan@@ 160
05 159
SE@@ 159
kiinn@@ 159
raport@@ 159
jar@@ 159
use 158
olog@@ 158
rahoit@@ 158
Randzio 158
irtisan@@ 158
argu@@ 158
käynniste@@ 158
eläk@@ 158
Mü@@ 158
ologia@@ 158
74 158
2. 158
and 158
64 158
bus@@ 158
ò@@ 158
ICA@@ 158
Gi@@ 157
Ri@@ 157
vahing@@ 157
kuun@@ 157
kolog@@ 157
nation@@ 157
Med@@ 157
torjunn@@ 157
Ti@@ 157
son@@ 157
työttömyy@@ 156
teta@@ 156
tuotan@@ 156
kulttuur@@ 156
itta 156
Europol 156
Costa 156
tra@@ 156
oto@@ 156
iso 156
homos@@ 156
Poet@@ 155
gia@@ 155
opti@@ 155
ry 155
vier 155
paper@@ 155
myö@@ 155
liberalis@@ 155
ratka@@ 155
UEN 155
puhemieh@@ 155
Berlusconi 155
tua@@ 154
oi 154
monimut@@ 154
anti 154
Cas@@ 154
väärinkäytö@@ 154
vaikutel@@ 154
ish 154
kia@@ 154
Ann@@ 154
investoin@@ 154
car@@ 154
ang@@ 154
Som@@ 154
Buitenwe@@ 154
tarkis@@ 153
kausi@@ 153
one 153
alista@@ 153
suver@@ 153
kid@@ 153
asiantun@@ 153
tain 153
Mit@@ 153
kii@@ 153
Fatuzzo 153
McCar@@ 152
ES@@ 152
reago@@ 152
ile 152
öö@@ 152
lahd@@ 152
tiedo@@ 152
Ir@@ 152
ans@@ 152
parlamentaar@@ 152
kiinte@@ 152
ustus@@ 152
Mus@@ 152
kon 152
appa@@ 151
katastro@@ 151
oc@@ 151
monop@@ 151
huoll@@ 151
sh@@ 151
ministerine@@ 151
vien@@ 151
Or@@ 151
tekniiko@@ 151
omet@@ 151
MEDA 151
tit@@ 151
opt 151
Prestige 151
nel@@ 150
lyk@@ 150
Kinnock 150
neg@@ 150
ymmär@@ 150
hyvinvo@@ 150
ir 150
Jarzembows@@ 150
Giscard 150
istamis@@ 149
Ä@@ 149
ennalta@@ 149
läsnä@@ 149
joukos@@ 149
Gen@@ 149
OLAF 148
ire 148
Wall@@ 148
vää@@ 148
ante@@ 148
ttäm@@ 148
kristi@@ 148
oni 148
minim@@ 148
mit 148
MO@@ 148
artikl@@ 147
Roth 147
rauho@@ 147
ECHO 147
Kinno@@ 147
tak@@ 147
­ 147
löy@@ 146
suotu@@ 146
600 146
ro 146
intensi@@ 146
Labour 146
Geor@@ 146
Lat@@ 146
skanda@@ 145
ejä 145
opu@@ 145
inhim@@ 145
ikään@@ 145
nit@@ 145
Valenci@@ 145
Lamfalus@@ 145
ganis@@ 145
kiell@@ 144
istus 144
rak@@ 144
itoja 144
sson 144
Cohn 144
sair@@ 144
Maro@@ 144
Fi@@ 144
07 143
res@@ 143
Swob@@ 143
Haarder 143
id 143
Crespo 142
jau@@ 142
L 142
työh@@ 142
integro@@ 142
propagan@@ 142
dyna@@ 142
Maij 142
kkaus@@ 142
osu@@ 141
är@@ 141
sydä@@ 141
has@@ 141
musta 141
eä@@ 141
korrup@@ 141
bro@@ 141
haavoit@@ 141
ua 141
uskonn@@ 141
end@@ 140
Sud@@ 140
globalis@@ 140
julk@@ 140
kyvy@@ 140
lob@@ 140
aut@@ 140
militar@@ 140
GMO 140
saan 140
Bag@@ 140
fiel@@ 140
painop@@ 139
isia@@ 139
rap@@ 139
jus@@ 139
amma@@ 139
br@@ 139
avo@@ 139
ass@@ 139
tol@@ 139
manipu@@ 139
Sella@@ 139
Bre@@ 138
uk@@ 138
kyseenala@@ 138
Kir@@ 138
kelu@@ 138
mmin@@ 138
vaal@@ 138
Sterck@@ 138
Sac@@ 138
antaja@@ 137
1989 137
rekister@@ 137
Rob@@ 137
Pro@@ 137
suuntaviivo@@ 137
aids 137
Mac@@ 137
monella 137
lausek@@ 137
c 136
rou@@ 136
myyd@@ 136
Jerus@@ 136
vapaus@@ 136
kad@@ 136
Suu 136
Por@@ 136
Hul@@ 135
fio@@ 135
Tor@@ 135
osapuol@@ 135
mot@@ 135
teki@@ 135
Myan@@ 135
hap@@ 135
dor@@ 135
Tra@@ 135
presiden@@ 134
tab@@ 134
yttävä 134
Go@@ 134
oa 134
7. 134
elek@@ 134
8. 134
SA@@ 134
sope@@ 133
Bal@@ 133
IV 133
kemik@@ 133
tera@@ 133
Schengen 133
myr@@ 133
IS@@ 132
EN 132
viitta@@ 132
Tu@@ 132
pilar@@ 132
alisti@@ 132
uhre@@ 132
Maa@@ 132
GAT@@ 132
sissa 132
eet@@ 132
Sta@@ 131
Monti 131
myönn@@ 131
pano 131
analyys@@ 131
töön 131
him@@ 131
Gibr@@ 131
ard 131
Fra@@ 131
Gar@@ 131
vah@@ 131
versi@@ 131
sairau@@ 131
Lang@@ 130
kuor@@ 130
fas@@ 130
Corbet@@ 130
kokoon@@ 130
kong@@ 130
Var@@ 130
Daphne 130
SIS 130
hier@@ 129
täni 129
jäl@@ 129
lann@@ 129
Tsa@@ 129
oles@@ 129
assosi@@ 129
Hol@@ 128
Wallström 128
Thor@@ 128
Ter@@ 128
wa@@ 128
usk@@ 128
dies@@ 128
sek@@ 127
bur@@ 127
Th@@ 127
Venezu@@ 127
peria@@ 127
radik@@ 127
PV@@ 127
inflaati@@ 127
zu 127
jyr@@ 127
Dan@@ 127
tituu@@ 127
fundamentalis@@ 127
Swoboda 126
Ur@@ 126
parado@@ 126
za@@ 126
holl@@ 126
AK@@ 126
varmis@@ 126
tiedonann@@ 126
efe 126
spon@@ 126
tukahd@@ 126
emis@@ 126
eEurope 126
meet@@ 126
ASEM 126
opin@@ 125
Haar@@ 125
miljo@@ 125
järky@@ 125
yksik@@ 125
etin 125
Oomen 125
Coll@@ 125
sel 124
imp@@ 124
utti@@ 124
din 124
symb@@ 124
heen 124
Guate@@ 124
mun@@ 124
Berg 124
epärö@@ 124
meta@@ 124
Dupuis 124
ksuaali@@ 124
vauh@@ 124
Burun@@ 124
Cun@@ 123
ez 123
ehdi@@ 123
terveyd@@ 123
kulttu@@ 123
henki@@ 123
toimenp@@ 123
una 123
Lom@@ 123
Brok 123
Slov@@ 123
Roth@@ 123
Ludfor@@ 123
Kla@@ 123
Fär@@ 123
Lamass@@ 123
investointe@@ 122
kansala@@ 122
ivan@@ 122
lains@@ 122
Medina 122
autu@@ 122
ratifio@@ 122
Méndez 122
henkilös@@ 122
Ruij@@ 122
Mercos@@ 122
X@@ 121
konferens@@ 121
itio@@ 121
ris 121
musten 121
rit 121
Jarzembowski 121
espan@@ 120
totali@@ 120
Jean 120
oun@@ 120
moti@@ 119
tavan@@ 119
rien 119
atte@@ 119
Kou@@ 119
Byr@@ 119
laud@@ 119
chi@@ 119
moot@@ 119
kemi@@ 119
Mul@@ 119
OEC@@ 119
Maes 119
Sar@@ 119
gar@@ 118
Wog@@ 118
ader 118
ysä@@ 118
lisään@@ 118
fa@@ 118
määr@@ 118
rasis@@ 118
gh@@ 118
Schrö@@ 118
spe@@ 118
annu@@ 118
García 118
vill@@ 118
ran 118
Mal@@ 118
Banglades@@ 118
Sharon 118
ch 117
saad@@ 117
Peij@@ 117
Fin@@ 117
ova@@ 117
lun@@ 117
dell@@ 117
teu@@ 117
emmin@@ 117
kehity@@ 117
fil@@ 117
tuonn@@ 117
agu@@ 117
um@@ 116
vää 116
terä@@ 116
f 116
Sou@@ 116
Os@@ 116
YM@@ 116
eir@@ 116
Tit@@ 116
Korea 116
Toul@@ 116
Nev@@ 116
televisi@@ 115
musi@@ 115
viha@@ 115
Ugan@@ 115
monik@@ 115
Austr@@ 115
Blair 115
ous 115
Caud@@ 115
110 114
Vall@@ 114
yhteiskunn@@ 114
äs@@ 114
harmon@@ 114
laborator@@ 114
Napolitan@@ 114
Solbes 114
määräraho@@ 114
El 114
AL@@ 114
EP@@ 114
vita@@ 114
optimis@@ 113
lista@@ 113
Steven@@ 113
rac@@ 113
Miguélez 113
Aleg@@ 113
isa@@ 112
Ver@@ 112
iran@@ 112
uudes@@ 112
kio@@ 112
G 112
tähd@@ 112
mie@@ 112
800 112
Lanno@@ 112
Do@@ 112
Un@@ 112
Ta@@ 112
Katifor@@ 112
kinta@@ 112
ast@@ 112
ré@@ 112
Seneg@@ 112
hun@@ 112
sitou@@ 111
for 111
keks@@ 111
wi@@ 111
és 111
Arafat 111
din@@ 111
ea 111
ottu@@ 111
wo@@ 111
tiivi@@ 111
häv@@ 111
or 111
perustusla@@ 111
dia 111
itsenä@@ 111
adop@@ 111
iri@@ 111
rez 111
Ly@@ 110
palj@@ 110
ennä@@ 110
fossi@@ 110
pessimis@@ 110
Ac@@ 110
Sc@@ 110
oso@@ 110
ASE@@ 110
Euratom 109
mus 109
vau@@ 109
Jacques 109
rangaistu@@ 109
tonn@@ 109
imiel@@ 109
Sierra 109
con@@ 109
Ander@@ 109
gro@@ 109
Hans 109
met 108
700 108
kre@@ 108
Pol@@ 108
liittol@@ 108
tuoll@@ 108
amm@@ 108
kapitalis@@ 108
anti@@ 108
Armen@@ 108
alkoh@@ 108
ernández 108
radi@@ 108
Mauritan@@ 108
ge 107
vaale@@ 107
Gil 107
ema 107
13@@ 107
Casac@@ 107
Haid@@ 107
vähemmis@@ 107
Nic@@ 107
ley 107
Monte@@ 107
vapaaeh@@ 107
Pir@@ 107
Cox 106
04 106
ad 106
laus@@ 106
olle 106
Schre@@ 106
pun@@ 106
täs@@ 106
suljet@@ 106
Lagendij@@ 106
ity 106
työvoim@@ 106
Cres@@ 105
tre@@ 105
N 105
luet@@ 105
kut@@ 105
Ky@@ 105
lip@@ 105
puolu@@ 105
WH@@ 105
varova@@ 105
Hau@@ 105
Qa@@ 105
mar 104
06 104
dellä 104
ityis@@ 104
Schul@@ 104
top@@ 104
ho 104
töä 104
Ban@@ 104
go 104
Mugabe 104
lausel@@ 104
amer@@ 104
immi@@ 103
valinn@@ 103
bud@@ 103
hetke@@ 103
kaise@@ 103
aikais@@ 103
ón 103
Diamantopoulou 103
täytäntö@@ 103
attava@@ 103
Nichol@@ 103
Q@@ 103
Saudi 103
José 103
Britann@@ 103
Sil@@ 103
Eura@@ 103
Å@@ 103
il 102
Le 102
Söder@@ 102
laiminly@@ 102
aud@@ 102
TRIPS 102
viest@@ 102
ric@@ 102
kuning@@ 102
Ger@@ 102
pri@@ 102
Sanders 102
Fatuzz@@ 102
UC@@ 101
hom@@ 101
ittee@@ 101
get@@ 101
ravin@@ 101
Michel 101
esitte@@ 101
Diamantop@@ 101
Blo@@ 101
mark@@ 101
Leh@@ 101
Tob@@ 100
käsi 100
Howit@@ 100
kenne@@ 100
Gaz@@ 100
Alavan@@ 100
ily@@ 100
uttava@@ 100
ss@@ 100
kkau@@ 99
analys@@ 99
Pal@@ 99
aisi@@ 99
les@@ 99
Izquierdo 99
Watson 99
turvapaik@@ 99
ian 99
Ö@@ 99
Kuu@@ 99
merkin@@ 99
Hu@@ 99
elv@@ 99
kolman@@ 99
Staun@@ 99
Gah@@ 99
Seveso 99
Sad@@ 99
Sep@@ 98
ration@@ 98
toin 98
nur@@ 98
ostus@@ 98
Jord@@ 98
päätöksente@@ 98
jakso@@ 98
Pac@@ 98
Col@@ 98
Al 98
tavaro@@ 98
Á@@ 98
AC@@ 98
tri@@ 98
Morill@@ 98
laivas@@ 98
Vel@@ 98
Schroed@@ 97
González 97
Ribeiro 97
OT@@ 97
Irlann@@ 97
Papayanna@@ 97
moder@@ 97
konkre@@ 97
menn@@ 97
Karaman@@ 97
läs@@ 97
gn@@ 97
illi@@ 96
ttömä@@ 96
ion@@ 96
imit@@ 96
liitt@@ 96
HV@@ 96
EC@@ 96
pl@@ 96
taulu@@ 96
Media 96
vuos@@ 95
ihmet@@ 95
Cus@@ 95
pim@@ 95
Be@@ 95
demokrat@@ 95
reä@@ 95
Makedon@@ 95
diag@@ 95
kius@@ 95
Brenn@@ 95
AF@@ 95
aggres@@ 95
FA@@ 95
shar@@ 95
ylik@@ 94
standarde@@ 94
Chi@@ 94
Grossetê@@ 94
takais@@ 94
Eurodac 94
hard 94
maahan@@ 94
ologi@@ 94
Corbett 94
sihte@@ 94
Possel@@ 94
Paul@@ 94
Ää@@ 94
aller@@ 94
Tem@@ 94
Robert 93
Pla@@ 93
EI@@ 93
miet@@ 93
El@@ 93
innän 93
He@@ 93
Ing@@ 93
anto 93
välitys@@ 93
iti 93
lähd@@ 93
vaihtoeh@@ 93
fl@@ 93
Iran 93
Schmit@@ 93
liiken@@ 92
välin@@ 92
IP@@ 92
Romania 92
ittamis@@ 92
Län@@ 92
mes 92
nellä 92
ér@@ 92
Mill@@ 92
inde@@ 92
termin@@ 92
Andalu@@ 92
vienn@@ 92
teer@@ 92
Fon@@ 92
Herz@@ 92
McKenna 92
Nistic@@ 92
auti@@ 91
pike@@ 91
vääris@@ 91
ety 91
350 91
Pé@@ 91
arvois@@ 91
IT@@ 91
Di 91
mos@@ 91
Singa@@ 91
EMAS 91
mas 91
contro@@ 91
Men@@ 91
yti@@ 90
uri@@ 90
teknologi@@ 90
ino 90
Barni@@ 90
iz@@ 90
emit@@ 90
himo@@ 90
Ric@@ 90
usti 90
McN@@ 90
anssi@@ 90
Amnesty 90
dus@@ 90
Andreas@@ 90
Mas@@ 90
Redon@@ 90
arkaluon@@ 90
Learning 90
istunn@@ 89
dy 89
antai@@ 89
eva 89
real@@ 89
out 89
periaat@@ 89
Varela 89
Lamber@@ 89
EB@@ 89
ympäristön@@ 88
kempi@@ 88
seuraav@@ 88
by@@ 88
naa@@ 88
vasemmis@@ 88
pun 88
imä@@ 88
à@@ 88
viit@@ 88
suoj@@ 88
kele@@ 88
telua 88
Pr@@ 88
Vig@@ 88
Moll@@ 88
Rad@@ 88
ate@@ 88
torsta@@ 88
Paasil@@ 88
fan@@ 88
Esta@@ 88
tapah@@ 87
BK@@ 87
vuoro 87
Duisenberg 87
syd@@ 87
naure@@ 87
istan 87
lantilais@@ 87
International 87
ster@@ 87
Gor@@ 86
human@@ 86
ø@@ 86
Lo@@ 86
ar 86
mää 86
viol@@ 86
PVC 86
jääd@@ 86
ira 86
organ@@ 86
aka@@ 86
Sal@@ 86
Ni@@ 86
Deprez 86
Matthe@@ 86
sit 85
rö@@ 85
Pow@@ 85
itetta 85
Behrend@@ 85
Floren@@ 85
ce 85
Er@@ 85
Anton@@ 85
taloudell@@ 85
lit@@ 85
ts 85
tlan@@ 85
tunto@@ 85
leg@@ 85
tarko@@ 85
viestin@@ 85
Linkoh@@ 85
Harbour 85
Migu@@ 85
mina 84
EC 84
ides 84
Eurostat 84
stu@@ 84
pin@@ 84
myrs@@ 84
Busqu@@ 84
Brys@@ 84
istu 84
tain@@ 84
chet 84
ment 84
Com@@ 84
syys@@ 84
Bendit 84
haavo@@ 84
Margall@@ 84
Stenmar@@ 84
ck 84
hop@@ 84
rimin@@ 84
Krat@@ 84
syner@@ 83
olev@@ 83
typ@@ 83
iva 83
ykseen 83
Erit@@ 83
saks@@ 83
too@@ 83
LIFE 83
ow@@ 83
Liber@@ 83
head@@ 83
Goeb@@ 82
Jos@@ 82
ytymis@@ 82
kis 82
onni@@ 82
kamp@@ 82
hallin@@ 82
Uni@@ 82
edell@@ 82
olu@@ 82
Davi@@ 82
Lannoye 82
fe 82
Mol@@ 82
esään@@ 82
est 82
Bosnia 82
Jap@@ 82
muunn@@ 82
neutra@@ 82
bin@@ 81
brutto@@ 81
Thea@@ 81
ç@@ 81
fran@@ 81
X 81
Sol@@ 81
Mad@@ 81
Hautal@@ 81
tuotann@@ 81
Karas 81
bra@@ 81
Zimbabwe 81
White@@ 81
ade@@ 81
Figueire@@ 81
Bull@@ 81
plas@@ 81
jäs@@ 80
yksis@@ 80
ulottu@@ 80
Hel@@ 80
Bir@@ 80
profi@@ 80
Kes@@ 80
Galeote 80
don@@ 80
monito@@ 80
itten 80
evi@@ 80
Coel@@ 80
pass@@ 80
Gas@@ 80
inc@@ 80
post@@ 80
depar@@ 79
Eurojust 79
nalle 79
Cam@@ 79
viisu@@ 79
norm@@ 79
maase@@ 79
eman@@ 79
minuu@@ 79
mak@@ 79
toisi@@ 79
Martí@@ 79
mmik@@ 79
ntö@@ 78
mid@@ 78
PP@@ 78
komissi@@ 78
kysym@@ 78
poli@@ 78
are 78
Weggen 78
MacCorm@@ 78
liikkuma@@ 78
AT@@ 78
dt 78
deter@@ 78
am 77
syven@@ 77
sosiaalitur@@ 77
tehos@@ 77
peä@@ 77
Pur@@ 77
esim@@ 77
ily 77
ysti 77
naudan@@ 77
ppa@@ 77
uri 77
asiantunte@@ 77
Es@@ 77
järj@@ 77
tini 77
alas 77
nnöstä 77
Bus@@ 77
Cash@@ 77
Evans 76
sulj@@ 76
kara@@ 76
om 76
valiokun@@ 76
eten@@ 76
melke@@ 76
kaksin@@ 76
som@@ 76
Luc@@ 76
ard@@ 76
käyd@@ 76
ada 76
lak@@ 76
od 76
CA@@ 76
euroopp@@ 76
hard@@ 76
ã@@ 76
Plooij 75
time@@ 75
Nogueira 75
Plath 75
Jacks@@ 75
kari@@ 75
Baringdor@@ 75
med 75
Maghreb 75
taistamis@@ 75
torj@@ 75
myönnyty@@ 75
venä@@ 75
instituu@@ 75
ars 75
enter@@ 75
sub@@ 74
res 74
gan@@ 74
Mu@@ 74
numer@@ 74
temp@@ 74
viim@@ 74
teg@@ 74
Euroop@@ 74
ah 74
Jen@@ 74
Bos 74
digi@@ 74
Gonzá@@ 74
As@@ 74
pus 73
aikaan@@ 73
delta 73
väki@@ 73
ern@@ 73
popul@@ 73
llu@@ 73
ham@@ 73
Salafranca 73
oikeusasia@@ 73
Bol@@ 73
Mc@@ 73
mb@@ 72
Bour@@ 72
tettä 72
tetta@@ 72
Ge@@ 72
ise 72
Equal 72
ola@@ 72
David 72
villa@@ 72
Wurtz 72
Europe 72
pake@@ 72
ci@@ 72
virus 72
ETA 72
Sy@@ 72
FIF@@ 72
ussa@@ 71
World 71
pot@@ 71
kuunne@@ 71
Hi@@ 71
ven 71
NATO 71
mahta@@ 71
Si@@ 71
kokous@@ 71
oul@@ 71
jöitä 71
SE 71
kenta@@ 71
aul 71
HC@@ 71
tar 71
Ortuondo 71
0.@@ 71
erin@@ 70
oppos@@ 70
kannan@@ 70
ajoneu@@ 70
dog@@ 70
sopuso@@ 70
syste@@ 70
Bu@@ 70
Belder 70
AR@@ 70
Mann 70
ex@@ 69
Wogau 69
Hatzidak@@ 69
valvon@@ 69
isuuden@@ 69
kok@@ 69
Lucas 69
J 69
aid@@ 69
sovit@@ 69
Char@@ 69
urs@@ 69
ioksidi@@ 69
jur@@ 68
pe 68
uc@@ 68
tiläis@@ 68
vyö@@ 68
far@@ 68
täisi@@ 68
reg@@ 68
Martin 68
200@@ 68
alli@@ 68
Hughes 68
Martínez 68
Guinea 68
.e@@ 68
arv@@ 67
kahdeks@@ 67
kkai@@ 67
pöytä@@ 67
mol@@ 67
ester@@ 67
Bi@@ 67
pr@@ 67
kapasiteet@@ 67
aseen 67
sun@@ 66
tosta 66
kauh@@ 66
que 66
omin@@ 66
big 66
sihteer@@ 66
ST@@ 66
norma@@ 66
doll@@ 66
asiakirj@@ 66
kuluttajan@@ 66
kehitysa@@ 66
enia 66
dre@@ 66
Pat@@ 66
veh@@ 66
ony 66
Oostlan@@ 66
muslim@@ 66
seur@@ 66
joulu@@ 65
Egyp@@ 65
Kosovo 65
sympa@@ 65
pääll@@ 65
Hugh@@ 65
à 65
Putin 65
provo@@ 65
ash@@ 65
ell 65
ya 65
tekn@@ 64
teluun 64
com@@ 64
rahan@@ 64
mma@@ 64
Reding 64
kiinti@@ 64
Frass@@ 64
Orteg@@ 64
Weg@@ 64
Jun@@ 64
ers 64
che 64
Min@@ 64
lainsäädän@@ 64
Chirac 64
cu@@ 64
land@@ 63
realis@@ 63
Rap@@ 63
konf@@ 63
help@@ 63
Mulder 63
burg@@ 63
ttö 63
ennen@@ 63
sens@@ 63
Malmström 63
jun@@ 63
row@@ 63
Morillon 63
Blokland 63
CE 63
Afganis@@ 63
burg 63
Castro 63
Echel@@ 63
toimikun@@ 63
Kolumb@@ 63
ures 63
minister@@ 62
ilman@@ 62
nään 62
uja 62
Ste@@ 62
vet@@ 62
Sjöstedt 62
asy@@ 62
luv@@ 62
Frassoni 62
neuvost@@ 62
Di@@ 62
istuntos@@ 62
anz@@ 62
del 62
Ech@@ 62
tamin@@ 62
Bend@@ 62
meat 62
tag@@ 61
kolmas@@ 61
esimer@@ 61
too 61
dr@@ 61
ase 61
opportun@@ 61
ú@@ 61
valti@@ 61
naud@@ 61
kolleg@@ 61
Mercosur 61
tras@@ 61
Galile@@ 61
emmis@@ 60
lainsää@@ 60
puun 60
minu@@ 60
arvioinn@@ 60
arvon@@ 60
yhtey@@ 60
diploma@@ 60
EL@@ 60
itsisi 60
dele@@ 60
analyy@@ 60
fos@@ 60
lääkintä@@ 60
Wu@@ 60
Staes 60
ron@@ 60
eu@@ 60
kats@@ 59
stra@@ 59
Kos@@ 59
ttama 59
akko@@ 59
tekos@@ 59
ler 59
inis@@ 59
Sjöste@@ 59
ente@@ 59
U 59
EA@@ 59
ovar@@ 59
ika 59
Milosevi@@ 59
ques@@ 59
keä 59
ittää 59
fur@@ 59
dien 59
Estaing 59
Bulgaria 59
kakso@@ 58
OP@@ 58
TE@@ 58
pus@@ 58
Ag@@ 58
ktiiv@@ 58
ppi 58
fal@@ 58
ía 58
air@@ 58
ws 58
fel@@ 58
Ukra@@ 58
Verhofstadt 58
star@@ 57
take@@ 57
Behrendt 57
dri@@ 57
bel 57
ryhmit@@ 57
tto 57
USA 57
ttaja 57
solid@@ 57
ff 57
tär@@ 57
Perry 57
hes@@ 57
istan@@ 56
ben@@ 56
ning 56
ph@@ 56
ñ@@ 56
viet@@ 56
demo@@ 56
kanto@@ 56
Busquin 56
vallanku@@ 56
Mo@@ 56
sotil@@ 56
parlamen@@ 55
entä@@ 55
puheenjohta@@ 55
ga 55
Napolitano 55
McK@@ 55
MacCormick 55
we@@ 55
ellis@@ 55
Fu@@ 55
pat@@ 55
jalkapa@@ 55
TAC@@ 55
ca 54
les 54
histor@@ 54
sp@@ 54
erb@@ 54
milais@@ 54
Pack 54
ó 54
enite@@ 54
Rio 54
loy@@ 54
ant@@ 54
199@@ 53
mann 53
lamen@@ 53
ou 53
ner 53
imag@@ 53
kump@@ 53
resis@@ 53
kana 53
ME@@ 53
Cashman 53
separ@@ 53
char@@ 53
myys 53
Malm@@ 53
his@@ 53
ed 53
LA@@ 52
Malta 52
hetk@@ 52
Velzen 52
Annan 52
seitse@@ 52
lus 52
Kyi 52
kedon@@ 52
vakiinn@@ 52
Goebbels 52
Oostlander 52
misto@@ 52
tonnik@@ 52
nti@@ 52
vojen 52
lent@@ 52
Lehne 52
Duisen@@ 51
itor@@ 51
mou@@ 51
Syy@@ 51
työjärjesty@@ 51
rian 51
kraatti@@ 51
Baringdorf 51
wai@@ 51
kongres@@ 51
mys@@ 51
majo@@ 51
tietosuo@@ 51
Luxem@@ 51
Demo@@ 51
afrik@@ 51
The 51
kannusti@@ 51
ign@@ 51
Verhofsta@@ 51
tasol@@ 50
Ex@@ 50
IN@@ 50
koina 50
kuudessa 50
ria@@ 50
Ang@@ 50
yssä 50
Ortega 50
säh@@ 50
paino 50
ug@@ 50
Kauppi 50
Gro@@ 50
ktio@@ 50
Gale@@ 50
empaa@@ 50
ef@@ 50
arab@@ 50
Gö@@ 50
ins 50
Savary 50
lling 50
ken 50
ger 49
mili@@ 49
vanhen@@ 49
legiti@@ 49
don 49
itava 49
kunnian@@ 49
prag@@ 49
Ludford 49
Algeria 49
arma@@ 49
ID@@ 49
Kal@@ 49
Wurt@@ 48
elitte@@ 48
dro@@ 48
Peter@@ 48
Fontaine 48
mobil@@ 48
aikataul@@ 48
valtiovar@@ 48
vallankumou@@ 48
tap@@ 48
Fre@@ 48
Tunisia 48
ippu@@ 48
väis@@ 48
ttav@@ 48
ï@@ 48
ECO@@ 48
Lis@@ 47
Hatzidakis 47
vois@@ 47
No@@ 47
ote 47
enc@@ 47
verra@@ 47
lobb@@ 47
komis@@ 47
Bourlanges 47
ly 47
w 47
Mart@@ 47
ber 47
the@@ 47
Ferber 47
väliin@@ 47
maail@@ 47
issu@@ 47
Hautala 47
uskon@@ 47
kla@@ 47
attis@@ 47
Taiwan 47
Sve@@ 47
flu@@ 47
Poh@@ 46
EMU 46
ulkopu@@ 46
Cu@@ 46
Jackson 46
östä 46
Jac@@ 46
usi 46
Ser@@ 46
investo@@ 46
Mag@@ 46
ksidi@@ 46
Pirker 46
cal@@ 46
ant 46
Stock@@ 46
pill@@ 46
vesto@@ 45
Wynn 45
eler@@ 45
Theato 45
tappi@@ 45
Pakistan 45
polit@@ 45
Bro@@ 45
ling 45
itur@@ 45
koi 45
tem@@ 45
France 45
lo 45
seud@@ 45
Schmid 45
oon 45
big@@ 45
vol@@ 45
Whitehead 45
ese 45
House 45
materi@@ 44
Y 44
tetusti 44
UT@@ 44
fis@@ 44
0 44
Katiforis 44
vamma@@ 44
Liet@@ 44
oria@@ 44
sis 44
Taliban 44
urg@@ 44
than 44
kauppi@@ 44
konserva@@ 44
IS 44
Vigo 44
portug@@ 43
työs@@ 43
Bud@@ 43
voimaan@@ 43
trus@@ 43
put 43
í 43
sm@@ 43
vic@@ 43
ally 43
inf@@ 43
Purvis 43
mpä@@ 43
Den@@ 43
tulis@@ 43
ic 43
ike 43
zz@@ 43
off@@ 43
tteen 43
Buitenweg 43
trag@@ 43
bab@@ 43
pesu@@ 42
sikä@@ 42
tyyd@@ 42
ors 42
Wat@@ 42
pre@@ 42
lova@@ 42
bru@@ 42
Sterckx 42
Maaten 42
rar@@ 42
stres@@ 42
Rothley 42
ian@@ 42
teri 42
Fir@@ 42
Slovakia 42
US@@ 42
Canc@@ 42
ies 41
nez 41
uista 41
status 41
valv@@ 41
oda 41
era@@ 41
cel@@ 41
æ 41
land 41
Etel@@ 41
mer 41
Georgia 41
HIV 41
krit@@ 40
sch 40
ttämis@@ 40
vaatio@@ 40
Au@@ 40
qui@@ 40
ituksiin 40
uro 40
potenti@@ 40
OS@@ 40
US 40
Palesti@@ 40
Latvia 40
IMO 40
tuberku@@ 40
Meksi@@ 40
multi@@ 40
ary 40
cial 40
hagen 40
indika@@ 40
sw@@ 40
nar@@ 39
EP 39
Lä@@ 39
our 39
Tre@@ 39
line 39
ude 39
Ener@@ 39
ony@@ 39
nellä@@ 39
Australia 39
viivä@@ 39
kkää@@ 39
Liban@@ 39
OECD 39
Nisticò 39
huomau@@ 38
anu@@ 38
yer 38
ymmä@@ 38
siih@@ 38
aid 38
luj@@ 38
oure 38
ore 38
EUR@@ 38
absur@@ 38
prosen@@ 38
plu@@ 38
unila@@ 38
á 38
Bösch 37
Salafran@@ 37
kejä 37
plus 37
Eng@@ 37
tuuri@@ 37
integra@@ 37
ong 37
by 37
fre@@ 37
Angola 37
tarp@@ 37
reite@@ 37
sc@@ 37
Nigeria 37
kaltais@@ 37
etää@@ 37
imes 37
um 36
pysäh@@ 36
upp@@ 36
emo@@ 36
dis@@ 36
atten@@ 36
puri@@ 36
Sten@@ 36
site@@ 36
st 36
prof@@ 36
ER 36
nö@@ 36
her 36
hein@@ 36
itali@@ 36
dez 36
reag@@ 36
YUT@@ 36
Fis@@ 36
pys@@ 36
idea 36
Bri@@ 36
Isla@@ 36
nan 36
lähetys@@ 36
š@@ 36
thy 35
up 35
amo 35
tion 35
pop@@ 35
varain@@ 35
ettom@@ 35
pör@@ 35
instituuti@@ 35
bil@@ 35
tein@@ 35
kriisin@@ 35
COM 35
ay 35
kasv@@ 35
Moldova 35
dump@@ 35
dou@@ 35
hoc 34
automa@@ 34
atta@@ 34
Act 34
tal 34
maanviljeli@@ 34
poliit@@ 34
pub@@ 34
AID@@ 34
az@@ 34
mber@@ 34
idä@@ 34
ice 34
osall@@ 34
puutte@@ 34
Burma 34
fu@@ 34
set@@ 34
öy@@ 34
ech@@ 34
ira@@ 34
AN 34
Energy 34
Lag@@ 34
Fisch@@ 34
had 34
koordino@@ 34
CO2 33
syyllis@@ 33
RE@@ 33
aff@@ 33
neta@@ 33
jakau@@ 33
foor@@ 33
pallo@@ 33
levo@@ 33
Indonesia 33
fr@@ 33
Je@@ 33
mag@@ 33
journ@@ 33
iro 33
Pres@@ 33
OM 33
Scot@@ 33
gh 33
viel@@ 33
kloon@@ 33
ß@@ 33
cal 33
prior@@ 33
käyt@@ 32
arme@@ 32
Ä 32
gia 32
kalli@@ 32
Rights 32
Zim@@ 32
onia 32
tymy@@ 32
lar@@ 32
lj@@ 32
my 32
Diaman@@ 32
Ramos 32
Trans@@ 32
hou@@ 31
cor@@ 31
koheesior@@ 31
wal@@ 31
siirtol@@ 31
brit@@ 31
kamis@@ 31
näkem@@ 31
farm@@ 31
ca@@ 31
muukalais@@ 31
uclear 31
instru@@ 31
Gros@@ 31
eij@@ 31
Tii@@ 31
bet 31
ee 31
plur@@ 31
Hag@@ 30
vastuun@@ 30
oth@@ 30
Can@@ 30
shall 30
ulkom@@ 30
manner 30
ence 30
yo@@ 30
kilomet@@ 30
nal 30
Mer@@ 30
Johan@@ 30
els 30
Brit@@ 30
tos 30
institu@@ 30
etna@@ 30
valid@@ 30
ub@@ 30
rea 30
WHO 30
laim@@ 30
Jerusalem 30
ide 29
jet@@ 29
säili@@ 29
pol 29
rea@@ 29
Tran@@ 29
Caudron 29
ymp@@ 29
prov@@ 29
Maghre@@ 29
xem@@ 29
Milos@@ 29
Kur@@ 29
kapa@@ 29
valu@@ 29
gres@@ 29
ud 29
patri@@ 29
top 29
shi@@ 29
päis@@ 29
Association 29
back 29
sisäll@@ 29
olumb@@ 29
trans@@ 29
GM 29
Galicia 28
saas@@ 28
str@@ 28
meet 28
ate 28
koheesi@@ 28
Chris@@ 28
Mat@@ 28
ost 28
ek 28
vauhd@@ 28
eth@@ 28
control 28
sof@@ 28
proble@@ 28
Am@@ 28
eira 28
ô@@ 28
ller 28
rig@@ 28
gent@@ 28
tre 27
fun@@ 27
ex 27
ova 27
Con@@ 27
of@@ 27
kaks@@ 27
enti@@ 27
ittämät@@ 27
uudell@@ 27
ent 27
obli@@ 27
Me@@ 27
eman 27
Pos@@ 27
aktiiv@@ 27
cy 27
käyte@@ 27
hygi@@ 27
eto@@ 27
dessa 27
Väl@@ 27
fo@@ 27
Fa@@ 27
sche@@ 27
blo@@ 27
AS 27
agre@@ 27
Chile 27
Lamfalussy 27
transa@@ 27
malaria 27
opa@@ 27
ktion@@ 26
arvonlisä@@ 26
law 26
esty@@ 26
dit 26
Balkan 26
inspi@@ 26
Ad@@ 26
def@@ 26
progres@@ 26
ld 26
É@@ 26
und 26
kkäis@@ 26
wan@@ 26
territor@@ 26
rakennera@@ 26
taar@@ 26
ez@@ 26
sunluu@@ 26
säte@@ 26
berg 26
shor@@ 26
miks@@ 26
Nizz@@ 26
col@@ 26
merkity@@ 25
mainstreaming 25
ak 25
Shar@@ 25
neuvottel@@ 25
kys@@ 25
prim@@ 25
Flor@@ 25
ale 25
korke@@ 25
yksil@@ 25
ela 25
W 25
prostitu@@ 25
Human 25
ambi@@ 25
uran@@ 25
all 25
% 25
Cour@@ 25
ery 25
East 25
Washington 25
ders 25
eltaan 25
hur@@ 25
määris@@ 25
Yhd@@ 25
Stra@@ 25
erro@@ 25
hon@@ 25
titu@@ 25
FYR@@ 25
Vietnam 25
prosess@@ 24
tran@@ 24
aim@@ 24
wood 24
reser@@ 24
TV 24
tor 24
ihante@@ 24
ääd@@ 24
Jugosla@@ 24
side 24
mis 24
ox@@ 24
tw@@ 24
Union 24
Lam@@ 24
sai@@ 24
th 24
Vih@@ 24
j 24
Nov@@ 24
sani 24
cr@@ 24
age 24
inten@@ 24
ada@@ 24
Kong@@ 24
Tali@@ 24
oulo@@ 23
uusio@@ 23
ques 23
rus@@ 23
une@@ 23
sus 23
him 23
can 23
ting 23
interven@@ 23
äy@@ 23
mul@@ 23
dam 23
tuomioistu@@ 23
happ@@ 23
bal@@ 23
inven@@ 23
tes 23
ols 23
viip@@ 23
bu@@ 23
tuv@@ 23
Institu@@ 23
Tai@@ 23
human 23
sy 23
maj@@ 23
Dis@@ 23
tali@@ 23
Kaliningrad 23
catch 23
eye 23
5.@@ 23
West 22
torjun@@ 22
fer@@ 22
momen@@ 22
lec@@ 22
will 22
bri@@ 22
art 22
ms 22
tymät@@ 22
vel 22
the 22
vissä@@ 22
tahol@@ 22
able 22
Albania 22
ikun@@ 22
abs@@ 22
Wor@@ 22
atu@@ 22
Dublin 22
ger@@ 22
noll@@ 21
varmuu@@ 21
kysel@@ 21
ainut@@ 21
inva@@ 21
ukka@@ 21
work 21
oton@@ 21
hi 21
Democ@@ 21
juuta@@ 21
q@@ 21
rer 21
drew 21
fin 21
bia 21
ung 21
Buiten@@ 21
vig@@ 21
länsi@@ 21
parti@@ 21
tutus@@ 21
anssi 21
per 21
arri@@ 21
suure@@ 21
law@@ 21
vied@@ 20
ds 20
roman@@ 20
Strasbourg 20
Serbia 20
topi@@ 20
rinnakka@@ 20
Gre@@ 20
ther@@ 20
hat@@ 20
bet@@ 20
ich 20
ol 20
vastin@@ 20
morator@@ 20
eriko@@ 20
non 20
radio 20
dessä 20
improv@@ 20
ker 20
fra@@ 20
dop@@ 20
Pen@@ 20
call 20
ampaa 19
innu@@ 19
Lon@@ 19
aspi@@ 19
isra@@ 19
apa@@ 19
AT 19
ania 19
ohe@@ 19
sym@@ 19
Gr@@ 19
lan 19
kse 19
ago 19
und@@ 19
Barcelona 19
ime 19
air 19
tic@@ 19
val 19
rich 19
aam@@ 19
Ortuon@@ 19
lly 19
sion@@ 19
tru@@ 19
call@@ 19
lov@@ 18
tso@@ 18
ver 18
johdon@@ 18
propaganda 18
Eco@@ 18
hypo@@ 18
rele@@ 18
ope 18
be 18
Group 18
ilmisel@@ 18
fem@@ 18
bon 18
ist 18
Kio@@ 18
kettä@@ 18
vertais@@ 18
sion 18
lot 18
car 18
media 18
ittee 18
yan@@ 18
vuonn@@ 18
gri@@ 18
esitteli@@ 18
York 18
Beij@@ 18
non@@ 18
lif@@ 18
intern@@ 17
au 17
juris@@ 17
sou@@ 17
mone@@ 17
liini@@ 17
ce@@ 17
Dec@@ 17
rehe@@ 17
Yor@@ 17
trad@@ 17
Helsinki 17
over 17
mpaa@@ 17
brid@@ 17
anta 17
Lissa@@ 17
see 17
DP 17
tig@@ 17
Jo@@ 17
Izquier@@ 17
imäärä@@ 17
arm@@ 17
pro 17
Colom@@ 17
tann@@ 17
sla@@ 17
phas@@ 17
int 17
zen 17
aus@@ 17
oulou 17
ulf 16
thi@@ 16
war@@ 16
Soci@@ 16
OLA@@ 16
hyvin@@ 16
simul@@ 16
Cha@@ 16
Ö 16
menettel@@ 16
Equ@@ 16
puolis@@ 16
LIF@@ 16
inv@@ 16
reä 16
imin@@ 16
Tsetsen@@ 16
Res@@ 16
Econom@@ 16
win 16
Tun@@ 16
business 16
atetta 16
stru@@ 16
tervey@@ 16
Gal@@ 16
refor@@ 16
standardis@@ 16
tuna 16
luottamu@@ 16
ath 16
hta@@ 16
rev@@ 16
turk@@ 16
arms 16
rauh@@ 16
Americ@@ 16
Ó 16
influ@@ 16
Sea 15
komit@@ 15
ear@@ 15
Rec@@ 15
marras@@ 15
ance 15
eurooppala@@ 15
Sö@@ 15
Medi@@ 15
king 15
mation 15
barbar@@ 15
imat@@ 15
war 15
ding 15
bor@@ 15
domin@@ 15
NG@@ 15
thou@@ 15
alia 15
Mé@@ 15
kolle@@ 15
Nogu@@ 15
mal 15
munity 15
Development 15
Laeken 15
kautta@@ 15
Health 15
Doha 15
rid 15
ž@@ 15
tection 14
Pet@@ 14
lloin 14
mietin@@ 14
fac@@ 14
ow 14
mani@@ 14
gre@@ 14
ture 14
Commission 14
soft 14
elintarv@@ 14
ski@@ 14
· 14
sing@@ 14
eteen@@ 14
spa@@ 14
pan 14
mutte@@ 14
repe@@ 14
dec@@ 14
ze 14
mod@@ 14
määräämis@@ 14
let@@ 14
genti@@ 14
Bos@@ 14
AP@@ 14
rid@@ 14
FYROM 14
toler@@ 14
add@@ 13
cha@@ 13
monopol@@ 13
valvonn@@ 13
fir@@ 13
onal 13
ref@@ 13
Ob@@ 13
acc@@ 13
pla@@ 13
EU:@@ 13
vers@@ 13
wn 13
cas@@ 13
ovina 13
Kamb@@ 13
poten@@ 13
Baski@@ 13
seli@@ 13
Ath@@ 13
get 13
alaatu@@ 13
ë@@ 13
its 13
ple@@ 13
dor 13
we 13
harm@@ 13
po 13
Niel@@ 13
elec@@ 13
hope 13
lic@@ 13
istuva@@ 13
rela@@ 13
ical 13
fam@@ 13
Plooi@@ 13
q 13
Lin@@ 13
pati@@ 13
Centre 13
iki 13
cies 13
low 13
laimin@@ 13
Sci@@ 13
diesel 13
neutr@@ 13
dom 13
fundamen@@ 13
kauas@@ 13
tens 13
org@@ 13
foun@@ 13
bun@@ 13
Johannesburg 13
ks 12
end 12
äädä@@ 12
regi@@ 12
IF@@ 12
bench@@ 12
ods 12
ê@@ 12
tra 12
Women 12
stimu@@ 12
30@@ 12
popu@@ 12
cho@@ 12
AIDS 12
välity@@ 12
national 12
bul@@ 12
samo@@ 12
field 12
aga@@ 12
evel@@ 12
:o 12
ull@@ 12
governance 12
lack 12
Chan@@ 12
talis@@ 12
box 12
utti 12
mark 12
isation 12
ace 12
Office 12
mine 12
kolmik@@ 12
skan@@ 12
gall@@ 12
estiinalais@@ 12
alter@@ 12
ende@@ 12
cour@@ 12
dem@@ 11
fer 11
Olympic 11
Rus@@ 11
Council 11
gani 11
port@@ 11
ust 11
day 11
revi@@ 11
Inves@@ 11
dependent 11
ens 11
uis@@ 11
Pari@@ 11
lor@@ 11
loc@@ 11
sharing 11
ith 11
obser@@ 11
ess 11
ual 11
sha@@ 11
Green@@ 11
fle@@ 11
inner 11
å@@ 11
mmis@@ 11
ur 11
Sw@@ 11
aih@@ 11
ely 11
Migué@@ 11
Tam@@ 11
migra@@ 11
ney 11
tric@@ 11
ult 11
ium 11
off 11
sian 11
seuraamu@@ 11
ns 11
pra@@ 11
ú 11
Hus@@ 11
arm 11
each 11
urch 11
ef 10
Jus@@ 10
force 10
cc@@ 10
right 10
with 10
pers@@ 10
Sto@@ 10
die 10
Part@@ 10
para@@ 10
ew 10
bac@@ 10
join 10
ue 10
pli@@ 10
fla@@ 10
nnössä 10
port 10
can@@ 10
thu@@ 10
kapi@@ 10
vastaav@@ 10
occ@@ 10
London 10
Plan 10
rup@@ 10
emp@@ 10
ympä@@ 10
pensa@@ 10
join@@ 10
domain 10
Götebor@@ 10
tory 10
ried 10
era 10
clause 10
Fund 9
opisto@@ 9
witz@@ 9
ball 9
hope@@ 9
fol@@ 9
Administra@@ 9
ther 9
row 9
liene@@ 9
under@@ 9
û@@ 9
Forum 9
screening 9
net 9
modern@@ 9
marg@@ 9
Party 9
kuin@@ 9
ight 9
pursu@@ 9
United 9
viran@@ 9
Kööpenhamin@@ 9
cro@@ 9
well 9
retro@@ 9
Olymp@@ 9
Oly@@ 9
insi@@ 9
sky 9
bit@@ 9
ade 9
Dub@@ 9
tane@@ 9
IG@@ 9
Seves@@ 9
deks@@ 9
Security 9
toge@@ 9
share 9
Foreign 9
Sala@@ 9
ick 9
reac@@ 9
Α@@ 9
any@@ 8
Ü@@ 8
ye 8
trou@@ 8
far 8
terran@@ 8
ittelemä@@ 8
ss 8
ennium 8
tellä@@ 8
new 8
Food 8
gr@@ 8
individu@@ 8
aqu@@ 8
Q 8
deri@@ 8
year 8
jois 8
merit 8
pres@@ 8
Garc@@ 8
Presid@@ 8
xi@@ 8
Bang@@ 8
stitu@@ 8
Criminal 8
kehi@@ 8
watch 8
mmen@@ 8
hold 8
maahanmuu@@ 8
lie 8
ative 8
enci@@ 8
internation@@ 8
iness 8
ere 8
old 8
fri@@ 8
Dem@@ 8
thusi@@ 8
illis@@ 8
China 8
Saf@@ 8
diversi@@ 8
valla@@ 8
nic@@ 8
ket 8
spo@@ 8
osuo@@ 8
Liik@@ 8
ordin@@ 8
regula@@ 8
track 8
State 8
CAP 8
bal 8
wor@@ 8
promis@@ 8
touko@@ 8
roati@@ 8
void@@ 8
blu@@ 8
äkuu@@ 8
hab@@ 8
EDF 8
ean 8
maalis@@ 8
South 8
People 8
Madrid 8
GM@@ 8
itiik@@ 8
lar 8
ask 7
if 7
Liberal 7
sex@@ 7
Proc@@ 7
lanko@@ 7
neu@@ 7
Ho@@ 7
sig@@ 7
Vitor@@ 7
less 7
Action 7
bre@@ 7
she@@ 7
jäämä@@ 7
bec@@ 7
UK 7
chil@@ 7
coll@@ 7
economy 7
Lud@@ 7
tammik@@ 7
ß 7
äärä@@ 7
fro@@ 7
eing 7
gla@@ 7
fic@@ 7
dic@@ 7
Gonz@@ 7
vice 7
cur@@ 7
orien@@ 7
drin@@ 7
Aug@@ 7
ast 7
rul@@ 7
aban@@ 7
ference 7
lades@@ 7
telev@@ 7
dian 7
sopus@@ 7
way 7
green 7
ede 7
ward 7
Tukhol@@ 7
Government 7
group 7
mach@@ 7
assu@@ 7
sho@@ 7
Indus@@ 7
inter 7
with@@ 7
gg@@ 7
ters 7
fin@@ 7
seri@@ 7
demon@@ 7
ittais@@ 7
ach 7
Jer@@ 7
atit 7
Corm@@ 7
tällö@@ 7
audi@@ 7
Cub@@ 7
ones 7
simp@@ 7
Ε@@ 7
ping 6
fare 6
deficit 6
have 6
ular 6
ted 6
ology 6
ists 6
time 6
hec@@ 6
imper@@ 6
von 6
Acc@@ 6
SP 6
Lab@@ 6
main 6
practice 6
ations 6
peace 6
refer@@ 6
terr@@ 6
Maastricht 6
dik@@ 6
road 6
partner@@ 6
eläker@@ 6
arz@@ 6
tics 6
Oos@@ 6
Research 6
low@@ 6
Bank 6
bes@@ 6
dura@@ 6
incen@@ 6
ids 6
Op@@ 6
Milosevic 6
sh 6
tance 6
altar 6
ners 6
Tou@@ 6
vention 6
No 6
Time 6
fic 6
visory 6
vientitu@@ 6
ure 6
gran@@ 6
sure 6
zio 6
ial 6
onz@@ 6
pac@@ 6
div@@ 6
show 6
operation 6
Defence 6
aer@@ 6
Catal@@ 6
North 6
immiten 6
Authority 6
dar@@ 6
idak@@ 6
fied 6
pessi@@ 6
public 6
red 6
acquis 6
stand 6
Regi@@ 6
sec@@ 6
gener@@ 6
system 6
helpp@@ 6
cla@@ 6
Í@@ 6
global 6
ege 6
was@@ 6
lines 6
Cancún 6
º@@ 5
keskisuu@@ 5
sco@@ 5
Aus@@ 5
pris@@ 5
opar@@ 5
198@@ 5
cap@@ 5
mail 5
dela@@ 5
Direc@@ 5
high 5
must 5
Pak@@ 5
Free 5
väll@@ 5
als 5
volun@@ 5
this 5
city 5
³ 5
ved 5
setsen@@ 5
ever 5
lea@@ 5
ses 5
data 5
päälle@@ 5
act 5
map 5
teur 5
dire@@ 5
And@@ 5
agenda 5
Hun@@ 5
bian 5
early 5
manu@@ 5
duc@@ 5
vul@@ 5
taire 5
mausaine@@ 5
hic 5
byro@@ 5
ebru@@ 5
sing 5
zu@@ 5
sosiaalidemo@@ 5
cl@@ 5
..@@ 5
embry@@ 5
arvi@@ 5
throw 5
Colombia 5
Pri@@ 5
Members 5
let 5
flic@@ 5
own 5
trac@@ 5
Afric@@ 5
sets 5
cy@@ 5
bla@@ 5
regulation 5
market 5
GU@@ 5
Economic 5
Mexico 5
täntö@@ 5
servan@@ 5
ps 5
represen@@ 5
rac 5
kiinto@@ 5
table 5
stre@@ 5
Sec@@ 5
ates 5
ft 5
dation 5
erná@@ 5
rule 5
seem@@ 5
Africa 5
urban 5
Ê@@ 5
multila@@ 5
oret 5
Education 5
System 5
attisen 5
Oc@@ 5
single 5
trade 5
Goth@@ 5
TR@@ 5
identi@@ 5
tionary 5
ways 5
gun 5
form 5
Monterrey 5
ep 5
ete 5
profit 5
3.@@ 5
Eas@@ 5
kus 5
tusla@@ 5
logical 5
gas 5
ouse 5
gy@@ 5
onnia 5
¤ 5
bad@@ 5
− 5
unti@@ 5
DR 4
direktii@@ 4
very 4
board 4
nor 4
mission 4
buil@@ 4
ugosla@@ 4
cond@@ 4
hasto@@ 4
you 4
counter 4
base 4
requ@@ 4
out@@ 4
ksa 4
lemä@@ 4
gal 4
ght 4
ì@@ 4
egu@@ 4
spi@@ 4
Moz@@ 4
public@@ 4
Ev@@ 4
Daph@@ 4
they 4
evol@@ 4
four 4
Environment 4
Aud@@ 4
tekst@@ 4
rec@@ 4
was 4
ges@@ 4
night 4
tariff 4
Amsterdam 4
High 4
mukavuus@@ 4
forum 4
assaolo@@ 4
ferens@@ 4
legal 4
ù 4
has 4
ans 4
Commission@@ 4
trum 4
prevention 4
governmental 4
ikais@@ 4
America 4
dul@@ 4
Z 4
Regional 4
Agre@@ 4
Parliament 4
cer@@ 4
how 4
eag@@ 4
emplo@@ 4
syt 4
inste@@ 4
tive 4
Bureau 4
tent 4
good 4
dow 4
vil 4
ood 4
ming 4
wait 4
Hague 4
è 4
loka@@ 4
squ@@ 4
â@@ 4
bit 4
General 4
ior 4
Minis@@ 4
ahasto@@ 4
ground 4
urities 4
change 4
coun@@ 4
cell@@ 4
execution 4
reduc@@ 4
Helsin@@ 4
ttävissä@@ 4
thir@@ 4
Cotonou 4
Single 4
amon@@ 4
erra 4
sus@@ 4
ability 4
hiilid@@ 4
ert 4
gn 4
WT@@ 4
ison 4
try@@ 4
racy 4
p.m 4
ble 4
ose 4
meth@@ 4
Agency 4
estin@@ 4
eas@@ 4
power 4
Home 4
Gis@@ 4
fair 4
Alliance 4
dil@@ 4
tone 4
eve 4
valtalais@@ 4
vis 4
urr@@ 4
court 4
ulk@@ 4
atz@@ 4
beg@@ 4
cen@@ 4
memor@@ 4
members 4
open@@ 4
vey 4
alon@@ 4
champ@@ 4
″ 4
where 3
even 3
² 3
just@@ 3
sci@@ 3
basi@@ 3
Youth 3
Great 3
alem 3
tribu@@ 3
sive 3
onto 3
sud@@ 3
wei@@ 3
pec@@ 3
issued 3
tives 3
ject 3
correc@@ 3
ges 3
possible 3
µ@@ 3
yhti@@ 3
dependence 3
alco@@ 3
led@@ 3
ric 3
ethnic 3
two 3
ffer@@ 3
munic@@ 3
fair@@ 3
ours 3
corpor@@ 3
hes 3
kintä@@ 3
scope 3
ency 3
tex@@ 3
position 3
propor@@ 3
mic@@ 3
crime 3
free 3
ation@@ 3
Eurosta@@ 3
tech@@ 3
ility 3
Portugal 3
ism 3
Depre@@ 3
defence 3
Feira 3
Green 3
treaty 3
p.@@ 3
Cy@@ 3
bir@@ 3
dij@@ 3
voc@@ 3
short 3
ator@@ 3
better 3
israeli@@ 3
ful 3
mainstre@@ 3
oil 3
gy 3
Mai@@ 3
win@@ 3
kle 3
face 3
tasi 3
Fonta@@ 3
Iz@@ 3
proc@@ 3
vari@@ 3
itions 3
Def@@ 3
ends 3
prog@@ 3
poin@@ 3
run 3
now 3
under 3
private 3
worth@@ 3
È@@ 3
ffer 3
Govern@@ 3
amen@@ 3
orm@@ 3
å 3
iver 3
term 3
exac@@ 3
ils 3
start 3
welcomes 3
fact 3
sman 3
nar 3
anal@@ 3
Baltic 3
wh@@ 3
President 3
Convention 3
ship 3
Schro@@ 3
eness 3
Coun@@ 3
Beijing 3
equ@@ 3
_ 3
now@@ 3
Conc@@ 3
enda 3
= 3
custom@@ 3
CF@@ 3
new@@ 3
action 3
ital 3
Associ@@ 3
clas@@ 3
civil@@ 3
Afghan 3
access 3
ild 3
edon@@ 3
funds 3
women 3
enburg 3
ition 3
country 3
omen 3
välia@@ 3
raft 3
Environ@@ 3
attle 3
achi@@ 3
toral 3
suspen@@ 3
fit 3
rier 3
other@@ 3
centr@@ 3
É 3
dies 3
mekan@@ 3
Ster@@ 3
mps 3
ord 3
productive 3
space 3
asbes@@ 3
Rural 3
ympia@@ 3
los@@ 3
farm 3
there 3
ple 3
bran@@ 3
overty 3
rust 3
Husse@@ 3
pid 3
op 3
iningra@@ 3
inten 3
ace@@ 3
det@@ 3
else 3
make 3
ition@@ 3
crew 3
deep 3
dama@@ 3
fig@@ 3
India 3
Public 3
cell 3
tural 3
pected 3
balan@@ 2
ons 2
ress 2
audit 2
benefit 2
Portugu@@ 2
denied 2
alba@@ 2
helmik@@ 2
º 2
TRIP@@ 2
dealt 2
securities 2
assis@@ 2
mem@@ 2
Dupu@@ 2
orders 2
countries 2
management 2
sex 2
chocol@@ 2
cul@@ 2
ches 2
lands 2
wonderful 2
world 2
basis 2
risk 2
later 2
lum 2
card 2
ratkaisuu@@ 2
ond 2
enfor@@ 2
nel 2
dea@@ 2
charge 2
dens 2
commerce 2
defici@@ 2
competent 2
authorities 2
joukkotuho@@ 2
voisa 2
direct 2
dow@@ 2
cat@@ 2
ves 2
part 2
À@@ 2
nomin@@ 2
Cen@@ 2
mos 2
digital 2
divid@@ 2
enni@@ 2
sina@@ 2
Mugab@@ 2
senior 2
president 2
kel 2
esio@@ 2
present 2
yet 2
moun@@ 2
Central 2
eds 2
save 2
regre@@ 2
ion 2
opol@@ 2
rob@@ 2
softw@@ 2
just 2
impor@@ 2
small 2
govern@@ 2
Leg@@ 2
tially 2
stock 2
which 2
&@@ 2
examin@@ 2
clu@@ 2
enlarg@@ 2
approach 2
statement 2
Educ@@ 2
Culture 2
social 2
chec@@ 2
anen 2
gets 2
light 2
manufac@@ 2
§ 2
privatis@@ 2
ready 2
tically 2
may 2
person 2
his 2
how@@ 2
rs 2
larg@@ 2
lopul@@ 2
tom 2
yers 2
stri@@ 2
ources 2
petition 2
finan@@ 2
truk@@ 2
doma@@ 2
source 2
signed 2
mbers 2
strö@@ 2
lear@@ 2
compe@@ 2
ström 2
simi@@ 2
Wh@@ 2
olic 2
ls 2
initiative 2
wat@@ 2
drug 2
In 2
maus@@ 2
procedure 2
Ribe@@ 2
White 2
spar@@ 2
ration 2
espanj@@ 2
decou@@ 2
eigh@@ 2
fish 2
wis@@ 2
mp 2
ows@@ 2
ded 2
asing 2
paper 2
union 2
endorse 2
spec@@ 2
guide 2
PT 2
major 2
essalon@@ 2
gs 2
tant 2
rance 2
ulti@@ 2
cus@@ 2
enter 2
sed 2
labelling 2
house 2
lawyers 2
substan@@ 2
sever@@ 2
asylum 2
isations 2
î@@ 2
rapid 2
ross 2
Â@@ 2
guar@@ 2
jud@@ 2
gar 2
ï 2
moral 2
haz@@ 2
Mauri@@ 2
class 2
accus@@ 2
Bul@@ 2
travel 2
Middle 2
facility 2
differ@@ 2
venture 2
± 2
vanho@@ 2
ign 2
versity 2
Asia 2
security 2
Reform 2
Parlia@@ 2
points 2
Sen@@ 2
idät 2
poll@@ 2
people 2
cross 2
friendly 2
fight 2
good@@ 2
embr@@ 2
Figu@@ 2
ottom@@ 2
tunnel 2
ians 2
determin@@ 2
bodies 2
deal@@ 2
health 2
holding 2
even@@ 2
exc@@ 2
clear@@ 2
Gener@@ 2
vell@@ 2
thre@@ 2
pay 2
lim 2
modi@@ 2
deb@@ 2
Beh@@ 2
after@@ 2
step 2
diver@@ 2
tho@@ 2
biopol@@ 2
¡ 2
iturvall@@ 2
fron@@ 2
reas@@ 2
aim 2
cre@@ 2
teac@@ 2
cru@@ 2
eiv@@ 2
diction 2
kill 2
bill 2
employ@@ 2
wee@@ 2
Chinese 2
culture 2
head 2
prob@@ 2
weap@@ 2
Jacqu@@ 2
eline 2
swi@@ 2
led 2
gent 2
broken 2
great 2
Russia 2
sibility 2
ct 2
alities 2
ilies 2
cri@@ 2
bed 2
kill@@ 2
again 2
vihd@@ 2
Strate@@ 2
itives 2
hos@@ 2
than@@ 2
fres@@ 2
moratorium 2
tions 2
alise 2
rend@@ 2
ù@@ 2
operators 2
Affairs 2
laim 2
radic@@ 2
stem 2
Citizens 2
ă@@ 2
charter 2
break@@ 2
through 2
deliver 1
four@@ 1
tation 1
refuse 1
delayed 1
pharma@@ 1
other 1
mental 1
prehen@@ 1
khol@@ 1
embargo 1
regard 1
cle@@ 1
aring 1
recognised 1
scale 1
reciproc@@ 1
Nis@@ 1
Ala@@ 1
ness 1
Mexic@@ 1
high@@ 1
standard 1
prac@@ 1
tise 1
Paper 1
split 1
tern@@ 1
special 1
either 1
tige 1
umu@@ 1
wall 1
cot@@ 1
born 1
learn 1
know 1
know@@ 1
software 1
collec@@ 1
any 1
huhti@@ 1
isual 1
labe@@ 1
vent 1
jantai@@ 1
ving 1
mean 1
August 1
tual 1
expos@@ 1
solution 1
tend 1
Coh@@ 1
pression 1
bot@@ 1
commer@@ 1
conten@@ 1
vei@@ 1
green@@ 1
prosecu@@ 1
scheme 1
fast 1
Auth@@ 1
orities 1
conom@@ 1
gir@@ 1
pregn@@ 1
lateral 1
Moscow 1
Develop@@ 1
ball@@ 1
istic 1
pow@@ 1
mic 1
markkin@@ 1
accor@@ 1
mouth 1
prin@@ 1
trained 1
proceedings 1
flexibility 1
Ì@@ 1
Ï@@ 1
ets 1
worl@@ 1
Consumer 1
abo@@ 1
olly 1
¼ 1
debt 1
trust 1
extreme 1
show@@ 1
mov@@ 1
hous@@ 1
ction 1
hea@@ 1
authority 1
coherence 1
claims 1
remember 1
things 1
ridiculous 1
Mone@@ 1
commit@@ 1
Thessaloniki 1
sight 1
report 1
clar@@ 1
mergers 1
acqu@@ 1
kept 1
achieved 1
depen@@ 1
graphy 1
changed 1
Democrat 1
curr@@ 1
repu@@ 1
trial 1
left 1
fundamentalism 1
failed 1
ions 1
produced 1
December 1
natural 1
zone 1
smu@@ 1
traffic@@ 1
preci@@ 1
oblig@@ 1
gap 1
viously 1
February 1
Assembly 1
stead@@ 1
fec@@ 1
talk 1
Minister 1
NAT@@ 1
satellite 1
oms 1
Ø@@ 1
tuzz@@ 1
dras@@ 1
gence 1
regulated 1
front 1
tic 1
terro@@ 1
sensiti@@ 1
commitment 1
bad 1
ekolog@@ 1
long@@ 1
incorpor@@ 1
adopted 1
codecision 1
elines 1
decoupling 1
fav@@ 1
difficult 1
ics 1
divide 1
individuals 1
aver@@ 1
broad@@ 1
poor@@ 1
asil@@ 1
did 1
election 1
May 1
possibility 1
visa 1
consisten@@ 1
nt 1
judg@@ 1
aware 1
awar@@ 1
noti@@ 1
lead@@ 1
rise 1
pects 1
ements 1
anim@@ 1
liability 1
return 1
crises 1
try 1
Asian 1
mant@@ 1
terranean 1
correctly 1
tations 1
reform 1
itely 1
negotiation 1
involved 1
promo@@ 1
aps 1
ynn 1
content 1
acy 1
Ñ@@ 1
osis 1
voca@@ 1
teurs 1
Pub@@ 1
institution 1
expres@@ 1
fru@@ 1
repression 1
ful@@ 1
ashing@@ 1
wish 1
female 1
rati@@ 1
medium 1
uses 1
Å 1
obje@@ 1
middle 1
date 1
ints 1
¸ 1
ruption 1
sible 1
ffec@@ 1
bridge 1
susta@@ 1
inves@@ 1
course 1
supported 1
Mrs 1
grateful 1
anna@@ 1
room 1
favour 1
gue 1
audiovisu@@ 1
sum 1
foot@@ 1
multi 1
Ploo@@ 1
team 1
soci@@ 1
check 1
balance 1
worst 1
process 1
broad 1
respect 1
betw@@ 1
Cyprus 1
leader 1
supports 1
establis@@ 1
invi@@ 1
ratify 1
particular 1
significant 1
capital 1
Rand@@ 1
foc@@ 1
ship@@ 1
emer@@ 1
manag@@ 1
accompanied 1
explo@@ 1
stric@@ 1
UN 1
tter 1
tly 1
Sev@@ 1
cop@@ 1
targeted 1
Hung@@ 1
wealth 1
mieluu@@ 1
plat@@ 1
colonial 1
irregularities 1
wrong@@ 1
death 1
ffici@@ 1
tebor@@ 1
together 1
ë 1
presid@@ 1
Secre@@ 1
enough 1
regimes 1
negoti@@ 1
ò 1
ý 1
ý@@ 1
Ý@@ 1
ð@@ 1
cam@@ 1
ory 1
desper@@ 1
science 1
wrong 1
ural 1
assent 1
Portug@@ 1
mentary 1
comm@@ 1
reve@@ 1
ated 1
third 1
junction 1
cle 1
post 1
cou@@ 1
ome 1
paid 1
disc@@ 1
regis@@ 1
legis@@ 1
accounts 1
relevant 1
coalition 1
moment 1
press 1
desig@@ 1
place 1
reau 1
executive 1
Tibet 1
central 1
estiin@@ 1
total 1
allowed 1
think 1
mid 1
threat 1
volu@@ 1
ental 1
indicators 1
negative 1
hs 1
should 1
gras@@ 1
range 1
register 1
youn@@ 1
mate 1
cos@@ 1
tro 1
orrow 1
means 1
arbit@@ 1
acco 1
canc@@ 1
clos@@ 1
ced 1
Yugoslav 1
nec@@ 1
Bulgar@@ 1
inst 1
icals 1
author@@ 1
dipl@@ 1
cros@@ 1
God 1
read@@ 1
conc@@ 1
ths 1
akkois 1
scen@@ 1
wit@@ 1
event 1
guid@@ 1
halt 1
makers 1
week 1
Afgh@@ 1
treat 1
harma@@ 1
ü 1
pre 1
removal 1
bers 1
delic@@ 1
some@@ 1
sequ@@ 1
incompatible 1
member@@ 1
Swedish 1
½ 1
existence 1
Ç@@ 1
Cauc@@ 1
communic@@ 1
doc@@ 1
õ@@ 1
candidates 1
notably 1
direc@@ 1
last 1
adverse 1
bank 1
scand@@ 1
xt 1
olution 1
Iraq 1
tetä@@ 1
organic 1
tants 1
thro@@ 1
cture 1
reach 1
independence 1
adul@@ 1
ines 1
speci@@ 1
ings 1
ority 1
ages 1
halun@@ 1
blood 1
nine 1
ì 1
dom@@ 1
trich@@ 1
prohib@@ 1
acu@@ 1
September 1
regular 1
presen@@ 1
budget 1
authorised 1
resolved 1
issues 1
Greece 1
cco 1
sell 1
reli@@ 1
horri@@ 1
chance 1
build 1
tools 1
loosi@@ 1
dru@@ 1
entity 1
numbers 1
hol 1
survi@@ 1
dos@@ 1
southern 1
Vice 1
goro@@ 1
kollegoj@@ 1
Report 1
fire 1
ê 1
indic@@ 1
tian 1
wea@@ 1
investoinn@@ 1
Alli@@ 1
corporate 1
Opportun@@ 1
opportunity 1
Brussels 1
emb@@ 1
cent 1
cent@@ 1
Stras@@ 1
cred@@ 1
kotla@@ 1
oeu@@ 1
sometimes 1
ances 1
Kati@@ 1
tury 1
pay@@ 1
Summit 1
partic@@ 1
sensitive 1
descri@@ 1
resort 1
pend@@ 1
busin@@ 1
Consu@@ 1
swif@@ 1
excell@@ 1
tial 1
cycle 1
Α 1
entra@@ 1
scho@@ 1
ennäis@@ 1
sugges@@ 1
asus 1
pure 1
aspects 1
design 1
seem 1
indicate 1
progress 1
researchers 1
these 1
apply 1
respec@@ 1
distributed 1
partner 1
establish 1
measures 1
vely 1
cancer 1
tres@@ 1
ules 1
dic 1
hre@@ 1
hear@@ 1
meas@@ 1
cra@@ 1
neighbour@@ 1
double 1
plant 1
portugali@@ 1
kansainväl@@ 1
mom@@ 1
picture 1
bon@@ 1
argue 1
saf@@ 1
ral 1
then 1
Ι@@ 1
Ν@@ 1
Ι 1
economic 1
udi 1
Tampere 1
blin@@ 1
quar@@ 1
structured 1
reper@@ 1
